#version: 0.2
2 0
我 们</w>
一 个</w>
国 家</w>
问 题</w>
他 们</w>
委 员
委员 会</w>
20 0
提 供</w>
会 议</w>
工 作</w>
发 展</w>
没 有</w>
这 些</w>
政 府</w>
进 行</w>
可 以</w>
组 织</w>
报 告</w>
国 际</w>
可 能</w>
联 合
方 面</w>
20 1
包 括</w>
通 过</w>
以 及</w>
其 他</w>
关 于</w>
情 况</w>
1 9
需 要</w>
社 会</w>
联合 国</w>
所 有</w>
如 果</w>
机 构</w>
经 济</w>
特 别</w>
安 全</w>
公 司</w>
人 员</w>
活 动</w>
方 案</w>
有 关</w>
因 为</w>
使 用</w>
认 为</w>
支 持</w>
系 统</w>
一 些</w>
执 行</w>
行 动</w>
已 经</w>
妇 女</w>
服 务</w>
必 须</w>
合 作</w>
0 0</w>
建 议</w>
美 国</w>
重 要</w>
技 术</w>
影 响</w>
中 国</w>
什 么</w>
研 究</w>
这 个</w>
根 据</w>
项 目</w>
自 己</w>
计 划</w>
任 何</w>
19 9
表 示</w>
决 议</w>
提 出</w>
管 理</w>
要 求</w>
决 定</w>
工 作
时 间</w>
区 域</w>
不 是</w>
人 权</w>
儿 童</w>
信 息</w>
部 分</w>
1 0</w>
作 为</w>
世 界</w>
继 续</w>
这 种</w>
努 力</w>
目 标</w>
政 策</w>
主 要</w>
措 施</w>
地 区</w>
秘 书
开 始</w>
知 道</w>
美 元</w>
正 在</w>
事 会</w>
代 表</w>
规 定</w>
权 利</w>
保 护</w>
现 在</w>
法 律</w>
能 力</w>
资 源</w>
1 2</w>
公 约</w>
大 会</w>
这 一</w>
确 保</w>
之 间</w>
关 系</w>
理 事会</w>
缔 约
加 强</w>
因 此</w>
行 为</w>
获 得</w>
促 进</w>
教 育</w>
建 立</w>
得 到</w>
实 现</w>
采 取</w>
增 加</w>
希 望</w>
部 门</w>
和 平</w>
程 序</w>
主 义</w>
举 行</w>
发 生</w>
先 生</w>
文 件</w>
成 为</w>
目 前</w>
环 境</w>
许 多</w>
这 样</w>
一 次</w>
期 间</w>
方 法</w>
其 中</w>
中 心</w>
能 够</w>
1 1</w>
这 是</w>
一 种</w>
注 意</w>
数 据</w>
全 球</w>
时 候</w>
领 域</w>
生 活</w>
由 于</w>
提 交</w>
作 用</w>
一 项</w>
考 虑</w>
成 员</w>
方 式</w>
不 同</w>
同 时</w>
处 理</w>
调 查</w>
解 决</w>
但 是</w>
指 出</w>
参 与</w>
企 业</w>
政 治</w>
市 场</w>
一 步</w>
讨 论</w>
援 助</w>
应 该</w>
提 高</w>
主 席</w>
如 何</w>
有 效</w>
选 择</w>
帮 助</w>
持 续</w>
它 们</w>
相 关</w>
a n
不 会</w>
机 会</w>
地 方</w>
就 是</w>
2 0</w>
审 查</w>
分 析</w>
非 常</w>
缔约 国</w>
实 施</w>
不 能</w>
a r
参 加</w>
最 后</w>
是 否</w>
共 和
基 金</w>
两 个</w>
发 现</w>
比 赛</w>
秘书 长</w>
确 定</w>
产 品</w>
草 案</w>
战 略</w>
为 了</w>
代 表
利 亚</w>
作 出</w>
进 一步</w>
开 展</w>
国 际
接 受</w>
各 国</w>
任 务</w>
结 果</w>
减 少</w>
存 在</w>
利 用</w>
投 资</w>
小 组</w>
武 器</w>
具 有</w>
人 们</w>
取 得</w>
而 且</w>
3 0</w>
标 准</w>
第 二
法 院</w>
文 化</w>
及 其</w>
审 议</w>
出 现</w>
此 外</w>
发 展
基 础</w>
制 定</w>
看 到</w>
一 直</w>
人 民</w>
意 见</w>
对 于</w>
代表 团</w>
之 前</w>
总 统</w>
e r
培 训</w>
以 来</w>
过 程</w>
之 一</w>
资 料</w>
受 到</w>
尽 管</w>
1 5</w>
家 庭</w>
然 而</w>
显 示</w>
造 成</w>
协 调</w>
完 成</w>
非 洲</w>
工作 人员</w>
建 设</w>
目 的</w>
进 程</w>
控 制</w>
设 计</w>
机 制</w>
范 围</w>
员 国</w>
强 调</w>
制 度</w>
条 件</w>
产 生</w>
英 国</w>
部 队</w>
i n
变 化</w>
人 口</w>
支 助</w>
告 诉</w>
评 估</w>
冲 突</w>
那 些</w>
共和 国</w>
增 长</w>
表 明</w>
虽 然</w>
责 任</w>
用 于</w>
一 名</w>
仍 然</w>
然 后</w>
孩 子</w>
0 00</w>
原 因</w>
来 自</w>
一 起</w>
严 重</w>
事 件</w>
说 明</w>
之 后</w>
各 种</w>
过 去</w>
设 施</w>
银 行</w>
无 法</w>
城 市</w>
贸 易</w>
专 家</w>
了 解</w>
费 用</w>
必 要</w>
成 功</w>
健 康</w>
联 盟</w>
生 产</w>
斯 坦</w>
以 便</w>
例 如</w>
进 展</w>
特 派
特派 团</w>
网 络</w>
结 束</w>
办 法</w>
预 算</w>
每 个</w>
资 金</w>
平 等</w>
发展 中
发展中 国家</w>
事 务</w>
最 近</w>
挑 战</w>
所 以</w>
暴 力</w>
改 革</w>
起 来</w>
设 备</w>
原 则</w>
承 诺</w>
认 识</w>
学 生</w>
只 是</w>
秘书 处</w>
选 举</w>
应 用</w>
欢 迎</w>
业 务</w>
框 架</w>
1 4</w>
适 当</w>
一 样</w>
a l
5 0</w>
犯 罪</w>
全 面</w>
导 致</w>
很 多</w>
这 里</w>
个 人</w>
来 说</w>
并 且</w>
办 公
介 绍</w>
200 8</w>
内 容</w>
一 份</w>
自 由</w>
还 是</w>
当 局</w>
共 同</w>
管 理
拥 有</w>
只 有</w>
负 责</w>
具 体</w>
一 切</w>
1 8</w>
还 有</w>
联 系</w>
进 入</w>
大 学</w>
俄 罗
今 天</w>
直 接</w>
1 6</w>
学 校</w>
1 0
这 项</w>
1 3</w>
条 约</w>
发 言</w>
风 险</w>
多 数</w>
这 方面</w>
欧 洲</w>
社 区</w>
用 户</w>
特 朗
特朗 普</w>
201 0</w>
涉 及</w>
最 大</w>
世 界
准 备</w>
面 临</w>
办公 室</w>
改 善</w>
利 益</w>
结 构</w>
未 来</w>
警 察</w>
设 立</w>
200 5</w>
事 情</w>
形 式</w>
以 下</w>
案 件</w>
稳 定</w>
完 全</w>
运 动</w>
水 平</w>
恐 怖
关 注</w>
收 入</w>
需 求</w>
喜 欢</w>
o n
或 者</w>
基 本</w>
谈 判</w>
200 9</w>
整 个</w>
201 1</w>
维 持</w>
201 2</w>
国 内</w>
感 到</w>
集 团</w>
做 法</w>
官 员</w>
2 5</w>
正 式</w>
充 分</w>
访 问</w>
咨 询</w>
你 们</w>
200 6</w>
保 持</w>
工作 组</w>
协 议</w>
200 7</w>
歧 视</w>
那 么</w>
司 法</w>
今 年</w>
监 测</w>
第 三
拉 克</w>
鼓 励</w>
积 极</w>
按 照</w>
我 国</w>
因 素</w>
星 期
开 发</w>
有 人</w>
关 切</w>
质 量</w>
2 1</w>
200 0</w>
安 排</w>
行 政</w>
地 位</w>
1 7</w>
改 变</w>
空 间</w>
东 西</w>
全 国</w>
限 制</w>
威 胁</w>
以 色
e n
广 泛</w>
服 务
酒 店</w>
协 助</w>
规 则</w>
办 事
同 意</w>
消 除</w>
当 地</w>
超 过</w>
义 务</w>
200 4</w>
朋 友</w>
呼 吁</w>
办事 处</w>
一 位</w>
承 认</w>
o r
应 当</w>
日 本</w>
重 新</w>
议 程</w>
经 济
独 立</w>
2 4</w>
程 度</w>
性 别</w>
1 9</w>
带 来</w>
经 验</w>
报 道</w>
相 信</w>
允 许</w>
适 用</w>
媒 体</w>
危 机</w>
那 里</w>
阶 段</w>
网 站</w>
小 时</w>
记 录</w>
不 过</w>
状 况</w>
采 用</w>
客 户</w>
发 挥</w>
e l
会 员国</w>
现 有</w>
不 断</w>
以色 列</w>
伙 伴</w>
死 亡</w>
材 料</w>
价 格</w>
价 值</w>
第 一
大 多数</w>
伊 拉克</w>
达 到</w>
俄罗 斯</w>
2 2</w>
缔约 方</w>
如 此</w>
更 加</w>
人 道
尼 亚</w>
受 害
为 什么</w>
扩 大</w>
0 %</w>
艾 滋
同 样</w>
某 些</w>
似 乎</w>
人 类</w>
恢 复</w>
一 点</w>
批 准</w>
历 史</w>
知 识</w>
协 定</w>
工 具</w>
优 先</w>
找 到</w>
尤 其</w>
长 期</w>
几 个</w>
201 3</w>
打 击</w>
法 庭</w>
离 开</w>
一 致</w>
2 3</w>
成 果</w>
两 年</w>
评 价</w>
3 1</w>
收 到</w>
亿 美元</w>
事 项</w>
甚 至</w>
宣 布</w>
针 对</w>
重 点</w>
一 部分</w>
a m
更 好</w>
真 正</w>
非 政府</w>
系 列</w>
开 发
数 据
保 证</w>
治 疗</w>
难 民</w>
c h
联 合</w>
实 际</w>
一 般</w>
专 业</w>
保 障</w>
该 国</w>
基 于</w>
立 法</w>
部 长</w>
随 着</w>
支 付</w>
记 者</w>
一 定</w>
规 模</w>
至 少</w>
阿 拉
加 入</w>
功 能</w>
规 划</w>
模 式</w>
传 统</w>
防 止</w>
学 习</w>
a t
解 释</w>
6 0</w>
4 0</w>
女 士</w>
推 动</w>
证 明</w>
科 学</w>
从 而</w>
监 督</w>
觉 得</w>
领 导</w>
巴 勒
交 易</w>
对 话</w>
恐怖 主义</w>
三 个</w>
声 明</w>
电 话</w>
通 常</w>
补 充</w>
助 于</w>
成 本</w>
最 终</w>
关 键</w>
领 导
军 事</w>
香 港</w>
禁 止</w>
袭 击</w>
公 共
意 义</w>
大 量</w>
200 3</w>
欧 洲
各 项</w>
澳 大
综 合</w>
群 体</w>
经 常</w>
一 年</w>
人 数</w>
解 决
s t
汽 车</w>
明 确</w>
几 乎</w>
请 求</w>
指 导</w>
理 会</w>
民 主
内 部</w>
万 美元</w>
论 坛</w>
贡 献</w>
1 5
越 来
最 好</w>
去 年</w>
有 助于</w>
意 味
2 6</w>
满 足</w>
表 现</w>
不 要</w>
2 8</w>
联 邦</w>
日 至</w>
意味 着</w>
1 .
报 告
安 理会</w>
2 7</w>
符 合</w>
人道 主义</w>
以 上</w>
新 闻</w>
数 字</w>
200 2</w>
创 造</w>
预 计</w>
法 国</w>
国 家
做 出</w>
发 表</w>
高 级
试 图</w>
越来 越</w>
缺 乏</w>
病 毒</w>
重 大</w>
再 次</w>
分 钟</w>
困 难</w>
采 取
比 亚</w>
改 进</w>
受害 者</w>
履 行</w>
应 对</w>
真 的</w>
调 整</w>
报告 员</w>
数 量</w>
保 健</w>
法 官</w>
测 试</w>
计 算
不 仅</w>
201 4</w>
土 地</w>
危 险</w>
澳大 利亚</w>
反 映</w>
指 控</w>
欧 盟</w>
电 子
1 8
有 些</w>
设 置</w>
议 会</w>
公 共</w>
北 京</w>
反 对</w>
200 1</w>
警 方</w>
女 性</w>
合 同</w>
类 型</w>
很 大</w>
德 国</w>
资 产</w>
成 立</w>
安 全
199 9</w>
2 .
e r</w>
检 查</w>
就 业</w>
社 会
能 源</w>
财 政</w>
伊 斯
条 款</w>
纳 入</w>
定 义</w>
公 民</w>
应 用
每 年</w>
战 争</w>
a d
r i
201 5</w>
行 业</w>
容 易</w>
这 次</w>
申 请</w>
一 级</w>
议 员</w>
预 防</w>
下 降</w>
避 免</w>
即 使</w>
人 士</w>
金 融
重 申</w>
2 9</w>
旨 在</w>
男 子</w>
要 性</w>
侵 犯</w>
投 票</w>
伙 伴
非 法</w>
步 骤</w>
第 一次</w>
违 反</w>
基 金
创 建</w>
伙伴 关系</w>
那 个</w>
临 时</w>
r e
上 述</w>
附 件</w>
女 孩</w>
1 3
遵 守</w>
证 据</w>
错 误</w>
1 00</w>
状 态</w>
位 置</w>
领导 人</w>
印 度</w>
出 来</w>
首 先</w>
寻 求</w>
移 民</w>
审 计</w>
a s
生 产
理 解</w>
工 业</w>
那 样</w>
唯 一</w>
的 话</w>
世 纪</w>
年 度</w>
达 成</w>
比 较</w>
农 业</w>
r o
反 应</w>
语 言</w>
消 息</w>
团 体</w>
发 言
拒 绝</w>
英 语</w>
出 口</w>
才 能</w>
医 院</w>
定 书</w>
巴勒 斯坦</w>
基 础
巨 大</w>
议 定书</w>
应用 程序</w>
发 达
发达 国家</w>
确 认</w>
领 土</w>
除 了</w>
举 办</w>
第 十
加 拿
民 主</w>
十 年</w>
所 述</w>
良 好</w>
当 时</w>
以 前</w>
运 行</w>
部 署</w>
协 商</w>
损 失</w>
协 会</w>
通 知</w>
局 势</w>
担 任</w>
提 到</w>
双 方</w>
理 由</w>
i l
定 期</w>
大 约</w>
尊 重</w>
准 则</w>
另 外</w>
指 定</w>
不 到</w>
最 佳</w>
销 售</w>
亚 洲</w>
拘 留</w>
组 成</w>
普 遍</w>
研 究
商 业</w>
压 力</w>
卫 生</w>
19 8
权 力</w>
结 论</w>
公 众</w>
委 会</w>
工 程</w>
5 %</w>
精 神</w>
感 觉</w>
交 流</w>
怎 么</w>
下 来</w>
迅 速</w>
核 心</w>
一 家</w>
连 接</w>
成 员国</w>
邮 件</w>
当 然</w>
感 谢</w>
分 配</w>
也 许</w>
医 生</w>
今 后</w>
最 新</w>
保 留</w>
飞 机</w>
员 额</w>
格 兰</w>
最 高</w>
愿 意</w>
估 计</w>
力 量</w>
医 疗</w>
体 系</w>
宪 法</w>
加拿 大</w>
土 著</w>
美 国
收 集</w>
引 起</w>
英 镑</w>
效 率</w>
现 象</w>
创 新</w>
电 影</w>
199 8</w>
编 写</w>
这 么</w>
主 题</w>
安 装</w>
明 显</w>
纽 约</w>
发 布</w>
在 内</w>
民 间</w>
变 得</w>
一 天</w>
赢 得</w>
课 程</w>
更 新</w>
启 动</w>
类 似</w>
竞 争</w>
足 够</w>
手 段</w>
律 师</w>
农 村</w>
单 位</w>
宗 教</w>
来 源</w>
下 午</w>
附 近</w>
操 作</w>
生 物</w>
经 费</w>
简 单</w>
千 年</w>
而 言</w>
1 4
倡 议</w>
高 级</w>
母 亲</w>
地 点</w>
公 开</w>
一 系列</w>
学 家</w>
开 放</w>
阿 富
环 境
维 护</w>
生 命</w>
分 子</w>
当 前</w>
专 员</w>
给 予</w>
中 国
金 融</w>
基金 会</w>
意 识</w>
疾 病</w>
正 确</w>
武 装
1 7
降 低</w>
多 个</w>
计 算</w>
基础 设施</w>
宣 言</w>
评 论</w>
核 武器</w>
贫 穷</w>
理 论</w>
外 国</w>
第 四
特 殊</w>
卫 生
趋 势</w>
构 成</w>
1 6
签 署</w>
宣 传</w>
阿富 汗</w>
克 林
a c
清 楚</w>
指 标</w>
联合 国
照 片</w>
形 成</w>
多 年</w>
担 心</w>
o n</w>
第 一</w>
信 息
划 署</w>
观 点</w>
. 1</w>
日 期</w>
软 件</w>
一 场</w>
令 人</w>
居 民</w>
高 兴</w>
候 选
通 信</w>
i t
处 于</w>
往 往</w>
统 计</w>
运 输</w>
随 后</w>
事 实</w>
克林 顿</w>
辩 论</w>
总 是</w>
检 察
破 坏</w>
各 地</w>
立 即</w>
工 人</w>
包 含</w>
技 术
重 要性</w>
她 们</w>
刑 事</w>
父 母</w>
叙 利亚</w>
特 定</w>
条 例</w>
概 念</w>
身 份</w>
候选 人</w>
l e
公 平</w>
免 费</w>
行 动
攻 击</w>
属 于</w>
背 景</w>
训 练</w>
民 族</w>
尚 未</w>
贩 运</w>
i s
父 亲</w>
西 亚</w>
令 人
总 部</w>
计算 机</w>
运 作</w>
青 年</w>
速 度</w>
药 物</w>
发 出</w>
有 权</w>
重 视</w>
服务 器</w>
为 此</w>
模 型</w>
授 权</w>
伦 敦</w>
电 视</w>
事 实
想 要</w>
经 过</w>
障 碍</w>
c o
制 造</w>
复 杂</w>
第 一个</w>
实 际
新 闻
第 二</w>
故 事</w>
其 它</w>
购 买</w>
兴 趣</w>
接 触</w>
比 例</w>
运 会</w>
传 播</w>
停 止</w>
外 交
经 历</w>
位 于</w>
敦 促</w>
而 是</w>
公 布</w>
球 员</w>
相 当</w>
预 测</w>
实 体</w>
从 事</w>
观 察
道 路</w>
游 戏</w>
扩 散</w>
失 去</w>
学 院</w>
土 耳
鉴 于</w>
西 班
视 频</w>
之 外</w>
大 部分</w>
享 有</w>
相 同</w>
武 装</w>
全 部</w>
详 细</w>
探 讨</w>
放 在</w>
每 天</w>
裁 军</w>
本 文</w>
欧洲 联盟</w>
美 洲</w>
合 作
私 人</w>
毒 品</w>
年 人</w>
职 能</w>
列 入</w>
预 期</w>
共 同
我 会</w>
人 民
时 期</w>
数据 库</w>
他 人</w>
投 资
平 衡</w>
动 力</w>
艾滋 病</w>
提 议</w>
正 常</w>
一 下</w>
巴 马</w>
制 订</w>
是 因为</w>
晚 上</w>
大 家</w>
残 疾
对 象</w>
专 门</w>
顾 问</w>
支 出</w>
各 方</w>
分 别</w>
意 大
本 身</w>
至 关
增 强</w>
管 制</w>
正 如</w>
7 0</w>
至关 重要</w>
肯 定</w>
本 国</w>
职 业</w>
机 场</w>
球 队</w>
3 5</w>
回 顾</w>
登 记</w>
种 族
债 务</w>
主 任</w>
平 均</w>
落 实</w>
年 代</w>
总 理</w>
3 .
罪 行</w>
直 到</w>
o u
a b
旅 游</w>
电 子</w>
显 然</w>
奥 巴马</w>
视 为</w>
上 升</w>
确 实</w>
境 内</w>
a n</w>
工 程
修 改</w>
配 置</w>
消 费
力 于</w>
e s
致 力于</w>
返 回</w>
年 龄</w>
仅 仅</w>
气 候
若 干</w>
建 筑</w>
快 速</w>
编 制</w>
土耳 其</w>
分 享</w>
答 复</w>
身 体</w>
住 房</w>
永 远</w>
这 位</w>
遭 受</w>
实际 上</w>
科 技</w>
自 然</w>
行动 计划</w>
年 轻</w>
儿 子</w>
立 场</w>
修 订</w>
法 律
一 条</w>
国际 法</w>
员 工</w>
坚 持</w>
实 行</w>
动 物</w>
财 务</w>
财 产</w>
政 治
气候 变化</w>
下 列</w>
事实 上</w>
事 务
团 队</w>
e t
职 位</w>
寻 找</w>
文 书</w>
食 物</w>
艾滋 病毒</w>
拟 议</w>
方 向</w>
阿拉 伯</w>
承 担</w>
结 合</w>
5 00</w>
奥 运会</w>
效 果</w>
上 午</w>
审 判</w>
邀 请</w>
俱 乐
4 5</w>
性 质</w>
发言 人</w>
运 动
俱乐 部</w>
旅 行</w>
平 民</w>
马 里</w>
墨 西
供 应
任 命</w>
统 一</w>
多 样
十 分</w>
优 势</w>
性 能</w>
有 限
采 购</w>
自 然
克 斯</w>
20 0</w>
移 动</w>
201 6</w>
苏 丹</w>
物 质</w>
我 要</w>
执 行
召 开</w>
U N
此 类</w>
描 述</w>
基 本
协 调
举 措</w>
关 闭</w>
贸 易
森 林</w>
199 7</w>
解决 方案</w>
意大 利</w>
截 至</w>
试 验</w>
r a
虐 待</w>
角 色</w>
家 人</w>
阿 尔
i c
诉 讼</w>
受 伤</w>
自 动</w>
打 算</w>
首 脑
首 次</w>
大 规模</w>
额 外</w>
现 代</w>
3 2</w>
平 台</w>
赔 偿</w>
有 限</w>
首脑 会议</w>
行 政
人 权
女 人</w>
监 狱</w>
损 害</w>
集 中</w>
想 法</w>
年 来</w>
不 可</w>
第 五
以 后</w>
供 应</w>
不 再</w>
家 庭
0 .
福 利</w>
斯 特</w>
4 .
现 实</w>
声 称</w>
回 到</w>
享 受</w>
贷 款</w>
不 可
信 任</w>
合 理</w>
适 应</w>
商 定</w>
特 点</w>
8 0</w>
u n
残疾 人</w>
个 月</w>
6 5</w>
赛 季</w>
竞 争
伊 朗</w>
上 诉</w>
态 度</w>
及 时</w>
少 数</w>
音 乐</w>
决 策</w>
将 会</w>
经 营</w>
巴 西</w>
控 制
与 会
后 续</w>
竞 选</w>
称 为</w>
o l
取 消</w>
只 要</w>
石 油</w>
多 边</w>
技 能</w>
不 足</w>
时 代</w>
看 看</w>
有 时</w>
未 能</w>
听 到</w>
警 告</w>
粮 食</w>
几 年</w>
采取 行动</w>
转 移</w>
司 法
e d
名 称</w>
艺 术</w>
打 开</w>
商 品</w>
调 查
官 方</w>
有限 公司</w>
能 性</w>
伤 害</w>
名 字</w>
名 单</w>
少 年</w>
上 海</w>
食 品</w>
私 营
依 据</w>
体 制</w>
添 加</w>
多 少</w>
计 划署</w>
账 户</w>
患 者</w>
贫 困</w>
非 洲
紧 急</w>
删 除</w>
UN K</w>
灾 害</w>
提 案</w>
失 败</w>
吸 引</w>
适 合</w>
潜 在</w>
资 本</w>
与会 者</w>
相 对</w>
4 8</w>
保 险</w>
起 诉</w>
如 下</w>
全 球
遇 到</w>
投资 者</w>
获 取</w>
移 徙</w>
资 助</w>
199 5</w>
看 起来</w>
199 6</w>
机 关</w>
公 正</w>
文 章</w>
妻 子</w>
苏 格兰</w>
策 略</w>
6 3</w>
6 7</w>
阻 止</w>
酷 刑</w>
命 令</w>
索 赔</w>
关 键
资 格</w>
不 得
即 将</w>
基 地</w>
地 址</w>
后 来</w>
回 答</w>
3 4</w>
可 能性</w>
无 论</w>
伊斯 兰</w>
电 脑</w>
很 快</w>
对 此</w>
检察 官</w>
逮 捕</w>
化 学
不 想</w>
现 场</w>
前 往</w>
为 止</w>
日 益</w>
遭 到</w>
墨西 哥</w>
治 理</w>
3 6</w>
证 实</w>
里 亚</w>
统 计
相 比</w>
检 测</w>
王 国</w>
电子 邮件</w>
出 席</w>
主 义
5 5</w>
选 民</w>
军 队</w>
私营 部门</w>
放 弃</w>
失 所</w>
流 离
流离 失所</w>
月 份</w>
交 通</w>
6 4</w>
这 场</w>
表 达</w>
男 人</w>
巴 基
加 以</w>
制 裁</w>
腐 败</w>
胜 利</w>
体 育</w>
工 资</w>
制 作</w>
只 能</w>
3 3</w>
9 0</w>
5 7</w>
节 目</w>
监 管</w>
专 家
海 洋</w>
黎 巴
投 入</w>
更 改</w>
四 个</w>
联 网</w>
面 对</w>
6 2</w>
消费 者</w>
西班 牙</w>
占 领</w>
古 巴</w>
捐 款</w>
u r
干 事</w>
距 离</w>
房 间</w>
广 告</w>
公 园</w>
不得 不</w>
5 8</w>
非 正式</w>
i m
观 察</w>
回 来</w>
思 想</w>
各 级</w>
满 意</w>
黎巴 嫩</w>
成 绩</w>
进 步</w>
手 机</w>
冠 军</w>
南 部</w>
声 音</w>
19 7
值 得</w>
期 待</w>
题 为</w>
后 果</w>
一 旦</w>
3 7</w>
曾 经</w>
巴基 斯坦</w>
中 央</w>
车 辆</w>
2 %</w>
质 性</w>
细 胞</w>
延 长</w>
所 作</w>
男 孩</w>
实 践</w>
北 部</w>
经 理</w>
清 单</w>
电 视
英 国
i d
o o
采 访</w>
3 8</w>
污 染</w>
版 本</w>
5 1</w>
尝 试</w>
5 .
一 般
实 质性</w>
以 外</w>
4 9</w>
消 费</w>
高 度</w>
5 3</w>
地 球</w>
自 由
主 管</w>
拟 订</w>
观察 员</w>
研究 所</w>
规 范</w>
教 师</w>
初 步</w>
讲 习
6 1</w>
重 建</w>
外 部</w>
释 放</w>
差 距</w>
两 名</w>
丰 富</w>
看 法</w>
最 初</w>
怀 疑</w>
公 里</w>
6 .
在 于</w>
1 %</w>
根 本</w>
5 4</w>
6 6</w>
别 人</w>
提 供
自 愿</w>
决 于</w>
取 决于</w>
另 一
高级 别</w>
讲习 班</w>
生 效</w>
女 儿</w>
磋 商</w>
s h
强 大</w>
运动 员</w>
5 9</w>
事 业</w>
过 渡</w>
成 就</w>
核 准</w>
相 互</w>
批 评</w>
对 手</w>
哪 些</w>
流 动</w>
转 让</w>
总 体</w>
专家 组</w>
两 性</w>
房 子</w>
首 席</w>
4 2</w>
展 示</w>
男 性</w>
事 故</w>
4 6</w>
4 4</w>
感 染</w>
an d
特 征</w>
些 时候</w>
使 得</w>
图 片</w>
3 9</w>
利 于</w>
难 民
专 题</w>
左 右</w>
全 世界</w>
5 2</w>
妈 妈</w>
变 成</w>
第 三</w>
日 内
哥 伦
定 性</w>
年 底</w>
华 盛
产 业</w>
索 马里</w>
展 开</w>
更 大</w>
爱 尔
4 7</w>
输 入</w>
予 以</w>
m a
攸 关</w>
回 应</w>
差 异</w>
约 翰</w>
相 反</w>
4 1</w>
强 烈</w>
埃 及</w>
台 湾</w>
相 应</w>
种 族</w>
严 格</w>
大 型</w>
完 整</w>
主 权</w>
阿拉 伯
两 次</w>
共和 党</w>
其 他人</w>
贸 发</w>
199 4</w>
研 讨
痛 苦</w>
多样 性</w>
市 场
密 切
制 造
货 物</w>
研讨 会</w>
5 6</w>
途 径</w>
存 储</w>
赞 赏</w>
法 案</w>
信 心</w>
不 得</w>
外 地</w>
单 独</w>
供应 商</w>
纳 德</w>
l a
开发 署</w>
教 授</w>
开发 计划署</w>
装 置</w>
接 近</w>
互 联网</w>
身 上</w>
货 币</w>
韩 国</w>
用 来</w>
行 使</w>
积 极
3 %</w>
意 思</w>
客 人</w>
高级 专员</w>
有 力</w>
有 所</w>
第 五</w>
3 00</w>
遗 憾</w>
边 界</w>
代 码</w>
合作 伙伴</w>
等 待</w>
待 遇</w>
7 %</w>
干 预</w>
角 度</w>
品 牌</w>
人 力
政 党</w>
广 播
前 景</w>
宪 章</w>
最 低</w>
一 张</w>
从 来</w>
很 少</w>
任 何
i r
侵 害</w>
第二 次</w>
a l</w>
例 子</w>
太 平
失 踪</w>
爆 炸</w>
出 生</w>
预 防
注 册</w>
职 责</w>
现 金</w>
指 数</w>
查 看</w>
搜 索</w>
指 南</w>
刑 事
一 半</w>
一 件</w>
面 前</w>
争 议</w>
斗 争</w>
伟 大</w>
指 示</w>
周 围</w>
星 期</w>
财 务
大 陆</w>
l i
推 进</w>
爱尔 兰</w>
科 威
心 理</w>
足 球</w>
关 心</w>
共 享</w>
建 造</w>
巴 黎</w>
居 住</w>
瑞 士</w>
建 筑
印 度
除 非</w>
图 像</w>
工作 队</w>
7 .
代 理</w>
财 政
教 学</w>
密 切</w>
明 白</w>
中 东</w>
公 路</w>
各 个</w>
专 门
编 辑</w>
突 出</w>
南 非</w>
当 选</w>
2 8
负 责
与 此
可 靠</w>
国 务
时 刻</w>
组 合</w>
组 成
组成 部分</w>
连 续</w>
选 项</w>
日内 瓦</w>
执 法</w>
保 存</w>
卫 星</w>
裁 决</w>
集 体</w>
4 3</w>
联合 王国</w>
俄罗 斯
实 验</w>
岛 屿</w>
军 事
国 民</w>
克 兰</w>
会 议
4 %</w>
推 出</w>
人权 委员会</w>
整 体</w>
教 练</w>
捐 助
哪 里</w>
便 利</w>
所 有人</w>
好 处</w>
提 及</w>
年 轻
不 利</w>
斯 坦
同 一</w>
加 勒
参 数</w>
判 决</w>
a v
6 %</w>
丈 夫</w>
赞 扬</w>
列 表</w>
犯 罪
第 六
病 人</w>
三 年</w>
199 0</w>
共 识</w>
武装 冲突</w>
筹 资</w>
e s</w>
艺 术
完 善</w>
e b
数 额</w>
尽 可能</w>
上 涨</w>
属 性</w>
纲 领</w>
下 面</w>
第二 十
保 护
否 则</w>
之 中</w>
博 士</w>
提 升</w>
进 口</w>
华盛 顿</w>
航 空
青 少年</w>
科威 特</w>
t h
早 期</w>
留 下</w>
中 有</w>
思 考</w>
工 厂</w>
期 望</w>
周 期</w>
决 心</w>
原 子
战 斗</w>
五 年</w>
分 之一</w>
以 为</w>
两 种</w>
还 要</w>
到 达</w>
捐 助</w>
在 线</w>
场 所</w>
总 额</w>
作 品</w>
道 德</w>
付 款</w>
独 特</w>
民主 党</w>
燃 料</w>
科 索
合 法</w>
筹 备</w>
近 年来</w>
太平 洋</w>
士 兵</w>
一 只</w>
各 自</w>
一般 性</w>
商 业
科索 沃</w>
期 限</w>
助 理</w>
依 然</w>
透 明
提 名</w>
教 育
有 利于</w>
之 下</w>
查 明</w>
支 持
护 理</w>
信 托</w>
民 众</w>
法 治</w>
比 如</w>
救 济</w>
用 途</w>
并 非</w>
著 名</w>
199 3</w>
安 保</w>
体 育
网 上</w>
世界 各地</w>
达 尔
申 诉</w>
所 谓</w>
西 方</w>
混 合</w>
透 露</w>
询 问</w>
暴 力
与此 同时</w>
紧 张</w>
有 着</w>
业 绩</w>
验 证</w>
系 统
朝 鲜</w>
6 8</w>
充 分
维 亚</w>
来 到</w>
加 快</w>
正 是</w>
信 号</w>
争 取</w>
克 尔</w>
客 户
8 %</w>
无 论
出 售</w>
显 著</w>
双 边</w>
百 分
利 亚
效 力</w>
普 通</w>
引 发</w>
拉 丁
负责 人</w>
伊斯 兰
人力 资源</w>
数 目</w>
飞 行</w>
解决 办法</w>
方 便</w>
照 顾</w>
第 六</w>
通 报</w>
体 现</w>
层 面</w>
证 书</w>
起 草</w>
欧 元</w>
绝 对</w>
唐 纳德</w>
现 代
葡 萄
妇 女
季 度</w>
泰 国</w>
坐 在</w>
客 房</w>
地 雷</w>
地 震</w>
测 量</w>
年轻 人</w>
认 真</w>
单 击</w>
a y
特 性</w>
瑞 典</w>
庆 祝</w>
供 资</w>
有 点</w>
克 里
合 并</w>
告 知</w>
全球 化</w>
相 互
和 平
e m
透明 度</w>
准 确</w>
设 有</w>
诊 断</w>
记 得</w>
议 院</w>
气 候</w>
依 赖</w>
婴 儿</w>
a g
培 养</w>
o m
雇 员</w>
惩 罚</w>
自 身</w>
讲 话</w>
透 明</w>
阅 读</w>
7 7</w>
科 学家</w>
来 看</w>
外 交</w>
潜 力</w>
效 益</w>
二 十
升 级</w>
提 请</w>
游 客</w>
提 醒</w>
夫 人</w>
富 尔</w>
跟 踪</w>
公 寓</w>
新 加
眼 睛</w>
类 别</w>
手 术</w>
低 于</w>
做 到</w>
绿 色</w>
融 资</w>
达尔 富尔</w>
领 先</w>
标 志</w>
团 结</w>
为 期</w>
削 减</w>
动 机</w>
战 略
任 期</w>
尼 日
司 机</w>
西 部</w>
逐 步</w>
下 去</w>
流 程</w>
衣 服</w>
拉丁 美洲</w>
紧 急
几 天</w>
第二 个</w>
会 谈</w>
阻 碍</w>
文 件
扩 展</w>
理 想</w>
尔 斯</w>
周 末</w>
出 版
主 持</w>
主 流</w>
抗 议</w>
持 续
子 女</w>
交 通
据 称</w>
先 进</w>
剥 夺</w>
留 在</w>
以 往</w>
替 代</w>
推 广</w>
回 家</w>
排 除</w>
怎 样</w>
帐 户</w>
任何 人</w>
乌 克兰</w>
姆 斯</w>
协 作</w>
荷 兰</w>
国 人</w>
天 气</w>
多 次</w>
自 我</w>
加 工</w>
2 9
分 类</w>
尔 德</w>
职 业
联 邦
优 化</w>
重 复</w>
周 日</w>
反 对
细 节</w>
颜 色</w>
婚 姻</w>
采取 措施</w>
演 员</w>
更 为</w>
残 疾</w>
出 去</w>
网 络
推 迟</w>
这 件</w>
u l
不 久</w>
涵 盖</w>
劳 工</w>
决 赛</w>
快 乐</w>
工 业
最 高
格 式</w>
五 个</w>
民主 共和国</w>
转 变</w>
个 人
0 0
u s
怎 么
建 设
大 小</w>
深 入</w>
老 师</w>
克 斯坦</w>
作 出
哥伦 比亚</w>
至 于</w>
国 会</w>
公 务
警 察
谴 责</w>
难 以</w>
本 周</w>
出 版</w>
199 2</w>
看 来</w>
国家 一级</w>
i n</w>
利 率</w>
常 驻</w>
新加 坡</w>
糟 糕</w>
阿 根
协调 员</w>
秘 书</w>
资 源
不 管</w>
4 00</w>
方 针</w>
希 腊</w>
首 都</w>
依 照</w>
广播 公司</w>
习 惯</w>
选 手</w>
收 益</w>
a k
尼 亚
上 帝</w>
所 说</w>
发 起</w>
发 送</w>
上 周</w>
利 润</w>
不 够</w>
o w
段 时间</w>
修 正</w>
1 000</w>
a h
布 鲁
探 索</w>
加勒 比</w>
世界 银行</w>
意 愿</w>
劳 动</w>
尽 快</w>
6 9</w>
这 份</w>
赋 予</w>
o s
此 前</w>
卢 旺
重 新
文 本</w>
小 型</w>
有 趣</w>
形 象</w>
旅 游
阐 述</w>
图 书
高 等
工 艺</w>
其 实</w>
拉 里</w>
地 产</w>
文 档</w>
强 迫</w>
所 载</w>
说 话</w>
多 种</w>
沟 通</w>
卢旺 达</w>
互 动</w>
实 验
列 出</w>
剥 削</w>
突 然</w>
受 益</w>
刚 果
支持 者</w>
维 也
国 防
清 洁</w>
载 有</w>
当 事
维也 纳</w>
废 物</w>
7 2</w>
减 轻</w>
监 禁</w>
分 析
有 所
俄罗斯 联邦</w>
大 使</w>
真 实</w>
已 有</w>
观 众</w>
本 地</w>
兄 弟</w>
菲 律
明 年</w>
劳 动力</w>
工 发</w>
本 届</w>
取 代</w>
男 女</w>
充 满</w>
公务 员</w>
知 识
对 待</w>
质 疑</w>
结 婚</w>
或 许</w>
同 事</w>
合 适</w>
东 部</w>
概 述</w>
具 体
e n</w>
所 涉</w>
表 演</w>
担 保</w>
下 跌</w>
发 射</w>
海 外</w>
一 辆</w>
商 店</w>
掌 握</w>
铁 路</w>
详 细
万 人</w>
表 面</w>
关 联</w>
完 美</w>
植 物</w>
退 出</w>
认 可</w>
自 行
新 西
抵 达</w>
早 些时候</w>
本 次</w>
非 常
保 险
一 套</w>
空 气</w>
要 素</w>
全 体
表 决</w>
作 业</w>
威 尔
联 赛</w>
共 有</w>
参 考</w>
报 表</w>
开 支</w>
和 解</w>
分 发</w>
秩 序</w>
法 规</w>
事务 部</w>
图书 馆</w>
英 里</w>
8 .
恶 化</w>
元 素</w>
识 别</w>
动 态</w>
斯 特
导 弹</w>
不 错</w>
体 验</w>
链 接</w>
e v
挪 威</w>
m ar
某 个</w>
恐 怖</w>
增 进</w>
争 端</w>
菲律 宾</w>
繁 荣</w>
来 文</w>
谈 到</w>
9 %</w>
股 票</w>
担 忧</w>
英 格兰</w>
有 用</w>
物 品</w>
参 与
201 7</w>
塞 尔</w>
现 状</w>
加 上</w>
拍 摄</w>
中 期</w>
国 外</w>
家庭 暴力</w>
想 象</w>
过 来</w>
否 认</w>
非洲 联盟</w>
美 丽</w>
排 放</w>
页 面</w>
死 刑</w>
人 力</w>
现 行</w>
教 训</w>
商 务</w>
生 态
运 用</w>
尼 斯</w>
志 愿
说 法</w>
行 预</w>
大 幅</w>
可 用</w>
感 兴趣</w>
衡 量</w>
澄 清</w>
一 届</w>
一 周</w>
加 拉
很 难</w>
看 见</w>
工 会</w>
昨 天</w>
共同 体</w>
交 换</w>
7 5</w>
庇 护</w>
n e
阿根 廷</w>
温 度</w>
人 物</w>
作 者</w>
粮 食
9 .
生 存</w>
后 勤</w>
人 才</w>
海 地</w>
刚果 民主共和国</w>
促 使</w>
边 境</w>
交 易
航 空</w>
o h
房 屋</w>
餐 厅</w>
区 域
案 例</w>
不 仅仅</w>
案 文</w>
刚 刚</w>
利 比
中 说</w>
周 五</w>
周 一</w>
价 值
维 和</w>
周 六</w>
信 贷</w>
大 楼</w>
秘 密</w>
希 拉里</w>
种族 主义</w>
得 以</w>
领 袖</w>
国 籍</w>
始 终</w>
金 属</w>
可 怕</w>
杀 害</w>
家 里</w>
杂 志</w>
成 年人</w>
装 备</w>
难民 署</w>
产 权</w>
失 望</w>
补 救</w>
利比 里亚</w>
足 以</w>
可 行</w>
退 休</w>
美 利
负 担</w>
合 众
信 仰</w>
具 备</w>
做 好</w>
第 七
注 重</w>
两 人</w>
有 利</w>
查 询</w>
全体 会议</w>
脆 弱</w>
认 证</w>
出 于</w>
表 示
地 图</w>
此 种</w>
新西 兰</w>
国际 公约</w>
里 面</w>
武装 部队</w>
逐 渐</w>
生 物
反 恐</w>
不 起</w>
现代 化</w>
b er
情 绪</w>
化学 品</w>
使 用
主 动</w>
美利 坚
女 童</w>
审 理</w>
美利坚 合众
明 天</w>
储 存</w>
几 内
任 择</w>
群 岛</w>
克 服</w>
每 次</w>
斯 林</w>
日 子</w>
彻 底</w>
调 动</w>
女 子</w>
管理 局</w>
原子 能</w>
星期 五</w>
从 未</w>
科 学
滥 用</w>
被 告</w>
流 行</w>
老 年人</w>
生 成</w>
以 期</w>
刺 激</w>
被 迫</w>
竞争 力</w>
中 央
翻 译</w>
危 害</w>
赞 同</w>
p h
答 案</w>
经济 体</w>
是 从</w>
星期 一</w>
历 史
随 时</w>
第 四</w>
情 报</w>
下 载</w>
被 捕</w>
一 道</w>
打 电话</w>
成 长</w>
激 烈</w>
许 可</w>
容 忍</w>
核 查</w>
社 交</w>
风 格</w>
派 遣</w>
颁 布</w>
证 人</w>
对 策</w>
大 卫</w>
税 收</w>
货 币
许 可
附 属</w>
分 布</w>
某 种</w>
追 求</w>
穆 斯林</w>
数 百
长 时间</w>
海 岸</w>
爸 爸</w>
覆 盖</w>
考 试</w>
合 法
老 板</w>
市 民</w>
将 来</w>
拉 斯</w>
缺 陷</w>
持 久</w>
级 别</w>
雇 主</w>
工程 处</w>
遗 产</w>
o t
海 洋
人 群</w>
此 次</w>
执行 局</w>
年 前</w>
财 富</w>
主 席
e c
固 定</w>
美利坚合众 国</w>
会 见</w>
1 2
应 急</w>
巩 固</w>
职 务</w>
上 面</w>
敏 感</w>
周 三</w>
变 革</w>
7 3</w>
i g
精 神
看 着</w>
实验 室</w>
印度 尼
四 年</w>
津 贴</w>
观 念</w>
农 民</w>
自行 车</w>
文 明</w>
自 从</w>
获 悉</w>
如 今</w>
指 责</w>
族 裔</w>
心 理
可 是</w>
u t
化 学</w>
加 剧</w>
诸 如</w>
医 疗
形 势</w>
两 国</w>
最高 法院</w>
董 事会</w>
利 比亚</w>
消 失</w>
协 商
学 会</w>
写 道</w>
u m
议 题</w>
7 6</w>
时 间
许可 证</w>
暂 停</w>
常 常</w>
因 而</w>
乘 客</w>
主 张</w>
纪 念</w>
深 刻</w>
终 于</w>
明 星</w>
计 数</w>
友 好</w>
6 00</w>
限 于</w>
专 业
驱 逐</w>
罗 马</w>
持 有</w>
当 天</w>
一 支</w>
暴力 行为</w>
算 法</w>
报 纸</w>
转 换</w>
面 积</w>
基 因</w>
击 败</w>
药 品</w>
斯 拉
克 罗
去 世</w>
捐助 者</w>
渠 道</w>
就 业
谢 谢</w>
迹 象</w>
约 翰
塞 拉
正 义</w>
融 入</w>
a p
设 想</w>
多 名</w>
窗 口</w>
防 治</w>
毫 无
利 昂</w>
忽 视</w>
坚 定</w>
气 体</w>
每 周</w>
仲 裁</w>
政 府
权 限</w>
周 二</w>
德 斯</w>
循 环</w>
信息 技术</w>
另一 方面</w>
尼日 利亚</w>
标 签</w>
见 到</w>
航 班</w>
. 2</w>
爆 发</w>
运 营</w>
文 化
国 内
休 息</w>
每 月</w>
两 项</w>
高 于</w>
法 令</w>
印 象</w>
3 0
活 性</w>
言 论</w>
那 种</w>
塞拉 利昂</w>
有 效
未 经</w>
夫 妇</w>
单 一</w>
不 幸</w>
密 码</w>
屏 幕</w>
纪 录</w>
感 受</w>
癌 症</w>
会 计
限 度</w>
老 人</w>
倾 向</w>
故 障</w>
高 效</w>
死 亡
制造 商</w>
博 物
想 到</w>
响 应</w>
周 年</w>
谈 论</w>
高 专</w>
航空 公司</w>
in g
意 外</w>
常 设</w>
体 化</w>
依 靠</w>
队 伍</w>
常 见</w>
炸 弹</w>
超 级</w>
所 在</w>
199 1</w>
短 期</w>
梦 想</w>
幸 福</w>
机 器</w>
披 露</w>
建设 性</w>
加 速</w>
种族 歧视</w>
博物 馆</w>
交 付</w>
结 果
与 其</w>
通 讯</w>
本 人</w>
害 怕</w>
界 定</w>
路 线</w>
保 罗</w>
周 四</w>
强 奸</w>
听 取</w>
陷 入</w>
出版 物</w>
制 止</w>
革 命</w>
语 文</w>
房 地产</w>
申 请
愿 望</w>
后 面</w>
妇女 地位</w>
立 法
打 破</w>
10 %</w>
部 长
自 动
演 讲</w>
印度尼 西亚</w>
主席 团</w>
密切 合作</w>
这 家</w>
无论 是</w>
愤 怒</w>
众 多</w>
主 办</w>
一 体化</w>
生 涯</w>
s on</w>
构 建</w>
设 在</w>
受害 人</w>
l .
受 欢迎</w>
结 构
会 计</w>
用 品</w>
环境 署</w>
日 起</w>
设 法</w>
怀 孕</w>
营 销</w>
马 来
第三 次</w>
自然 资源</w>
十 二
囚 犯</w>
科 技
灵 活</w>
总 数</w>
保 持
该 项</w>
到 来</w>
联合 会</w>
手 册</w>
临 床</w>
产 品
修 正
金融 机构</w>
企 业
比 利
一 致
实 例</w>
持续 性</w>
后 者</w>
终 止</w>
处 罚</w>
肯 尼亚</w>
营 养</w>
妨 碍</w>
恐 惧</w>
巴勒 斯坦
天 然
轻 松</w>
酌 情</w>
总 结</w>
谋 杀</w>
生 命
赞 成</w>
灾 难</w>
圣 诞
修正 案</w>
极 大</w>
过 度</w>
机 械</w>
埃 塞
电 池</w>
l o
i k
一 段时间</w>
酒 吧</w>
7 4</w>
上 文</w>
遵 循</w>
万 英镑</w>
L .
国 民
教 堂</w>
订 正</w>
补 贴</w>
加 沙</w>
重 大
出 色</w>
加 州</w>
独 立
切 实</w>
匹 配</w>
小 学</w>
实 地</w>
震 惊</w>
诉 人</w>
美 联
这 儿</w>
不 少</w>
斯 科</w>
帝 汶</w>
活 力</w>
修 复</w>
下 文</w>
教 科
in d
目 录</w>
移 交</w>
是 不是</w>
家 伙</w>
委 员</w>
生 殖</w>
球 迷</w>
代 价</w>
提 前</w>
区 别</w>
点 击</w>
南 斯拉
好 像</w>
收 费</w>
操 作
我 能</w>
伊 朗
假 设</w>
疑 问</w>
海 滩</w>
发 行</w>
早 上</w>
i s</w>
抓 住</w>
示 范</w>
接 下来</w>
东 帝汶</w>
空 中</w>
5 0%</w>
奥 运</w>
管 辖</w>
地 面</w>
苹 果</w>
一 座</w>
观 看</w>
党 人</w>
客户 端</w>
马来 西亚</w>
重 返</w>
发 生
星期 二</w>
黑 人</w>
年 初</w>
少 数
轨 道</w>
检 查
管 辖
人道 主义
人道主义 法</w>
艺术 家</w>
优 秀</w>
标 记</w>
仪 式</w>
其 余</w>
摆 脱</w>
配 合</w>
转 向</w>
1 50</w>
洛 杉
弹 药</w>
越 南</w>
表 格</w>
熟 悉</w>
效 应</w>
5 000</w>
时 说</w>
典 型</w>
失 业</w>
参 观</w>
迪 瓦</w>
u b
摩 洛
公共 部门</w>
特 色</w>
麻 烦</w>
总 值</w>
今 晚</w>
无 线
名 义</w>
年 度
顾 客</w>
第三 方</w>
半 年</w>
确 立</w>
死亡 率</w>
特 设</w>
科 特
预防 犯罪</w>
南 方</w>
任 意</w>
组 件</w>
初 级</w>
市 长</w>
埃塞 俄
忘 记</w>
海 关</w>
会 上</w>
中 间</w>
品 质</w>
经 验
接 收</w>
本 书</w>
决 策
科特 迪瓦</w>
皇 家</w>
社会 主义</w>
容 性</w>
重 于</w>
花 费</w>
20 %</w>
融 合</w>
国 王</w>
能 量</w>
乌 干
天然 气</w>
作 家</w>
极 端</w>
缓 解</w>
分 歧</w>
工作 者</w>
包 装</w>
判 断</w>
入 侵</w>
此 后</w>
公 民
红 色</w>
增 长
新 华
医 学</w>
顺 利</w>
东 道
布 尔</w>
部 件</w>
漂 亮</w>
多 么</w>
跨 国</w>
引 渡</w>
普 遍
蒙 特
乌干 达</w>
驾 驶</w>
估 计数</w>
布 朗</w>
减 贫</w>
纽 约
过 境</w>
恐怖 分子</w>
暂 时</w>
星期 四</w>
到 底</w>
复 制</w>
月 底</w>
a f
南 亚</w>
o v
补 偿</w>
理 念</w>
殖 民
雇 用</w>
转 型</w>
外交 部</w>
o d
正 规</w>
穷 人</w>
卫生 组织</w>
环 保</w>
e b</w>
监 控</w>
8 3</w>
多 地</w>
布 莱
像 是</w>
边 缘</w>
人 口
民 族
奥 地
于 是</w>
朝 鲜
征 聘</w>
奇 怪</w>
各 类</w>
电 力</w>
远 程</w>
布 隆
生 育</w>
书 面</w>
股 市</w>
ar d
成 熟</w>
并 未</w>
广 播</w>
生 态</w>
预 算
事 态</w>
队 员</w>
专门 知识</w>
e l</w>
实 力</w>
C .
外 国人</w>
皮 肤</w>
汇 率</w>
优 惠</w>
8 1</w>
预 订</w>
尸 体</w>
投 诉</w>
标 题</w>
基 督
恤 金</w>
小 岛屿</w>
比利 时</w>
摩洛 哥</w>
指 挥
政 权</w>
记 忆</w>
给 出</w>
平 方
规 划署</w>
模 拟</w>
那 时</w>
摘 要</w>
时间 表</w>
密 斯</w>
国务 院</w>
新华 社</w>
西 非</w>
申 诉人</w>
金 额</w>
号 码</w>
产 出</w>
城 市
债 券</w>
处 理
刑 法</w>
对 方</w>
奥 斯
7 1</w>
发言 者</w>
大 脑</w>
价值 观</w>
发 放</w>
群 众</w>
提供 援助</w>
8 6</w>
太 阳
按 钮</w>
清 除</w>
每 日</w>
合 物</w>
企 图</w>
冲 击</w>
扮 演</w>
火 车</w>
空 缺</w>
可 持续性</w>
较 大</w>
不 安</w>
丹 麦</w>
定 于</w>
智 能</w>
塞 浦
塞浦 路
8 00</w>
安 置</w>
局 长</w>
金 牌</w>
能 否</w>
档 案</w>
得 出</w>
驱 动
带 到</w>
份 额</w>
家 长</w>
统计 数据</w>
议 事
或 是</w>
目 前
款 项</w>
战 斗
出 发</w>
围 绕</w>
格 鲁
目前 为止</w>
谅 解</w>
强 化</w>
宝 贵</w>
驱 动</w>
提 高
迈 克尔</w>
骚 扰</w>
必 要性</w>
夏 天</w>
平 均
波 斯
长 期
氧 化
埃塞俄 比亚</w>
创 造
放 松</w>
知识 产权</w>
排 名</w>
失 业
日 常</w>
反对 派</w>
音 乐
哈 拉</w>
引 力</w>
马 克</w>
太 阳</w>
穿 着</w>
备 选</w>
管辖 权</w>
真 是</w>
8 5</w>
新 型</w>
维 尔</w>
礼 物</w>
宗 旨</w>
维 修</w>
洛杉 矶</w>
小 姐</w>
这 部</w>
c n
迄 今</w>
会议 室</w>
奥地 利</w>
身 边</w>
全 体</w>
史 密斯</w>
艰 难</w>
9 9</w>
大 选</w>
第五 十
度 过</w>
他 会</w>
网 页</w>
广 场</w>
d d
拨 款</w>
忘 录</w>
备 忘录</w>
詹 姆斯</w>
港 口</w>
迫 使</w>
人民 共和国</w>
h a
7 9</w>
拟 定</w>
激 励</w>
定 罪</w>
记 住</w>
中国 政府</w>
约 旦</w>
继 续
上 去</w>
舒 适</w>
毁 灭
严 重
协商 一致</w>
物 理</w>
传 递</w>
充 足</w>
塞 尔
加 大</w>
这 笔</w>
金融 危机</w>
波 兰</w>
登 记
毁灭 性</w>
自 杀</w>
两 国
佛 罗
监 察
前 面</w>
困 境</w>
兴 奋</w>
要 么</w>
联 络</w>
康 复</w>
嫌 疑
综 合
娱 乐</w>
英 尺</w>
研 发</w>
今 日</w>
信息 系统</w>
en t
等 等</w>
的 确</w>
救 援</w>
沙 特
收 购</w>
an g
产 量</w>
l e</w>
阿尔 及
发 布
积极 参与</w>
白 宫</w>
北 京
影 响
不 好</w>
北 约</w>
有 罪</w>
问 责
聪 明</w>
影响 力</w>
格鲁 吉
咨 询
和 谐</w>
q u
清 理</w>
内 瑞
委 内瑞
症 状</w>
签 证</w>
文件 夹</w>
部长 级</w>
s p
应 付</w>
议事 规则</w>
集 会</w>
信 用
英 文</w>
麦 克</w>
o p
ad d
推 行</w>
热 情</w>
各 位</w>
服 装</w>
强 制
有 害</w>
1 20</w>
谈 会</w>
警 官</w>
大 大</w>
缅 甸</w>
7 00</w>
邻 国</w>
豁 免</w>
8 7</w>
检 验</w>
复 苏</w>
超 越</w>
资源 管理</w>
永 久</w>
生产 总值</w>
坚 决</w>
拖 延</w>
以 此</w>
个 别</w>
英国 广播公司</w>
席 位</w>
原 来</w>
两 天</w>
远 远</w>
o f
论 文</w>
设 计
这 座</w>
罪 犯</w>
a r</w>
矛 盾</w>
刚 果</w>
进 球</w>
培 训
7 8</w>
就 此</w>
输 出</w>
克罗 地
层 空间</w>
外 层空间</w>
舞 台</w>
西班 牙
斯 洛
日 电</w>
纪 念
幅 度</w>
基本 上</w>
. 4</w>
最 多</w>
地 理</w>
库 存</w>
不 用</w>
无 核武器</w>
简 化</w>
一 段</w>
送 到</w>
工程 师</w>
格鲁吉 亚</w>
证 券</w>
发 动</w>
球 场</w>
有 益</w>
硬 件</w>
尊 严</w>
住 宅</w>
布隆 迪</w>
相 当
先 前</w>
回 报</w>
私 营</w>
不 应</w>
星期 三</w>
认 定</w>
寿 命</w>
施 工</w>
劳 动
听 说</w>
招 募</w>
共同 努力</w>
错 过</w>
伊斯兰 共和国</w>
特 别
路 上</w>
问责 制</w>
就业 机会</w>
教科 文
东道 国</w>
学 者</w>
参与 者</w>
身 份
整 合</w>
架 构</w>
教科文 组织</w>
前 进</w>
5 0
引 用</w>
外 面</w>
参 议员</w>
谈 话</w>
受 理</w>
惊 讶</w>
渴 望</w>
对 抗</w>
保 守
订 单</w>
电 台</w>
性 恋</w>
裁 定</w>
管理 人员</w>
模 块</w>
一 部</w>
海 上</w>
选 定</w>
i v
新闻 部</w>
爆 炸
本 来</w>
难 以
外 勤</w>
基 准</w>
s e
别 的</w>
成 效</w>
波斯 尼亚</w>
乔 治</w>
辩 护</w>
新 兴</w>
比 率</w>
背 后</w>
8 4</w>
引 入</w>
幸 运</w>
附 加</w>
陈 述</w>
设 定</w>
所 示</w>
超 出</w>
这 名</w>
交 给</w>
分 离</w>
推 荐</w>
定 位</w>
头 发</w>
渔 业</w>
管 道</w>
阿 塞
至 今</w>
展 览</w>
强 有力</w>
函 数</w>
逻 辑</w>
多 人</w>
委内瑞 拉</w>
几 十年</w>
演 出</w>
一 代</w>
安 德
异 常</w>
一 所</w>
工 党</w>
用 水</w>
年度 报告</w>
姓 名</w>
执行 官</w>
菜 单</w>
活 跃</w>
安全 部队</w>
绑 架</w>
核 裁军</w>
元 首</w>
试 点</w>
惯 例</w>
注 意
共 体</w>
犯 下</w>
沙特 阿拉伯</w>
单 元</w>
备 份</w>
8 2</w>
销 售
阿塞 拜
援 引</w>
游 泳</w>
例 外</w>
地 带</w>
进 来</w>
含 量</w>
前 提</w>
致 命</w>
侧 重于</w>
目 的
三 届</w>
聚 集</w>
动 作</w>
8 8</w>
生态 系统</w>
含 有</w>
交 谈</w>
吸 引力</w>
结果 表明</w>
疫 苗</w>
美 好</w>
迄 今
事 先</w>
撒 哈拉</w>
一 方</w>
少数 民族</w>
定 居
日 前</w>
次 级</w>
回 收</w>
布 什</w>
咖 啡</w>
里 克</w>
不 了</w>
废 除</w>
学 术</w>
根 源</w>
两 位</w>
崩 溃</w>
命 名</w>
性 暴力</w>
改 造</w>
包 容性</w>
o b
莫 斯科</w>
马 上</w>
祝 贺</w>
乐 观</w>
消 耗</w>
付 出</w>
通 道</w>
汤 姆</w>
缓 慢</w>
计算 机
分 裂</w>
oo k</w>
取 得
不 必</w>
阁 下</w>
吁 请</w>
空 调</w>
亚 太
一 个月</w>
不 良</w>
发布 会</w>
一 方面</w>
布 拉
机 器
学 位</w>
塔 尔</w>
威尔 士</w>
马 拉</w>
缺 少</w>
真 相</w>
相 似</w>
营 地</w>
小 说</w>
紧急 情况</w>
万 元</w>
储 备</w>
雷 斯</w>
疯 狂</w>
罚 款</w>
播 放</w>
伊朗 伊斯兰共和国</w>
感 器</w>
为 何</w>
孟 加拉
黑 色</w>
抱 歉</w>
间 接</w>
旅 客</w>
d e
传 输</w>
技 巧</w>
谨 慎</w>
自然 灾害</w>
启 用</w>
管理 系统</w>
节 省</w>
旅 馆</w>
奖 励</w>
佛罗 里
尔 顿</w>
辅 助</w>
花 园</w>
纠 正</w>
区 分</w>
强 度</w>
携 带</w>
伯 特</w>
第三 十
村 庄</w>
i ch
民 国</w>
第 九
处 境</w>
感 到
混 乱</w>
三 名</w>
教 会</w>
签 订</w>
国际 贸易</w>
入 住</w>
多样 化</w>
目的 地</w>
马 尔
制 品</w>
不 论</w>
默 认</w>
常 规</w>
厨 房</w>
近 期</w>
哈 萨
上 次</w>
授 予</w>
命 运</w>
六 个</w>
旅游 业</w>
普 京</w>
i on
相当 于</w>
家 中</w>
武 力</w>
当 中</w>
3 0%</w>
柬 埔
巴勒斯坦 人</w>
改 为</w>
约 束
嫌疑 人</w>
耶 路
营 养
耶路 撒
阿尔及 利亚</w>
漠 化</w>
会 晤</w>
一 生</w>
4 0
中 学</w>
灵 活性</w>
W eb</w>
中 部</w>
叙 利亚
传 感器</w>
9 5</w>
销 毁</w>
耶路撒 冷</w>
文 字</w>
薪 金</w>
无 疑</w>
家 园</w>
玻 璃</w>
亿 元</w>
就 要</w>
配 有</w>
讨 论
约 束</w>
9 8</w>
根 本
早 餐</w>
农 业
获 胜</w>
成 人</w>
剩 余</w>
社会 保障</w>
法 语</w>
罗 斯</w>
自 定义</w>
封 锁</w>
富 有</w>
城 镇</w>
纪 律</w>
地 说</w>
人民 币</w>
怎么 样</w>
缩 小</w>
管理 员</w>
之 内</w>
种 植</w>
十 字
尔 特</w>
用 作</w>
引 导</w>
孟加拉 国</w>
亲 爱</w>
抱 怨</w>
毕 业</w>
极 为</w>
智 利</w>
简 要</w>
签 名</w>
提 示</w>
原 始</w>
鼓 舞</w>
自 治</w>
内 政
配 备</w>
分 为</w>
同 步</w>
大 多</w>
其 次</w>
标 准
当事 人</w>
指 挥</w>
路 径</w>
经 委会</w>
关 押</w>
时 尚</w>
调 解</w>
职 等</w>
拯 救</w>
人 居</w>
波 动</w>
各 个
彼 此</w>
一 个
三 次</w>
接 着</w>
意 图</w>
i b
购 物</w>
m an
特 里亚</w>
住 宿</w>
惊 人</w>
高等 教育</w>
机器 人</w>
着 手</w>
主 管
三 分之一</w>
必 要
约翰 逊</w>
提 起</w>
名 为</w>
口 头</w>
街 道</w>
情 形</w>
卡 车</w>
辞 职</w>
优 质</w>
4 0%</w>
白 色</w>
第二 天</w>
c .
垃 圾</w>
行政 当局</w>
合 格</w>
饮 料</w>
芬 兰</w>
a w
所 有权</w>
一 人</w>
打 印</w>
一 边</w>
手 中</w>
分 摊</w>
详细 信息</w>
广 大</w>
马 拉
船 只</w>
据 说</w>
人 人</w>
维 斯</w>
自动 化</w>
犯 有</w>
联 络
国际 标准</w>
外交 部长</w>
增长 率</w>
饮 食</w>
气 氛</w>
一 群</w>
层 次</w>
走 向</w>
电 话
i a</w>
德 里</w>
摧 毁</w>
名 额</w>
厄 立
厄立 特里亚</w>
职 人员</w>
原 理</w>
比 尔</w>
能 源
9 7</w>
餐 馆</w>
in g</w>
8 9</w>
荒 漠化</w>
黑 暗</w>
联邦 政府</w>
损 坏</w>
央 行</w>
此 事</w>
向 前</w>
协 同</w>
参 议院</w>
克罗地 亚</w>
会 员</w>
裁 军
裁军 谈判</w>
病 例</w>
日 本
频 率</w>
浴 室</w>
首 脑</w>
无 需</w>
生 长</w>
小 企业</w>
塞浦路 斯</w>
更 换</w>
削 弱</w>
南斯拉 夫</w>
建筑 物</w>
隔 离</w>
列 为</w>
t er
日 志</w>
有 机</w>
学 科</w>
健 康
破 产</w>
达 州</w>
有效 性</w>
分 列</w>
普 通
斯 蒂
e g
之 二</w>
敌 人</w>
有 没有</w>
作出 贡献</w>
起 到</w>
判 处</w>
迫 切
尺 寸</w>
约束 力</w>
何 种</w>
家 属</w>
物 种</w>
登 录</w>
神 经
9 1</w>
斯 科
讨论 会</w>
谷 歌</w>
解 除</w>
威 尔</w>
2 50</w>
首 相</w>
饥 饿</w>
另 有</w>
实 质</w>
扫 描</w>
3 000</w>
转 化</w>
阿塞拜 疆</w>
反 腐败</w>
突 破</w>
街 头</w>
生 意</w>
浪 费</w>
解 放
内 阁</w>
il l
复 杂
辐 射</w>
追 踪</w>
争 论</w>
包 容</w>
练 习</w>
司法 部</w>
桑 德斯</w>
承 包
种 类</w>
虚 拟</w>
物 流</w>
政治 权利</w>
9 6</w>
里 兰
对 外</w>
应 有</w>
仔 细</w>
样 子</w>
促 请</w>
开 幕</w>
法 定</w>
无 效</w>
大 韩
尼 泊
本 月</w>
流 量</w>
干 扰</w>
迄今 为止</w>
大韩 民国</w>
钻 石</w>
客 观</w>
必 需</w>
安全 性</w>
杀 死</w>
职业 生涯</w>
圣诞 节</w>
该 法</w>
继 承</w>
文 学</w>
r u
副 本</w>
旁 边</w>
遣 队</w>
使 馆</w>
模 板</w>
装 饰</w>
亿 英镑</w>
星期 六</w>
车 站</w>
站 点</w>
最 为</w>
首 要</w>
粮食 安全</w>
电视 台</w>
进 攻</w>
规 约</w>
香 港
小 心</w>
海 军</w>
零 售
遭 遇</w>
聚 会</w>
分 庭</w>
风 暴</w>
失业 率</w>
场 景</w>
直 升
拉 圭</w>
当 代</w>
一 组</w>
形 态</w>
得 不到</w>
缔 结</w>
中 断</w>
吸 收</w>
粮 农
粮农 组织</w>
一 架</w>
还 应</w>
蓝 色</w>
公民 权利</w>
英 雄</w>
确 定性</w>
黄 金</w>
管理 层</w>
发 明</w>
注意 力</w>
岗 位</w>
支 援</w>
第四 次</w>
薪 酬</w>
北 爱尔兰</w>
反 馈</w>
短 缺</w>
动 员</w>
最 低
带 有</w>
成 分</w>
任 职</w>
物 体</w>
核 定</w>
统 治</w>
泳 池</w>
人 生</w>
形 状</w>
发 表
膨 胀</w>
势 头</w>
处 决</w>
发 达</w>
引 擎</w>
卡 罗
接 到</w>
解 雇</w>
近 东</w>
度 假</w>
机 遇</w>
时 限</w>
得 分</w>
代表 性</w>
调查 结果</w>
只 会</w>
一致 性</w>
o c
百分 比</w>
选 出</w>
期 内</w>
保 安</w>
一 词</w>
玻 利
白 俄罗斯</w>
9 2</w>
衰 退</w>
呼 吸</w>
通 货
哈萨 克斯坦</w>
对 不起</w>
心 脏</w>
驳 回</w>
ac eb
高 度
免 受</w>
问 责</w>
传 染
警察 局</w>
防 守</w>
暗 示</w>
击 者</w>
剩 下</w>
延 迟</w>
一 块</w>
产 妇</w>
不 当</w>
制 约</w>
面 向</w>
绩 效</w>
作 物</w>
a h</w>
现 已</w>
太 多</w>
大 西
审 计
四 届</w>
委 托</w>
I P
变 动</w>
主 教</w>
余 额</w>
镜 头</w>
书 记</w>
作 战</w>
同 性恋</w>
处 置</w>
世 贸
由 此</w>
计 划
8 0%</w>
本 赛季</w>
柬埔 寨</w>
史 蒂
定 为</w>
创 作</w>
占 据</w>
照 料</w>
相 关
高 速
布鲁 塞尔</w>
几 周</w>
专门 机构</w>
迁 移</w>
电 源</w>
白 人</w>
约 会</w>
an t
集 成</w>
几内 亚</w>
过 于</w>
总 共</w>
浏 览</w>
男 女
偿 还</w>
价 格
高 质量</w>
分 开</w>
沿 海</w>
单 方面</w>
一 间</w>
犹 太
aceb ook</w>
卖 淫</w>
力 度</w>
巴 布
上 市</w>
隐 藏</w>
爱 情</w>
高 达</w>
彼 得</w>
假 期</w>
内 陆</w>
显 得</w>
过 渡
欺 诈</w>
全 国
情 感</w>
德 尔</w>
标 赛</w>
一 国</w>
锦 标赛</w>
船 舶</w>
流 行
民 事</w>
筹 备
行 事</w>
指 导
自 豪</w>
军 官</w>
飞 行
企业 家</w>
程 序
达 成
教 学
不 妨</w>
涉 嫌</w>
东 京</w>
领 取</w>
奠 定</w>
克 鲁
通 用</w>
电 信</w>
一 篇</w>
极 端
昂 贵</w>
第四 十
节 日</w>
生产 力</w>
开 车</w>
之 处</w>
赤 字</w>
两 岸</w>
填 补</w>
尼 尔</w>
考 察</w>
第 八
ar t
示 例</w>
银 行
愉 快</w>
再 生
丧 失</w>
入 境</w>
驻 地</w>
接 口</w>
努 力
联 系
动 性</w>
节 点</w>
监 视</w>
代 理
对 付</w>
9 3</w>
美国 政府</w>
所 列</w>
上 个月</w>
e w
民 兵</w>
见 面</w>
监 督
患 有</w>
浏 览
法 行为</w>
峰 会</w>
地 域</w>
可 爱</w>
刚 才</w>
难民 营</w>
上 空</w>
可 靠
一 台</w>
发 动机</w>
实 时</w>
禁 令</w>
细 则</w>
生 活
管 如此</w>
尽 管如此</w>
夏 季</w>
收 取</w>
健 全</w>
极 其</w>
专 注</w>
高 校</w>
还 会</w>
五 届</w>
黑 塞
决策 者</w>
世贸 组织</w>
长 度</w>
组 织
阿拉伯 叙利亚
阿拉伯叙利亚 共和国</w>
职 权
职权 范围</w>
七 届</w>
农 场</w>
欣 赏</w>
达成 协议</w>
筹 措</w>
东 盟</w>
制造 业</w>
马 斯</w>
分析 师</w>
确 切</w>
全 面
共 计</w>
秘 鲁</w>
迫切 需要</w>
团 伙</w>
两 周</w>
财务 报表</w>
劳 工
遣 返</w>
守 则</w>
竞争 对手</w>
y n
主 持
远 离</w>
内 罗
找 出</w>
州 长</w>
大 众</w>
志愿 人员</w>
众 议院</w>
志愿 者</w>
监察 员</w>
芝 加
友 谊</w>
突 尼斯</w>
视 图</w>
租 赁</w>
血 液</w>
落 后</w>
国家 元首</w>
塞尔 维亚</w>
几 次</w>
中国 队</w>
读 者</w>
重 组</w>
内罗 毕</w>
开 设</w>
各 种
黑塞 哥
军 方</w>
斯 达
第三 个</w>
可靠 性</w>
顺 序</w>
el l
黑塞哥 维
黑塞哥维 那</w>
杰 克</w>
负 债</w>
参 阅</w>
均 衡</w>
人 格</w>
停 车
下 次</w>
多 尔</w>
上 学</w>
撤 销</w>
s a
次 数</w>
协调 一致</w>
汇 报</w>
r an
强 劲</w>
葡萄 牙</w>
公 认</w>
专 利</w>
风 险
退 化</w>
农 村
e p
改 革
索 赔
科 尔</w>
9 4</w>
市 中心</w>
进 度</w>
指挥 官</w>
开 心</w>
地 理
会计 准则</w>
安 哥
洪 水</w>
维 奇</w>
数 学</w>
频 道</w>
特 网</w>
全 民
共 产
虚 拟
持 久
I S
开 枪</w>
里 斯</w>
晚 些时候</w>
思 维</w>
琼 斯</w>
水 资源</w>
董 事</w>
不 满</w>
分 散</w>
枪 支</w>
大 战</w>
促 成</w>
不 愿</w>
无 线</w>
素 质</w>
发 挥
尼泊 尔</w>
直升 机</w>
值 得
共和 党人</w>
伴 侣</w>
影 片</w>
多 项</w>
相 机</w>
国 防</w>
0 1</w>
责 任
消 防
地 板</w>
司 长</w>
主 体</w>
插 入</w>
感 情</w>
阳 光</w>
卫生 部</w>
用 性</w>
强 制</w>
干 部</w>
战 胜</w>
民主 主义
性 虐待</w>
法律 援助</w>
丧 生</w>
火 灾</w>
神 经</w>
沮 丧</w>
伤 亡</w>
排 斥</w>
消 息
高 尔
拿 到</w>
低 收入</w>
裁 谈会</w>
特 遣队</w>
C N
er s</w>
六 个月</w>
用 户
大 厦</w>
婚 礼</w>
离 婚</w>
人 道</w>
毫无 疑问</w>
这 类</w>
卡 尔</w>
首 长</w>
土 壤</w>
坦 桑
i f
朝鲜 民主主义
一 句</w>
四 条</w>
对 阵</w>
发挥 作用</w>
支 柱</w>
k h
对 性</w>
该 部</w>
观察 团</w>
信 用</w>
儿 童
大 学生</w>
中 华
索赔 人</w>
柏 林</w>
电 机</w>
援 助
内 部
浏览 器</w>
一 贯</w>
论 述</w>
再生 能源</w>
因 特网</w>
克 莱
一 九
将 军</w>
访 问
月 初</w>
国防 部</w>
未 有</w>
罗 马
治 安</w>
调 用</w>
精 确</w>
和 华</w>
a s</w>
看 上去</w>
互 相</w>
话 题</w>
创 业</w>
视 察</w>
微 笑</w>
m an</w>
巡 逻</w>
双 边
耶 和华</w>
焦 点</w>
a z
积 累</w>
燃 烧</w>
洗 钱</w>
有 者</w>
荣 誉</w>
长 大</w>
贫 困
i p
亚 美
顶 级</w>
国际 法院</w>
那 儿</w>
西 岸</w>
使 命</w>
为 主</w>
不 变</w>
对 比</w>
权 益</w>
冻 结</w>
火 箭</w>
物 资</w>
温 室</w>
博 客</w>
危 地
负 面
倡 导</w>
金 钱</w>
办 理</w>
198 0</w>
打 印
知 情</w>
环境 保护</w>
g u
经验 教训</w>
动 荡</w>
A dd
汇 编</w>
芝加 哥</w>
地 铁</w>
多 达</w>
弱 势
稳 定性</w>
主 导</w>
承 受</w>
提 取</w>
不 太
弱势 群体</w>
即 可</w>
此 项</w>
慈 善</w>
布 里
基金 组织</w>
纤 维</w>
悉 尼</w>
紧 密</w>
招 聘</w>
内 地</w>
运 送</w>
直 至</w>
弥 补</w>
主义 者</w>
要 是</w>
情 报
局 面</w>
主 人</w>
6 0%</w>
锻 炼</w>
封 信</w>
界 面</w>
生 日</w>
总 裁</w>
今 天
20 20</w>
也 门</w>
智 慧</w>
大 国</w>
靠 近</w>
复 员</w>
完 全
一 轮</w>
仇 恨</w>
置 于</w>
宗 教
排 雷</w>
打 死</w>
乐 队</w>
宏 观
印 发</w>
国际 法庭</w>
o s</w>
数 十
家 具</w>
哪 个</w>
便 宜</w>
贝 尔
菲 尔德</w>
免 疫</w>
逃 离</w>
无 关</w>
厄 瓜
朝鲜民主主义 人民共和国</w>
清 晰</w>
摄 像
以 南</w>
并 于</w>
匈 牙
某 种
道 歉</w>
竞 赛</w>
合法 性</w>
干 净</w>
屠 杀</w>
公 报</w>
强制 性</w>
所 属</w>
as h
决 权</w>
术 语</w>
脱 离</w>
媒 体
差 别</w>
取得 成功</w>
操作 系统</w>
业 务
灵 魂</w>
罗 姆
印 刷</w>
监 察</w>
高 中</w>
15 %</w>
股 份</w>
那 天</w>
乡 村</w>
回 归</w>
理 事</w>
南 南
覆 盖
侵 略</w>
选 票</w>
军 人</w>
爵 士</w>
调 节</w>
塑 料</w>
排 放
体 重</w>
卡 梅
说 服</w>
软 件
古 老</w>
玛 丽</w>
南南 合作</w>
未 成年人</w>
场 地</w>
观 测</w>
人 为</w>
贝 尔</w>
谈 谈</w>
自 主</w>
两 者</w>
蒙 古</w>
筛 选</w>
模 糊</w>
讨 厌</w>
负面 影响</w>
干 旱</w>
恰 当</w>
特 权</w>
不 多</w>
2 5%</w>
明 确
隐 私</w>
切 尔
检察 长</w>
本 质</w>
定居 点</w>
最 小</w>
被 控</w>
损 伤</w>
申请 人</w>
c on
维 护
免 遭</w>
智 能
基督 教</w>
违 背</w>
一 再</w>
al l
养 老
半 场</w>
讲 述</w>
股 东</w>
殴 打</w>
信用 卡</w>
电子 商务</w>
家 族</w>
玩 具</w>
污 染
本 着</w>
着 重</w>
oh n
时 报</w>
安哥 拉</w>
活 着</w>
邻 居</w>
疟 疾</w>
尼 克</w>
弱 势</w>
不 确定性</w>
更 具</w>
捐 赠</w>
斯 里兰
内 存</w>
扩 张</w>
绝 大多数</w>
可 行
糖 尿
g h
u d
没 收</w>
广 州</w>
保 密</w>
带 领</w>
e d</w>
主 意</w>
第一 届</w>
事 物</w>
提高 认识</w>
线 路</w>
习 俗</w>
赛 事</w>
资 金
储 蓄</w>
援助 团</w>
经济 学家</w>
卡 塔尔</w>
指 令</w>
联 刚</w>
冒 险</w>
后 卫</w>
导 航</w>
f acebook</w>
大西 洋</w>
进 去</w>
非 国家</w>
福 祉</w>
多 哈</w>
毫 米</w>
精 力</w>
全 新</w>
o v</w>
回 去</w>
麦 克
豪 华</w>
季 节</w>
证 会</w>
之 际</w>
报 酬</w>
不 断
听 证会</w>
品 种</w>
内政 部</w>
加 尔</w>
脆 弱
信 通</w>
缩 短</w>
看 待</w>
区域 合作</w>
斯里兰 卡</w>
我 谨</w>
何 时</w>
0 5</w>
9 0%</w>
阶 级</w>
斯 托
国内 外</w>
轻 武器</w>
数 字
家庭 成员</w>
堕 胎</w>
贩 卖</w>
大 大
存 款</w>
出 口
北 方</w>
护 照</w>
言 论
干 涉</w>
天 空</w>
言论 自由</w>
糖尿 病</w>
理 性</w>
牺 牲</w>
脆弱 性</w>
前 所
权 威</w>
阐 明</w>
负 有</w>
安全 部门</w>
政府 首脑</w>
在 此
对 话
之 所以</w>
马 丁</w>
接 待</w>
揭 示</w>
解决 问题</w>
主持 人</w>
排放 量</w>
变 量</w>
an n
肿 瘤</w>
198 9</w>
非 共和国</w>
危地 马拉</w>
特 区</w>
困 扰</w>
几内 亚
尽 量</w>
co m</w>
条 文</w>
毛 里
防 御</w>
国 别</w>
丢 失</w>
严 峻</w>
C O
当事 方</w>
什 么
信 念</w>
有所 增加</w>
紧 张
高 速</w>
9 00</w>
场 合</w>
转 交</w>
学 术
阶 层</w>
黎 加</w>
罢 工</w>
哥 斯达
电 影
舒 服</w>
中 文</w>
1 30</w>
关 税</w>
送 往</w>
哥斯达 黎加</w>
晚 餐</w>
公共 卫生</w>
请 参阅</w>
容 量</w>
歌 手</w>
一 批</w>
捐助 国</w>
公 开
什么 样</w>
大 概</w>
厄瓜 多尔</w>
咖 啡
修 建</w>
抑 制</w>
比 亚
筹 集</w>
一 本</w>
零 售</w>
温 暖</w>
格 兰
执 法
r y
公 斤</w>
优 点</w>
标准 化</w>
平 面</w>
种 子</w>
频 繁</w>
全球 性</w>
详 情</w>
交 流
7 0%</w>
拉 斯
部 落</w>
高 层</w>
o k
歌 曲</w>
投 票
太阳 能</w>
旋 转</w>
大 麻</w>
i e</w>
延 误</w>
奖 金</w>
前所 未有</w>
这 会</w>
专 用</w>
昨 晚</w>
严 厉</w>
三 分
诚 实</w>
世 卫</w>
高级 官员</w>
老 年</w>
克 共和国</w>
人 体</w>
源 于</w>
e k
宣 称</w>
2 7
专 题
血 管</w>
世界 卫生组织</w>
合 成</w>
总 体
挑 选</w>
h ar
现 年</w>
遏 制</w>
1 10</w>
f or
庞 大</w>
第二 届</w>
美联 储</w>
针 对性</w>
有 时候</w>
妹 妹</w>
偏 见</w>
百 万</w>
放 射
总 干事</w>
耶 稣</w>
陪 审
加 纳</w>
出 租
预 定</w>
色 情</w>
卡 拉</w>
三 天</w>
福 德</w>
简 报</w>
债 权
c ar
工业 化</w>
生 素</w>
所 在
容 器</w>
拉 姆</w>
斯 顿</w>
三 种</w>
透 过</w>
i z
c or
对 应</w>
查 找</w>
景 点</w>
沿 着</w>
关键 作用</w>
等 级</w>
e t</w>
地 中
导 演</w>
某 人</w>
油 价</w>
查 阅</w>
这 张</w>
中 非共和国</w>
安 静</w>
悲 剧</w>
不 罚</w>
划 分</w>
有 个</w>
维 多
特 尔</w>
乍 得</w>
匈牙 利</w>
项 目
紧 迫</w>
定 制</w>
尼亚 州</w>
贸易 法</w>
不 足以</w>
寻 常</w>
故 意</w>
I T</w>
生 计</w>
一 笔</w>
碎 片</w>
i i</w>
点 评</w>
吸 烟</w>
蔬 菜</w>
经 合
经合 组织</w>
毕 竟</w>
s k
人 会</w>
自 信</w>
四 分之一</w>
同 行</w>
美 军</w>
理 查
中 等</w>
日 历</w>
十 一届</w>
核 实</w>
乘 坐</w>
集 合</w>
忽 略</w>
视 觉</w>
呈 现</w>
护 士</w>
独立 性</w>
咨询 服务</w>
上 周五</w>
i l</w>
空 间
成 年</w>
深 度</w>
准 入</w>
各 项
利 尔</w>
塔 利
军事 行动</w>
颁 发</w>
推 翻</w>
塔利 班</w>
中 小企业</w>
0 9</w>
地 下</w>
回 忆</w>
所 知</w>
问 及</w>
as s
概 算</w>
无 人
出 台</w>
沉 默</w>
较 为</w>
赠 款</w>
核 可</w>
诊 所</w>
必要 措施</w>
1 2.
打印 机</w>
对 面</w>
各 样</w>
沃 尔
10 0%</w>
审 评</w>
该 市</w>
开 办</w>
高速 公路</w>
解 除
比 绍</w>
仓 库</w>
普 及</w>
王 子</w>
演 变</w>
米 尔</w>
常 规
培训 班</w>
赞 助</w>
克里 斯</w>
符 合
玩 笑</w>
盟 友</w>
瓦 尔</w>
吉 尔
啤 酒</w>
存 者</w>
派 出</w>
度 假
淘 汰</w>
以色 列
重 量</w>
是 说</w>
人 均</w>
受 益
很 长</w>
全 力</w>
政治 家</w>
六 届</w>
f f
撤 离</w>
玩 家</w>
普 查</w>
调查 局</w>
引 人
座 位</w>
破 坏
经济 危机</w>
载 于</w>
经 典</w>
暴 露</w>
参 照</w>
桌 子</w>
证 件</w>
搜 查</w>
大 使馆</w>
罗马 尼亚</w>
开 会</w>
宇 宙</w>
事 宜</w>
救 助</w>
o g
之 上</w>
ind ow
报 价</w>
东 南亚</w>
铭 记</w>
主 场</w>
增 多</w>
发 给</w>
汽 车
幸 存者</w>
I n
开 幕
器 官</w>
女 王</w>
地中 海</w>
质 量
考 验</w>
数百 万</w>
停 火</w>
蛋 白</w>
世界 杯</w>
指 称</w>
组 建</w>
穿 过</w>
蔓 延</w>
领 空</w>
风险 管理</w>
商 人</w>
平方 米</w>
计划 生育</w>
电 路</w>
办 公</w>
保 加
o r</w>
实 在</w>
斯 基</w>
英 寸</w>
毕 业
登记 册</w>
配 偶</w>
亚美 尼亚</w>
曼 联</w>
化 合物</w>
a u
苏 联</w>
技术 转让</w>
通 胀</w>
步 行</w>
非 正规</w>
主 教练</w>
宏观 经济</w>
战斗 人员</w>
国务 卿</w>
奥 林
纲 要</w>
h e
引 进</w>
离 职</w>
含 义</w>
莱 坞</w>
深 圳</w>
葡萄 酒</w>
抢 劫</w>
年 间</w>
商 务
真 诚</w>
现 任</w>
麻 醉
c h</w>
租 金</w>
设计 师</w>
报 复</w>
被 判</w>
却 是</w>
苏 丹
订 立</w>
上 海
密 度</w>
替 代
提供 者</w>
亚 太</w>
仪 器</w>
停车 场</w>
充分 利用</w>
水 果</w>
图 形</w>
中 亚</w>
论 点</w>
大 臣</w>
萨 斯
创 伤</w>
灭 绝</w>
借 口</w>
海洋 法</w>
认 同</w>
残 忍</w>
平 静</w>
沙 特</w>
解除 武装</w>
短 暂</w>
并 不
伯 格</w>
再 也</w>
混 凝
象 征</w>
愿 景</w>
乌 兹
长期 以来</w>
公共 服务</w>
中 方</w>
t on</w>
诉 诸</w>
睡 眠</w>
路 易
挖 掘</w>
e st
走 出</w>
法 典</w>
农村 妇女</w>
同 一个</w>
乌兹 别
西班牙 语</w>
警察 部队</w>
长 官</w>
就 是说</w>
0 6</w>
信 中</w>
墨 尔
转 递</w>
d av
债权 人</w>
新 鲜</w>
睡 觉</w>
策 划</w>
利 物
有 线
下 放</w>
很 小</w>
戏 剧</w>
环 节</w>
心 脏
承包 商</w>
地 上</w>
捍 卫</w>
隧 道</w>
内 外</w>
既 然</w>
a m</w>
细 菌</w>
几内亚 比绍</w>
摊 款</w>
里 程
国内 法</w>
198 8</w>
e x
i y
卧 室</w>
撤 出</w>
亲 属</w>
公 投</w>
更 多地</w>
慢 慢</w>
供应 链</w>
D P</w>
人权 法</w>
化学 武器</w>
创 意</w>
b ar
剧 院</w>
这 使</w>
下 令</w>
时 机</w>
利 斯</w>
税 务</w>
字 符</w>
交 往</w>
借 鉴</w>
不 列
海 盗</w>
活 动
示 威</w>
4 000</w>
不列 颠</w>
驱动 器</w>
旅 费</w>
室 内</w>
c c
标 识</w>
看 作</w>
同 等</w>
ro s
混凝 土</w>
e y</w>
i t</w>
自由 化</w>
窗 户</w>
将 要</w>
气 象
浓 度</w>
占 领
延 伸</w>
防 范</w>
必 然</w>
存 储
双 重</w>
亚 历
平 等
发展 权</w>
支 撑</w>
此 时</w>
同 情</w>
飞行 员</w>
权 能</w>
. 9</w>
视 性</w>
好 莱坞</w>
青 年人</w>
可 见</w>
推 特</w>
控制 系统</w>
收 回</w>
控制 器</w>
桥 梁</w>
仿 真</w>
股 价</w>
不 同
到 处</w>
预 警</w>
小 组
阿 勒
同 学</w>
罕 见</w>
拆 除</w>
哲 学</w>
跨 界</w>
使用 者</w>
振 兴</w>
从 中</w>
曼 谷</w>
步 伐</w>
纠 纷</w>
同 期</w>
健 身</w>
奥林 匹
克 里</w>
半 岛</w>
第 一步</w>
相关 性</w>
三分 之二</w>
一 片</w>
交易 所</w>
加 密</w>
发 了</w>
进 行
0 8</w>
特 使</w>
备 金</w>
公 告</w>
疼 痛</w>
希 尔</w>
l u
山 区</w>
规 律</w>
卡罗 来
想 起</w>
哪 儿</w>
万 名</w>
日 益
现 实
生 气</w>
供 水</w>
种 种</w>
图 表</w>
击 中</w>
相 结合</w>
仇 外</w>
消 极</w>
0 7</w>
保 守</w>
确 信</w>
施 加</w>
技术 支持</w>
零 零
终 了</w>
车 队</w>
电 站</w>
游 行</w>
样 本</w>
萨 尔
前 锋</w>
尼 奥</w>
j ohn
复杂 性</w>
选 择
焦 虑</w>
地 下
墨尔 本</w>
恶 劣</w>
利物 浦</w>
祈 祷</w>
1 60</w>
冬 季</w>
杀 人</w>
这 起</w>
早 就</w>
c k
航 天
蒙特 利尔</w>
保守 党</w>
18 0</w>
1 1.
紧张 局势</w>
不 见</w>
h am
年 级</w>
演 习</w>
孕 妇</w>
石 油
列 车</w>
美联 社</w>
民 意
控 件</w>
大 门</w>
放 缓</w>
撤 回</w>
游 泳池</w>
运 营
不 受</w>
不 人道</w>
体 面</w>
不 结
一 体</w>
保加 利亚</w>
清 洗</w>
开 采</w>
明 智</w>
el l</w>
精 度</w>
歧 视性</w>
警 报</w>
妥 协</w>
京 都</w>
a t</w>
莱 德</w>
力 支持</w>
网 球</w>
功 率</w>
校 长</w>
色 彩</w>
粉 丝</w>
抵 押</w>
太 空</w>
恐 吓</w>
r a</w>
枪 击</w>
边 缘
无论 如何</w>
煽 动</w>
迎 接</w>
充 满
分 割</w>
行 李</w>
套 房</w>
太 太</w>
愚 蠢</w>
索 引</w>
复 原</w>
为 重要</w>
0 3</w>
购 物
姐 妹</w>
第二 条</w>
分 区</w>
迈 出</w>
午 餐</w>
民 警</w>
多 边
尽 早</w>
脱 欧</w>
当 今</w>
工作 量</w>
阿勒 颇</w>
线 图</w>
审 核</w>
无 辜</w>
脸 上</w>
人 员
中 非</w>
证 词</w>
所 得</w>
二 氧化
计 量</w>
斯科 特</w>
编 码</w>
有 望</w>
a d</w>
无 法
慈 善
骄 傲</w>
林 业</w>
旅 行
性 化</w>
弟 弟</w>
一 流</w>
初 期</w>
机 械
反 弹</w>
国际 货币
里程 碑</w>
深 化</w>
不可 避免</w>
漫 长</w>
教育 部</w>
危 及</w>
可 疑</w>
大 幅度</w>
犹太 人</w>
军 备</w>
有 史
有史 以来</w>
肌 肉</w>
英 语
判 例</w>
力 求</w>
变 更</w>
公 安
预算 外</w>
难 道</w>
塔 吉
一 把</w>
未 决</w>
on e</w>
住 所</w>
世界 贸易
走 进</w>
数 值</w>
W indow
出租 车</w>
精 彩</w>
. 3</w>
10 5</w>
编 列</w>
魅 力</w>
业 主</w>
申 报</w>
勇 敢</w>
依 赖
饮 用水</w>
c e</w>
筹备 工作</w>
测 定</w>
大 力</w>
看 出</w>
消 灭</w>
调 指出</w>
强 调指出</w>
解 放</w>
空 袭</w>
通货 膨胀</w>
截 止</w>
编 号</w>
g e
很 棒</w>
主 机</w>
l in
自 治
服 用</w>
勇 气</w>
得 知</w>
格 雷
摩 托
上 万</w>
统计 局</w>
疗 法</w>
公共 汽车</w>
当 作</w>
天 然</w>
15 00</w>
空 气
走 上</w>
两 家</w>
得 出
得出 结论</w>
原 料</w>
跨 国
手 续</w>
经济 学</w>
对话 框</w>
两 倍</w>
神 秘</w>
联合国 开发计划署</w>
六 年</w>
华 尔
布 什
前 任</w>
展 望</w>
脚 本</w>
力 学</w>
边缘 化</w>
伴 随</w>
内 加尔</w>
al d
写 作</w>
措 辞</w>
联 黎</w>
欧洲 委员会</w>
单 个</w>
伊 拉
斯洛 伐
一 对</w>
尊 敬</w>
某种 程度</w>
M L</w>
北 美</w>
用 以</w>
塞 内加尔</w>
恢 复
下 滑</w>
队 长</w>
激 进</w>
成 千
英 超</w>
中 止</w>
工 商
创 始
遗 传</w>
放 置</w>
心 里</w>
集 中
除 外</w>
上 网</w>
抵 制</w>
德 国
流 入</w>
缴 纳</w>
检 索</w>
严 格
要 点</w>
中 新
召 集</w>
七 个</w>
有 待</w>
养老 金</w>
校 园</w>
b c</w>
体育 场</w>
不 必要</w>
丑 闻</w>
替 换</w>
维多 利亚</w>
2 6
船 上</w>
i d</w>
规 格</w>
橄 榄
媒体 报道</w>
审 讯</w>
养 护</w>
战 士</w>
男女 平等</w>
核 能</w>
小 孩</w>
朝 着</w>
亚太 经
污染 物</w>
日 常
福 克斯</w>
en n
木 材</w>
保险 公司</w>
研 制</w>
阿 卜
成千 上万</w>
专 辑</w>
战 术</w>
阿尔 巴
图 为</w>
拿 出</w>
孤 立</w>
可行 性</w>
乌 拉圭</w>
一 百
各个 方面</w>
C h
联系 人</w>
亲 自</w>
缺 点</w>
征 求</w>
卡梅 伦</w>
符 号</w>
回 事</w>
演 示</w>
菲 利
几 分钟</w>
摄 影</w>
指导 方针</w>
竞 选
文 献</w>
院 长</w>
原 则
国际货币 基金组织</w>
禁 运</w>
分 担</w>
s ch
送 给</w>
会 费</w>
m or
星 级</w>
高度 重视</w>
t r
石 头</w>
屋 顶</w>
威 廉
蛋 白
食 品
休 闲</w>
关键 问题</w>
增 至</w>
认 知</w>
各种 各样</w>
该 司</w>
开 放
动 议</w>
利 息</w>
en d
码 头</w>
锁 定</w>
漏 洞</w>
收 获</w>
最 早</w>
内 在</w>
议 者</w>
阿 布
圣 诞</w>
温 和</w>
心脏 病</w>
艰 苦</w>
捷 克共和国</w>
a y</w>
零售 商</w>
m on
摄 影
亲 密</w>
面 包</w>
必 不可
契 约</w>
不 明</w>
两 级</w>
切 割</w>
路 线图</w>
极端 主义</w>
一 大</w>
基本 权利</w>
维护 者</w>
轰 炸</w>
政 客</w>
届 时</w>
亚太经 社会</w>
三 十
i on</w>
之 旅</w>
夜 晚</w>
空 军</w>
究 竟</w>
八 届</w>
总 经理</w>
代 替</w>
部 委</w>
即 便</w>
僵 局</w>
民意 调查</w>
东 欧</w>
占 有</w>
杀 伤</w>
立 刻</w>
依 法</w>
无 人</w>
支 配</w>
德 拉</w>
广 泛
上 半年</w>
哥 哥</w>
兴 奋
学 金</w>
磁 盘</w>
所 用</w>
纳 州</w>
布 局</w>
书 籍</w>
显 示
初 次</w>
州 市</w>
性 格</w>
今 年
罗 伯特</w>
昨 日</w>
七 年</w>
复 兴</w>
商 品
脂 肪</w>
处理 器</w>
配 额</w>
射 击</w>
拍 卖</w>
玻利 维亚</w>
参 赛</w>
扭 转</w>
感到 遗憾</w>
假 如</w>
建 成</w>
到 期</w>
纳 米
经 营
最 具</w>
抵 抗</w>
主 导
叙 述</w>
联合国 大会</w>
威 廉</w>
会 儿</w>
称 赞</w>
耐 心</w>
创始 人</w>
财政 部</w>
喜 爱</w>
富 裕</w>
必不可 少</w>
性 别
和平 解决</w>
反 复</w>
巴 拿
世界贸易 组织</w>
信 誉</w>
联邦 调查局</w>
已 知</w>
佛罗里 达州</w>
最 快</w>
牙 买
欧洲 人</w>
at ion
恐怖 袭击</w>
面 板</w>
土 地
走 私</w>
夫 妻</w>
完 整
荣 幸</w>
精 简</w>
撰 写</w>
将 近</w>
内部 监督</w>
抵 消</w>
应 由</w>
带 走</w>
回 复</w>
阵 线</w>
宝 贝</w>
红 十字
规 章</w>
旧 金
十二 届</w>
证 券
郊 区</w>
挑 战
好 好</w>
感 激</w>
开 关</w>
克 力</w>
乐 趣</w>
卓 越</w>
安 东
贩 毒</w>
钥 匙</w>
执法 人员</w>
营养 不良</w>
景 观</w>
曲 线</w>
测 试
交 换
名 人</w>
弗 兰
噪 音</w>
激 活</w>
短 信</w>
百分 之
澳大 利亚
难 题</w>
市场 经济</w>
慷 慨</w>
本 港</w>
1 40</w>
训 练
i c</w>
c o</w>
美 食</w>
竞选 活动</w>
抗 议者</w>
所 有者</w>
A l
头 部</w>
接 纳</w>
酒 精</w>
总 监</w>
介 入</w>
0 4</w>
10 .
发 现
驱动 程序</w>
毫 无</w>
盈 利</w>
伊斯兰 教</w>
吃 饭</w>
下 周</w>
实 物</w>
陪审 团</w>
发 育</w>
名 册</w>
保护 区</w>
追 究</w>
中 美洲</w>
i e
同 志</w>
线 性</w>
流 感</w>
激 光</w>
2 4
运 输
据 悉</w>
导 入</w>
泰 勒</w>
怎么 办</w>
尊 重
减 免</w>
而 已</w>
负 面</w>
做 些</w>
它 会</w>
没 事</w>
如 同</w>
味 道</w>
买 卖</w>
系统 地</w>
饭 店</w>
墨西 哥
at h
尼 加拉
知 名</w>
以 至于</w>
常规 武器</w>
0 000</w>
冬 天</w>
减 缓</w>
队 友</w>
破坏 性</w>
夺 得</w>
尼加拉 瓜</w>
改革 开放</w>
注 射</w>
年 期</w>
教 徒</w>
周 知</w>
床 上</w>
日 报</w>
公 式</w>
童 工</w>
产 业
连 续
联 塞</w>
圆 桌
二 零零
2 3
重新 启动</w>
岩 石</w>
圆桌 会议</w>
崛 起</w>
得 多</w>
收 养</w>
挣 扎</w>
幼 儿</w>
哥伦 比亚
第 一位</w>
伊拉 克
共产 党</w>
飓 风</w>
液 体</w>
低 成本</w>
英国 人</w>
长 远</w>
巧 克力</w>
简 介</w>
外 观</w>
行政 部门</w>
一 面</w>
舞 蹈</w>
一 颗</w>
易 于</w>
操 纵</w>
小 额</w>
一 月</w>
第三 届</w>
注 目</w>
u k
I D</w>
等 于</w>
跨国 公司</w>
范 畴</w>
0 2</w>
斐 济</w>
中新 网</w>
中 将</w>
其 后</w>
凌 晨</w>
既 定</w>
可 信</w>
中 午</w>
一 度</w>
课 题</w>
门 口</w>
宠 物</w>
录 像</w>
理查 德</w>
社会 福利</w>
日常 生活</w>
众 所
尊重 人权</w>
西 斯</w>
多 米
i an
诸 多</w>
买 方</w>
核 试验</w>
运营 商</w>
历史 性</w>
长 达</w>
电 缆</w>
比 分</w>
一 无
派 对</w>
交 叉</w>
多 元
一 枚</w>
卫 队</w>
运动 会</w>
犯罪 行为</w>
众所 周知</w>
几 种</w>
本 案</w>
人 事</w>
里 约
工作 文件</w>
实 用</w>
牧 师</w>
而 来</w>
早 日</w>
起 飞</w>
预防 性</w>
安 娜</w>
切尔 西</w>
外交 政策</w>
移 植</w>
仲 裁
高等 法院</w>
牙买 加</w>
2 5
语 音</w>
股 权</w>
土 著
不 让</w>
职 员</w>
被 占
被占 领土</w>
巴 尔
中 场</w>
兴奋 剂</w>
坚 信</w>
春 天</w>
电 力
旧金 山</w>
喀 麦
先 决
第十 四条</w>
急 剧</w>
le y</w>
大 批</w>
全民 投票</w>
无 害</w>
定 价</w>
一 切
采 矿</w>
电 器</w>
10 9</w>
资 讯</w>
瓦 多</w>
先决 条件</w>
b e
同 次</w>
苏丹 政府</w>
重大 进展</w>
提供 商</w>
尴 尬</w>
此 机会</w>
6 000</w>
最 长</w>
l an
金融 市场</w>
通 往</w>
系 数</w>
牛 奶</w>
C P
勘 探</w>
健康 状况</w>
届 会</w>
字 母</w>
空 白</w>
不太 可能</w>
执 政</w>
肇 事
自 行</w>
注 入</w>
评 级</w>
卡 特</w>
三 大</w>
参 加
整 理</w>
获 得
a st
一 揽
之 以
马 德里</w>
殖民 化</w>
悲 伤</w>
赞 比亚</w>
一揽 子</w>
旅 程</w>
学 率</w>
受 到
优 先
生产 能力</w>
线 索</w>
一 类</w>
个 体</w>
动 物
摩托 车</w>
邮 报</w>
毕业 生</w>
残 酷</w>
萨尔 瓦多</w>
I I</w>
广 东</w>
顶 部</w>
个 性</w>
驾 驶
团 长</w>
完整 性</w>
无 家
折 扣</w>
时 至</w>
休 息
塞 人</w>
无线 电</w>
无家 可
院 校</w>
公共 政策</w>
凯 恩</w>
垃 圾
受 过</w>
十 五届</w>
co m
预 见</w>
鱼 类</w>
无 视</w>
热 爱</w>
境 外</w>
格 达</w>
欺 骗</w>
零 件</w>
手 指</w>
个 案</w>
托 马斯</w>
受 损</w>
假 定</w>
流 通</w>
不 但</w>
et t
克 拉克</w>
发现 自己</w>
阴 谋</w>
大 学
多 万</w>
回 返</w>
印 第
b u
总 量</w>
三 项</w>
干 什么</w>
填 写</w>
画 面</w>
开幕 式</w>
节 约</w>
迈 克</w>
缺 席</w>
b o
肇事 者</w>
注 册
文 职人员</w>
合 约</w>
天 堂</w>
端 口</w>
绝 望</w>
道 理</w>
第十 二
行 星</w>
外 长</w>
会 面</w>
进行 谈判</w>
在 场</w>
手 动</w>
助 长</w>
停 留</w>
流 动性</w>
p .
压 缩</w>
萨斯 州</w>
言 之</w>
黄 色</w>
预防 措施</w>
帝 国</w>
令人 满意</w>
大 气</w>
津 巴布
无线 网络</w>
结构 性</w>
特 里</w>
喀麦 隆</w>
采 纳</w>
四 名</w>
格 林</w>
爆炸 物</w>
v er
特 人</w>
非洲 大陆</w>
河 流</w>
为 本</w>
a j
后 代</w>
克鲁 兹</w>
自 决</w>
D N
配 件</w>
尽 力</w>
高 峰</w>
东 亚</w>
透 社</w>
服务 业</w>
生 病</w>
欧 安
路 透社</w>
商 标</w>
获 益</w>
发 电</w>
i r</w>
确 性</w>
终 身</w>
吉尔 吉
数 以
全 年</w>
处 在</w>
承 担
电 压</w>
二氧化 碳</w>
政府 部门</w>
精 英</w>
猜 测</w>
隔 离
高 管</w>
八 个</w>
津巴布 韦</w>
严 肃</w>
基 会</w>
署 长</w>
正 当</w>
帮 忙</w>
气 温</w>
更 是</w>
节 能</w>
行 为
样 品</w>
联 利</w>
引人 注目</w>
早 晨</w>
立法 会</w>
反 应
浪 漫</w>
和平 利用</w>
掩 盖</w>
国 有
资 本
m ich
C A
便 于</w>
S t
虚 假</w>
外 界</w>
切 实
借 此机会</w>
党 派</w>
构 想</w>
跳 舞</w>
阿尔巴 尼亚</w>
常 会</w>
实 践
开 玩笑</w>
快 速
经 纪
进 口
当 地
序 列</w>
d on
预 报</w>
巴 士</w>
n i
笔 记
图 标</w>
海 事</w>
多 种
履 行
总 会</w>
气 象</w>
常 用</w>
尔 多
元 区</w>
蛋 糕</w>
S A
申 明</w>
深 信</w>
外 联</w>
重 叠</w>
先 后</w>
激 动</w>
延 续</w>
欧 元区</w>
草 稿</w>
某 一</w>
签 发</w>
乌兹别 克斯坦</w>
散 发</w>
受 害</w>
审 查
or t
不 适</w>
有 辱</w>
民 调</w>
表示 感谢</w>
经 共体</w>
封 闭</w>
案 情</w>
体 内</w>
敌 对
急 性</w>
j am
新 生
ac k
跟 随</w>
一九 九
最 终
斯 德
原 谅</w>
巨 头</w>
陆 地</w>
克 拉</w>
志 愿</w>
判 定</w>
布 雷
偶 尔</w>
国民 议会</w>
十 分
多 久</w>
参 见</w>
大 胆</w>
比 克</w>
一 杯</w>
决 定性</w>
姑 娘</w>
哥 尔
近 日</w>
时 光</w>
水 域</w>
我 来</w>
电 流</w>
b a</w>
场 上</w>
人 工</w>
世界 大战</w>
各 州</w>
s u
为 例</w>
上 班</w>
预 先</w>
缴 款</w>
第五 次</w>
答 应</w>
格 林
斯洛伐 克</w>
积 分</w>
出 庭</w>
新 增</w>
中 旬</w>
而 易
斯德 哥尔
忍 受</w>
摄像 机</w>
传染 病</w>
一 日</w>
孤 独</w>
蛋白 质</w>
起 点</w>
奖 学金</w>
值得 注意</w>
add .1</w>
假 日</w>
销 商</w>
10 1</w>
雷 达</w>
a ch
帽 子</w>
中 所</w>
B A</w>
激 发</w>
年 内</w>
董 事
阴 影</w>
奥 委会</w>
把 握</w>
拥 抱</w>
统 筹</w>
或 缺</w>
内 战</w>
沉 重</w>
at t
俄 亥
该 州</w>
打 造</w>
行 程</w>
巴 格达</w>
别 墅</w>
血 压</w>
接 管</w>
a el
莱 斯</w>
加 载</w>
扭 曲</w>
容 纳</w>
第十 九
弹 性</w>
慢 性</w>
泡 沫</w>
一 刻</w>
斯洛 文
行 驶</w>
b ur
农 产品</w>
黑 客</w>
不可 或缺</w>
论 性</w>
超 市</w>
飞 往</w>
入 学</w>
争 夺</w>
采 集</w>
激 情</w>
杰 出</w>
塔吉 克斯坦</w>
省 份</w>
这 时</w>
克 拉
该 条</w>
代理 人</w>
表 达
应 为</w>
净 额</w>
量 化</w>
密切 相关</w>
跨 越</w>
传 达</w>
购 置</w>
独 自</w>
推 移</w>
文 中</w>
纯 粹</w>
热 门</w>
征 收</w>
新闻 网</w>
失 误</w>
经济 委员会</w>
总 的
e h
从 不</w>
国防 军</w>
归 还</w>
诉 讼
吸 毒</w>
少 女</w>
u s</w>
心理 健康</w>
主管 部门</w>
构 造</w>
不 太</w>
连 接
冰 箱</w>
具体 措施</w>
违 法</w>
助 手</w>
残疾 儿童</w>
工 具
见 解</w>
g ar
借 助</w>
两 份</w>
协调 会</w>
可 怜</w>
第六 条</w>
登 上</w>
干 燥</w>
回 合</w>
联 科</w>
斯德哥尔 摩</w>
多 重</w>
尔 多</w>
益 于</w>
政 变</w>
养 恤</w>
提 问</w>
底 部</w>
有 意</w>
字 符
非 殖民化</w>
迷 人</w>
邮 政</w>
航 行</w>
随 机</w>
利 用
人 选</w>
广 阔</w>
大 赦</w>
奥 会</w>
声 誉</w>
一 艘</w>
逆 转</w>
罪 名</w>
小 镇</w>
天 津</w>
进 而</w>
固 定
日 元</w>
不 如</w>
抨 击</w>
1 12</w>
年 龄
大 火</w>
克 逊</w>
监 护
合作 社</w>
奖 牌</w>
视 角</w>
在 家</w>
e z</w>
无 数</w>
弗 吉
发表 声明</w>
此 案</w>
在 乎</w>
面 试</w>
配 置
章 程</w>
椅 子</w>
买 家</w>
大 不列颠</w>
权 力
分 组</w>
城市 化</w>
犹 太</w>
吉 布
巴 塞尔</w>
智能 手机</w>
流行 病</w>
到 位</w>
初 选</w>
多 家</w>
史蒂 夫</w>
加 深</w>
理 学</w>
简 短</w>
席 会议</w>
天 使</w>
名 叫</w>
访 者</w>
音 频</w>
托 管</w>
职 类</w>
慈善 机构</w>
w w
一 次
R C</w>
编 程</w>
不 足
得 起</w>
吉尔吉 斯
恩 斯</w>
依赖 于</w>
19 70</w>
作出 反应</w>
福 特</w>
看 不到</w>
展 现</w>
进 出口</w>
不结 盟
不结盟 运动</w>
e y
览 会</w>
冰 岛</w>
分 娩</w>
歇 尔</w>
毫 不</w>
心 情</w>
项 卡</w>
选 项卡</w>
订 阅</w>
签 字</w>
没 什么</w>
聊 天</w>
s t</w>
十 字</w>
妇 发</w>
垄 断</w>
罗姆 人</w>
应 力</w>
停 车</w>
剂 量</w>
另 一名</w>
切 尔</w>
审 视</w>
纷 纷</w>
弱 点</w>
大 于</w>
当 年</w>
徒 刑</w>
烟 草</w>
结 论性</w>
大 道</w>
生产 商</w>
船 员</w>
感 染
切 换</w>
北京 市</w>
指 望</w>
毛里 求
扣 押</w>
微 型</w>
附 上</w>
科技 咨询</w>
阿 森
深 入
塑 造</w>
禁 用</w>
服务 中心</w>
城 堡</w>
基本 建设</w>
冷 战</w>
传 送</w>
198 6</w>
付 费</w>
牵 头</w>
也 就是说</w>
家 乡</w>
数 千
加 斯</w>
作 证</w>
士 学位</w>
热 带</w>
大 厅</w>
合 金</w>
前 来</w>
里 奥</w>
通 讯
微 软</w>
阵 地</w>
文 斯</w>
事务 处</w>
原则 上</w>
谋 杀
内 心</w>
定 居</w>
一 会儿</w>
列 举</w>
身份 证</w>
知 名
国 有</w>
鉴 定</w>
提 出
照 明</w>
上 限</w>
审查 会议</w>
南 部
第一 阶段</w>
波 多
追 加</w>
ber t
目 睹</w>
销售 额</w>
南部 非洲</w>
联 检</w>
多元 化</w>
外交 官</w>
第二 阶段</w>
经纪 人</w>
1 11</w>
佛罗里 达</w>
A n
营 业</w>
塞 族</w>
刑事 法庭</w>
伙 计</w>
基 层</w>
纳 税
意 志</w>
不 知</w>
普遍 性</w>
统计 数字</w>
东 省</w>
排 序</w>
莫 桑
学 到</w>
ar d</w>
C D</w>
订 购</w>
看 过</w>
警 卫</w>
格 斯</w>
纽约 市</w>
毛里求 斯</w>
后 期</w>
门 票</w>
10 4</w>
马 克
巴拿 马</w>
初 始</w>
幻 想</w>
原 本</w>
继续 下去</w>
宝 宝</w>
亚 马
举 报</w>
警 务</w>
m it
榜 样</w>
波多 黎
前 后</w>
八 年</w>
马 其
学 习
检 讨</w>
传 统
董事 长</w>
激 增</w>
st e
联合国 秘书处</w>
布 拉</w>
头 脑</w>
表 中</w>
芯 片</w>
泽 民</w>
波多黎 各</w>
19 67</w>
异 议</w>
b ri
臭 氧</w>
向 导</w>
说 出</w>
市 政</w>
1 14</w>
都 市</w>
界 限</w>
格 里
收 藏</w>
c r
加 利
想 想</w>
老 鼠</w>
正 面</w>
个人 信息</w>
下 半年</w>
海 底</w>
布 罗
周 边</w>
er s
特 殊
原 籍</w>
信 件</w>
dav id
任 用</w>
华 州</w>
生 动物</w>
典 礼</w>
巴 林</w>
民主 党人</w>
一 倍</w>
据 此</w>
10 2</w>
置 信</w>
纳税 人</w>
江 泽民</w>
深 感</w>
苦 难</w>
此 举</w>
公共 行政</w>
一 事</w>
无 限</w>
b r
莫桑 比克</w>
认 捐</w>
区 内</w>
搭 档</w>
思 路</w>
市 政府</w>
媒 介</w>
2. 5</w>
你 好</w>
最 有</w>
已 于</w>
市场 准入</w>
走 廊</w>
忠 诚</w>
惊 喜</w>
咨 商</w>
可 否</w>
危 险
困 惑</w>
医疗 保健</w>
令人 震惊</w>
书 面
裁 判</w>
误 解</w>
哈 根</w>
奥 尔
过 时</w>
阿 密</w>
杰 克逊</w>
回 国</w>
汇 款</w>
入 口</w>
信 函</w>
十 届</w>
美 洲
奇 迹</w>
查 尔斯</w>
适 用
俄亥 俄
散 步</w>
篮 球</w>
南 省</w>
陆 军</w>
1 25</w>
尽 量
东 耶路撒冷</w>
紧 缩</w>
听 见</w>
疫 情</w>
冷 静</w>
密 集</w>
聘 用</w>
配置 文件</w>
相 处</w>
迈 阿密</w>
弗 朗
灰 色</w>
卫生 设施</w>
离 子</w>
具体 情况</w>
戴 维斯</w>
好 事</w>
文化 遗产</w>
反 叛</w>
行动 者</w>
拉 德</w>
学术 界</w>
金融 服务</w>
金 斯</w>
闭 会</w>
电话 号码</w>
领 土
经济 社会</w>
连续 性</w>
卷 入</w>
俄亥俄 州</w>
艾 伦</w>
现 时</w>
拥 挤</w>
形 容</w>
一 大
re v
诞 生</w>
破 裂</w>
市 政
头 上</w>
外 汇
不 佳</w>
大 程度</w>
两国 关系</w>
高 科技</w>
不 停</w>
议 案</w>
姐 姐</w>
刑事 诉讼</w>
地 质</w>
性 骚扰</w>
法律 文书</w>
报 名</w>
指 明</w>
车 上</w>
手 里</w>
宾 馆</w>
斯洛文 尼亚</w>
安德 鲁</w>
多 方面</w>
联合 共和国</w>
澳 门</w>
业 界</w>
E M
东 方</w>
转 会</w>
苏 尔</w>
所在 地</w>
特 许</w>
198 7</w>
务 人员</w>
穷 国</w>
士 顿</w>
谋 求</w>
概 况</w>
捕 捞</w>
篇 文章</w>
采取 有效</w>
寒 冷</w>
天 内</w>
讽 刺</w>
裂 变</w>
章 节</w>
放 心</w>
有 毒</w>
局 部</w>
绳 之以
绳之以 法</w>
免 疫
街 上</w>
整 天</w>
改 组</w>
华尔 街</w>
神 圣</w>
国 政府</w>
创造 性</w>
病 率</w>
举 动</w>
格 局</w>
防 护</w>
第七 条</w>
伊斯 坦
批 款</w>
总 局</w>
六 条</w>
埃 尔</w>
岛 上</w>
尼亚 联合共和国</w>
坦桑 尼亚联合共和国</w>
恐 怕</w>
指 向</w>
接 种</w>
医 药</w>
198 5</w>
13 .
每 人</w>
医疗 保险</w>
薄 弱</w>
心 灵</w>
卫 星
开发 人员</w>
单 身</w>
子 弹</w>
树 立</w>
国际 劳工
科学 技术</w>
古 代</w>
m ad
野 生动物</w>
新 政府</w>
百分 点</w>
大 城市</w>
印第 安
资 深</w>
第四 届</w>
心 中</w>
联合国 总部</w>
G DP</w>
着 重
创 立</w>
哥 本
房 产</w>
un d
比 额</w>
女 生</w>
助 金</w>
报 警</w>
总 之</w>
口 袋</w>
暂 行</w>
一 分钟</w>
1. 5</w>
穿 越</w>
激 素</w>
事务 所</w>
身 心</w>
替代 品</w>
欧安 组织</w>
3 50</w>
i a
审 批</w>
沙 漠</w>
马 耳
新 年</w>
导 向</w>
ic k
享 用</w>
拉 加</w>
配 套</w>
热 点</w>
等 到</w>
振 动</w>
发生 变化</w>
国家 联盟</w>
斯 加</w>
n a</w>
那 州</w>
立 陶
南 北</w>
系 列
评 论
创 新
拓 展</w>
准 备金</w>
这 条</w>
用 尽</w>
夜 间</w>
一 根</w>
肥 胖</w>
身份 验证</w>
难以 置信</w>
m c
字符 串</w>
生 殖
厘 米</w>
天 主教</w>
首 位</w>
估 算</w>
次 世界大战</w>
星期 日</w>
支 票</w>
本 土</w>
新闻 稿</w>
降 至</w>
廉 价</w>
腺 癌</w>
大 声</w>
墙 上</w>
修 理</w>
马耳 他</w>
玉 米</w>
爱 荷
咎 于</w>
格 尔</w>
思 议</w>
出 生
喜 剧</w>
水 中</w>
斯 图
归 咎于</w>
巴 斯</w>
斯 塔</w>
哥本 哈根</w>
经 社
默 德</w>
凯 特</w>
不可 思议</w>
遥 远</w>
s e</w>
宝 石</w>
学 员</w>
拦 截</w>
制 成</w>
凯 尔
S h
人 中</w>
凭 借</w>
敏 感
作出 努力</w>
相 比
教 室</w>
发 票</w>
几 点</w>
科 研</w>
i el
士 兰</w>
投 标</w>
海 啸</w>
一 节</w>
营 业
私 有
消 防</w>
赔 偿
民 事
中 小型</w>
版 权</w>
反 而</w>
令人 鼓舞</w>
首 歌</w>
爱 丁
一次 性</w>
传 真</w>
一 封</w>
基 督</w>
兑 现</w>
动 脉</w>
伊斯坦 布尔</w>
终 端</w>
维 生素</w>
讲 座</w>
战 场</w>
救 灾</w>
反 思</w>
绘 制</w>
人 身
树 木</w>
更 高</w>
持久 和平</w>
10 3</w>
盗 窃</w>
迫 害</w>
显 而易
显而易 见</w>
阿森 纳</w>
集 装
好 消息</w>
亨 利</w>
生产 率</w>
习 惯
机 票</w>
侮 辱</w>
警 惕</w>
累 积</w>
大 会
强 硬</w>
录 音</w>
杰 夫</w>
野 生</w>
缓 存</w>
此 基础</w>
两 场</w>
费 率</w>
电 厂</w>
亏 损</w>
联合国 儿童
联合国儿童 基金会</w>
取 向</w>
高 温</w>
敌对 行动</w>
势 力</w>
摄影 师</w>
斯 堡</w>
匿 名</w>
ch ri
序 言</w>
友 好
p ar
照 会</w>
萨 德</w>
法律 顾问</w>
节 奏</w>
从 来
甄 选</w>
凯尔 特人</w>
务 实</w>
更 长</w>
般 的</w>
布 兰
轻 微</w>
死 者</w>
按 摩</w>
201 8</w>
今天 上午</w>
教 皇</w>
克 利
相比 之下</w>
房 价</w>
分 支</w>
稍 后</w>
空 运</w>
简 直</w>
分 数</w>
非 索</w>
过 分</w>
负 载</w>
领土 完整</w>
分 辨
经社 理事会</w>
补 助金</w>
跟 着</w>
真 理</w>
段 落</w>
坦 克</w>
动 画</w>
综合 性</w>
足 球
碰 撞</w>
挂 钩</w>
白 天</w>
键 盘</w>
救 护
常 任
结 算</w>
大 赛</w>
近 几
不 行</w>
P C</w>
送 交</w>
聘 请</w>
传 球</w>
选 举
穆 罕
从来 不</w>
意 识
国际劳工 组织</w>
鼠 标</w>
限 期</w>
卖 方</w>
最低 工资</w>
获 准</w>
互 利</w>
邪 恶</w>
亚马 逊</w>
雷 德</w>
威廉 姆斯</w>
克 萨斯州</w>
拉 特</w>
全 文</w>
不 敢</w>
输 给</w>
提 倡</w>
自 主权</w>
之 地</w>
再 度</w>
运 转</w>
十 三届</w>
枪 杀</w>
跑 步</w>
搬 迁</w>
全 额</w>
哈 利</w>
p er
种族 灭绝</w>
布 斯</w>
制 备</w>
数据 中心</w>
黑 山</w>
致 使</w>
法 外</w>
穆罕 默德</w>
Add .1</w>
神 奇</w>
毫 不
厕 所</w>
p a
据 估计</w>
百 姓</w>
动物 园</w>
C E
公 主</w>
复 合</w>
an k
立 学校</w>
t er</w>
结构 调整</w>
这 句</w>
数 千</w>
意识 形态</w>
氛 围</w>
威 斯
之 类</w>
i st
据 报</w>
多 样</w>
除 此
事实 证明</w>
映 射</w>
因 子</w>
探 测</w>
国 旗</w>
原子 能
追 回</w>
法 索</w>
co l
M ar
14 .
总的 来说</w>
孕 产妇</w>
该 党</w>
泄 漏</w>
行 列</w>
捕 获</w>
专业 知识</w>
j o
爱荷 华州</w>
综 述</w>
调 试</w>
脸 谱</w>
一 款</w>
几 位</w>
分辨 率</w>
与 会</w>
无人 机</w>
菲利 普</w>
高 出</w>
救护 车</w>
功 能
辉 煌</w>
爱 德
外 汇</w>
所 能</w>
滑 雪</w>
抓 获</w>
坚 实</w>
挽 救</w>
印 尼</w>
操 守</w>
那 位</w>
上 来</w>
利 益
开 启</w>
键 入</w>
村 民</w>
隔离 墙</w>
灵 感</w>
推 特
补 助</w>
奴 隶</w>
鼻 子</w>
管理 器</w>
捷 克</w>
意大 利
人权 宣言</w>
充 当</w>
秋 季</w>
权力 下放</w>
项 下</w>
艰 巨</w>
不 良
研究 员</w>
波 士顿</w>
司法 制度</w>
性 行为</w>
这 两项</w>
每 当</w>
营 利</w>
台 湾
P S</w>
进 化</w>
安 慰</w>
高尔 夫</w>
陪 同</w>
参加 者</w>
药 物
广 告
专 长</w>
加 热</w>
膝 盖</w>
模 特</w>
违 约</w>
见 下文</w>
托 尼</w>
汽 油</w>
坐 下</w>
m er
采取 任何</w>
沙 发</w>
爱 好
影 像</w>
再 见</w>
在此 期间</w>
获 释</w>
而 出</w>
四 川</w>
仅 限于</w>
re s
加利 福
间 谍</w>
携 手</w>
差 不多</w>
放射 性</w>
平 行</w>
p et
宽 容</w>
度假 村</w>
税 率</w>
下 述</w>
次 序</w>
消息 人士</w>
过 滤</w>
人 质</w>
1 15</w>
航 天</w>
排 队</w>
令人 遗憾</w>
深 切</w>
诚 信</w>
宣 传
7 5%</w>
指 引</w>
延 期</w>
否 决</w>
卡罗来 纳州</w>
绝 不</w>
记 录
老 龄</w>
批 评
蒙 德</w>
适 足</w>
抚 养</w>
英国 政府</w>
汉 语</w>
演 奏</w>
中央 银行</w>
三 条</w>
m ed
略 有</w>
灾 难
不同 于</w>
i m</w>
国际 原子能
国际原子能 机构</w>
灾 区</w>
is h
耳 朵</w>
煤 炭</w>
斯 克</w>
负 担
钢 铁</w>
优 雅</w>
缺 口</w>
普 森</w>
样 式</w>
职业 培训</w>
选 中</w>
电 梯</w>
物 业</w>
198 2</w>
齐 全</w>
正 当
还 原</w>
分 段</w>
反 过来</w>
草 坪</w>
往 来</w>
描 绘</w>
叫 做</w>
土 库
g l
折 磨</w>
镇 压</w>
存 放</w>
介 意</w>
198 4</w>
三 维</w>
t t
菲 尔</w>
丹 尼尔</w>
主 帅</w>
第一 天</w>
库 尔德</w>
话 说</w>
单 词</w>
鸡 蛋</w>
波 特</w>
供 给</w>
灾难 性</w>
圣 经</w>
签 约</w>
国民 经济</w>
触 发</w>
赛 场</w>
稳 步</w>
7 000</w>
视 野</w>
海 湾</w>
包 裹</w>
w il
摩 尔多
实 务</w>
宁 愿</w>
几 十
默 克尔</w>
一 封信</w>
上 任</w>
逃 避</w>
发 病率</w>
战略 性</w>
坚 强</w>
an i</w>
贯 穿</w>
奥斯 卡</w>
无家可 归</w>
卡 因</w>
产 物</w>
10 8</w>
之 为</w>
汇 集</w>
尔 曼</w>
法 人</w>
瑞 安</w>
10 6</w>
殖民 地</w>
那 边</w>
火 车站</w>
禁 毒</w>
出 境</w>
财政 年度</w>
电 脑
密 钥</w>
勃 勃</w>
包 围</w>
爱丁 堡</w>
吉 姆</w>
一 处</w>
个 性化</w>
变 形</w>
该 案</w>
高尔 夫
幼 儿
死 去</w>
固 有</w>
相互 作用</w>
斯 塔
生命 周期</w>
留 给</w>
布 基
下 属</w>
m u
增 设</w>
网 址</w>
音乐 会</w>
明 亮</w>
五 名</w>
星 球</w>
轮 胎</w>
可 用性</w>
开 辟</w>
便 利
无 条件</w>
性别 歧视</w>
指 派</w>
外 国
解 释
议 长</w>
益 处</w>
第三 国</w>
右 翼</w>
桌 面</w>
星期 天</w>
分 手</w>
东 南
纳 法索</w>
布基 纳法索</w>
帖 子</w>
坚 称</w>
迪 拜</w>
间 隔</w>
迟 到</w>
玛 丽
Window s</w>
货 运</w>
选择 性</w>
同 胞</w>
等 教育</w>
基 因
悲 惨</w>
3 3
辆 车</w>
误 差</w>
彻 斯特</w>
案 子</w>
衬 衫</w>
15 .
西 藏</w>
繁 忙</w>
夺 冠</w>
阳 台</w>
部 位</w>
文 职</w>
职 工</w>
生 于</w>
核 算</w>
催 化
译 文</w>
热 线</w>
型 号</w>
增 加
西 欧</w>
水 泥</w>
播 出</w>
发 性</w>
壁 垒</w>
ww w</w>
贯 彻</w>
17 0</w>
宽 敞</w>
感到 高兴</w>
中 东
米 勒</w>
伊拉克 政府</w>
奋 斗</w>
e z
销 量</w>
人 工
手 臂</w>
e f
关 节</w>
后 赛</w>
亮 相</w>
d el
oh am
国防 部长</w>
季 后赛</w>
吸 取</w>
原 油</w>
判 刑</w>
他 于</w>
一 遍</w>
组织 者</w>
u n</w>
祖 国</w>
电 气</w>
该 死</w>
秋 天</w>
自治 区</w>
再 生</w>
巨 大
承担 责任</w>
核 心
详 尽</w>
疗 效</w>
全国 性</w>
闻 名</w>
二 级</w>
大 街</w>
项目 管理</w>
亚 利
贝 利</w>
布 雷</w>
发 誓</w>
长 国</w>
烹 饪</w>
爱 沙
电 网</w>
持久 性</w>
启 发</w>
酋 长国</w>
原 先</w>
中 为</w>
请 愿</w>
人 心</w>
负 荷</w>
生物 学</w>
移 动
暴力 事件</w>
直 播</w>
倾 听</w>
化 工</w>
I P</w>
规 划
开 列</w>
私有 化</w>
中 立</w>
年 里</w>
水 准</w>
智 力</w>
高 水平</w>
即 时</w>
10 7</w>
司法 部门</w>
联 海</w>
放 到</w>
只 不过</w>
变 暖</w>
实 用
南斯拉 夫
嘲 笑</w>
灯 光</w>
礼 貌</w>
航 线</w>
介 质</w>
罗 伯
邮 票</w>
挑战 性</w>
难 过</w>
低 估</w>
逃 跑</w>
眼 镜</w>
东 北</w>
第二 章</w>
亚利 桑
海 域</w>
世界 人权宣言</w>
2 2
更 正</w>
正 好</w>
四 次</w>
被 盗</w>
多 元</w>
增 值</w>
的 是</w>
16 .
大 屠杀</w>
建 模</w>
技术 人员</w>
制 服</w>
代 人</w>
尽量 减少</w>
集装 箱</w>
外 债</w>
创 纪录</w>
达 尔</w>
秒 钟</w>
硬 盘</w>
地理 位置</w>
纳米 比亚</w>
贸易 协定</w>
退 休
赤 贫</w>
r .1</w>
科学 研究</w>
叛 乱</w>
带 动</w>
角 落</w>
IP 地址</w>
总 务</w>
少 量</w>
模 仿</w>
盒 子</w>
上 赛季</w>
之 日起</w>
执 照</w>
难 度</w>
解放 军</w>
休 假</w>
入 学率</w>
内 政</w>
评 注</w>
新 建</w>
奖 项</w>
资金 来源</w>
冷 却</w>
谎 言</w>
in e</w>
快 点</w>
生产 者</w>
1 22</w>
西 州</w>
阿 里</w>
多米 尼
悠 久</w>
贬 值</w>
确 保
课 堂</w>
否 定</w>
收 益
营 造</w>
信 赖</w>
姿 态</w>
研究 生</w>
宇 航
占 用</w>
本 条</w>
目 光</w>
玫 瑰</w>
牙 齿</w>
贝 宁</w>
可 卡因</w>
这 点</w>
制 药</w>
六 月</w>
违 法行为</w>
三 人</w>
骨 折</w>
放 下</w>
各 界</w>
娱 乐
兼 容</w>
零 部件</w>
所 指</w>
暴 行</w>
不 出</w>
发展 趋势</w>
里 奇</w>
1 19</w>
侵 权
伤 势</w>
ro u
光 明</w>
A P
女 演员</w>
首 发</w>
受 访者</w>
收 容</w>
扶 持</w>
招 标</w>
侦 查</w>
领导 者</w>
居 住
商 场</w>
吉尔吉斯 斯坦</w>
迎 来</w>
性 感</w>
递 交</w>
换 句
切 断</w>
产 阶级</w>
洪 都
货币 政策</w>
克 林</w>
d i
专题 讨论</w>
参 考
避 孕
辩 护
纽约 时报</w>
on g
强 行</w>
不 相同</w>
立陶 宛</w>
奥林匹 克</w>
订 约</w>
访 谈</w>
197 8</w>
矿 业</w>
争 吵</w>
起 初</w>
领导 层</w>
巴 塞
舆 论</w>
型 期</w>
转 型期</w>
西 撒哈拉</w>
久 性</w>
斯蒂 芬</w>
五 十
始 于</w>
街 区</w>
地 向</w>
过 多</w>
传 媒</w>
语 法</w>
矿 物</w>
相 一致</w>
经 销商</w>
斯 蒂</w>
公开 赛</w>
曼 斯坦</w>
土库 曼斯坦</w>
我 爱
按 时</w>
阿 萨德</w>
限 额</w>
第六 十
停 下来</w>
在 一起</w>
爱沙 尼亚</w>
总 统
中华 人民共和国</w>
四 分</w>
醒 来</w>
A S
门 户</w>
公 交
管理 机构</w>
保 养</w>
一 小
辅 导</w>
商业 银行</w>
换句 话说</w>
雇 佣
强 烈
模 具</w>
处 长</w>
保 障
保持 一致</w>
心 态</w>
邮 箱</w>
洪都 拉斯</w>
常任 理事</w>
雇 佣</w>
根 除</w>
推特 上</w>
联 委会</w>
明确 规定</w>
最 大
尔 森</w>
1 13</w>
面 包
民 用</w>
尼日 尔</w>
坦桑 尼亚</w>
首 选</w>
财务 报告</w>
I N
越 过</w>
瑞 士
征 税</w>
无 意</w>
杰 里
学 费</w>
纺 织
穆 雷</w>
黄 金
民族 和解</w>
准 许</w>
风 景</w>
8 000</w>
地 为</w>
加 重</w>
玻 璃
热 量</w>
第十 届</w>
一 点
开 火</w>
密 歇
橡 胶</w>
关键 因素</w>
目 击者</w>
平 板</w>
妥 善</w>
议 会
伦 理</w>
s al
结果 显示</w>
手 工</w>
迷 你</w>
没 错</w>
绘 画</w>
早 已</w>
货币 基金</w>
诉讼 法</w>
爱好 者</w>
机 密</w>
努力 实现</w>
药物 滥用</w>
二十 一</w>
种 群</w>
一 行</w>
件 人</w>
U S
全 职</w>
总 收入</w>
莎 白</w>
发 作</w>
车 道</w>
葬 礼</w>
巴塞 罗
大 师</w>
火 星</w>
电视 节目</w>
伍 德</w>
称 之为</w>
克 莱</w>
贫 民
保守 派</w>
盈 余</w>
银 行业</w>
d p</w>
比 奥</w>
脖 子</w>
结 余</w>
展 出</w>
天 赋</w>
S R
恐 慌</w>
b ro
新 南
工作 日</w>
产品 质量</w>
件 事</w>
足 协</w>
着重 指出</w>
洛 克</w>
g e</w>
蒙特 雷</w>
启 示</w>
构 成
拉 脱
曼 彻斯特</w>
er n
X ML</w>
抛 弃</w>
经 贸
游 说</w>
控制 权</w>
第四 条</w>
伊 丽
无 障碍</w>
I M
线 程</w>
b s</w>
议 定</w>
国 会
划 界</w>
令人 不安</w>
p p
据 信</w>
薪 水</w>
运 人</w>
除此 之外</w>
橄榄 球</w>
I D
机 理</w>
卫生 保健</w>
唱 歌</w>
收益 率</w>
焊 接</w>
阿拉伯 语</w>
免 除</w>
立法 机构</w>
出 示</w>
排 列</w>
重 庆</w>
统 一
几 项</w>
附 带</w>
定 向</w>
仅 为</w>
er v
清 醒</w>
用 餐</w>
词 汇</w>
开发 银行</w>
垂 直</w>
月 球</w>
无 可
要 说</w>
财务 状况</w>
叛 军</w>
挫 折</w>
喂 养</w>
不 该</w>
赶 到</w>
新生 儿</w>
我爱 你</w>
航 运</w>
个人 资料</w>
传染 性</w>
大 致</w>
图 书</w>
1 2%</w>
附 加
加拿 大
in t
19 60</w>
较 少</w>
一 同</w>
读 取</w>
专业 人士</w>
联合国 环境
联合国环境 规划署</w>
债 务
洛 斯</w>
1. 1</w>
年 份</w>
美 味</w>
调 度</w>
外 空</w>
灭 绝
公 司
米 兰</w>
临 时
天 才</w>
题 目</w>
一 番</w>
曼 城</w>
毒 性</w>
住 院</w>
手 表</w>
在 外</w>
汇 总</w>
宽 带</w>
处 以</w>
中 所载</w>
消 耗
赚 钱</w>
系统 性</w>
摩 苏尔</w>
阿拉伯 联合
阿拉伯联合 酋长国</w>
制 片
不 像</w>
此 处</w>
拉脱 维亚</w>
位 数</w>
依 存</w>
厨 师</w>
会议 议程</w>
祝 福</w>
欧 国家</w>
日本 政府</w>
会 期</w>
r am
火 器</w>
降 落</w>
行政 长官</w>
第六 届</w>
武装 力量</w>
怀 特</w>
灭绝 种族</w>
1 16</w>
真 寺</w>
伤 口</w>
涌 入</w>
清 真寺</w>
一 新</w>
i o</w>
被 困</w>
示 威
呼 吸
遥 感</w>
开 罗</w>
荷 兰
便 是</w>
公 顷</w>
第一 章</w>
阵 容</w>
随 意</w>
马 特</w>
装 修</w>
阿 曼</w>
西 北</w>
增 大</w>
顾 及</w>
动 用</w>
入 狱</w>
资 讯
最 少</w>
概 要</w>
一 员</w>
盘 旋</w>
盟 约</w>
现 金
新 生</w>
弃 权</w>
适 宜</w>
以 供</w>
负担 得起</w>
第六 次</w>
多 伦
p r
接 受
市 区</w>
余 地</w>
麻醉 药品</w>
狮 子</w>
详细 资料</w>
a ir
龄 化</w>
宪 法
干 嘛</w>
移 民
密 封</w>
弗兰 克</w>
笑 话</w>
前 者</w>
华盛 顿
总 督</w>
退 役</w>
深 圳
塑 料
1 200</w>
德 班</w>
侵权 行为</w>
叔 叔</w>
充 电</w>
小 区</w>
台 北</w>
精神 病</w>
接 收
无 力</w>
遗 传
供 电</w>
海 洛
备 受</w>
女 友</w>
吉 尔</w>
伊丽 莎白</w>
A b
普遍 存在</w>
多 斯</w>
197 9</w>
老 龄化</w>
枪 手</w>
富 翁</w>
结 核
经济 效益</w>
中 欧</w>
施 政</w>
准 确性</w>
I S</w>
林 斯</w>
18 .
新 泽
捕 鱼</w>
交 互</w>
注 销</w>
七 条</w>
农 药</w>
s w
问 卷</w>
检查 站</w>
交 货</w>
第二 轮</w>
向 上</w>
而 定</w>
or g</w>
数据 源</w>
养 殖</w>
宪法 法院</w>
日 晚</w>
安 妮</w>
团 聚</w>
十 几
职 权</w>
al l</w>
播 放
生命 权</w>
变 性</w>
亚利桑 那州</w>
急 需</w>
第一 年</w>
夺 取</w>
基 石</w>
口 译</w>
利 兹</w>
不 大</w>
加 紧
并 发
嫁 给</w>
普遍 认为</w>
第五 条</w>
若 干
减 至</w>
t e
I C
克 雷
ol d
t on
变 为</w>
阵 营</w>
室 外</w>
惩 处</w>
三 月</w>
制 性</w>
邻 近</w>
外 资</w>
出 场</w>
社 团</w>
回 避</w>
身 体
第七 届</w>
解 读</w>
连 同</w>
微 妙</w>
内 卢</w>
里约 热
y ou
经 常
并发 症</w>
里约热 内卢</w>
2 500</w>
汉 姆</w>
克 劳</w>
亚 当</w>
遗 留</w>
科 医生</w>
自 卫</w>
198 1</w>
中 间
第 一份</w>
氧 化</w>
三 角</w>
居 留</w>
通 告</w>
n h
17 .
省 级</w>
静 态</w>
终 结</w>
加紧 努力</w>
关 系
美 分</w>
他 妈
周 边
刑事 犯罪</w>
更 糟</w>
东 北部</w>
商 会</w>
调查 团</w>
他妈 的</w>
解 散</w>
日 后</w>
洛 特</w>
伪 造</w>
森 堡</w>
原 材料</w>
疲 劳</w>
不 予</w>
e p</w>
减 肥</w>
1 28</w>
紧急 状态</w>
S T</w>
1 18</w>
晚 间</w>
公 私</w>
1 17</w>
元 件</w>
发 射
各 部</w>
高 地</w>
儿 基会</w>
显示 器</w>
公 平
r c</w>
普 斯</w>
张 贴</w>
多伦 多</w>
售 价</w>
2 20</w>
两 大</w>
微 生物</w>
下 届</w>
孤 儿</w>
法 医</w>
纪 录
累 计</w>
民 政</w>
队 列</w>
一 步
区域 性</w>
汲 取</w>
三 方</w>
自 助</w>
胀 率</w>
得 税</w>
未 知</w>
得 主</w>
一致 意见</w>
门 槛</w>
杰里 米</w>
国际 奥委会</w>
之 路</w>
对 本</w>
分 成</w>
m a</w>
军 火</w>
侵 入</w>
小 麦</w>
胁 迫</w>
视 频
污 水</w>
以 免</w>
不 去</w>
O S</w>
呼 叫</w>
霍 尔</w>
新闻 界</w>
迈 进</w>
纪录 片</w>
不 法行为</w>
海洛 因</w>
汉 堡</w>
光 学</w>
流 域</w>
字 体</w>
户 外</w>
名 列</w>
万 个</w>
土著 人</w>
197 3</w>
尔 州</w>
自 我
原 告</w>
那 次</w>
保护 措施</w>
团 结
民 航</w>
开发 商</w>
反对 党</w>
m at
新 罕
写 入</w>
客户 服务</w>
第五 届</w>
空气 污染</w>
桌 上</w>
童 年</w>
经 贸</w>
期 货</w>
经济 合作
科 研
犯罪 活动</w>
所 致</w>
表 现
培 育</w>
分 配
马尔 代
里 德</w>
途 中</w>
窗 体</w>
mich ael
an a</w>
生 人</w>
海 牙</w>
没 想到</w>
大 桥</w>
L E
民 间
新罕 布什
发 电机</w>
j u
信 服</w>
第 七</w>
宾 夕
估 值</w>
环境 影响</w>
杭 州</w>
一切 都
3 6
晋 升</w>
批评 者</w>
管 局</w>
大 纲</w>
接 替</w>
自 决权</w>
宾夕 法
扫 盲</w>
得 益于</w>
圆 形</w>
当地 人</w>
这 辆</w>
带 给</w>
辩 称</w>
激 进
咱 们</w>
大 气
北 极</w>
上 半场</w>
帕 特
陪 伴</w>
律 师
爱 国
深 远</w>
动 摇</w>
化 石</w>
工 艺
乐 意</w>
2 40</w>
会 话</w>
评 为</w>
合 理
去 过</w>
惠 益</w>
第九 条</w>
噪 声</w>
假 装</w>
率 领</w>
相 称</w>
恶 意</w>
地 狱</w>
第三 条</w>
g en
运 气</w>
平 时</w>
萨 拉</w>
正 常
有所 改善</w>
非洲 人</w>
路易 斯</w>
四 月</w>
炮 弹</w>
据 介绍</w>
情 节</w>
过渡 时期</w>
海 峡</w>
连 贯</w>
致 辞</w>
红 十字</w>
方 位</w>
金 属
资讯 科技</w>
兄 弟
客 厅</w>
相互 依存</w>
特别 法庭</w>
革 命
法 例</w>
此 间</w>
戒 指</w>
事 后</w>
中央 政府</w>
四 周</w>
九 个</w>
c e
各 省</w>
瞬 间</w>
巴 拉克</w>
五 月</w>
结核 病</w>
科 斯</w>
泄 露</w>
从 业
附 录</w>
卢 森堡</w>
经济 衰退</w>
上 市
核 证</w>
游 览</w>
严重 性</w>
哈 里</w>
高 压</w>
加 紧</w>
建 议
新罕布什 尔州</w>
3 5%</w>
一 幅</w>
费 尔
集 群</w>
滚 动</w>
上市 公司</w>
充分 考虑</w>
雄 心
生产 性</w>
第一 季度</w>
免 于</w>
甲 基</w>
填 充</w>
陌 生人</w>
特 有</w>
有所 不同</w>
原 有</w>
欧洲 共同体</w>
等 国</w>
13 73</w>
产 值</w>
树 脂</w>
s a</w>
p ro
原 子</w>
敌 对</w>
c l
南 京</w>
政 策
适 应
书 记
刑 法典</w>
马尔代 夫</w>
n er</w>
战斗 机</w>
健 身
鲨 鱼</w>
巴 拉圭</w>
奴 役</w>
三 角
尽 全力</w>
交 道</w>
法律 事务</w>
疏 散</w>
款 人</w>
尼 科
相 符</w>
成 都</w>
妇女 组织</w>
2. 1</w>
请 问</w>
j on
环 保
迫 切</w>
每 一</w>
羁 押</w>
搁 置</w>
股 票
197 4</w>
1. 2</w>
第九 届</w>
宿 舍</w>
海洋 环境</w>
认 罪</w>
彼 得
一 层</w>
影 子</w>
病 情</w>
格 雷</w>
源 自</w>
不 合理</w>
前 途</w>
远 地区</w>
太 大</w>
喝 酒</w>
监护 人</w>
九 年</w>
三 星</w>
福 利
措 词</w>
逃 脱</w>
司法 机关</w>
雇佣 军</w>
该 股</w>
已 婚</w>
巨 额</w>
先 例</w>
戏 剧
多 余</w>
施 行</w>
数 年</w>
mar k
录 制</w>
基督 徒</w>
景 色</w>
米 歇尔</w>
平均 水平</w>
蒂 姆</w>
or d
海 报</w>
萨 摩
真 空</w>
普 尔</w>
上 下文</w>
ou r
c t
巴 西
多边 贸易</w>
今天 下午</w>
船 长</w>
管理 者</w>
几 百
尤 为</w>
结 局</w>
餐 饮</w>
行政 区</w>
外 来</w>
射 门</w>
对 照</w>
加勒 比
行 径</w>
毁 灭</w>
充满 活力</w>
第二 次世界大战</w>
眼 前</w>
杰 斯</w>
扣 除</w>
不 清</w>
下 落</w>
布莱 尔</w>
田 径</w>
宣 读</w>
土耳 其
临 床
独立 国家</w>
调 解
出 租</w>
账 单</w>
巴塞罗 那</w>
M a
光 盘</w>
这 支</w>
g re
全面 禁止</w>
严重 威胁</w>
巴 赫</w>
利 害
公 务</w>
约 定</w>
二 战</w>
实 效</w>
兼 顾</w>
无 国籍</w>
下 车</w>
经验 丰富</w>
k ar
巨 人</w>
实 习</w>
狂 热</w>
s am
创 下</w>
彻 底
不 懈</w>
h u
争 辩</w>
ne w
高 效率</w>
雅 典</w>
还 给</w>
公 然</w>
在 世界
在世界 上</w>
登 陆</w>
上 校</w>
轴 承</w>
近 来</w>
撒 谎</w>
保 卫</w>
马拉 维</w>
加 迪
数 码</w>
驾 车</w>
方 程</w>
re d
有线 电视</w>
议会 选举</w>
下 调</w>
快 捷</w>
不 止</w>
联合 行动</w>
报 导</w>
半 个</w>
瓦 纳</w>
19 .
随 者</w>
改 动</w>
就 职</w>
青 年
野 蛮</w>
搜 寻</w>
莱 斯特</w>
七 月</w>
特 工</w>
优 良</w>
阿卜 杜
纪念 碑</w>
地 毯</w>
分 解</w>
珠 宝</w>
受益 人</w>
女 朋友</w>
优 惠
提高 效率</w>
九 月</w>
彩 色</w>
高 昂</w>
双 手</w>
圣 地
测 器</w>
美国 有线
美国有线 电视
美国有线电视 新闻网</w>
x x
子 公司</w>
反应 堆</w>
整 套</w>
宽 松</w>
哈 马</w>
非 法
1 23</w>
电 动
好 转</w>
医 学
c i
物 料</w>
打 交道</w>
已 故</w>
缓 和</w>
成 本
3 7
查 理</w>
降 雨</w>
召 回</w>
圆 满
瘫 痪</w>
兑 换</w>
s r
骑 士</w>
侦 探</w>
s n
j e
i ph
198 3</w>
善 良</w>
裁 员</w>
生 境</w>
特 雷
缉 获</w>
否 是</w>
贩 卖
亚 哥</w>
心理 学</w>
注 定</w>
红十字 会</w>
摆 在</w>
万 富翁</w>
颗 粒</w>
接 入</w>
交通 运输</w>
是 否是</w>
联合 声明</w>
作 法</w>
庭 长</w>
表 述</w>
胜 地</w>
国际 化</w>
n f
伊 斯</w>
C R
巴 巴
伯 尼</w>
消息 来源</w>
刑事 责任</w>
残 奥会</w>
D V
巡 逻
罗 德</w>
产 假</w>
走 过</w>
所 需</w>
当 今
通 行</w>
第一 批</w>
亮 点</w>
擅 长</w>
促 销</w>
认 真
进 出</w>
高 性能</w>
数字 化</w>
过 剩</w>
性 侵犯</w>
载 列</w>
有 效率</w>
富 有
首 尔</w>
全 省</w>
事务 司</w>
研 训</w>
拒 绝
增 编</w>
核 不
核不 扩散</w>
15 40</w>
就 算</w>
工作 室</w>
U R
预算 编制</w>
德 里
图 案</w>
金融 体系</w>
全 权</w>
1 26</w>
国 集团</w>
会议 组织</w>
伊斯兰 会议组织</w>
侵 蚀</w>
蓄 意</w>
满 意
标 志
莱 特</w>
理 论
不 利于</w>
贿 赂</w>
货 车</w>
中 毒</w>
肩 膀</w>
成 像</w>
主 角</w>
萨摩 亚</w>
en g
赛 车</w>
升 高</w>
安东 尼</w>
五 条</w>
人 身</w>
偶 然</w>
v i
起 源</w>
内 涵</w>
非常 高兴</w>
忠 实</w>
粒 子</w>
西 蒙</w>
受益 者</w>
基 线</w>
恶 心</w>
更 快</w>
威尔 士
四 十
副 作用</w>
多 媒体</w>
下 旬</w>
密 尔顿</w>
缺 失</w>
借 贷</w>
德 利</w>
全 市</w>
15 5</w>
庇 护
亚 洲
极 为重要</w>
下 半场</w>
敏感 性</w>
例 行</w>
来 访</w>
个 州</w>
二 十年</w>
不 能
现 阶段</w>
官 长</w>
小组 讨论</w>
毛 额</w>
以色列 政府</w>
原 定</w>
率 先</w>
普通 照会</w>
陷 入
防 卫</w>
万 吨</w>
编 纂</w>
学 年</w>
钢 琴</w>
露 台</w>
时 所</w>
加 以
帐 篷</w>
口 号</w>
懂 得</w>
o y
联 苏</w>
车 间</w>
良 心</w>
多 哥</w>
上 演</w>
无 罪</w>
圣地 亚哥</w>
不 用
cn n</w>
上 方</w>
p c</w>
点 燃</w>
杀 手</w>
公 职人员</w>
刑 罚</w>
偏 远</w>
食 用</w>
义 务
私 人
祝 愿</w>
开 通</w>
斯特 罗</w>
国会 议员</w>
价格 上涨</w>
致 力</w>
挑 衅</w>
北 卡罗来纳州</w>
捕 捉</w>
前 线</w>
巡 回
好 了</w>
发表 意见</w>
全 力支持</w>
经营 者</w>
调 控</w>
开 端</w>
英 联邦</w>
体 罚</w>
划 拨</w>
热 烈</w>
代 谢</w>
小 规模</w>
伊 尔</w>
建 立
法 兰
创造 力</w>
工作 岗位</w>
春 季</w>
多 岁</w>
发言 权</w>
发生 冲突</w>
怎么 回事</w>
基础 教育</w>
大 自然</w>
埃 尔
赛 后</w>
鲍 勃</w>
平等 权利</w>
00 1</w>
美 妙</w>
建 制</w>
补 救
r y</w>
传 奇</w>
避 难
大 家庭</w>
之 三</w>
一般 来说</w>
行 走</w>
普 顿</w>
监 护</w>
萨 姆</w>
特 兰
外 出</w>
制片 人</w>
等 候</w>
字 段</w>
半 决赛</w>
摩 根</w>
行 人</w>
非 凡</w>
驱 逐
性 健康</w>
露 出</w>
伤 心</w>
b l
试 验
单 元
简 易</w>
飞 越</w>
追 随者</w>
in a</w>
出 入</w>
学 历</w>
卡 拉
保 育</w>
棘 手</w>
永 恒</w>
3 9
会计 师</w>
治 愈</w>
拳 击</w>
服 从</w>
见 证</w>
下 表</w>
奶 奶</w>
轿 车</w>
特 拉
充分 发挥</w>
萨 尔</w>
暴 雨</w>
外 科</w>
下 台</w>
发 光</w>
催化 剂</w>
购物 中心</w>
幼儿 园</w>
一 并</w>
b bc</w>
受到 限制</w>
亿 人</w>
流 失</w>
刑事 诉讼法</w>
声 援</w>
13 %</w>
日 程</w>
覆盖 面</w>
欲 望</w>
老 虎</w>
太 好了</w>
过 早</w>
新南 威尔士
新南威尔士 州</w>
饲 料</w>
特 勒</w>
东 南部</w>
补 编</w>
步 枪</w>
哈 顿</w>
涨 幅</w>
圣 战</w>
箱 子</w>
纳 尔</w>
生 理</w>
飙 升</w>
之 急</w>
布里 斯
肯 尼
p o
有 形</w>
开 展
大 宗</w>
不 敢
渗 透</w>
停 滞</w>
从 前</w>
沿 线</w>
果 断</w>
表 情</w>
诺 夫</w>
缓 冲
根本 上</w>
从 根本上</w>
评 审</w>
纳 斯</w>
珀 斯</w>
临 近</w>
第一 条</w>
数 学
不可 分割</w>
纳 粹</w>
必 将</w>
夏 威
et h
着 眼
合法 化</w>
不 住</w>
麦 当
熟 练</w>
动 产</w>
减 弱</w>
希 族</w>
审计 员</w>
光 线</w>
两 条</w>
1 24</w>
梅 尔</w>
网 格</w>
对 外
非 统
非统 组织</w>
升 值</w>
伸 出</w>
不用 说</w>
购 买
并 购</w>
下 一代</w>
天 文
伦 斯</w>
卡 斯</w>
岁 月</w>
对 称</w>
爱 好</w>
错 误
棒 球</w>
忧 虑</w>
生产 线</w>
正 确
福 音</w>
海 水</w>
来 临</w>
生 育
利益 冲突</w>
布雷 顿</w>
格 拉斯
重 要
派 别</w>
速 率</w>
武 汉</w>
中 是</w>
第十 一届</w>
活动 家</w>
流 浪
郁 症</w>
转 换
拖 欠</w>
叛 乱
宽 度</w>
服 役</w>
同 盟</w>
补救 措施</w>
发展 部</w>
调查 表</w>
吉布 提</w>
人口 普查</w>
潮 流</w>
造 福</w>
均 匀</w>
马其 顿
皮 特</w>
马 尔</w>
柴 油</w>
既 有</w>
概 览</w>
克 隆</w>
颁 奖
遗 址</w>
t w
胞 胎</w>
北 非</w>
过 后</w>
阿 姆
笔记 本
安全 措施</w>
贫民 窟</w>
去 除</w>
反 驳</w>
致 敬</w>
永 久性</w>
大 海</w>
受 灾</w>
真 实
期 刊</w>
日 向</w>
笔记本 电脑</w>
分 支
cn .4</w>
格拉斯 哥</w>
圭 亚
偏 离</w>
环 球</w>
敬 意</w>
后 裔</w>
乃 至</w>
点 球</w>
汉 密尔顿</w>
es s
选 区</w>
虚拟 机</w>
预 示</w>
南 美洲</w>
深 深</w>
特别 强调</w>
高 风险</w>
续 会</w>
感 动</w>
马 修</w>
应 予</w>
在 实践
留 下来</w>
商品 价格</w>
DN A</w>
2. 2</w>
国家 统计局</w>
保 留
收 款</w>
敦 士
中 介</w>
牢 房</w>
默 认
f ar
支 敦士
列 支敦士
分支 机构</w>
非 营利</w>
在 职</w>
器 件</w>
读 书</w>
技术 性</w>
足 联</w>
分 布
注 释</w>
所 提</w>
构成 威胁</w>
所 得税</w>
美国 广播公司</w>
避 孕</w>
资 企业</w>
备 用</w>
马其顿 共和国</w>
克 劳
体 操</w>
该 次</w>
丛 林</w>
骚 乱</w>
痕 迹</w>
轻 易</w>
情 景</w>
革 新</w>
输 送</w>
同 伴</w>
i P
占领 国</w>
赶 上</w>
当 务
继 承
有 序</w>
册 子</w>
主导 地位</w>
19 0</w>
审 慎</w>
司法 程序</w>
3 8
有 机
逗 留</w>
管理 工作</w>
当务 之急</w>
大 力支持</w>
厂 商</w>
搜 索
车 祸</w>
服务 器
增 幅</w>
m e
1 21</w>
直 接
亚历 山
忆 及</w>
雄心 勃勃</w>
债务 人</w>
逮 捕
oo d
尖 叫</w>
凶 手</w>
可 取</w>
玻利 瓦尔</w>
人 才
斡 旋</w>
两 起</w>
前 沿</w>
气 味</w>
唱 片</w>
耻 辱</w>
低 迷</w>
牛 肉</w>
加迪 沙</w>
研究 进展</w>
急 救</w>
上海 市</w>
非 盟</w>
说 道</w>
被 害
带 回</w>
狭 窄</w>
法 郎</w>
定居 者</w>
五 岁</w>
追 溯</w>
保护 环境</w>
双边 关系</w>
y s
传 说</w>
内 尔</w>
泰 晤
教育 权</w>
招 待
2 10</w>
c .1</w>
面 上</w>
南 海</w>
陷 阱</w>
试 着</w>
后 悔</w>
十 四届</w>
倾 斜</w>
布里斯 班</w>
3. 2</w>
信息 化</w>
油 田</w>
何 处</w>
一 期</w>
犯罪 者</w>
华 德</w>
D A
条 目</w>
庇护 所</w>
弗朗 西斯</w>
拿 下</w>
富 人</w>
创 办</w>
十 月</w>
跑 道</w>
复 合
导 者</w>
IS O
市 镇</w>
内 斯堡</w>
令人 担忧</w>
民主 化</w>
为 时
主 办
悬 挂</w>
淡 水</w>
过 滤
不 上</w>
摩 加迪沙</w>
不 然</w>
缴 付</w>
一 向</w>
管理 体系</w>
多 方</w>
教 材</w>
克 兰
约翰 内斯堡</w>
健康 权</w>
陶 瓷</w>
万 亿美元</w>
有 利
极 限</w>
列支敦士 登</w>
业务 流程</w>
d an
见 过</w>
3 .1</w>
打 败</w>
盟 委员会</w>
比 较
欧 盟委员会</w>
人 次</w>
贝 拉</w>
不 时</w>
派 驻</w>
出 席会议</w>
增 添</w>
每 间</w>
相 连</w>
便利 化</w>
矩 阵</w>
域 名</w>
用户 界面</w>
定 量</w>
配 器</w>
短 期内</w>
加 共和国</w>
压 迫</w>
磁 带</w>
b a
明 尼
放 大</w>
乳 腺癌</w>
竞争 性</w>
恐怖 组织</w>
安 装
楼 梯</w>
喀 布尔</w>
修 补</w>
品 尝</w>
艺术 品</w>
13 5</w>
蚊 子</w>
总体 而言</w>
职 者</w>
辈 子</w>
继续 加强</w>
五 次</w>
3 60</w>
小 女孩</w>
不 锈
国 债</w>
ac .
欢 乐</w>
山 东</w>
四 方</w>
崇 拜</w>
泰晤 士
流 向</w>
重新 考虑</w>
绑 定</w>
收 缩</w>
化 妆
微 小</w>
必要 条件</w>
重大 贡献</w>
博 茨
腐 蚀</w>
拿 走</w>
各 不相同</w>
直 布罗
适 配器</w>
动 力学</w>
概 括</w>
联合国 安全
联合国安全 理事会</w>
在实践 中</w>
监督 机构</w>
分 至</w>
贝 克</w>
曝 光</w>
赚 取</w>
精 心</w>
鞋 子</w>
c. 5</w>
社 区
千 万</w>
C or
c. 3</w>
基本 法</w>
高 品质</w>
开 来</w>
示威 者</w>
保 证
阿拉伯 国家联盟</w>
连 任</w>
潜 能</w>
渔 船</w>
海 军
应 是</w>
3 4
亚 特兰
昆 士兰</w>
工 人
通 用
第十九 条</w>
凯 利</w>
持 有人</w>
如 图</w>
单 纯</w>
上 传</w>
库 克</w>
加 蓬</w>
耳 机</w>
霍 华德</w>
一 门</w>
检查 组</w>
攻 击
内 置</w>
培 拉</w>
p s</w>
197 5</w>
嘉 宾</w>
3. 5</w>
p e
制 剂</w>
3 5
高 端</w>
利用 率</w>
雅 虎</w>
资源 分配</w>
画 廊</w>
蒸 汽</w>
无 聊</w>
B C</w>
被 动</w>
角 度
卢 比</w>
小 册子</w>
白 痴</w>
中 风</w>
资本 主义</w>
从 没</w>
刊 登</w>
肯尼 迪</w>
叶 派</w>
什 叶派</w>
避难 所</w>
C C
基 尔</w>
每 种</w>
舍 尔</w>
移 除</w>
负 有
表 单</w>
书记 官</w>
197 2</w>
旗 帜</w>
导 体</w>
C. 5</w>
平方 公里</w>
译 成</w>
迪 克</w>
反 射</w>
多米尼 加共和国</w>
执行 机构</w>
强制 执行</w>
广 西</w>
英 特尔</w>
圭亚 那</w>
业 已</w>
还 好</w>
加 盟</w>
追 逐</w>
er g
集 体
电 动</w>
坐 落</w>
预 约</w>
音 机</w>
对 冲</w>
火 山</w>
失 效</w>
伯 利</w>
烦 恼</w>
弹 道
剧 本</w>
倡 导者</w>
负有 责任</w>
一 案</w>
网络 安全</w>
诱 惑</w>
第四 个</w>
鸿 沟</w>
司法 部长</w>
现 出</w>
联络 小组</w>
德 兰</w>
城 乡</w>
勋 爵</w>
卡 西</w>
珍 贵</w>
夫 兰</w>
夏威 夷</w>
随 函</w>
成 品</w>
增 效</w>
水 质</w>
嫌 犯</w>
科 目</w>
规 范
九 届</w>
以 使</w>
oo g
主管 机构</w>
巴 特</w>
奴 隶
海 运</w>
结 核</w>
拍 照</w>
刘 易
流 产</w>
凯 文</w>
全 民</w>
领 先
横 向</w>
分 工</w>
197 7</w>
不敢 相信</w>
1 27</w>
该 处</w>
男 友</w>
巴巴 多斯</w>
f o
淋 浴</w>
分 阶段</w>
老 婆</w>
着眼 于</w>
解释 性</w>
领 事</w>
来 讲</w>
ub e</w>
y d
兼 职</w>
and re
叛乱 分子</w>
C. 3</w>
鸟 类</w>
各个 领域</w>
战略 规划</w>
头 痛</w>
饮 酒</w>
暗 杀</w>
分 化</w>
火 焰</w>
天 气
人 能</w>
a i</w>
地下 水</w>
亲 戚</w>
贩卖 人口</w>
牌 照</w>
纳 税</w>
撤 消</w>
克里 斯蒂</w>
c d</w>
博茨 瓦纳</w>
公 用
向 下</w>
树 林</w>
13 4</w>
角度 看</w>
每 晚</w>
我 家</w>
镜 子</w>
善 意</w>
制 度
试 试</w>
浅 谈</w>
当 日</w>
哭 泣</w>
八 月</w>
强 加</w>
下 班</w>
奶 酪</w>
建筑 师</w>
根 深
配 方</w>
赢 家</w>
犹 豫</w>
毁 坏</w>
堪 培拉</w>
DV D</w>
w ar
无 权</w>
辩护 律师</w>
神 话</w>
新 娘</w>
邓 小
名 誉</w>
20 .
刘易 斯</w>
维 拉</w>
境 况</w>
斯图 尔特</w>
小 小
一小 部分</w>
研究 院</w>
欣 见</w>
y m
多 于</w>
口 气</w>
抑 郁</w>
亨 特</w>
事务 局</w>
弯 曲</w>
蒂 固</w>
高 新
纺 织</w>
钱 包</w>
令人 信服</w>
混 蛋</w>
格 拉</w>
精 密</w>
根深 蒂固</w>
屁 股</w>
当今 世界</w>
四 项</w>
深 受</w>
跟 上</w>
城 区</w>
饮 水</w>
科 罗
广泛 应用</w>
优 越</w>
培训 中心</w>
b en
裁 撤</w>
被害 人</w>
中 产阶级</w>
反 击</w>
高 潮</w>
手 枪</w>
手 上</w>
i o
马 达
晚 会</w>
诚 意</w>
诽 谤</w>
一切都 是</w>
调查 员</w>
1 1%</w>
抑 郁症</w>
财务 管理</w>
曼 哈顿</w>
固 醇</w>
合 同
理 事
R ev
基 伍</w>
E x
漫 画</w>
严格 遵守</w>
裤 子</w>
伙 人</w>
联 盟
直布罗 陀</w>
法 文</w>
当 晚</w>
随 之</w>
限 定</w>
了 不起</w>
出 行</w>
湖 区</w>
n e</w>
安 迪</w>
小 男孩</w>
人 间</w>
i er
当 成</w>
仿 佛</w>
w al
胳 膊</w>
承 付</w>
马达 加
让 步</w>
4 5%</w>
海 滨</w>
评 委</w>
半 数</w>
时 应</w>
H T
弹道 导弹</w>
换 取</w>
性 关系</w>
语 句</w>
复 制
宾夕法 尼亚州</w>
战略 目标</w>
身 后</w>
裁 减</w>
肺 炎</w>
国 情</w>
s on
脉 冲</w>
服务 质量</w>
二 是</w>
安全 局</w>
明 书</w>
租 用</w>
本 地
午 夜</w>
跟 进</w>
移动 电话</w>
发生 率</w>
他 州</w>
赌 博</w>
乒 乓
ri ch
训 研</w>
出 价</w>
最终 用户</w>
交流 信息</w>
抗 生素</w>
劳动 者</w>
R A
瑟 琳</w>
乐 园</w>
双 胞胎</w>
句 子</w>
满意 度</w>
小小 的</w>
胸 部</w>
送 回</w>
非 线性</w>
我 們</w>
北 省</w>
做 过</w>
13 2</w>
新闻 报道</w>
光 纤</w>
体 积</w>
疲 软</w>
导 出</w>
德 黑
访问 期间</w>
片 段</w>
德 语</w>
德黑 兰</w>
y l
上 课</w>
族 群</w>
军 备
袭 击者</w>
共 用</w>
戈 登</w>
施 加
军备 竞赛</w>
赋 权</w>
区域 间</w>
n ation
着 陆</w>
14 %</w>
防 火
款 额</w>
限 制性</w>
贝 巴</w>
专 项</w>
S Q
重 伤</w>
适 度</w>
揭 露</w>
公交 车</w>
涂 料</w>
实 况</w>
客 车</w>
哈 兹</w>
苹 果
少 于</w>
ne t</w>
夫 斯基</w>
各项 规定</w>
再 次
从 那
CN .4</w>
法 国人</w>
塔 尼亚</w>
烟 雾</w>
2 70</w>
高 血压</w>
均 等</w>
尼 古
A C.
差 旅</w>
区 政府</w>
C .1</w>
毒 素</w>
偷 运</w>
快速 增长</w>
巴 里</w>
怪 物</w>
乔 丹</w>
相 成</w>
住 户</w>
处 死刑</w>
中 共</w>
国家 计划</w>
马达加 斯加</w>
语 言
地 球
马 尼
广 东省</w>
缩 减</w>
转 达</w>
财 产
数 月</w>
13 8</w>
水 道</w>
厉 害</w>
保 人</w>
地 方
答 辩</w>
相 辅
传 染</w>
斯 亚
d u
不 论
协商 会议</w>
第二 节</w>
江 省</w>
致 函</w>
相辅 相成</w>
代表 大会</w>
专 利
不 在乎</w>
东 北
潜 水</w>
凯 瑟琳</w>
述 及</w>
吃 惊</w>
全 局</w>
金 伯利</w>
表达 式</w>
第一 轮</w>
出 血</w>
不锈 钢</w>
罗 姆</w>
不 及</w>
N BA</w>
预 警
预 料</w>
斯亚 贝巴</w>
财政 部长</w>
干 细胞</w>
T P</w>
国家 队</w>
17 %</w>
公共 交通</w>
19 49</w>
遇 见</w>
用户 名</w>
莎 拉</w>
联 体</w>
回 升</w>
之 友</w>
日内 瓦
维 度</w>
赞 助
号 法</w>
诗 人</w>
碰 到</w>
c k</w>
克 森</w>
健身 房</w>
变 换</w>
眼 中</w>
低 下</w>
减 灾</w>
克 制</w>
摩 尔</w>
中 向</w>
潮 湿</w>
持续 增长</w>
s s
好 奇</w>
尔 德
警 卫队</w>
深圳 市</w>
德 国人</w>
S P
废 水</w>
下 雨</w>
激 怒</w>
核 电站</w>
巴 尔</w>
14 2</w>
误 导</w>
不 丹</w>
评 分</w>
监 测
骨 头</w>
近几 个月</w>
科 学院</w>
燃 油</w>
第八 届</w>
爆炸 事件</w>
遵 照</w>
完 毕</w>
i h
佩 斯</w>
牢 固</w>
前 夕</w>
务 必</w>
群 集</w>
兴 起</w>
亚 的
9 5%</w>
亚的 斯亚贝巴</w>
索 取</w>
开 业</w>
过滤 器</w>
10 000</w>
每 位</w>
雨 水</w>
农业 部门</w>
引 爆</w>
在 我
限 性</w>
每 场</w>
减 排</w>
好 玩</w>
卫 报</w>
淹 没</w>
检察 院</w>
抵 御</w>
一无 二</w>
博 拉</w>
独 联体</w>
斯 汀</w>
居 民
拜 访</w>
欢 呼</w>
判 处死刑</w>
婚 姻
外 表</w>
8 5%</w>
熊 猫</w>
宗教 信仰</w>
触 及</w>
氯 化</w>
厌 倦</w>
独 一无二</w>
客 场</w>
摄像 头</w>
上 届</w>
沙 滩</w>
标志 性</w>
复 审</w>
选 取</w>
维 加斯</w>
遗 忘</w>
违 规</w>
摩 擦</w>
射 线</w>
避 开</w>
197 6</w>
编 辑
合 伙人</w>
卫生 部门</w>
中 以</w>
外 线</w>
4 50</w>
第五十 九</w>
EM C</w>
18 %</w>
服务 提供商</w>
纳 森</w>
水 面</w>
殖 民</w>
有 过</w>
液 压</w>
创 收</w>
看 好</w>
头 衔</w>
驻 扎</w>
自由 贸易</w>
边 界
土 族</w>
s ar
象 征
阿布 哈兹</w>
肮 脏</w>
新 一代</w>
亚历山 大</w>
礼 品</w>
观 光</w>
o w</w>
使 人</w>
五 分之一</w>
求 助</w>
研究 成果</w>
抽 象</w>
钢 铁
鲁 特</w>
西 雅
投 掷</w>
预 审</w>
短 时间</w>
房 舍</w>
文件 系统</w>
2 3.
连 锁</w>
不 限</w>
银 牌</w>
被 告
表示 遗憾</w>
萨 斯</w>
坚 持
产 能</w>
C S
有效 期</w>
隐 瞒</w>
感染 者</w>
迪 斯
洛 伊</w>
管理 制度</w>
特 纳</w>
上 年</w>
局 限于</w>
蒂 斯</w>
比 利</w>
惩 治</w>
视 力</w>
布莱 克</w>
惩 戒</w>
植 物
局 限性</w>
听 众</w>
联盟 共和国</w>
南斯拉夫 联盟共和国</w>
前 一天</w>
通 话</w>
攀 升</w>
通 知
触 摸</w>
崇 高</w>
al e</w>
国家 主权</w>
弗吉 尼亚</w>
r en
2 1.
组 成员</w>
极 其
幽 默</w>
马 州</w>
齿 轮</w>
撞 击</w>
西 亚
科罗 拉
正常 化</w>
道 德
数以 千
人 来</w>
文 物</w>
一 声</w>
高 档</w>
相 关联</w>
分 校</w>
是 非</w>
鼓 掌</w>
数百 名</w>
时 钟</w>
比 重</w>
含 水
18 2</w>
兵 力</w>
半 小时</w>
下 个月</w>
欧 文</w>
通 行
s b
禁 产</w>
范 例</w>
19 69</w>
亲 人</w>
营 运</w>
博 览会</w>
搜索 引擎</w>
左 边</w>
夏 洛特</w>
专业 化</w>
停 火
时 段</w>
继续 执行</w>
极 度</w>
西 安</w>
经常 性</w>
开 创</w>
9 000</w>
受 众</w>
十 个</w>
以色列 国防军</w>
生态 环境</w>
承 办</w>
中 心
震 荡</w>
委 任</w>
裂 缝</w>
导 游</w>
巴 哈马</w>
实 证</w>
从 此</w>
微 博
斯坦 共和国</w>
十 年代</w>
纸 张</w>
简 历</w>
中 型</w>
终 点</w>
上 下</w>
插 件</w>
加 利</w>
第五十 八</w>
造 型</w>
西雅 图</w>
国有 企业</w>
t im
天 线</w>
地 被</w>
掌 控</w>
l er</w>
推 定</w>
o l</w>
防火 墙</w>
重 型</w>
k er</w>
地 形</w>
本 发明</w>
银行 家</w>
部长 会议</w>
o z
15 6</w>
保 释</w>
第 一项</w>
劫 持</w>
交换 意见</w>
附 有</w>
前 台</w>
月 亮</w>
红 外</w>
换 言之</w>
冲 动</w>
公 立学校</w>
技术 咨询</w>
服务 提供者</w>
无 情</w>
结 成</w>
四 分
载 体</w>
相 匹配</w>
附 表</w>
笔 记</w>
用 语</w>
戴 尔</w>
强 壮</w>
小 国</w>
调 集</w>
看 电视</w>
枢 纽</w>
存 档</w>
路 边</w>
ic e</w>
8 0
背 部</w>
反 抗</w>
浴 缸</w>
倒 塌</w>
a b</w>
15 7</w>
进 一步
进一步 提高</w>
贵 族</w>
性 取向</w>
c a</w>
思 想
哀 悼</w>
13 3</w>
实 话</w>
15 3</w>
P R
注册 表</w>
第五十 七届</w>
拉 夫</w>
忙 碌</w>
德 州</w>
路 口</w>
率 为</w>
侧 重</w>
加 油</w>
家 务</w>
恒 星</w>
第二 年</w>
联 阿</w>
机 动
互 助</w>
混 合物</w>
参与 性</w>
硬 币</w>
欣 慰</w>
大 鼠</w>
or g
三 倍</w>
年 纪</w>
托 克劳</w>
出 资</w>
所 为</w>
合理 化</w>
厂 家</w>
. 7</w>
面 部</w>
雕 像</w>
医 师</w>
00 000</w>
古 怪</w>
数以千 计</w>
废 墟</w>
竟 然</w>
否 决权</w>
带 上</w>
筹 款</w>
中国 共产党</w>
为 人
小 于</w>
电 信
环境 卫生</w>
完全 符合</w>
天 津
繁 殖</w>
希 腊
不 定</w>
解 析</w>
洗 衣
日益 增长</w>
各 大</w>
197 1</w>
研究 者</w>
球 星</w>
14 5</w>
失 利</w>
取 出</w>
p a</w>
几 名</w>
16 5</w>
m ik
异 性</w>
整 整</w>
克利 夫兰</w>
一 首</w>
浙 江</w>
上 将</w>
2 30</w>
态 势</w>
组 装</w>
弗 里</w>
内 特</w>
赌 场</w>
扎 克</w>
新 社</w>
跨 境</w>
过 高</w>
获 利</w>
开 拓</w>
诺 贝尔
纺织 品</w>
塞浦路 斯
地 名</w>
使用 寿命</w>
令人 兴奋</w>
卡 斯特罗</w>
哈 特</w>
原 型</w>
封 面</w>
戏剧 性</w>
普 里</w>
概 率</w>
2 4.
in ter
肤 色</w>
昆 虫</w>
瑟 夫</w>
波 恩</w>
加 里</w>
1 29</w>
学 业</w>
持续 时间</w>
图 片
瑞 典
破 碎</w>
赫 尔
仆 人</w>
辞 去</w>
胡 锦
德 克萨斯州</w>
奉 献</w>
激进 分子</w>
上 场</w>
当 事</w>
盆 地</w>
关 怀</w>
宁 静</w>
压 制</w>
法 学</w>
三 位</w>
每 股</w>
血 统</w>
下 达</w>
全 方位</w>
九 龙</w>
意 志
优先 权</w>
胡锦 涛</w>
拨 打</w>
厚 度</w>
出 国</w>
系列 赛</w>
第三 章</w>
罗 杰斯</w>
猛 烈</w>
亚太 地区</w>
会 为</w>
人民 政府</w>
暴 风
云 南</w>
亚历 克斯</w>
英 格兰
首 批</w>
咖啡 馆</w>
消费 量</w>
积 压</w>
联合国 日内瓦
联合国日内瓦 办事处</w>
二 次</w>
运 河</w>
过 期</w>
i p</w>
废 弃</w>
医 务人员</w>
仲裁 庭</w>
借 款</w>
费 城</w>
几 何</w>
多 巴
ro bert
伊 恩</w>
f ran
无 限期</w>
弗 里
偏 好</w>
16 %</w>
我 方</w>
星 星</w>
承 运人</w>
睡 着</w>
M A
浪 潮</w>
数千 名</w>
五 分钟</w>
不 容
狩 猎</w>
主 演</w>
首 个</w>
棉 花</w>
在此 之前</w>
难 者</w>
来 文
分 公司</w>
集 束</w>
伤 病</w>
驻 科</w>
看 似</w>
中 共
牲 畜</w>
交通 事故</w>
理事 国</w>
奴隶 制</w>
控制 措施</w>
病 学</w>
车 型</w>
尺 度</w>
西 南</w>
平 稳</w>
爱德 华</w>
rev .1</w>
摩 纳
固 体</w>
诗 歌</w>
极其 重要</w>
拉斯 维加斯</w>
2 60</w>
习惯 法</w>
内 华
估 价</w>
年龄 组</w>
三 场</w>
有 何</w>
姿 势</w>
极 了</w>
画 家</w>
哈 尔
会 长</w>
意 料</w>
N F
布什 总统</w>
面 谈</w>
效 能</w>
文 盲</w>
学 期</w>
安 卡拉</w>
呼 声</w>
所 处</w>
感 冒</w>
电视 机</w>
灌 溉</w>
征 服</w>
远 镜</w>
14 1</w>
望 远镜</w>
余 留</w>
大 众
副 总裁</w>
子 里</w>
印度 洋</w>
6 0
医 务</w>
筹备 会议</w>
非常 感谢</w>
哈 马斯</w>
总 计</w>
堵 塞</w>
d ar
跨 部门</w>
. .</w>
减 小</w>
生物 武器</w>
m in
工 地</w>
13 6</w>
布 置</w>
手 套</w>
机 组</w>
妓 女</w>
公共 安全</w>
mar t
出 身</w>
ra h
戈 兰</w>
最大 化</w>
厦 门</w>
辛 苦</w>
兰 德</w>
乙 烯</w>
更 少</w>
检 方</w>
16 9</w>
s c
卡 片</w>
矿 石</w>
很 强</w>
光 灯</w>
土地 利用</w>
票 价</w>
商 界</w>
想 念</w>
li am
ber g</w>
胎 儿</w>
摇 滚</w>
车 程</w>
巴勒斯坦 国</w>
坐 标</w>
两 只</w>
毛里 塔尼亚</w>
俄 语</w>
翻 修</w>
通知 书</w>
玛丽 亚</w>
混 淆</w>
深 表</w>
好 人</w>
三 周</w>
任 务
这 部分</w>
布莱 恩</w>
体 系
社会 保险</w>
杠 杆</w>
旅行 社</w>
空 中
4 7
埃 里克</w>
M S</w>
铜 牌</w>
内政 部长</w>
1 31</w>
戈 尔</w>
乒乓 球</w>
开 除</w>
幻 灯
和平 谈判</w>
瞩 目</w>
板 块</w>
女 工</w>
房 地</w>
大 马
山 上</w>
S O
深 处</w>
四 天</w>
3 D</w>
意 味</w>
路 程</w>
知名 度</w>
而 成</w>
直 径</w>
澳大利亚 人</w>
大气 层</w>
十 六届</w>
信用 证</w>
t or
14 7</w>
局 局长</w>
十二 月</w>
楼 宇</w>
西 撒</w>
老 挝</w>
带 头</w>
肖 恩</w>
民 进
滑 稽</w>
广播 电台</w>
胜 者</w>
俄 勒
并 行</w>
杀 戮</w>
n et
被 忽视</w>
缓冲 区</w>
剪 辑</w>
转 录</w>
兴 建</w>
像 素</w>
m al
全 都</w>
词 语</w>
皮 书</w>
一 侧</w>
g er
制度 化</w>
悬 而
悬而 未决</w>
克 利</w>
行 长</w>
A r
w h
誓 言</w>
因 于</w>
人力 资本</w>
定 稿</w>
听 力</w>
渐 渐</w>
利害 关系</w>
荣 耀</w>
幻灯 片</w>
复 出</w>
en t</w>
球 场上</w>
温 泉</w>
公共 秩序</w>
t a
i j
赫 尔</w>
犯 人</w>
可 信
母 语</w>
遵 约</w>
山 脉</w>
文 本
m oham
体系 结构</w>
禁 区</w>
布 里</w>
不 动产</w>
礼 拜</w>
不 开</w>
澳 洲</w>
老 化</w>
兵 役</w>
合作 项目</w>
财 力</w>
二 年</w>
里 森</w>
un ep</w>
信息 管理</w>
确保 您</w>
扰 乱</w>
瞄 准</w>
人 事
盖 茨</w>
罗 夫</w>
在我 看来</w>
民进 党</w>
祖 先</w>
佩 克</w>
两 类</w>
奉 行</w>
硕 士</w>
信 徒</w>
国 土</w>
写 信</w>
暴 跌</w>
ha m</w>
数 次</w>
体 会</w>
指 针</w>
攻 击者</w>
明尼 苏
打 扰</w>
战 后</w>
理 工
单元 格</w>
大 陆
nf l</w>
人 性</w>
丹 尼</w>
粮食 计划署</w>
世界 粮食计划署</w>
走 路</w>
表 演
第三 季度</w>
饼 干</w>
社会 工作者</w>
魔 法</w>
野 心</w>
纳 米</w>
化学 物质</w>
恢复 正常</w>
福 建</w>
瓦 斯</w>
权 衡</w>
埃 德</w>
过渡 政府</w>
国 界</w>
克 郡</w>
致 意</w>
非 裔</w>
荒 谬</w>
六 种</w>
r on
阿姆 斯特
重 启</w>
门 将</w>
古 巴
导 师</w>
园 区</w>
明 治</w>
w e
竭 尽全力</w>
孙 子</w>
波 黑</w>
宏 观</w>
亚 尔</w>
m o
巴 克</w>
位 居</w>
it y</w>
运 载
便 捷</w>
5 5
酋 长</w>
k e</w>
最 新
16 2</w>
魔 鬼</w>
旅行 者</w>
表示 满意</w>
好 多</w>
该 科</w>
瀑 布</w>
军 用
分 部</w>
感 知</w>
与 否</w>
相互 尊重</w>
麻醉 品</w>
达 拉斯</w>
无 须</w>
13 9</w>
闭 幕</w>
科 维奇</w>
水 源</w>
分 销</w>
贝 鲁特</w>
审计 报告</w>
lan d</w>
西 非国家</w>
r ad
此 人</w>
贯 彻
放 入</w>
面 孔</w>
难 忘</w>
不论 是</w>
援 国</w>
我 愿</w>
卖 掉</w>
起 床</w>
红十字 国际
红十字国际 委员会</w>
物 理
伦 特</w>
r e</w>
c a
尽 头</w>
稳 固</w>
oog le</w>
演 讲
幕 后</w>
钓 鱼</w>
修 订
d na</w>
2. 3</w>
路 由</w>
谋杀 案</w>
人 称</w>
参 谋
育 儿</w>
苏 珊</w>
劳动 法</w>
总 产值</w>
国 队</w>
受 援国</w>
带 宽</w>
an s
制 定
竞争 法</w>
一 路</w>
半 球</w>
招待 会</w>
精 致</w>
此 刻</w>
慕 尼
棕 色</w>
扶 贫</w>
帕 克</w>
履行 职责</w>
邓小 平</w>
德 里克</w>
创造 条件</w>
这 套</w>
L A
统计 资料</w>
运 载</w>
p l
质 素</w>
节 性</w>
国际 金融</w>
人民 法院</w>
处 方</w>
溯 到</w>
人 文</w>
珍 惜</w>
宴 会</w>
银 河</w>
板 球</w>
4 8
顺 便</w>
遗 弃</w>
一 页</w>
双 重
骗 子</w>
装 载</w>
上 所述</w>
偏 远地区</w>
观 者</w>
可 笑</w>
关 爱</w>
口 味</w>
50 000</w>
加 州
极端 分子</w>
悲 痛</w>
术 后</w>
结 婚
身 高</w>
审 前</w>
二 月</w>
这 段</w>
获 奖</w>
安德 森</w>
14 4</w>
帕 拉</w>
付 诸
13 7</w>
马克 思
核 对</w>
s co
坠 机</w>
加 拉</w>
勒 斯</w>
与 非</w>
意 在</w>
不 准</w>
马 里
萧 条</w>
膨 胀率</w>
根本 原因</w>
吸 入</w>
压 倒
负 债
外国 投资</w>
经 由</w>
卫星 电视</w>
部 份</w>
坚 定
如 说</w>
死 于</w>
战 役</w>
朝鲜 半岛</w>
日 记</w>
装 配</w>
国际 性</w>
民族 主义</w>
祖 父</w>
解 答</w>
一 是</w>
城 里</w>
似 的</w>
俄 克拉
探 测器</w>
神经 网络</w>
把 手</w>
产 地</w>
升 至</w>
大 片</w>
亚特兰 大</w>
at ion</w>
不 下</w>
阳 性</w>
如 上</w>
看 不见</w>
2 35</w>
充 实</w>
浓 缩</w>
c bs</w>
四 处</w>
墙 壁</w>
有 意思</w>
p at
埃 文斯</w>
论 证</w>
c .2</w>
拉 美</w>
付 给</w>
不 易</w>
括 号</w>
翅 膀</w>
外 籍</w>
男 生</w>
里 尼奥</w>
稍 微</w>
再 说</w>
义务 教育</w>
约 瑟夫</w>
控制 台</w>
一 章</w>
闪 烁</w>
拘 押</w>
妊 娠</w>
a w</w>
言 语</w>
架 飞机</w>
脱 颖
is is</w>
脱颖 而出</w>
短 短</w>
教科 书</w>
底 特
事 例</w>
香 烟</w>
访问 团</w>
庄 严</w>
名 声</w>
大 象</w>
退 还</w>
士 革</w>
以 下
资 料
大马 士革</w>
战略 方针</w>
草 拟</w>
en k
ab d
使 团</w>
编 译</w>
oo d</w>
起 因</w>
祖 母</w>
4. 2</w>
勤 人员</w>
立 大学</w>
4 6
底特 律</w>
转 到</w>
名 昭
共同 利益</w>
次 于</w>
r i</w>
慕尼 黑</w>
好 评</w>
P C
通货 膨胀率</w>
中 西部</w>
第四 季度</w>
总 署</w>
十 多年</w>
征 得</w>
常 务
竞 技</w>
新 几内亚</w>
阿 德
磨 损</w>
时 会</w>
发 援</w>
便 携
生育 率</w>
质量 保证</w>
往 返</w>
冈 比亚</w>
综合 征</w>
游 艇</w>
这 块</w>
潜 艇</w>
润 滑
技术 创新</w>
记 载</w>
b or
第十二 届</w>
草 地</w>
第一 场</w>
A l</w>
阿 鲁
闯 入</w>
双 向</w>
体育 运动</w>
法律 依据</w>
葡 萄</w>
建立 联系</w>
所 称</w>
y p
消 化</w>
k e
和 谐
玩 耍</w>
亲 切</w>
重 债</w>
私 下</w>
o m</w>
瓦 共和国</w>
摩尔多 瓦共和国</w>
水 下</w>
请 单击</w>
便 士</w>
麦 凯恩</w>
维 亚
敌 意</w>
供 其</w>
生殖 器</w>
庄 园</w>
内 向</w>
关 岛</w>
业 余</w>
薄 膜</w>
海 地区</w>
保 管</w>
不 顾</w>
牛 津</w>
化妆 品</w>
. 5</w>
杰 森</w>
A d
威尔 逊</w>
免 税</w>
水 分</w>
每 隔</w>
跌 幅</w>
第一 款</w>
里 昂</w>
0. 7%</w>
湿 地</w>
案 中</w>
LE D</w>
男 朋友</w>
偶 像</w>
功 于</w>
德 曼</w>
发 送到</w>
归 功于</w>
后 台</w>
发 病</w>
年 会</w>
击 队</w>
萎 缩</w>
以 北</w>
细 胞
公用 事业</w>
时 才</w>
教 导</w>
um p</w>
不 管
u m</w>
半 导体</w>
通 信
不 久
减 税</w>
非常 重视</w>
卡 斯
乳 房</w>
边 境
h er
适用 范围</w>
a k</w>
维 尔
净 化</w>
收 音机</w>
美 容</w>
话 语</w>
经贸 合作</w>
压 缩
法律 义务</w>
数 十年</w>
天 生</w>
克 斯坦共和国</w>
格 拉斯</w>
预警 系统</w>
打 进</w>
ch ar
资 发</w>
切实 可行</w>
外 套</w>
从业 人员</w>
开 头</w>
保护 主义</w>
侵 权</w>
路 由
互 补</w>
预 测
西 西
高新 技术</w>
氧 气</w>
三 级</w>
渥 太
R E
收 拾</w>
刷 新</w>
东 南</w>
at e</w>
眼 光</w>
有 名</w>
四分 之三</w>
高 中
这 样
索 偿</w>
并 非
搭 配</w>
试 论</w>
臭 名昭
查 验</w>
卡罗来 纳</w>
f l
明 显
b al
追 溯到</w>
称 作</w>
第十 条</w>
特雷 莎</w>
所 罗
温 柔</w>
消 极
身 为</w>
第三 节</w>
生 存
演 说</w>
教育 领域</w>
e x</w>
特 拉</w>
追 捕</w>
体 检</w>
价值 链</w>
过 量</w>
邮 政
ou n
4 5
服 刑</w>
2 2.
电影 院</w>
海 豚</w>
共 处</w>
载 入</w>
特 恩</w>
框 中</w>
加 共体</w>
飞 船</w>
渥太 华</w>
1 1
情 况
pa ul
顺 利
羞 辱</w>
加 息</w>
刑 警</w>
压 器</w>
施加 压力</w>
给 定</w>
几 家</w>
世界 冠军</w>
认 出</w>
紧 迫
第 八</w>
P D
理 智</w>
仅 次于</w>
飞 离</w>
警 员</w>
者 之间</w>
转 而</w>
车 轮</w>
空间 站</w>
三 明治</w>
根本 性</w>
殖民 主义</w>
法 制</w>
退 款</w>
超 声</w>
自 称</w>
奇 妙</w>
am a</w>
t a</w>
乔 治
t d</w>
人 家</w>
定 型</w>
出版 社</w>
乔 纳森</w>
景 象</w>
2 6.
面 具</w>
灾 后</w>
指 纹</w>
场 馆</w>
别 无
直 线</w>
院 子</w>
相 遇</w>
市场 份额</w>
大 事</w>
打 断</w>
糖 果</w>
几 率</w>
奶 油</w>
华 丽</w>
米 亚</w>
军 用</w>
阿拉伯 人</w>
微博 上</w>
东 非</w>
内 斯</w>
自 杀
应 收款</w>
臭名昭 著</w>
降 到</w>
光 谱</w>
届 满</w>
第七 次</w>
混 合
16 3</w>
退 伍
H RC</w>
哈 利
艾 哈
b .
境 地</w>
著 作</w>
多 大</w>
青 睐</w>
14 3</w>
特 立
伊 利
面 对面</w>
猴 子</w>
老 将</w>
摩纳 哥</w>
筹 集
筹集 资金</w>
感 谢
麦当 劳</w>
新 一轮</w>
高 等</w>
葡萄 牙
眼 泪</w>
李 鹏</w>
详细 情况</w>
消防 队员</w>
瞻 性</w>
西 尔</w>
罗姆 尼</w>
想 不到</w>
i re
开发 者</w>
福 建
次 要</w>
4 9
转 为</w>
讯 息</w>
留 言</w>
20 30</w>
退伍 军人</w>
前 瞻性</w>
善 于</w>
禽 流感</w>
主 页</w>
法 拉
娃 娃</w>
十 周年</w>
侵 略
为 首</w>
避 难</w>
穆 里尼奥</w>
外 壳</w>
五 天</w>
洞 穴</w>
阿卜 耶
开放 式</w>
威 慑</w>
出 差</w>
右 边</w>
条 中</w>
新 任</w>
多 数
所 起</w>
录 取</w>
子 宫</w>
预 言</w>
晚 饭</w>
i an</w>
阻 力</w>
g t</w>
安 大
近 平</w>
审 判
放 映</w>
公 职</w>
不断 扩大</w>
口 粮</w>
心理 学家</w>
14 6</w>
法 新社</w>
遗 体</w>
受 审</w>
2 2%</w>
发展 局</w>
南 极</w>
不 便</w>
一 千
斯 威
习 近平</w>
连 串</w>
笔 者</w>
美国 队</w>
交 战</w>
中 日</w>
19 61</w>
节 余</w>
宣 告</w>
文 学
巴布 亚
有 钱</w>
巡回 赛</w>
废 料</w>
巴布亚 新几内亚</w>
调解 人</w>
欧洲 央行</w>
凝 聚
这 事</w>
炸 药</w>
工 商</w>
高 盛</w>
遍 布</w>
老 挝
颁奖 典礼</w>
海洋 生物</w>
喜 悦</w>
底 层</w>
改 良</w>
刑事 案件</w>
党 员</w>
20 8</w>
卡 迪
一 线</w>
密切 联系</w>
n a
冰 淇
降 低成本</w>
既 往</w>
检查 和</w>
坦 率</w>
一 看</w>
伯 明
被告 人</w>
法律 法规</w>
热 烈
推 销</w>
安装 程序</w>
1. 3</w>
爱 心</w>
视 线</w>
17 5</w>
库 尔德
第二 季度</w>
日益 严重</w>
奥 运
S P</w>
15 4</w>
和谐 社会</w>
通行 证</w>
坠 毁</w>
联络 点</w>
海 伦</w>
雕 塑</w>
州 政府</w>
墓 地</w>
完 工</w>
同 类</w>
陌 生</w>
登记 处</w>
然 不同</w>
市政 厅</w>
一 顿</w>
护 送</w>
2 12</w>
处理 程序</w>
电 讯</w>
一 年
阻 挠</w>
退休 金</w>
差 点</w>
小 型
开展 业务</w>
国际 足联</w>
季 节性</w>
周边 地区</w>
小 时候</w>
h al
mit h</w>
联 酋</w>
十 二</w>
特别 行政区</w>
贝尔 格
贝尔格 莱德</w>
阿 联酋</w>
办公 厅</w>
收 容
见 表</w>
支 架</w>
模 拟
暂 定</w>
伯明 翰</w>
j an
天 主
攻 势</w>
战略 伙伴</w>
老挝 人民
4 .1</w>
恐怖 活动</w>
2 25</w>
倒 退</w>
o t</w>
一 股</w>
致 电</w>
小 丑</w>
无 知</w>
失 衡</w>
工作 效率</w>
列 报</w>
小 鼠</w>
介 绍
好 运</w>
增 速</w>
辛 格</w>
19 50</w>
失 控</w>
第 九</w>
时 性</w>
公 正
jam es
求 意见</w>
征 求意见</w>
t s
走 势</w>
雷 尔</w>
航天 局</w>
源 代码</w>
八 条</w>
切 除</w>
报 率</w>
加 倍
加倍 努力</w>
理 财</w>
可 观</w>
追 查</w>
至 迟</w>
赖 特</w>
前 期</w>
测 量
定 位
流 血</w>
地 质
当 场</w>
人员 编制</w>
合 资</w>
佛 教</w>
极 具</w>
g a</w>
收 件人</w>
人身 安全</w>
哈 瓦
SR .
托 斯</w>
综合 症</w>
渐 进</w>
这 片</w>
回 头</w>
转 运</w>
巡逻 队</w>
含水 层</w>
e v</w>
全 身</w>
安东 尼奥</w>
主 观</w>
2 7.
责任 感</w>
甲 板</w>
背 叛</w>
不久 前</w>
归 因于</w>
壮 观</w>
就 读</w>
奥林匹 克
水 量</w>
is s
1 100</w>
彩 票</w>
四 种</w>
机 动</w>
装 有</w>
拉 尔</w>
u ri
抽 烟</w>
一个 多</w>
预 览</w>
小 屋</w>
复制 到</w>
会 员
同 比</w>
帕特 里克</w>
胜 任</w>
伤 者</w>
台 阶</w>
饱 受</w>
e e</w>
铁 路
老挝人民 民主共和国</w>
舞 会</w>
地 铁
冰淇 淋</w>
地理 信息系统</w>
16 6</w>
2 5.
匮 乏</w>
量 级</w>
正 试图</w>
收 藏
厌 恶</w>
大 雨</w>
空 前</w>
mor e</w>
纤 维
金 正
r o</w>
选 用</w>
4. 5</w>
差 额</w>
一 时</w>
击 案</w>
口 语</w>
新闻 媒体</w>
花 钱</w>
竞争 者</w>
俄 国</w>
蓬 勃
锅 炉</w>
第十 三届</w>
US B</w>
诈 骗</w>
懈 努力</w>
不 懈努力</w>
海 南</w>
枪 击案</w>
展 会</w>
布拉 德</w>
ra v
希 德</w>
热 水
情 人</w>
经济合作 与
经济合作与 发展
经济合作与发展 组织</w>
苏 里
使 该</w>
那 条</w>
商 讨</w>
西 北部</w>
巧 妙</w>
I B
陷入 困境</w>
谈 判
S E
神 父</w>
辽 宁
回 报率</w>
兔 子</w>
公 营</w>
处 分</w>
卸 载</w>
犯 规</w>
直 观</w>
夺 回</w>
花 板</w>
相关 者</w>
强 国</w>
号 召</w>
A D
c am
夸 张</w>
猩 猩</w>
d a</w>
庭 审</w>
泰晤士 报</w>
起 步</w>
吻 合</w>
凝聚 力</w>
转 入</w>
程 式</w>
索 托</w>
美洲 国家
美洲国家 组织</w>
拍 卖
已 久</w>
以 防</w>
on g</w>
消费 品</w>
另一 方</w>
周 刊</w>
想 过</w>
性 传播</w>
动 乱</w>
第二 项</w>
山 谷</w>
医 学院</w>
官 方
安 盟</w>
差 旅费</w>
Rev .1</w>
组 委会</w>
弗 林
开 工</w>
塞浦路斯 共和国</w>
陆 续</w>
热 衷
战 队</w>
网络 连接</w>
不 远</w>
通 风</w>
善 政</w>
共 存</w>
最终 目标</w>
路由 器</w>
立 方
平等 待遇</w>
特 派</w>
鸡 尾
自由 党</w>
高尔夫 球</w>
蒙 古
内华 达州</w>
今年 夏天</w>
第二 期</w>
电子 产品</w>
圣 保罗</w>
19 68</w>
整 体
及 早</w>
需 求
C .2</w>
测 验</w>
本 应</w>
收容 所</w>
T O</w>
第二十 届</w>
in s</w>
占领 军</w>
Window s
除 名</w>
两 架</w>
酗 酒</w>
烧 毁</w>
杆 菌</w>
总 人口</w>
十字 架</w>
德 森</w>
成 型</w>
奥 克兰</w>
评 定</w>
英 译
未 成年</w>
凯 尔</w>
田 纳
盲 目</w>
通讯 社</w>
历 程</w>
18 00</w>
y a</w>
个 世纪</w>
每 桶</w>
热衷 于</w>
放 宽</w>
同 性</w>
三 年期</w>
小 学生</w>
亿 万富翁</w>
6 5%</w>
沿 岸</w>
机 会
o u</w>
左 翼</w>
旗 下</w>
之 夜</w>
沈 阳</w>
柜 台</w>
兄弟 姐妹</w>
赞 美</w>
保持 联系</w>
丽 特</w>
ro b
省 长</w>
代 尔</w>
武 库</w>
煤 矿</w>
下 方</w>
长 久</w>
薪 资</w>
聚 合物</w>
开 门</w>
中 等教育</w>
3. 3</w>
简 称</w>
斯 托</w>
日 趋</w>
绘 图</w>
税 款</w>
一点 点</w>
对 立</w>
协 力</w>
e u
赫 勒</w>
嵌 入</w>
t t</w>
亚 运会</w>
长期 存在</w>
肝 脏</w>
吉 米</w>
t om
不 负
不 移</w>
便携 式</w>
f a
大 力
留 住</w>
跳 水</w>
格 伦</w>
新 疆</w>
城市 规划</w>
弗吉 尼亚州</w>
外 勤人员</w>
评论 家</w>
扩 充</w>
特 丹</w>
户 主</w>
种族 隔离</w>
冲 突
调 研</w>
托 人</w>
自然 人</w>
宣 誓</w>
马克思 主义</w>
13 00</w>
立法 者</w>
斯托 尔</w>
往 年</w>
鹿 特丹</w>
阿 什</w>
第四 章</w>
受 限制</w>
安全 网</w>
依 旧</w>
海 平面</w>
格林 纳
特 斯</w>
伤 性</w>
人员 伤亡</w>
监察 组</w>
明确 指出</w>
哈瓦 那</w>
蓬勃 发展</w>
划 定</w>
相 对
坟 墓</w>
le s
联 发援</w>
谋杀 罪</w>
典 范</w>
该 行</w>
壮 大</w>
千 克</w>
食 谱</w>
交通 工具</w>
水 产</w>
问 问</w>
脑 袋</w>
后 备</w>
X X
盛 大</w>
休息 区</w>
2. 4</w>
皇 马</w>
让 人</w>
l a</w>
中 请</w>
气 球</w>
家 宝</w>
可 悲</w>
一 头</w>
聚 焦</w>
切实 有效</w>
斯 卡</w>
剧 烈</w>
巴 萨</w>
努力 提高</w>
布鲁 斯</w>
冈 州</w>
照 射</w>
执 教</w>
不 成
震 动</w>
如 上所述</w>
赦 免</w>
仔 细
电子 地图</w>
租 户</w>
一 连串</w>
覆盖 率</w>
好 友</w>
h an
可 达</w>
免疫 系统</w>
笑 容</w>
特 兰</w>
根 据
老 年
最 受</w>
德 勒</w>
炸 死</w>
哺 乳
花 园
消耗 性</w>
江 苏</w>
豪 华
轮 椅</w>
注 明</w>
死 因</w>
斯 利</w>
农业 部</w>
解 密</w>
者 说</w>
欧 佩克</w>
可 乐</w>
奥斯 本</w>
最 差</w>
台 上</w>
发展 前景</w>
流浪 者</w>
积极 主动</w>
深 夜</w>
金 色</w>
拘 禁</w>
a u</w>
生 动</w>
套 餐</w>
互 相
展 览会</w>
沃 克</w>
布拉 格</w>
或 者说</w>
降 级</w>
诺 斯
美国 国务院</w>
食品 安全</w>
恶 性
er a</w>
俄勒 冈州</w>
新 高</w>
瓶 子</w>
多 长时间</w>
宗教 自由</w>
i es</w>
选 框</w>
电 讯
流 体</w>
随 便</w>
2 11</w>
本 能</w>
珊 瑚
备 件</w>
书 店</w>
十几 岁</w>
油 气</w>
威斯 康
厄 姆</w>
纹 身</w>
夸 大</w>
圣 地</w>
嘴 唇</w>
新 世纪</w>
无 所
邮 局</w>
医 护
广 义</w>
升 起</w>
能 为</w>
核 设施</w>
夹 克</w>
右 侧</w>
美国 国会</w>
铲 除</w>
短 语</w>
篮 子</w>
il l</w>
特 鲁
十 一月</w>
红 新
电 磁
联合国 粮食
联合国粮食 及
联合国粮食及 农业
联合国粮食及农业 组织</w>
大会 堂</w>
一 夜</w>
种 植
住 房
武 器
投票 权</w>
静 脉</w>
字 节</w>
as h</w>
取 缔</w>
公 益</w>
稳 定
做 事</w>
履 约</w>
巴 拉</w>
洛 夫</w>
两国 政府</w>
不 符</w>
外 情况</w>
例 外情况</w>
不 介意</w>
音乐 家</w>
数据 处理</w>
政治 化</w>
联 伊</w>
一 分</w>
符合 国际</w>
天 花板</w>
胰 岛
恶 意
生 日
控 告</w>
多 功能</w>
当 初</w>
弥 合</w>
艾哈 迈
简 便</w>
C A</w>
票 据</w>
鲜 明</w>
av a</w>
奏 效</w>
低 温</w>
告 别</w>
k a</w>
橙 色</w>
不 前</w>
注 视</w>
促 进
rou p</w>
5 6
阿卜耶 伊</w>
提 振</w>
转 基因</w>
本 法</w>
医护 人员</w>
周 期
程序 性</w>
贵 国</w>
毗 邻</w>
英译 汉</w>
15 1</w>
小 狗</w>
奥 拉</w>
路 面</w>
纪念 日</w>
加以 解决</w>
阀 门</w>
韦 斯特</w>
以 求</w>
i ri
自由 主义</w>
编 入</w>
多 月</w>
国 主义</w>
同 年</w>
14 9</w>
14 8</w>
跳 跃</w>
私 有</w>
访 客</w>
集 结</w>
新 界</w>
人 际
调查 报告</w>
迫 击
宇航 员</w>
s im
特 许
抵 触</w>
合 规</w>
ag e</w>
In ter
小 偷</w>
酸 盐</w>
抗 体</w>
驾驶 员</w>
28 .
出口 商</w>
指挥 部</w>
断 裂</w>
多巴 哥</w>
复 选框</w>
初 始
菜 肴</w>
玛 格
15 2</w>
nh s</w>
马尼 拉</w>
签 下</w>
渔 民</w>
收 据</w>
m y
诅 咒</w>
难 得</w>
相 似
风 景
有 点
轨 迹</w>
臭 氧
一 代人</w>
ic e
16 4</w>
刑 期</w>
不负 责任</w>
教 程</w>
反对 者</w>
德 意志
特立 尼
民 选</w>
篮 板</w>
关 掉</w>
计算 方法</w>
乐 团</w>
下 游</w>
13 25</w>
电 线</w>
海 湾
审 美</w>
脾 气</w>
法 学院</w>
大 豆</w>
不 知
民 法</w>
抬 头</w>
第五十 四届</w>
一 双</w>
禁 试</w>
逮捕 令</w>
扫 描
交流 经验</w>
湖 南</w>
独 裁
相 等</w>
出 错</w>
起 码</w>
卖 出</w>
期 权</w>
争 执</w>
老 兵</w>
以 内</w>
每 一项</w>
搜 集</w>
萨 米</w>
罪 恶</w>
感 恩
人 类
C T</w>
水 库</w>
用 地</w>
甜 蜜</w>
瓶 颈</w>
边境 地区</w>
坚 固</w>
八 国集团</w>
in e
分布 式</w>
A T
可 惜</w>
美 术
陆 战队</w>
萨 赫勒</w>
推 理</w>
坚定 不移</w>
禁 毒
慰 问</w>
代理 商</w>
5 7
u k</w>
归 类</w>
A R
特 里
政策 措施</w>
德 罗</w>
热 带
噩 梦</w>
参谋 长</w>
武 术</w>
推 向</w>
哥 华</w>
写 信
一 整天</w>
2 1%</w>
共同 点</w>
轮 廓</w>
应 从</w>
平 壤</w>
尖 锐</w>
创 业
温 哥华</w>
人 有</w>
尼 克
o st
沃 斯</w>
血 清</w>
农 田</w>
男 童</w>
不足 道</w>
鸦 片</w>
器 械</w>
皮 革</w>
热 器</w>
门 外</w>
法律 咨询</w>
早 先</w>
五 角
19 45</w>
凸 显</w>
罗伯 茨</w>
安全 感</w>
寡 妇</w>
浙 江省</w>
青 岛</w>
办 事</w>
烧 伤</w>
盘 子</w>
卫 者</w>
16 1</w>
血 糖</w>
裸 体</w>
温 家宝</w>
联合国 人口
联合国人口 基金</w>
市场 营销</w>
受 灾
经济 损失</w>
领 事
交 出</w>
惊 奇</w>
上 级</w>
阵 列</w>
翻 新</w>
感恩 节</w>
这 边</w>
天 基</w>
赛 前</w>
围 困</w>
猎 人</w>
敏 捷</w>
分析 方法</w>
创新 性</w>
兽 医</w>
四 大</w>
信 号
战 机</w>
说 谎</w>
勇 士</w>
一 眼</w>
烧 烤</w>
不 动</w>
微 不足道</w>
纵 向</w>
装 运</w>
16 7</w>
d a
15 8</w>
实 施
腹 部</w>
经 社</w>
书 写</w>
蜜 蜂</w>
两 点</w>
S S
现实 生活</w>
历 来</w>
至 上</w>
C P</w>
选 赛</w>
重 力</w>
兰 人</w>
2 13</w>
爱国 者</w>
溶 液</w>
don ald
风 机</w>
加利福 尼亚州</w>
别无 选择</w>
以 为
逾 期</w>
之 害</w>
it ter</w>
比 特</w>
很 久
信息 安全</w>
科 夫</w>
继 任
收 支</w>
19 2</w>
颠 覆</w>
16 8</w>
斯特 拉</w>
v an
时 代
倾 销</w>
风 力</w>
积极 支持</w>
sr .
海 港</w>
车 里</w>
诉 求</w>
耦 合</w>
间 断</w>
务 局</w>
克里 姆
融 化</w>
入 式</w>
体 制
默认 值</w>
那 场</w>
拜 托</w>
就 让</w>
午 饭</w>
可 不是</w>
心 血管</w>
海 里</w>
体制 改革</w>
无 比</w>
卡斯 尔</w>
湖 泊</w>
禁毒 署</w>
柔 软</w>
冠 军
晚 宴</w>
并非 如此</w>
余 下</w>
两 届</w>
贸易 谈判</w>
万 人次</w>
落 入</w>
臭氧 层</w>
纪念 活动</w>
独 家</w>
丰 田</w>
运 费</w>
蜡 烛</w>
微 弱</w>
上 周末</w>
存 活</w>
门 前</w>
林 宫</w>
地 缘</w>
2 80</w>
浪 费
乐 于</w>
16 00</w>
热 水</w>
权 威
服务 员</w>
加 班</w>
关键 字</w>
写信 给</w>
ir e</w>
卡 尔
裙 子</w>
油 漆</w>
长 江</w>
少 年
我 用</w>
威 尼斯</w>
商 用</w>
上 调</w>
海 岸
出口 国</w>
蒙 特</w>
强 奸
声 波</w>
危 急</w>
胰岛 素</w>
听 证</w>
p ri
省 政府</w>
打 架</w>
外 围</w>
古 典</w>
谷 物</w>
管理 处</w>
扩 建</w>
敲 定</w>
移民 局</w>
0. 5%</w>
想 着</w>
微 观</w>
2 51</w>
p ol
chri st
打 球</w>
律师 协会</w>
马拉 松</w>
日 程
前 体</w>
水 处理</w>
考 生</w>
座 椅</w>
以 人
牛 仔</w>
高 原</w>
起 着</w>
行 业
截 然不同</w>
左 侧</w>
边 防</w>
电 邮</w>
斯 拉</w>
过 敏</w>
多 位</w>
分 泌</w>
合 办</w>
倒 闭</w>
经济 区</w>
围 栏</w>
两 岸
党 委</w>
责任 人</w>
峡 谷</w>
从 小</w>
母 乳
母乳 喂养</w>
iph one</w>
沃 森</w>
昨 天
无法 控制</w>
IP O</w>
或 非</w>
t ur
器 材</w>
2 3%</w>
时 起</w>
切尔 诺
意 见
售 后
售后 服务</w>
亚 军</w>
拒绝 接受</w>
贪 婪</w>
1. 4</w>
小组 会议</w>
做 饭</w>
专 栏</w>
t e</w>
该 局</w>
客 机</w>
监 会</w>
做 生意</w>
纽 带</w>
ov a</w>
阿 拉</w>
一 如
雷 诺</w>
英 文
筛 查</w>
突 袭</w>
巴 巴</w>
储 备金</w>
最 优</w>
新 德里</w>
平 原</w>
湿 度</w>
交 互
17 3</w>
全 人类</w>
增 值
以人 为本</w>
徘 徊</w>
部 族</w>
土 穆</w>
所 长</w>
体育 馆</w>
好 几个</w>
喀 土穆</w>
根 州</w>
束 缚</w>
丹 佛</w>
第四 节</w>
一如 既往</w>
名 词</w>
cn .9</w>
转 发</w>
网 关</w>
m il
马 车</w>
f .
28 %</w>
这 为</w>
哈 尔</w>
谣 言</w>
每 届</w>
问 候</w>
约 克郡</w>
越 境</w>
M P
伯 里</w>
ri st
马 萨
杯 子</w>
制定 者</w>
AP I</w>
铸 造</w>
b re
毛 巾</w>
力 争</w>
细 分</w>
3 65</w>
防 空</w>
疏 忽</w>
赛 道</w>
人 行
理 所
开 出</w>
断 言</w>
本 科</w>
拉 丁</w>
太平 洋
市 委</w>
地 步</w>
自 制</w>
诱 导</w>
公 决</w>
越来 越
克里姆 林宫</w>
较 长</w>
淡 化</w>
急 于</w>
邮 寄</w>
监 视
基 亚</w>
式 化</w>
克雷 格</w>
索 尼</w>
法律 效力</w>
公 会</w>
上 台</w>
未 遂</w>
绳 子</w>
痴 呆
赞 成
皇 帝</w>
远 处</w>
祷 告</w>
外汇 储备</w>
人 大
辍 学</w>
am p</w>
领事 馆</w>
抢 救</w>
痴呆 症</w>
申请 者</w>
笔记 本</w>
金融 部门</w>
好 看</w>
客 观
举 例
布鲁 克林</w>
e c</w>
联 大</w>
斯 敦</w>
中 应</w>
粹 主义</w>
欧洲 议会</w>
转 动</w>
一 阵</w>
适应 性</w>
地铁 站</w>
领先 地位</w>
精 美</w>
衰 竭</w>
女 足</w>
负债 表</w>
手 机
偷 走</w>
双 语</w>
福建 省</w>
十 大</w>
问 道</w>
容 许</w>
平 息</w>
建设 项目</w>
西 奥</w>
译 员</w>
各 政党</w>
公正 性</w>
优 美</w>
ac e</w>
侦 察
王 室</w>
长 的</w>
可 视
一 整套</w>
放 进</w>
统 治
经 受</w>
珊瑚 礁</w>
集 成
序 列
g dp</w>
袋 子</w>
涂 层</w>
面 向
监 管
客户 机</w>
恶 魔</w>
水 管</w>
两 者之间</w>
提 法</w>
通 报
积极 性</w>
河 南</w>
门 户
3 20</w>
政治 上</w>
在 政治上</w>
耗 尽</w>
焚 烧</w>
希 斯</w>
鸡尾 酒</w>
商 学院</w>
甚 么</w>
按 计划</w>
电 车</w>
该 段</w>
没 见</w>
继任 者</w>
可 为</w>
蓝 图</w>
绝 不能</w>
斯托 克</w>
总 线</w>
英 亩</w>
只 好</w>
刹 车</w>
重 置</w>
电影 节</w>
与 众
说 实话</w>
美 景</w>
一 带</w>
阿 里
cc c</w>
UR L</w>
E P</w>
天 体</w>
合 影</w>
军用 飞机</w>
主 党</w>
与众 不同</w>
阳 市</w>
白 皮书</w>
严 密</w>
百 万美元</w>
3 30</w>
赞成 票</w>
哈 德</w>
情报 局</w>
耶 夫</w>
真 主党</w>
建议 您</w>
h rc</w>
卢 克</w>
化 解</w>
20 6</w>
山 市</w>
增值 税</w>
rich ard
陛 下</w>
深入 研究</w>
出 任</w>
作 风</w>
19 51</w>
里 根</w>
想 象
愈 合</w>
侦 察</w>
保证 金</w>
法兰 克
以 致</w>
投 了</w>
卡 扎
t ar
来 信</w>
意 向</w>
取 胜</w>
毫无 意义</w>
傲 慢</w>
佣 金</w>
投 降</w>
cor r.1</w>
更 衣
所 选</w>
土著 居民</w>
记 忆
规 避</w>
发 送给</w>
节 省
手 法</w>
没 能</w>
聚 合</w>
土 豆</w>
E R
欢 迎
克 什
引 领</w>
场 面</w>
税 收
共产 主义</w>
I C</w>
森 特</w>
总 决赛</w>
两 张</w>
激 起</w>
中东 地区</w>
生产 国</w>
机 床</w>
am b
获得 成功</w>
特立尼 达
恋 爱</w>
东 欧国家</w>
随 即</w>
重新 分配</w>
指 示
行 者</w>
和平 部队</w>
for d</w>
al ex
三 国</w>
而 应</w>
爷 爷</w>
想象 力</w>
仪 表</w>
规划 系统</w>
总体 目标</w>
保持 沉默</w>
格雷 格</w>
惠 及</w>
互 联
粉 碎</w>
A P</w>
请 愿
请愿 书</w>
特许 权</w>
搜 救</w>
莫 斯</w>
联 署</w>
S T
手 下</w>
连 锁
2 42</w>
祸 害</w>
吉 他</w>
3 8%</w>
清 算</w>
商业 性</w>
更 强</w>
出版 商</w>
2 48</w>
彻底 消除</w>
公共 场所</w>
菲 斯</w>
签 署
暴风 雨</w>
鲜 花</w>
人 造</w>
田纳 西州</w>
ub er</w>
谈 及</w>
林 肯</w>
G B</w>
克里 斯蒂
推 断</w>
五角 大楼</w>
第 纳尔</w>
织 物</w>
想 像</w>
4. 3</w>
es t</w>
安全 部</w>
预 备</w>
签署 国</w>
打 扮</w>
出 路</w>
i x</w>
弗 雷</w>
一般 而言</w>
3 3%</w>
远 见</w>
印 刷
刺 伤</w>
特立尼达 和
特立尼达和 多巴哥</w>
水 晶</w>
周 转</w>
剑 桥</w>
化 物</w>
5 8
承 载</w>
受 伤害</w>
光 荣</w>
ph il
告 诫</w>
u f
2 4%</w>
选举 法</w>
身 材</w>
挤 压</w>
化 疗</w>
科 恩</w>
上 述
推 测</w>
两 党</w>
美 好
更衣 室</w>
大大 提高</w>
解 体</w>
十 五</w>
沉 积</w>
果 说</w>
奢 侈
道 奇</w>
格 里</w>
世界 纪录</w>
近 距离</w>
这 本</w>
地下 室</w>
出 门</w>
产 科</w>
年度 预算</w>
效 用</w>
安 南</w>
可视 化</w>
驱逐 出境</w>
捆 绑</w>
报 案</w>
山 顶</w>
管理 信息系统</w>
ir a</w>
衍 生</w>
路易 斯
le s</w>
首 要
警 务人员</w>
e ch
大 地</w>
冷 冻</w>
ro w
脚 步</w>
水 上</w>
7 50</w>
各项 措施</w>
炎 热</w>
预 选赛</w>
米 特</w>
改 编</w>
滞 留</w>
格兰 人</w>
危险 废物</w>
r at
密 集
冒 犯</w>
三 十年</w>
联 索</w>
试 用</w>
如 果说</w>
外 语</w>
仪 表
外 科医生</w>
无 缝</w>
引 述</w>
降 解</w>
包 装
大 奖
喜 剧
p p</w>
改革 方案</w>
应 收</w>
香 蕉</w>
里约 集团</w>
肉 类</w>
在 短期内</w>
信 仰
造 林</w>
牛 仔
紫 色</w>
山 东省</w>
精 品</w>
骗 局</w>
法 则</w>
未 必</w>
卡扎 菲</w>
苏 格兰人</w>
200 00</w>
听 听</w>
隐 患</w>
弹 头</w>
起 诉
贪 污</w>
镇 上</w>
两国 之间</w>
选 秀</w>
超 级
关键 性</w>
传 单</w>
N E
大奖 赛</w>
j os
港 元</w>
患 上</w>
E l
扩 展
19 %</w>
第二十 六条</w>
皇 后</w>
海军 陆战队</w>
合 资企业</w>
分 离
嫉 妒</w>
大陆 架</w>
事 发</w>
获 取
水 电</w>
濒 危</w>
农 民
2 6%</w>
奢侈 品</w>
运 往</w>
螺 旋</w>
小 子</w>
点 钟</w>
18 5</w>
比 如说</w>
军事 法庭</w>
in o</w>
中 世纪</w>
ma g
毒 者</w>
大 酒店</w>
额 度</w>
露 天</w>
记 者
侧 面</w>
阿根 廷
送 达</w>
在 案</w>
平 安</w>
发 点</w>
很 漂亮</w>
党 内</w>
尾 巴</w>
华 纳</w>
E n
瑜 伽</w>
佩 里</w>
ar a</w>
长 长的</w>
有 线</w>
而 战</w>
归 属</w>
斯 通</w>
叶 子</w>
可 供</w>
编辑 器</w>
开发 区</w>
电 极</w>
合 计</w>
骨 骼</w>
掠 夺</w>
足 迹</w>
信息 中心</w>
风 扇</w>
病 房</w>
班 级</w>
t s</w>
联 东</w>
弗林 特</w>
弗 洛
优 于</w>
江 苏
两 侧</w>
5 9
金 沙
ma il</w>
迁 徙</w>
电 报</w>
捍 卫者</w>
保留 意见</w>
上 游</w>
投 标
小 伙
无人 驾驶</w>
优 异</w>
v al
玛格 丽特</w>
政 体</w>
客 运</w>
18 1</w>
不可 逆转</w>
un g
俄克拉 荷
转 折
莱 索托</w>
百 年</w>
理所 当然</w>
虚拟 化</w>
礼 服</w>
纽 卡斯尔</w>
出 缺</w>
病 毒
界 线</w>
恐 龙</w>
电 气
居 然</w>
现 存</w>
pet er
情 愿</w>
4 4
滥 用
2 7%</w>
警察 局长</w>
投 篮</w>
着 重于</w>
图 层</w>
掩 护</w>
商务 部</w>
一 辈子</w>
来文 方</w>
l y
海 事
该 镇</w>
握 手</w>
sk i</w>
犯罪 分子</w>
并 用</w>
晋 级</w>
深 海</w>
开 局</w>
一 堆</w>
201 9</w>
缓 冲</w>
逃 犯</w>
洁 净</w>
没 法</w>
大 连</w>
其 管辖</w>
15 9</w>
格雷 厄姆</w>
数 组</w>
戴 维</w>
科 林</w>
缅 甸
预测 性</w>
人 床</w>
哪 怕</w>
万 计</w>
结 盟</w>
文 凭</w>
总 和</w>
f ccc</w>
轮 流</w>
该 剧</w>
清 晨</w>
三 日</w>
之 而来</w>
人 均
远 程
补 充
f re
仲裁 员</w>
洗 澡</w>
稳 健</w>
榴 弹</w>
胚 胎</w>
叙 事</w>
C ar
度 量</w>
17 2</w>
联络 处</w>
识 字</w>
商 家</w>
en s
检 察</w>
小伙 子</w>
五 日</w>
6 7
竞 技
非 暴力</w>
肯 特</w>
应 计</w>
寄 宿</w>
ic h</w>
雄 厚</w>
核 计划</w>
求 解</w>
门户 网站</w>
恋 者</w>
in t</w>
添 加
帮 派</w>
大 得多</w>
19 48</w>
18 3</w>
舰 队</w>
社会 各界</w>
一 共</w>
经 纪</w>
洪 灾</w>
兼 容性</w>
浪费 时间</w>
中 华</w>
各 届</w>
阿拉 木
里 夫</w>
紧急 行动</w>
先 知</w>
you t
公 路
保险 箱</w>
快 照</w>
肚 子</w>
普 雷
加 特</w>
毛 泽
核心 作用</w>
控 股</w>
选 拔</w>
全民 公决</w>
打 赌</w>
连接 器</w>
蝴 蝶</w>
表 彰</w>
狭 隘</w>
某 项</w>
折 叠</w>
南 卡罗来纳</w>
富有 成效</w>
巴 厘</w>
逆 转录</w>
窗 格</w>
现实 意义</w>
夺 走</w>
赛 因</w>
提出 申请</w>
变 异</w>
14 00</w>
开 口</w>
二 者</w>
公共 利益</w>
法 克斯</w>
粗 糙</w>
b an
闪 电</w>
力 图</w>
主 权
激 光
真实 性</w>
服 装
ig h
承 包</w>
卡 塔
公民 投票</w>
傻 瓜</w>
19 66</w>
督 察</w>
强 势</w>
前 列</w>
侯 赛因</w>
数十 名</w>
辽 宁</w>
购买 力</w>
2 26</w>
丝 毫</w>
综 管</w>
u g
英格兰 队</w>
高 频</w>
回 忆
人均 收入</w>
巴尔 的
准 军事</w>
军 团</w>
世界 级</w>
负责 管理</w>
沙 龙</w>
支持 率</w>
卫生 系统</w>
新泽 西州</w>
幽 灵</w>
礼 仪</w>
河 北</w>
民 用
杀 人
期 徒刑</w>
18 9</w>
肝 炎</w>
火 山
贸易 和
贸易和 发展
贸易和发展 会议</w>
联合国 贸易和发展会议</w>
I II</w>
血 腥</w>
切 斯</w>
c m
于 此</w>
图 像
随 之而来</w>
附 注</w>
遵 从</w>
谋 生</w>
主 题
列 明</w>
电 源
精 算</w>
六 次</w>
极 好</w>
微 波</w>
牧 场</w>
通 过
规 例</w>
找 个</w>
沙 拉</w>
为 数
起 义</w>
克什 米尔</w>
指 认</w>
教 派</w>
联合 体</w>
杰 米</w>
绝 不会</w>
3 500</w>
水 疗</w>
c p.
垃圾 邮件</w>
世 上</w>
尚 待</w>
本 局</w>
任何 一方</w>
日 渐</w>
麦克 风</w>
收 紧</w>
应 立即</w>
ar i</w>
避孕 药</w>
转折 点</w>
民族 团结</w>
士 们</w>
沿 海地区</w>
自 私</w>
奥斯 陆</w>
中 起</w>
山 姆</w>
政 务</w>
检 疫</w>
屋 里</w>
北 欧</w>
看 望</w>
艾哈迈 德</w>
. 6</w>
离 任</w>
东南 亚
这 艘</w>
澳大利亚 政府</w>
O ff
3. 4</w>
并 入</w>
蔑 视</w>
浅 析</w>
司 令
植 入</w>
偏 差</w>
er ic
巧 合</w>
B S</w>
角 逐</w>
这 比</w>
历史 学家</w>
in i</w>
15 000</w>
上 映</w>
调 和</w>
美 女</w>
第一 夫人</w>
就 绪</w>
其 为</w>
校 准</w>
西 南部</w>
图片 说明</w>
身体 健康</w>
传 唤</w>
轻 型</w>
帕 特</w>
丽 丝</w>
现 况</w>
i k</w>
来 源于</w>
大 人</w>
油 价格</w>
赔偿 金</w>
第二十 三届</w>
备 灾</w>
长 者</w>
称 号</w>
简 洁</w>
达 姆</w>
5. 2</w>
兹 堡</w>
没 关系</w>
相 邻</w>
19 9</w>
突 变</w>
5 5%</w>
股 本</w>
联 席会议</w>
法兰克 福</w>
翻 译成</w>
前 方</w>
办公 桌</w>
不 通</w>
阿德 莱德</w>
始 终
中 小学</w>
三角 洲</w>
a p</w>
约 法</w>
物 理学</w>
奢 华</w>
埋 葬</w>
嵌 入式</w>
便 会</w>
最 小
嘴 里</w>
不 已</w>
国家 级</w>
面 貌</w>
特 区政府</w>
开 销</w>
e ar
显 微
撤 退</w>
声 器</w>
瑞 恩</w>
状 及</w>
电视 剧</w>
发 酵</w>
年 满</w>
华盛顿 邮报</w>
保持 稳定</w>
领 带</w>
史 上</w>
s an
金沙 萨</w>
传 出</w>
相 继</w>
接 壤</w>
s p</w>
饱 和</w>
恳 求</w>
老 朋友</w>
墨西哥 城</w>
滞 后</w>
密歇 根州</w>
速 效</w>
达 科
星 系</w>
何 塞</w>
钦 佩</w>
居 室</w>
工具 包</w>
攻击 性</w>
武装 人员</w>
写 下</w>
缩 编</w>
宪 政</w>
关键 时刻</w>
推 动力</w>
20 7</w>
现 状及</w>
载 荷</w>
19 5</w>
斯 本</w>
职 司</w>
欧 共体</w>
c al
悬 崖</w>
本 项</w>
商 机</w>
第一 期</w>
可 不</w>
肺 癌</w>
紧 紧</w>
oo k
大 米</w>
结 尾</w>
S D
厂 房</w>
la y
c ed
人 大</w>
表现 形式</w>
数 码
投 机</w>
不 好
不 善</w>
那 一刻</w>
威斯康 星
输 入
外 包</w>
马 里兰
盛 行</w>
早 婚</w>
车 手</w>
条 所</w>
硬 化</w>
总 表</w>
幸 存</w>
差 价</w>
美 方</w>
高 涨</w>
女 孩子</w>
on d
其 间</w>
闭 门</w>
海岸 线</w>
迭 代</w>
可 比</w>
B ar
见 图</w>
ri ck
id b.
e k</w>
卡 森</w>
决 不能</w>
虫 剂</w>
傍 晚</w>
进 制</w>
踢 球</w>
溶 剂</w>
复杂 化</w>
一无 所知</w>
i v</w>
所 定</w>
成 因</w>
2 27</w>
同 性
目 标
联 格</w>
申请 书</w>
人行 道</w>
6 6
n o
击 毙</w>
永 不</w>
G oogle</w>
冲 刺</w>
证 据
西班牙 文</w>
h m
内 人士</w>
矿 工</w>
密歇 根</w>
时 常</w>
世 纪
公 立</w>
参 赛
凭 据</w>
科 长</w>
扣 留</w>
国际 事务</w>
沃尔 玛</w>
母 婴</w>
数据 类型</w>
天 性</w>
粘 贴</w>
电 量</w>
司 令</w>
命 令
没 人</w>
举 起</w>
专 属</w>
承包 者</w>
阿拉木 图</w>
一 任</w>
多种 多样</w>
饥 荒</w>
快 捷
乐 器</w>
匹 兹堡</w>
好 吃</w>
两 分钟</w>
官 僚</w>
莱 恩</w>
机动 车</w>
哮 喘</w>
盟 国</w>
备 战</w>
正 直</w>
投资 银行</w>
4 2%</w>
精 心
卡 路
高 职</w>
果 汁</w>
直 觉</w>
基 文</w>
圣诞 老人</w>
工 资
复合 材料</w>
静 止</w>
可 选</w>
之 家</w>
南 美</w>
加 固</w>
国 立</w>
ac k</w>
德 比</w>
同性 恋者</w>
万 多</w>
18 6</w>
初 等教育</w>
宣 扬</w>
认真 对待</w>
私 权</w>
巴尔的 摩</w>
蒂 诺</w>
并不 一定</w>
住 宅
多 尼亚</w>
万 辆</w>
2 14</w>
崭 新</w>
粉 红色</w>
丰 厚</w>
淋 巴
波 罗
鲁 斯</w>
马萨 诸
居住 地</w>
效 仿</w>
准 时</w>
克里 斯托
离 岸</w>
不 带</w>
教育 部门</w>
房 东</w>
奥 特</w>
出 所</w>
主导 作用</w>
世 俗</w>
悲 观</w>
yout ube</w>
身 亡</w>
灵 顿</w>
中 性</w>
情报 机构</w>
吸 毒者</w>
养 育</w>
出 人
胡 子</w>
天 后</w>
复 活
过 得</w>
潘 基文</w>
u st
卡路 里</w>
宣 判</w>
增长 速度</w>
第一 节</w>
疑 虑</w>
条 约法</w>
弗 拉
都 柏林</w>
蓝 线</w>
座 谈会</w>
伯 利兹</w>
为人 知</w>
案 文
停 职</w>
扼 杀</w>
表 决权</w>
反对 票</w>
应 于</w>
存 量</w>
出 发点</w>
爱 人</w>
打 出</w>
寄 给</w>
日 落</w>
太 高</w>
st ev
雨 量</w>
重 振</w>
阻 挡</w>
en c
里 斯本</w>
账 目</w>
法 定
t o
一 队</w>
圆满 成功</w>
ic ros
变 压器</w>
尼 派</w>
19 64</w>
行 之
更 能</w>
唤 醒</w>
细 致</w>
le y
省 市</w>
狂 欢</w>
公 安</w>
营 企业</w>
阿 伯
维 持
汤 普森</w>
7 0
句 话</w>
联 机</w>
太 久</w>
W TO</w>
遇 难者</w>
率 地</w>
添加 剂</w>
财产 损失</w>
外 贸</w>
加 达</w>
b y
新 秀</w>
施 压</w>
上述 情况</w>
转 身</w>
财政 政策</w>
模 块
性 病</w>
存 货</w>
P V
埃 德
普 林
奖 杯</w>
a .
消 毒</w>
时 髦</w>
湖 人</w>
极 少</w>
植 被</w>
沃 伦</w>
考 核</w>
摩 西</w>
公安 机关</w>
花园 里</w>
宫 殿</w>
山 羊</w>
每 名</w>
介绍 性</w>
摩 罗</w>
度假 胜地</w>
森 林
阿姆斯特 丹</w>
大 堂</w>
公 用</w>
腹 泻</w>
十 三</w>
高 得</w>
自 营</w>
两 队</w>
不 讳</w>
肯 塔
交 由</w>
设 备
民事 诉讼</w>
搅 拌</w>
公 爵</w>
不 算</w>
欧洲 理事会</w>
店 铺</w>
贫困 线</w>
套 件</w>
冲 浪</w>
T h
逊 尼派</w>
终 生</w>
棵 树</w>
抽 样</w>
珊 瑚</w>
刀 具</w>
口 径</w>
比 喻</w>
弗 莱
据 点</w>
A M
加利福 尼亚</w>
肌 肤</w>
19 63</w>
行之 有效</w>
重 庆
消极 影响</w>
iy ah</w>
紫 卡</w>
根据 上述</w>
排 名
at a</w>
发 电厂</w>
做 成</w>
光 滑</w>
紧 凑</w>
灰 尘</w>
增 量</w>
伤 员</w>
贬 低</w>
在 意</w>
二 十</w>
有 素</w>
辛 普森</w>
长 途
十 六
传 授</w>
树 上</w>
某 事</w>
隔 壁</w>
尔 克</w>
主权 国家</w>
象征 性</w>
加 工
DN S</w>
衰 老</w>
加 油
恰 恰</w>
西 装</w>
留 意</w>
发 出
I T
SQ L</w>
3 6%</w>
20 50</w>
膳 食</w>
人 节</w>
萨 科
罗 德里
弄 清楚</w>
女 士们</w>
佩 戴</w>
热 心</w>
航空 航天</w>
本 章</w>
封 电子邮件</w>
b o</w>
美 学</w>
带 入</w>
管理 部</w>
满 贯</w>
恶意 软件</w>
往 常</w>
伊 万</w>
打 扫</w>
装 甲
惠 普</w>
动 植物</w>
an e</w>
若 要</w>
re ad
快 递</w>
6. 2</w>
icros of
右 键</w>
i ii</w>
印第安 人</w>
匆 忙</w>
u el
这 篇</w>
同 一天</w>
科 比</w>
复 印
摄 入</w>
分 项</w>
I V</w>
欠 款</w>
s g
牢 记</w>
因 涉嫌</w>
另一 边</w>
温 格</w>
命 中</w>
旅 途</w>
余 力</w>
低 廉</w>
太平洋 地区</w>
隐 私权</w>
说 来</w>
萨 拉
拨 出</w>
同 酬</w>
草 原</w>
能 效</w>
财 产权</w>
脚 踝</w>
看 守</w>
层 次
字 典</w>
星 人</w>
6 8
20 1</w>
野 外</w>
制 动</w>
结 社
i ra
19 1</w>
执 政党</w>
实 现
意 想不到</w>
沙 尔</w>
内 衣</w>
女 排</w>
公 海</w>
室 内
e ph
结社 自由</w>
断 定</w>
外交 关系</w>
再次 发生</w>
鲍 里斯</w>
投 入
威斯康星 州</w>
就业 率</w>
17 8</w>
阿鲁 沙</w>
局 限</w>
联合国 安理会</w>
五 项</w>
撰 文</w>
变 迁</w>
国 在</w>
牛仔 裤</w>
批 量</w>
右 手</w>
露 面</w>
u r</w>
第二十 二
高尔夫 球场</w>
商业 活动</w>
马 路</w>
波 利
胶 囊</w>
复 活</w>
顶 尖</w>
丽 娜</w>
域 网</w>
模块 化</w>
患 病</w>
其 所</w>
业 内人士</w>
初始 化</w>
誉 为</w>
p d
起 始</w>
招 生</w>
收 盘</w>
浮 动</w>
第五 章</w>
夜 总会</w>
17 4</w>
分 层</w>
in c</w>
17 6</w>
an g</w>
开 场</w>
违 规
坏 消息</w>
为 准</w>
谨 向</w>
复活 节</w>
衰 落</w>
个 省</w>
训练 有素</w>
军事 化</w>
虚 构</w>
科 摩罗</w>
拷 贝</w>
加勒比 地区</w>
不 高</w>
t ri
快速 反应</w>
棒 了</w>
库 斯</w>
太 棒了</w>
百 慕
第六十 六</w>
停 顿</w>
代表 权</w>
爵 夫人</w>
北 朝鲜</w>
w or
减 速</w>
事 业
左 派</w>
咨询 机构</w>
合法 权益</w>
震 撼</w>
四 场</w>
人 因</w>
可信 度</w>
西 省</w>
长 城</w>
诚 地</w>
直接 参与</w>
收 缴</w>
受 雇</w>
钻 井</w>
二十 世纪</w>
皇 冠</w>
es h
m m</w>
格 陵
空间 科学</w>
巴 德</w>
Cor r.1</w>
张 正义</w>
多 层面</w>
东道 主</w>
z a</w>
迪斯 尼</w>
京 群岛</w>
鉴 别</w>
切尔诺 贝利</w>
利 润
源 头</w>
18 8</w>
蒂 尔</w>
友好 合作</w>
晶 体</w>
中 途</w>
这 才</w>
肠 道</w>
我 刚</w>
常 委会</w>
渗 透
年龄 段</w>
批 判</w>
友好 关系</w>
it h
车 库</w>
维 权</w>
善 治</w>
会员 卡</w>
小 孩子</w>
勉 强</w>
零 零</w>
数以 百
内 务
会 场</w>
火 箭
受 体</w>
CP U</w>
火 炬</w>
韦 尔
猪 肉</w>
新 颖</w>
清 洁
l and
这 款</w>
视 听</w>
导 言</w>
冲突 地区</w>
晚 期</w>
6 50</w>
计 时</w>
紧 要</w>
整 治</w>
自 发</w>
登 机</w>
医疗 卫生</w>
w at
s and
酒 店
总 能</w>
10 0
老 百姓</w>
内 蒙古</w>
畅 销</w>
所 作
流行 病学</w>
应 变</w>
波罗 的
第十二 条</w>
威 士
塞尔 维亚
双重 标准</w>
罗 布</w>
伯 恩</w>
派 出所</w>
al i</w>
联 军</w>
怀 念</w>
an y
收 入
宪 兵</w>
一 瓶</w>
一 来</w>
第二 款</w>
20 9</w>
规范 性</w>
腐 败
底 下</w>
契 机</w>
入 手</w>
所作 所为</w>
加 索</w>
3 2%</w>
罗 杰</w>
文 森特</w>
集中 精力</w>
新 鲜
戴 着</w>
雅 加达</w>
第二 位</w>
空气 质量</w>
c p
20 5</w>
羽 毛
氯 化
初 中</w>
算 是</w>
士 气</w>
河 北省</w>
水 稻</w>
格 外</w>
撕 裂</w>
学 士学位</w>
红 利</w>
塞 特</w>
喀 里
la s</w>
国 营</w>
二 苯
可 预测性</w>
供 选择</w>
一 夜
洗衣 机</w>
足 球队</w>
甲 烷</w>
服务 体系</w>
喀里 多尼亚</w>
网 友</w>
提出 异议</w>
库尔德 人</w>
遗 余力</w>
老 实</w>
不 遗余力</w>
有 助</w>
拘 捕</w>
名 将</w>
变 化
成 功
速 器</w>
江苏 省</w>
敏 斯特</w>
威斯 敏斯特</w>
信仰 自由</w>
d er
5 50</w>
杀 虫剂</w>
昏 迷</w>
寂 寞</w>
总 公司</w>
17 7</w>
退 回</w>
tr ump</w>
公 交</w>
积 金</w>
塞 州</w>
可 可</w>
i er</w>
现 正</w>
好 象</w>
9 001</w>
战 线</w>
洛 普</w>
佛 得
CN .9</w>
温 度
雕 刻</w>
重 复
历史 记录</w>
3 0.
纽约 州</w>
d e</w>
3 7%</w>
锦 赛</w>
就 任</w>
掩 饰</w>
17 1</w>
歌 剧</w>
原 文</w>
比 赛
生命 危险</w>
过 夜</w>
奢 侈</w>
18 4</w>
当地 政府</w>
当 斯</w>
保险 费</w>
背 上</w>
炎 症</w>
亦 可</w>
m e</w>
新泽 西</w>
时 装
袜 子</w>
打 伤</w>
传 给</w>
尼 特</w>
29 .
伸 张正义</w>
新闻 自由</w>
两岸 关系</w>
克莱 尔</w>
敌 方</w>
传 来</w>
最低 标准</w>
维 基</w>
摇 摆</w>
远 距离</w>
组 中</w>
刊 物</w>
in st
评 判</w>
苹果 公司</w>
放 大
挫 败</w>
宁 波</w>
共 振</w>
电 阻</w>
缅甸 政府</w>
一 时期</w>
教 员</w>
监视 器</w>
七 日</w>
手 持</w>
塔 尼亚
产品 开发</w>
冷 却
维 修
利 马</w>
照 看</w>
常 识</w>
自 觉</w>
底 线</w>
储 备
拼 命</w>
贝尔 法
贝尔法 斯特</w>
映 像</w>
米 切尔</w>
四 川
凭 证</w>
单 打</w>
硕 士学位</w>
内 有</w>
阈 值</w>
身 心
屋 子</w>
最低 水平</w>
航天 器</w>
3 80</w>
石 化</w>
努 阿
候 选</w>
A C
青 春</w>
流 动
紫 外线</w>
密集 型</w>
病 变</w>
维尔 京群岛</w>
立 足
万 一</w>
民 粹主义</w>
指 着</w>
哺乳 动物</w>
F i</w>
探 访</w>
徒 步</w>
出 局</w>
最 坏</w>
不 合
阿 比
德 福</w>
规 模
峰 值</w>
交 际</w>
论 者</w>
微 波
主 旨</w>
or e</w>
家 用</w>
人 以</w>
重新 部署</w>
说 是</w>
戒 烟</w>
需求 量</w>
迪 斯</w>
连 胜</w>
适 用性</w>
互 信</w>
4 4%</w>
分析 表明</w>
排 水</w>
所罗 门
核 技术</w>
内 核</w>
罂 粟</w>
游 戏
关键 技术</w>
集 团
安 定</w>
歉 意</w>
前 列
犯罪 集团</w>
播放 器</w>
东南 欧</w>
保护 法</w>
预 赛</w>
雷 曼</w>
暑 假</w>
货 物
放 开</w>
双 人</w>
模 糊
具体 步骤</w>
伯 爵</w>
鲸 鱼</w>
生 长
挪 威
沃 德</w>
战略 部署</w>
一 家人</w>
影 院</w>
斯 勒</w>
胆 固醇</w>
战 时</w>
9 11</w>
窒 息</w>
迈 向</w>
绅 士</w>
天 数</w>
搭 建</w>
贸易 中心</w>
公共 事务</w>
数学 模型</w>
四 日</w>
大 理
复 仇</w>
台 商</w>
第七 章</w>
in f
大 坝</w>
待 命</w>
加 元</w>
非洲 统一
非洲统一 组织</w>
分 级</w>
科 隆</w>
共 鸣</w>
偏 低</w>
非常 任</w>
比 起</w>
反 洗钱</w>
官 兵</w>
夫 斯</w>
过渡 期</w>
哈 佛
黄 油</w>
摩尔多 瓦</w>
档 案
开发 新</w>
萨 卡</w>
2 22</w>
性 研究</w>
可行 性研究</w>
5 .1</w>
颈 部</w>
阿 布</w>
发 掘</w>
法 院
道 路
性 生活</w>
华 人</w>
近 年</w>
工艺 品</w>
伊 德</w>
多 彩</w>
轮 换</w>
监督 机制</w>
交 火</w>
显 现</w>
香港 特别行政区</w>
福 斯特</w>
氏 度</w>
阿 什
马萨诸 塞州</w>
三 岁</w>
E C</w>
瑞 克</w>
喜剧 演员</w>
以 东</w>
喷 气
信 封</w>
首 场</w>
百慕 大</w>
丢 弃</w>
面 粉</w>
莎 士
莎士 比亚</w>
二苯 醚</w>
拜 登</w>
农 发</w>
喉 咙</w>
值得 一
爱 国</w>
奥 利
脑 海</w>
蝙 蝠</w>
修 道
休 斯</w>
散 布</w>
自杀 式</w>
瓦 努阿
C D
环 绕</w>
希 特勒</w>
安 吉
价 比</w>
电讯 报</w>
4 7%</w>
普 及
湖 北</w>
休息 室</w>
密 西西
气象 局</w>
不 肯</w>
车 厢</w>
预 备
做 爱</w>
特 种
停 下</w>
太 小</w>
抗 击</w>
帕 尔
公 关</w>
2 21</w>
学 生
口 音</w>
著 称</w>
舌 头</w>
英 伦</w>
居 留
亚 当斯</w>
五 十</w>
线 条</w>
性 价比</w>
工作 站</w>
普 罗
一 时间</w>
置 疑</w>
繁 重</w>
昆 明</w>
波 利斯</w>
春 节</w>
心 目</w>
热烈 欢迎</w>
k at
阿 兰</w>
宏 伟</w>
呼吸 道</w>
全 场</w>
U I</w>
大大 增加</w>
反 正</w>
生 化</w>
得 克萨斯州</w>
v i</w>
7 7
t h</w>
起诉 书</w>
土 壤
分 类
ad a</w>
车 子</w>
or t</w>
in s
致 死</w>
关 门</w>
事 儿</w>
平 常</w>
不 间断</w>
冰 川</w>
互 补
20 2</w>
私营 企业</w>
有限 责任</w>
饮 用</w>
双 性恋</w>
洗 衣</w>
惊 叹</w>
饲 养</w>
磁 盘
巡 回</w>
es s</w>
环境 退化</w>
最 强</w>
海 姆</w>
波罗的 海</w>
灿 烂</w>
替 补</w>
众 人</w>
赶 紧</w>
美国 公司</w>
拉 尼</w>
私 立</w>
实现 目标</w>
wil liam
阿卜杜 拉</w>
安全 区</w>
克 朗</w>
海 边</w>
克罗地 亚
2 43</w>
身心 健康</w>
运 算</w>
孟 买</w>
苦 苦</w>
显微 镜</w>
不 起
流 浪</w>
数 周</w>
20 3</w>
阿比 让</w>
泛 滥</w>
友 善</w>
衷 心</w>
菲 特</w>
滑 坡</w>
叙利亚 人</w>
呈 现出</w>
化 妆</w>
美 的</w>
妮 弗</w>
雷 特</w>
高 点</w>
癫 痫</w>
长 得</w>
组 人员</w>
机 组人员</w>
拉 动</w>
军 营</w>
19 8</w>
o k</w>
an d</w>
发 行
三 点</w>
牙 科</w>
a c</w>
本 节</w>
赤 道
m ur
人际 关系</w>
2 16</w>
并 会</w>
天气 预报</w>
谈 过</w>
开 拓
文 艺
基因 组</w>
余 时间</w>
共同 市场</w>
这 台</w>
耕 地</w>
罗 斯
藐 视</w>
罗德里 格斯</w>
会议 厅</w>
再 现</w>
分析 家</w>
精 细</w>
有 幸</w>
操作 性</w>
吉 林
捷 运</w>
这 有</w>
更 进一步</w>
时 装</w>
救 出</w>
道 尔</w>
党 的
新 喀里多尼亚</w>
较 强</w>
责 备</w>
游 击队</w>
转 账</w>
热 闹</w>
ab b
老 爸</w>
压倒 性</w>
19 3</w>
格兰 特</w>
十 分钟</w>
朗 德</w>
温 馨</w>
功 效</w>
走 开</w>
龙 头</w>
li v
毛泽 东</w>
文化 交流</w>
救 治</w>
亲 吻</w>
塔尼亚 胡</w>
内 塔尼亚胡</w>
物 价</w>
一 栋</w>
核 武库</w>
带 薪</w>
归 档</w>
优先 级</w>
韦 斯</w>
巴尔 干</w>
聆 听</w>
印度 政府</w>
格 森</w>
姓 氏</w>
2 55</w>
源 泉</w>
球 大战</w>
星 球大战</w>
伤 残</w>
进 修</w>
似 宜</w>
吹 嘘</w>
澳 元</w>
大大 减少</w>
空 军
b el
加拿大 人</w>
黑 客
新 人</w>
分 裂
技术 上</w>
俯 瞰</w>
采 样</w>
g o</w>
金 字
日 语</w>
参 选</w>
魔 术</w>
结 案</w>
进 军</w>
打 击
女 权
该 省</w>
轮 机</w>
订 婚</w>
特 曼</w>
互补 性</w>
维 特</w>
海 关
4. 4</w>
六 名</w>
入 选</w>
不 堪</w>
已 获</w>
阿 斯</w>
p al
印度 人</w>
ne y</w>
照 亮</w>
黑 洞</w>
铺 平
铺平 道路</w>
来 回</w>
上 一年</w>
毫 克</w>
仍 旧</w>
佣 工</w>
出 院</w>
股票 市场</w>
才 华</w>
总 书记</w>
堡 垒</w>
行 情</w>
犯罪 人</w>
真 诚地</w>
矿 产</w>
宽 恕</w>
疏 远</w>
勒 索</w>
赖 恩</w>
数据 分析</w>
商业 化</w>
iv ers
S S</w>
词 典</w>
相 撞</w>
安 第
但 须</w>
输 掉</w>
甲 状
各 阶层</w>
当 下</w>
改 划</w>
详 述</w>
ra m</w>
服 兵役</w>
免 权</w>
瓦努阿 图</w>
交 存</w>
纪念 品</w>
叶 片</w>
利 特</w>
nation al
附加 值</w>
电话 会议</w>
尽 情</w>
流 氓</w>
耐 用</w>
故 障
批 发</w>
炮 击</w>
控 诉</w>
17 00</w>
ac h</w>
陷 于</w>
邓 肯</w>
漫 步</w>
普 拉</w>
中 级</w>
19 4</w>
所罗门 群岛</w>
S M
出 手</w>
18 7</w>
讯 问</w>
法 国
住 处</w>
一 口</w>
缓 刑</w>
机 密
整 洁</w>
炫 耀</w>
2 69</w>
马里兰 州</w>
低 调</w>
罗 伊</w>
非法 活动</w>
拼 写</w>
揭 开</w>
同 情
移 送</w>
蜂 蜜</w>
羡 慕</w>
躲 避</w>
身 穿</w>
沥 青</w>
中 药</w>
B .
发 音</w>
日本 队</w>
审 案</w>
分 隔</w>
一年 一度</w>
H P</w>
课 程
大 满贯</w>
两 支</w>
奥 兰
购物 者</w>
走 近</w>
出 名</w>
借 调</w>
期 限
此 一</w>
技术 培训</w>
讲 师</w>
m ent
车 票</w>
大理 石</w>
防 水</w>
实 习
坦 率地</w>
第八 条</w>
照 相机</w>
数 个</w>
卡罗 尔</w>
触 犯</w>
而 代
雅 各
联 布</w>
顾 虑</w>
转换 成</w>
自 足</w>
而 异</w>
滞 不前</w>
两 地</w>
软 弱</w>
消 化
地 段</w>
l d
加油 站</w>
损 害
损害 赔偿</w>
彭 斯</w>
哈 佛</w>
心 跳</w>
2. 6</w>
2 90</w>
离 子
An d
探 究</w>
报 销</w>
背 面</w>
一 辆车</w>
可 图</w>
9 8%</w>
福 克兰
击 手</w>
两国 人民</w>
预 留</w>
观 赏</w>
野 兽</w>
自 尊</w>
杯 赛</w>
低 点</w>
高 素质</w>
5 4
克里斯托 弗</w>
流 传</w>
停 滞不前</w>
马其 顿</w>
蓝 牙</w>
on t
落 下</w>
捉 到</w>
团结 起来</w>
任 职者</w>
e h</w>
证券 市场</w>
第二 名</w>
赖 斯</w>
牛 津
波 器</w>
出人 意料</w>
出 卖</w>
而 言之</w>
突 破
牙 医</w>
流 亡</w>
通 向</w>
申 办</w>
th e
珍 珠</w>
获取 信息</w>
称 呼</w>
留 学</w>
常 见
非 传统</w>
校 正</w>
合法 权利</w>
in k
微波 炉</w>
归 纳</w>
扬 声器</w>
库 珀</w>
违规 行为</w>
瓦 卢</w>
3 70</w>
斯 皮
扫 雷</w>
函 件</w>
同 于</w>
交换 机</w>
自然 环境</w>
第十 七条</w>
付 诸</w>
染 色
6. 5</w>
应 享</w>
con f.
海 峡
公 吨</w>
服务 公司</w>
佛得 角</w>
bro w
倾 倒</w>
今年 年底</w>
4 3%</w>
市 值</w>
记 入</w>
保 健
小 岛</w>
m el
欺 凌</w>
andre w
尔 逊</w>
一 会</w>
ar y
宇航 局</w>
离 去</w>
盲 人</w>
吸 烟
能 耗</w>
IB M</w>
j ack
20 4</w>
明尼苏 达州</w>
升 温</w>
休 会</w>
迷 失</w>
演 化</w>
琳 娜</w>
期限 内</w>
减 去</w>
首 领</w>
基本 要素</w>
十 七届</w>
班 车</w>
首 轮</w>
离 不开</w>
应 得</w>
充 斥</w>
戈 尔
趋 于</w>
萝 卜</w>
福克兰 群岛</w>
越 南
箭 头</w>
总 协定</w>
夫 特</w>
材 质</w>
固定 资产</w>
时 效</w>
封 装</w>
肯 尼</w>
股 指</w>
贝 卡</w>
搞 笑</w>
平方 英尺</w>
周期 性</w>
绝 大部分</w>
平 局</w>
ar t</w>
赞助 商</w>
爱 上</w>
小 鸟</w>
青 春
疲 惫</w>
条 新闻</w>
头 条新闻</w>
A N
史蒂 芬</w>
家 居</w>
体 力</w>
历史 悠久</w>
关 税
上 尉</w>
磁 场</w>
珍 妮</w>
英国 首相</w>
过 失</w>
海 鲜</w>
存 入</w>
担 负</w>
19 7</w>
政治 犯</w>
凯 蒂</w>
传 言</w>
性 犯罪</w>
太 晚</w>
标 识
图 瓦卢</w>
卫生 间</w>
l ou
un g</w>
实 惠</w>
领 地</w>
售 出</w>
投票 率</w>
u p
金字 塔</w>
之 久</w>
4 6%</w>
万 至</w>
非 核心</w>
党 中央</w>
主管 机关</w>
麻 醉</w>
横 跨</w>
节 约
田 野</w>
法 域</w>
增 列</w>
深 层</w>
威士 忌</w>
3 4%</w>
灌 输</w>
丽 莎</w>
g r
17 9</w>
识 字
验 收</w>
接 头</w>
立法 机关</w>
d ec
远 景</w>
两 组</w>
防 线</w>
阿 尔</w>
编 织</w>
几 秒钟</w>
严重 破坏</w>
布 宜
保 费</w>
现 今</w>
家 禽</w>
in n
19 65</w>
邮 件
安 徽</w>
保 姆</w>
韩 国队</w>
en s</w>
近 代</w>
溢 出</w>
布 赖恩</w>
企 鹅</w>
10 0000</w>
蜘 蛛</w>
布鲁 克</w>
人 队</w>
精 子</w>
六 方
第十九 届</w>
平 板
于 本周</w>
青年 党</w>
该 区</w>
点 头</w>
居民 区</w>
m s</w>
l ar
常 任</w>
残 留</w>
29 %</w>
john son</w>
再 也
曲 棍
所在 国</w>
马克 思</w>
记者 会</w>
六方 会谈</w>
环境 污染</w>
平均 值</w>
多 克</w>
数十 亿美元</w>
2 15</w>
沉 浸</w>
个人 身份</w>
轻 轻</w>
敌 军</w>
发 明
助 攻</w>
门 诊</w>
等 同于</w>
对 准</w>
3 1%</w>
款 中</w>
尤 为重要</w>
羽 毛</w>
沉 积
戴 夫</w>
平均 数</w>
决 不</w>
年 头</w>
计 入</w>
P .
病 理</w>
双边 合作</w>
超 重</w>
很 差</w>
见 本</w>
从那 时起</w>
W or
7. 5</w>
脚 注</w>
群 组</w>
苯 丙
时 数</w>
未 曾</w>
招 待</w>
调 器</w>
什 麼</w>
瑙 鲁</w>
控制 中心</w>
品 牌
修道 院</w>
9 0
腾 出</w>
m ac
5. 5</w>
伊拉克 人</w>
D A</w>
艾 利斯</w>
学 徒</w>
坏 事</w>
服务 台</w>
诋 毁</w>
布 林
阿卜杜 勒</w>
十 一</w>
加 床</w>
献 给</w>
枯 竭</w>
布宜 诺斯
卡 特尔</w>
中华 民族</w>
一夜 之间</w>
警 长</w>
跨 文化</w>
注 射
服 饰</w>
业 内</w>
19 00</w>
软件 开发</w>
海 拔</w>
流 出</w>
c an
通 缉</w>
巨 星</w>
大 为</w>
考 绩</w>
塞 舌
9 9%</w>
u z
魁 北
高 精度</w>
金 枪
确 诊</w>
伯 顿</w>
机 能</w>
别 忘
佩 雷斯</w>
豁 免权</w>
桑 托斯</w>
凤 凰</w>
w ood</w>
麻 疹</w>
私 立学校</w>
别忘 了</w>
h ou
紧迫 性</w>
假 释</w>
些 年来</w>
覆盖 范围</w>
不 及
面 料</w>
吸 血
菜 单
ab c</w>
统治 者</w>
近 乎</w>
终 端
任 意
阿拉 斯加</w>
杀 伤性</w>
教 士</w>
区 间</w>
2 28</w>
金枪 鱼</w>
同 日</w>
首要 任务</w>
显示 屏</w>
之 星</w>
加 薪</w>
捕 捉到</w>
勤 奋</w>
4 8%</w>
需 品</w>
教 养</w>
索 尔</w>
江 西</w>
辣 椒</w>
最 高级别</w>
头 号</w>
申请 表</w>
特 罗</w>
农 作物</w>
失 调</w>
感 应</w>
合 伙</w>
k m</w>
楼 上</w>
卢 西亚</w>
发 器</w>
安大 略
起 伏</w>
吸血 鬼</w>
调 制
特 特</w>
无 形</w>
管理 制</w>
制 图</w>
i g</w>
表演 者</w>
互 惠</w>
举 行
观察 家</w>
听 从</w>
即 决</w>
尖 端</w>
复 发</w>
生活 费</w>
加拿大 政府</w>
付 钱</w>
露 西</w>
缔 约</w>
前 行</w>
一 副</w>
苏 州</w>
气 管</w>
苛 刻</w>
交易 员</w>
市场 竞争</w>
心 碎</w>
斜 坡</w>
发展 观</w>
着 力</w>
专 职</w>
侦察 机</w>
易 受</w>
第二 场</w>
约 组织</w>
感谢 您</w>
亚 斯</w>
耗 资</w>
S A</w>
虚 弱</w>
脚 下</w>
ic a</w>
眼 里</w>
澳 门
工 序</w>
识字 率</w>
两 岁</w>
公共 财政</w>
顽 固</w>
追 赶</w>
付 出
装 满</w>
走 到</w>
耗 费</w>
一 谈</w>
tw itter</w>
17 01</w>
寺 庙</w>
羊 毛</w>
以 西</w>
理 应</w>
欧 美</w>
圣 马
含 糊</w>
怀 着</w>
养 老</w>
绿 化</w>
之 时</w>
不 感兴趣</w>
保 全</w>
艾 米</w>
各 有</w>
情 人节</w>
废 弃
费 舍尔</w>
诚 挚</w>
分 行</w>
迎 合</w>
科学 界</w>
书面 形式</w>
民 营</w>
经济 体制</w>
s d
赤道 几内亚</w>
决 书</w>
不足 之处</w>
新 英格兰</w>
手 提
绕 过</w>
条 纹</w>
月 间</w>
沃 尔</w>
荧 光</w>
吉 普
格陵 兰</w>
曲棍 球</w>
分 会</w>
产 后</w>
P ro
获 胜者</w>
全球 战略</w>
付出 代价</w>
霍 乱</w>
犯罪 现场</w>
右 派</w>
4 1%</w>
美 属</w>
n ba</w>
末 尾</w>
布 利</w>
第三 名</w>
创新 能力</w>
l or
路 段</w>
气 息</w>
摄 氏度</w>
S al
口 腔</w>
2 5000</w>
质 询</w>
卡拉 巴赫</w>
作 好</w>
P O
经济 上</w>
在 经济上</w>
仪表 板</w>
日 为</w>
巨 型</w>
硅 谷</w>
准 备
极 高</w>
亟 需</w>
池 塘</w>
5. 3</w>
开 庭</w>
希 思
居 高
偿 付</w>
28 8</w>
笑 声</w>
j er
g b
滑 雪
天文 台</w>
边 际</w>
走 访</w>
激 动
成 形</w>
士 尼</w>
可 望</w>
色 调</w>
正 教</w>
手 势</w>
工 商业</w>
奖 者</w>
企业 界</w>
成 瘾</w>
使用 率</w>
建 国</w>
品 味</w>
受灾 国</w>
不 容</w>
语 义</w>
调 拨</w>
羽毛 球</w>
绝 佳</w>
无 耻</w>
阿拉伯 文</w>
拘 留
卫生 部长</w>
录 像
第十 五届</w>
石油 价格</w>
尔 夫</w>
大 风</w>
波 罗</w>
无 助于</w>
布 尔
流 利</w>
战 绩</w>
个人 电脑</w>
co p
催 化</w>
财政 状况</w>
光 芒</w>
席 卷</w>
买 入</w>
p v
调 配</w>
中 外</w>
赔偿 额</w>
2 65</w>
法 学家</w>
道路 交通</w>
司令 部</w>
不结 盟</w>
河 南省</w>
废弃 物</w>
o ma
投 放</w>
M icrosof
19 62</w>
高 大</w>
很 酷</w>
合 实际</w>
w eb</w>
f li
临床 试验</w>
核 电</w>
韦 德</w>
踏 上</w>
视 作</w>
掀 起</w>
劳 拉</w>
前 不久</w>
2. 0</w>
说 服
盖 尔</w>
巴 沙尔</w>
四 人</w>
竞技 场</w>
残 余</w>
受 控</w>
借 款人</w>
静 下来</w>
忙 于</w>
陪审 员</w>
特殊 教育</w>
应 以</w>
地 处</w>
降 水</w>
维 克
之 初</w>
19 6</w>
时 要</w>
脂 肪
召 唤</w>
修 女</w>
驳 斥</w>
五 大</w>
以 太
计算机 系统</w>
运载 工具</w>
敏 锐</w>
ISO 9001</w>
鲁 尼</w>
茅 斯</w>
s c</w>
配 对</w>
新 来</w>
上 床</w>
广泛 支持</w>
卡 洛斯</w>
关 节
迪 士尼</w>
维 克</w>
工业 区</w>
黑客 攻击</w>
网 上
氨 酸</w>
伦 比</w>
以下 内容</w>
3 1.
农 户</w>
外 星人</w>
潜 水
入 点</w>
第二 份</w>
破 解</w>
接 手</w>
加 权</w>
隐 蔽</w>
必 然
量 子</w>
车 主</w>
不 在</w>
塞舌 尔</w>
IM F</w>
新 近</w>
住 区</w>
百 货
情报 部门</w>
情 局</w>
利润 率</w>
举 例</w>
特 种</w>
投资 人</w>
反 倾销</w>
接 送</w>
阿富 汗
阿富汗 人</w>
2 300</w>
路 障</w>
木 头</w>
辛 基</w>
事 关</w>
波 音</w>
数 十</w>
一 口气</w>
联 想</w>
ou r</w>
质 教育</w>
素 质教育</w>
费尔 南
协 会
减 低</w>
同 工
军事 演习</w>
美 德</w>
适用 法律</w>
说服 力</w>
新 车</w>
o j
产业 化</w>
罗 宾
射 手</w>
专 电</w>
南 共体</w>
零售 业</w>
矫 正</w>
u c
危险 性</w>
工具 栏</w>
周 到</w>
世 人</w>
诠 释</w>
詹 妮弗</w>
层次 结构</w>
强 力</w>
价格 指数</w>
知识 经济</w>
严重 后果</w>
辨 认</w>
文 稿</w>
屏 蔽</w>
下 一
不 败</w>
新 能源</w>
博 会</w>
犹 他州</w>
伪 装</w>
调 侃</w>
水 位</w>
依 法
and er
徽 章</w>
南 太平洋</w>
劳 伦斯</w>
任何 理由</w>
le n</w>
继续 前进</w>
歌 唱</w>
投入 使用</w>
贝 克
普 拉
东南亚 国家联盟</w>
有限 元</w>
有利 条件</w>
拘留 所</w>
透 视</w>
e m</w>
递 给</w>
爱德 华
加勒比 海</w>
顶 峰</w>
突 发</w>
生活 水准</w>
全 环</w>
卡 罗</w>
老 汇</w>
市场 需求</w>
美国 宇航局</w>
用 法</w>
不 复
太 快</w>
电子 设备</w>
传 播
举 止</w>
重 塑</w>
保 安
百 老汇</w>
另 见</w>
肢 体</w>
阿伯 丁</w>
手 腕</w>
一 职</w>
贯 性</w>
精神 药物</w>
少 校</w>
全 天</w>
m l</w>
迪 伦</w>
宗教 团体</w>
立 足</w>
建筑 业</w>
东 方
v il
管理 工具</w>
重 心</w>
搭 乘</w>
周 转
J ava</w>
评论 员</w>
更 为重要</w>
拇 指</w>
检 控</w>
三 峡
n as
先 锋</w>
月 会</w>
中 情局</w>
第十 六届</w>
o sh
残 骸</w>
et t</w>
巴 厘
化 肥</w>
创 始</w>
部 际</w>
新闻 记者</w>
地 表</w>
参 展</w>
埃 拉</w>
传 承</w>
东 区</w>
失 踪
列 名</w>
O E
必 需品</w>
ra f
见 度</w>
基 调</w>
末 日</w>
凡 是</w>
眼 下</w>
搞 定</w>
舞 弊</w>
生殖 器官</w>
克 罗</w>
富 国</w>
纳 克</w>
使 本</w>
红新 月会</w>
完全 相同</w>
行为 人</w>
执 业</w>
u re
大 奖</w>
北 极
时 向</w>
保 住</w>
苏里 南</w>
接受 国</w>
解 脱</w>
西 海岸</w>
蒸 发</w>
吉 奥</w>
第二 种</w>
弹 簧</w>
合 理性</w>
疑 似</w>
瓦 克</w>
l am
饰 品</w>
可 追溯</w>
闭 嘴</w>
辖 区</w>
表示 祝贺</w>
试 行</w>
克 萨斯</w>
逍 遥
发 型</w>
S ch
陈 旧</w>
对 峙</w>
2 17</w>
拓 扑</w>
长 寿</w>
抵 销</w>
避孕 套</w>
数百 人</w>
转 播</w>
物 质
发 烧</w>
赌 注</w>
年 收入</w>
服务 供应商</w>
成 交</w>
循 环
十 九
b er</w>
防 扩散</w>
泪 水</w>
本地 化</w>
l i</w>
利 人</w>
做 点</w>
不 大
ro d
诺 言</w>
而代 之</w>
平 凡</w>
巴厘 岛</w>
取 而代之</w>
养 费</w>
la h
早 点</w>
公 信
检查 员</w>
赶 走</w>
伦 敦
记录 在案</w>
并 列</w>
苯丙 胺</w>
更 深</w>
刚 开始</w>
刚 刚开始</w>
it e</w>
电 联</w>
多边 合作</w>
2 46</w>
塔 拉</w>
良 好
金融 中心</w>
鉴 于此</w>
有 鉴于此</w>
奥 尼尔</w>
经济 制裁</w>
第二十 四届</w>
杜 绝</w>
o o</w>
里 程</w>
全 家</w>
喀 尔</w>
管 制
中 学生</w>
近 几年</w>
紧 密
加 尔
动 词</w>
金正 日</w>
自 助
抽 签</w>
批 发
一 语</w>
空 局</w>
相似 之处</w>
搬 家</w>
店 里</w>
和平 共处</w>
成 交
PD F</w>
K h
飞行 器</w>
冷 漠</w>
村 子</w>
优 质
佐 证</w>
信 奉</w>
社会 学</w>
睦 邻
read more</w>
抛 出</w>
返 还</w>
西班牙 人</w>
诚 然</w>
早 早</w>
水 手</w>
ic k</w>
add .
遇 难</w>
达 斯</w>
贡 献
不成 比例</w>
尼科 西亚</w>
德国 队</w>
皮 肤
一 席
传 动</w>
19 58</w>
豪 宅</w>
渲 染</w>
天津 市</w>
不 相
联 接</w>
希 伯
打 包</w>
彩 虹</w>
固 件</w>
中 医</w>
不 小</w>
3 4.
2 66</w>
大会 决议</w>
达 喀尔</w>
残 割</w>
外 人</w>
弗 拉</w>
多 层</w>
社 群</w>
双边 协定</w>
人 发</w>
口 岸</w>
阴 茎</w>
全 境</w>
使用 权</w>
an th
解 调器</w>
西 区</w>
少数 几个</w>
地 盘</w>
v a</w>
委 书记</w>
6 9
钞 票</w>
梅 西</w>
卢 卡斯</w>
悲 哀</w>
上 衣</w>
追 究
大 都</w>
失 事</w>
外 流</w>
兰 特</w>
发 售</w>
2. 5%</w>
al i
坦 言</w>
欺 负</w>
委 派</w>
背 包</w>
族 人</w>
iel d</w>
尼克 松</w>
稀 少</w>
票 房</w>
吸 附</w>
二 人</w>
东 正教</w>
g er</w>
2 53</w>
资 格
扑 灭</w>
反 感</w>
伊利 诺
对外 贸易</w>
历 届</w>
平 线</w>
半 个世纪</w>
养 活</w>
超 支</w>
有 益于</w>
这 么
之 道</w>
new s</w>
贯彻 落实</w>
2 41</w>
自 给
首 届</w>
结 清</w>
拥 堵</w>
参考 资料</w>
省 委</w>
用 到</w>
搬 到</w>
ch ang
先 驱</w>
借 给</w>
第十 七届</w>
氯 烃</w>
赞 誉</w>
系统 对</w>
矿 山</w>
上 星期</w>
贝 格</w>
本 署</w>
多 国
结构 化</w>
标 明</w>
找 回</w>
奥尔 良</w>
j im
数据 包</w>
基础 架构</w>
肾 脏</w>
头 盔</w>
降 临</w>
计 票</w>
ar k
大 有</w>
l ad
法 特</w>
第十 八届</w>
法律 责任</w>
拉 伸</w>
总统 大选</w>
公信 力</w>
交 替</w>
该 款</w>
架 次</w>
过 错</w>
语 气</w>
定 期
UN EP</w>
首 映</w>
社区 服务</w>
你 家</w>
戴 维
绝 缘</w>
卡迪 夫</w>
阿 伦</w>
一 幕</w>
更 生</w>
看 成</w>
四 岁</w>
多 夫</w>
不良 影响</w>
说 明书</w>
光 电</w>
丑 陋</w>
5 7%</w>
大 通</w>
党 和
他 家</w>
蒙 受</w>
哈佛 大学</w>
p op
很 久</w>
多 州</w>
ay a</w>
按 揭</w>
市 议会</w>
安大略 省</w>
日 内</w>
哨 所</w>
难 受</w>
梵 蒂
两 边</w>
拖 动</w>
未 婚
排名 第</w>
颁 奖</w>
汤 加</w>
天 鹅</w>
传 闻</w>
突 击</w>
祭 司</w>
盟 军</w>
淀 粉</w>
结婚 年龄</w>
检察 机关</w>
雅各 布</w>
超 声波</w>
工人 阶级</w>
责 成</w>
印第安 纳州</w>
进 食</w>
为数 不多</w>
排 球</w>
组织 法</w>
球 手</w>
北 美洲</w>
逐 年</w>
减 损</w>
租 借</w>
指 甲</w>
c as
2 33</w>
贫困 人口</w>
吸 取
无 处
交通 管制</w>
较 差</w>
另 一家</w>
抱 负</w>
骑 行</w>
打 个</w>
神经 元</w>
确 度</w>
警 车</w>
曾 多次</w>
原 油价格</w>
铺 设</w>
贸易 额</w>
病 假</w>
t ro
配 送</w>
抗 拒</w>
德 尔
闪 光</w>
放 慢</w>
弗 格森</w>
眼 神</w>
in a
欧 冠</w>
接 触
奥斯 汀</w>
内 为</w>
不太 好</w>
轻 重</w>
外 电
十 八
人工 智能</w>
th om
天 上</w>
被 誉为</w>
值 班</w>
鳄 鱼</w>
外电 报道</w>
政 协</w>
广 大
歌 词</w>
全 氟</w>
按 下</w>
德 约</w>
形 势
3 9%</w>
科 特</w>
着 迷</w>
3 10</w>
机会 均等</w>
考 古</w>
特殊 性</w>
构 件</w>
开 赛</w>
司法 人员</w>
一 棵</w>
身 处</w>
纹 理</w>
第八 次</w>
条 线</w>
吉 利</w>
论 据</w>
技术 开发</w>
之 用</w>
去 年
引 诱</w>
常 委</w>
后 退</w>
3 3.
正当 程序</w>
普 里
布宜诺斯 艾利斯</w>
观察 站</w>
弗 利</w>
命令 行</w>
佩 尔</w>
f er
马 刺</w>
质量 标准</w>
搞 砸</w>
弗 斯</w>
国 贸</w>
不好 意思</w>
查 出</w>
来 往</w>
卡梅 隆</w>
A C</w>
一席 之地</w>
轮 调</w>
三 家</w>
t o</w>
挑 剔</w>
一 号</w>
铁 矿石</w>
管理 模式</w>
in c
涡 轮</w>
柴 油
概 念
非 法行为</w>
燃 料
治 疗
民主 联盟</w>
嫌疑 犯</w>
该 校</w>
年 长</w>
特种 部队</w>
第 一名</w>
椭 圆形</w>
制 冷</w>
借 用</w>
g i
突 发
6 4
防 务</w>
顶 端</w>
财 物</w>
洋 葱</w>
探 险</w>
上 司</w>
树 枝</w>
拉 开</w>
S a
逝 世</w>
亚 瑟</w>
伊 希斯</w>
知名 人士</w>
坚 果</w>
击 落</w>
香 料</w>
重 罪</w>
老 式</w>
谘 询</w>
炸 机</w>
审 定</w>
扎 实</w>
n or
振 奋</w>
L C</w>
3 7.
休 斯敦</w>
调制 解调器</w>
核 爆炸</w>
塔 斯
和 善</w>
S C</w>
逍遥 法外</w>
僵 尸</w>
房 者</w>
方 形</w>
2 64</w>
故障 诊断</w>
活 性
斯威 士兰</w>
人 向</w>
留 学生</w>
成 份</w>
恶 性</w>
防 火</w>
s y
断 开</w>
十分 重视</w>
大 叫</w>
一致 同意</w>
r as
化 管</w>
一 堂</w>
重 计</w>
发 球</w>
刚 好</w>
D C</w>
长 老</w>
遗 嘱</w>
救 生
路易斯 安
公平 竞争</w>
本 报</w>
高度 评价</w>
传 到</w>
中 亚
on e
挽 回</w>
挥 舞</w>
真 菌</w>
接 再
军事 基地</w>
再 接再
民间 组织</w>
威廉 斯</w>
小 吃</w>
m us
情况 通报</w>
天 天</w>
靴 子</w>
亮 度</w>
马 达</w>
表示 同意</w>
布拉 德利</w>
丰 富
三 十</w>
三 分</w>
营 救</w>
养 成</w>
上 以</w>
水 利
果 实</w>
li n</w>
仓 储</w>
石 棉</w>
洽 谈</w>
桑 切斯</w>
工程 项目</w>
国 产</w>
t y
ar i
史 诗</w>
黎 明</w>
血 病</w>
文件 名</w>
抬 起</w>
赶 出</w>
排 行
强烈 建议</w>
广 为</w>
比 性</w>
鸽 子</w>
排 出</w>
盖 蒂</w>
烤 箱</w>
退 欧</w>
教 区</w>
州 立大学</w>
o d</w>
竣 工</w>
审 问</w>
用 具</w>
功 能性</w>
款 式</w>
排行 榜</w>
解 开</w>
接收 器</w>
密 封
台 风</w>
抛 售</w>
th er
预 付款</w>
营业 额</w>
景 区</w>
全 能</w>
轰 炸机</w>
毫无 根据</w>
审计 工作</w>
以太 网</w>
不管 怎样</w>
敞 开</w>
之 战</w>
气 质</w>
践 踏</w>
巴 马州</w>
发 件人</w>
反 向</w>
传 输
t al
第六 十</w>
注意 事项</w>
有利 可图</w>
蒂 纳</w>
暴力 犯罪</w>
纳 姆</w>
旅游 景点</w>
位 移</w>
c t</w>
更 难</w>
全 景</w>
未 满</w>
软件 包</w>
坚持 不懈</w>
增加 一倍</w>
ad am
3 40</w>
萨科 齐</w>
教 廷</w>
逃 走</w>
河 谷</w>
亵 渎</w>
ra y
补 给</w>
大 腿</w>
迪 西</w>
自 闭
集体 行动</w>
染色 体</w>
政府 军</w>
辩 解</w>
m is
膜 炎</w>
网 膜</w>
储 量</w>
体 外</w>
画 像</w>
布 兰</w>
自闭 症</w>
萨 达姆</w>
海峡 两岸</w>
芭 蕾
查 访</w>
庆 典</w>
米 拉</w>
替代 性</w>
适 时</w>
应 邀</w>
奥兰 多</w>
不 着</w>
完 备</w>
贸易 壁垒</w>
肥 皂</w>
分 子
出 具</w>
妥 善
5 8%</w>
o p</w>
旗 国</w>
失 落</w>
留 出</w>
圈 子</w>
猎 物</w>
报 刊</w>
行政 助理</w>
9 9
撤 军</w>
实习 生</w>
新 书</w>
咳 嗽</w>
还 价</w>
图 纸</w>
包 机</w>
关键 词</w>
连锁 店</w>
良 性</w>
床 单</w>
十 七</w>
山 地</w>
继承 人</w>
屏 障</w>
2 400</w>
香 槟</w>
精 灵</w>
地 面
中央 政治
船 旗国</w>
HT ML</w>
马尔 科</w>
任 一</w>
C O</w>
服务 部</w>
大 阪</w>
众 议员</w>
用 处</w>
热 潮</w>
日 止</w>
广 州市</w>
实 用性</w>
太 远</w>
液 晶
不可 否认</w>
标识 符</w>
安德 烈</w>
充分 认识</w>
基 尼</w>
程序 员</w>
害 羞</w>
螺 旋
深 厚</w>
大西 洋
安 援</w>
M c
会 以</w>
迟 迟</w>
海 浪</w>
沉 没</w>
2 75</w>
运 行
常 态</w>
之 手</w>
w ay
黑 海</w>
蹂 躏</w>
粗 鲁</w>
上 瘾</w>
水 池</w>
坏 人</w>
2 56</w>
帆 船</w>
隔 绝</w>
因 果
凯 西</w>
ur e</w>
粉 末</w>
坦 诚</w>
书 中</w>
随 身
博 士学位</w>
主 计
第二 号</w>
普通 人</w>
打 入</w>
1 28
ac t
第三 阶段</w>
率 高</w>
该 软件</w>
蚂 蚁</w>
道 而
在 生活
投票 站</w>
PR ST</w>
6. 3</w>
饮 食
5 3%</w>
查 处</w>
定位 系统</w>
勒 姆</w>
事 是</w>
1. 6</w>
辍 学率</w>
自给 自足</w>
耶 斯</w>
残 暴</w>
对 联</w>
交 织</w>
弗 雷德</w>
上 车</w>
贵 方</w>
整 数</w>
拓 宽</w>
德国 政府</w>
全 程</w>
西 汉姆</w>
物 价
空军 基地</w>
金融 时报</w>
规 程</w>
募 集</w>
疯 子</w>
ra h</w>
非洲 开发银行</w>
点 儿</w>
乙 醇</w>
肺 部</w>
奇 怪
柬埔 寨
兼 并</w>
中东 问题</w>
第五 个</w>
商业 模式</w>
g or
b c
重 重</w>
满 足
高 清</w>
通报 情况</w>
弹 劾</w>
2 76</w>
深 深
年 幼</w>
A m
问 到</w>
造 就</w>
有 意识</w>
总 有</w>
一 惊</w>
耕 作</w>
倘 若</w>
通用 汽车</w>
好 得多</w>
至 多</w>
登 场</w>
表 扬</w>
两 枚</w>
全 会</w>
an c
梵蒂 冈</w>
日 于</w>
价 钱</w>
2 36</w>
足球 比赛</w>
担 当</w>
会 后</w>
间 隙</w>
助 产
国 歌</w>
双 击</w>
人口 比例</w>
输 球</w>
联 手</w>
版 权
科技 委</w>
翻 了
翻了 一番</w>
去年 同期</w>
医疗 机构</w>
难 怪</w>
补 丁</w>
大 幅
k er
臀 部</w>
缘 故</w>
阿 克拉</w>
经济 援助</w>
社会 工作</w>
血 症</w>
滑 动</w>
新 奥尔良</w>
助产 士</w>
再接再 厉</w>
阿布 贾</w>
五 星级</w>
过 敏
深 刻
粗 暴</w>
社会 科学</w>
偿 债</w>
s en</w>
金融 业</w>
牧 业</w>
初 审</w>
住 在一起</w>
镜 像</w>
杰 拉德</w>
弗 莱</w>
商 贸</w>
一 览
不 力</w>
恰 好</w>
该 队</w>
衷 心
演 唱</w>
人 手</w>
20 25</w>
这样 的话</w>
警 戒</w>
改 善
适 于</w>
取 样</w>
2 38</w>
君 主</w>
时间 段</w>
辽宁 省</w>
离 散</w>
南 京
元 前</w>
之 以</w>
空 闲</w>
建筑 材料</w>
该 厅</w>
子 系统</w>
同工 同酬</w>
全面 解决</w>
第一 部</w>
P A</w>
马 歇尔</w>
解放 运动</w>
二 世</w>
8 8
旱 灾</w>
巡 演</w>
每 项</w>
我 该</w>
多种 形式</w>
1. 5%</w>
管 家</w>
长 沙</w>
窗 帘</w>
核 燃料</w>
e a</w>
G PS</w>
搬 进</w>
吉 隆
举行 会谈</w>
特 利</w>
扫描 仪</w>
七 次</w>
欧 空局</w>
斯 旺
圆 满</w>
es p
副 手</w>
两 位数</w>
迎 战</w>
权 重</w>
损 耗</w>
投 保</w>
德国 总理</w>
药 性</w>
独裁 者</w>
券 市场</w>
债 券市场</w>
青春 期</w>
双 赢</w>
点 名</w>
法 国政府</w>
下 图</w>
美术 馆</w>
惟 一</w>
重庆 市</w>
褐 色</w>
w ard
购 房者</w>
营业 时间</w>
学习 者</w>
餐 桌</w>
重 写</w>
退休 年龄</w>
废 止</w>
功 耗</w>
十字 路口</w>
严 谨</w>
牧 民</w>
中 所列</w>
动 态
内务 部</w>
ak h
里 士
村 里</w>
持 平</w>
很 多年</w>
相互 了解</w>
大 熊猫</w>
吉隆 坡</w>
世界 排名</w>
2 32</w>
特 质</w>
教育 工作者</w>
可 变</w>
干 脆</w>
遍 及</w>
短 片</w>
下 级</w>
电动 汽车</w>
内 疚</w>
能源 安全</w>
漫 游</w>
图 形
奇怪 的是</w>
圣 卢西亚</w>
液 化</w>
房 租</w>
民用 航空</w>
宝 马</w>
5 1%</w>
外 商
增 订</w>
另 据</w>
并 发</w>
奔 跑</w>
行 了</w>
就 行了</w>
击 球</w>
执行 长</w>
放 射</w>
润滑 油</w>
唐 宁
充满 信心</w>
传统 习俗</w>
世界 遗产</w>
19 46</w>
求 职者</w>
图 拉</w>
中 小</w>
精 选</w>
有所 提高</w>
密西西 比
一 到</w>
s er
疲 力
生产 工艺</w>
决策 机构</w>
摇 摇
W IPO</w>
孟 加拉</w>
迁 往</w>
窃 取</w>
科 普</w>
K ar
30 000</w>
西 蒙
活动 分子</w>
驱 使</w>
漂 浮</w>
d al
立方 米</w>
栖 息
oc i
虚 伪</w>
唐 纳</w>
后 院</w>
d h
雷 霆</w>
方 括号</w>
安 提
服务 费</w>
无 与
公安 局</w>
on y
防 御
盎 司</w>
可 比性</w>
灯 泡</w>
仁 慈</w>
来 电</w>
无与 伦比</w>
形 资产</w>
man n</w>
景 气</w>
主计 长</w>
建 于</w>
产 权
时 有</w>
3 8.
考 古
利 安</w>
s el
突发 事件</w>
安 宁</w>
t el
自 力
2 58</w>
大 洲</w>
低 价</w>
2 31</w>
面包 车</w>
股 息</w>
2 61</w>
近 似</w>
社会 群体</w>
b y</w>
第四十 九届</w>
知识 分子</w>
外 形</w>
各 次</w>
关 上</w>
目标 群体</w>
吩 咐</w>
冰 冷</w>
2 18</w>
停 机</w>
哈 蒙德</w>
主 宰</w>
非常 简单</w>
招 呼</w>
发 货</w>
下 巴</w>
S u
源 国</w>
资 质</w>
财政 司</w>
操作 员</w>
栖息 地</w>
M u
非常 适合</w>
提 琴</w>
战 俘</w>
世 锦赛</w>
哲 学家</w>
3 5.
面 纱</w>
居高 不下</w>
团结 一致</w>
删 去</w>
钢 筋</w>
分 辨</w>
C H
终 极</w>
争 斗</w>
第九 次</w>
改 建</w>
同 伙</w>
康 复
2 54</w>
妇 人</w>
卖 家</w>
唐宁 街</w>
E A</w>
4 9%</w>
donald trump</w>
管理 司</w>
丰 盛</w>
动 手</w>
爆 破</w>
平 价</w>
团 体
乌 斯</w>
氧化 物</w>
小 幅</w>
交互 式</w>
l l
旅游 局</w>
布 达
公安 部</w>
运 到</w>
踢 足球</w>
A 股</w>
奇 特</w>
符合 条件</w>
拆 卸</w>
用 例</w>
球 衣</w>
中国 人民
桑 德兰</w>
心 爱</w>
讲 解</w>
第 一种</w>
9 9.
海 盗
过 热</w>
火 花</w>
刑 警
电力 系统</w>
哈 桑</w>
费尔 法克斯</w>
设备 齐全</w>
方 向
付诸 实施</w>
克里 米亚</w>
h ol
股 份
高 标准</w>
月 度</w>
跳 过</w>
沼 泽</w>
国家 机关</w>
3. 6</w>
摔 跤</w>
国际 电联</w>
阿塞拜 疆
自力 更生</w>
尼 克斯</w>
授 课</w>
情 侣</w>
帷 幕</w>
基 州</w>
波 里</w>
临 界</w>
贸易 区</w>
歪 曲</w>
本 田</w>
方 对</w>
各项 政策</w>
中 文
平板 电视</w>
帐 号</w>
m et
查 韦斯</w>
塔 克</w>
砍 伐</w>
高 山</w>
骑 马</w>
之 情</w>
兰 州</w>
领导 力</w>
赤 道</w>
肯塔 基州</w>
希思 罗</w>
理工 学院</w>
文 第</w>
获得 者</w>
洗 手
十 足</w>
荣 获</w>
日 制</w>
an o</w>
挤 满</w>
布里 奇</w>
2. 7</w>
层 楼</w>
沃 思</w>
改 装</w>
规 管</w>
男 士</w>
一 律</w>
牛 排</w>
抓 好</w>
街 日报</w>
华尔 街日报</w>
功 夫</w>
米 奇</w>
肺 结核</w>
求 职</w>
水 流</w>
新加 坡
休 斯顿</w>
黑 龙
守 门
ad i</w>
作 曲
遗 迹</w>
未 获</w>
纳 斯
产品 设计</w>
香 水</w>
哈尔 滨</w>
不 禁</w>
c ri
来 得</w>
P M</w>
建 构</w>
L e
用 电</w>
笼 子</w>
放大 器</w>
庭 院</w>
极 力</w>
接 待
资金 不足</w>
兰 斯</w>
n y
a a</w>
立法 局</w>
独 有</w>
旗 舰</w>
首 府</w>
上 载</w>
风险 投资</w>
债 权</w>
初 探</w>
风 味</w>
篇 幅</w>
在生活 中</w>
史蒂 文</w>
全 时</w>
科罗拉 多</w>
杂 货
宽 泛</w>
马尔 维
一 枪</w>
伊利诺 伊
罗斯 福</w>
穿 梭</w>
悉 尼
归 者</w>
洛 克
5 4%</w>
西 北
活 塞</w>
跑 车</w>
尽 职</w>
剧 场</w>
定 律</w>
出 线</w>
精 明</w>
畸 形</w>
莉 莉</w>
曼 宁</w>
叫 声</w>
p art
局 域网</w>
依 次</w>
无家可 归者</w>
活 泼</w>
结 为</w>
布林 迪西</w>
青 蛙</w>
账 号</w>
罗 宾</w>
德意志 银行</w>
官 僚
同情 心</w>
塞 夫</w>
g ra
M S
护 者</w>
莱 尔</w>
特 征
2 37</w>
为时 过早</w>
列 于</w>
出 自</w>
归 于</w>
阻 塞</w>
电 热水
学 士</w>
12 67</w>
重 构</w>
无 偿</w>
寄 养</w>
账 款</w>
石 块</w>
恶 作
有 无</w>
R e
科罗拉 多州</w>
公 元前</w>
普 敦</w>
拖 车</w>
Microsof t</w>
2 24</w>
改 叙
单 据</w>
Add .
动 向</w>
2 34</w>
6 .1</w>
超 时</w>
美 金</w>
高 技术</w>
第十 四届</w>
宾 客</w>
连 贯性</w>
达科 他州</w>
米 斯</w>
尚 无</w>
凉 爽</w>
ed d
馅 饼</w>
重 量级</w>
奔 驰</w>
甲 级
世界 性</w>
孤 单</w>
冲 洗</w>
n ik
3 9.
汤 米</w>
冗 长</w>
价 还价</w>
货物 运输</w>
新 区</w>
制 卡</w>
讨 价还价</w>
人 气</w>
小 儿
充 电器</w>
美 术</w>
印 制</w>
科 里</w>
博 弈</w>
冥 想</w>
就 此
o ol
这 所</w>
本 场</w>
家庭 收入</w>
名 录</w>
亚美 尼亚
5 2%</w>
顽 强</w>
管辖 区</w>
狡 猾</w>
姚 明</w>
s ou
5 6%</w>
迪 安</w>
域 外</w>
m as
4 500</w>
迪 奥拉</w>
栅 栏</w>
康 纳</w>
沃 特
减 半</w>
驻 留</w>
项目 经理</w>
菲利 普斯</w>
o ch
雷 区</w>
结 社</w>
自由 选择</w>
阴 道</w>
一 小</w>
图 斯</w>
p an
贵 宾</w>
无 关
番 茄</w>
印度尼 西亚
埃 厄</w>
切 片</w>
巴 士
喜 好</w>
脊 柱</w>
劣 势</w>
布隆 迪
小 心
入 境
铅 笔</w>
宣 誓
感 官</w>
声 望</w>
各 区</w>
2 72</w>
方 可</w>
E S</w>
提 的是</w>
值得一 提的是</w>
道 格拉斯</w>
投 手</w>
伸 展</w>
换 成</w>
自 来
草 药</w>
社会 化</w>
斯 普
改 正</w>
首 页</w>
机 电</w>
其 他
进口 国</w>
因果 关系</w>
en ce</w>
时 分</w>
t i
知 晓</w>
军事 力量</w>
切 合实际</w>
中 长期</w>
爵 士
iP h
2 45</w>
j ab
安 徽
地 平线</w>
F acebook</w>
同 居</w>
世 行</w>
辛 辛
亲 眼
联 队</w>
网 民</w>
建筑 工程</w>
专 有</w>
b i</w>
作曲 家</w>
玩 游戏</w>
国际 刑警
国际刑警 组织</w>
劳 资
中 美</w>
of f
胡 安</w>
套 装</w>
n bc</w>
深深 地</w>
ste ph
莉 亚</w>
十 几个</w>
用 量</w>
买 下</w>
正 文</w>
高 加索</w>
固 体
外交 使团</w>
角 落
d es
2 44</w>
海 尔</w>
坠 落</w>
阿 巴斯</w>
身 分</w>
外 聘</w>
h el
爱 丽丝</w>
答 覆</w>
下一 阶段</w>
误 会</w>
改 写</w>
料 到</w>
光 泽</w>
东 海岸</w>
斯 说</w>
非常 复杂</w>
尾 声</w>
责任 制</w>
构 架</w>
描 绘
对 非</w>
ID B.
失业 者</w>
身 着</w>
策 略
人口 老龄化</w>
缴 获</w>
筹 划</w>
二 进制</w>
鲜 明
色 素</w>
母 公司</w>
触 摸
特 蕾
坎 帕拉</w>
到 困难</w>
n at
无 能
风 光</w>
除 去</w>
诺 丁
多 多</w>
交 叉
说 些</w>
红 枣</w>
电 磁</w>
社会 活动</w>
次 日</w>
商 谈</w>
l y</w>
墨西哥 政府</w>
交 所</w>
2 19</w>
大 法官</w>
高 分辨率</w>
莱 克</w>
怪 异</w>
建议 书</w>
九 条</w>
L S
人 性化</w>
迷 惑</w>
学 前
D av
班 加
帐 单</w>
错 失</w>
基 辅</w>
回 落</w>
铺 平</w>
证 明书</w>
着 火</w>
扶 养</w>
分 量</w>
最 佳
00 0
长 春</w>
环境 法</w>
保 修</w>
图 象</w>
各 部委</w>
6. 4</w>
被 遗弃</w>
穆 尔</w>
家 电</w>
受 阻</w>
虚拟 现实</w>
租 约</w>
葡萄牙 语</w>
点 半</w>
28 9</w>
正 以</w>
其 余
其余 部分</w>
m d
人 文
i ro
fli x</w>
科威 特
2 47</w>
2 23</w>
快 餐</w>
游 乐
只 想</w>
酝 酿</w>
片 刻</w>
标 本</w>
马 利</w>
特 斯拉</w>
来 源国</w>
市政 当局</w>
虔 诚</w>
号 线</w>
之 角</w>
主办 方</w>
海 内外</w>
城 镇
伤 亡
路 易</w>
商 事</w>
狐 狸</w>
站 立</w>
反 响</w>
is h</w>
年 限</w>
向 量</w>
事务 部长</w>
奈 尔</w>
上 时</w>
b at
但 据</w>
落 不明</w>
个 子</w>
下 落不明</w>
物 项</w>
年 届会</w>
这 幅</w>
小 事</w>
发 送
基 思</w>
为 力</w>
香 味</w>
牛津 大学</w>
字 幕</w>
低 级</w>
衣 物</w>
白 血病</w>
非 同
角落 里</w>
现 成</w>
插 座</w>
痴 迷</w>
例 证</w>
吉 斯</w>
g h</w>
酌 处</w>
巴 顿</w>
冗 余</w>
6 5
采 购
榜 首</w>
处 处长</w>
小 费</w>
世 博会</w>
呕 吐</w>
化 验</w>
投 影</w>
投 产</w>
冶 金</w>
断 层</w>
b ill
一 站
凝 胶</w>
柔 和</w>
特 维斯</w>
可 谓</w>
视频 会议</w>
姆 森</w>
外 部
油 墨</w>
不 快</w>
改 性</w>
苦 恼</w>
水 泵</w>
寄 生
sk y</w>
关节 炎</w>
缔 造</w>
信 任
u x</w>
主 要
组 委</w>
推 导</w>
据 统计</w>
妇女 儿童</w>
细 目</w>
违 法
器 具</w>
环保 局</w>
赠 送</w>
无能 为力</w>
苍 白</w>
1. 8</w>
从 未
不 一</w>
雨 林</w>
施 工
这 批</w>
必 定</w>
佩 林</w>
一 趟</w>
现 场
万 桶</w>
杰 尔</w>
幸 福
五 分</w>
遥 控</w>
安全 带</w>
蘑 菇</w>
第十 次</w>
独立 宣言</w>
持 有者</w>
波 尔</w>
放 电</w>
某种 意义</w>
年 末</w>
小 船</w>
主题 公园</w>
ri d
高 调</w>
央 视</w>
瑞士 法郎</w>
在 座</w>
第一 件</w>
什 蒂纳</w>
火 鸡</w>
投 注</w>
卡 斯特</w>
北 海</w>
激动 人心</w>
染 料</w>
墨 水</w>
任务 区</w>
老年 痴呆症</w>
地 标</w>
不 怕</w>
1 29
张 力</w>
园 艺</w>
人 人
阿拉 巴马州</w>
系列 产品</w>
比 作</w>
阿 肯
甚 微</w>
绿 党</w>
存 有</w>
无 尽</w>
除 术</w>
球 赛</w>
二 手
霉 素</w>
土耳其 政府</w>
1 2000</w>
星 座</w>
访问 者</w>
E S
实 地
卢 萨卡</w>
er al
设计 方案</w>
电 池
瓦 拉</w>
感染 率</w>
不 具</w>
跌 倒</w>
头 顶</w>
受 惠</w>
电热水 壶</w>
S am
遇 到困难</w>
I F
男女 之间</w>
沙 子</w>
曲 面</w>
掌 声</w>
安第 斯</w>
演 唱
拥 护</w>
临时 性</w>
o le
4 20</w>
窗 外</w>
前 端</w>
体 上</w>
0. 5</w>
高 峰
犹太 主义</w>
一 经</w>
讲 话
科 菲</w>
演 练</w>
多 维</w>
加 仑</w>
不 宜</w>
it y
发 帖</w>
m i</w>
4 8.
水 文</w>
工业 部门</w>
传 记</w>
亚洲 开发银行</w>
w ood
赫尔 辛基</w>
第一 类</w>
无 损</w>
停 用</w>
润 滑</w>
无 误</w>
托 盘</w>
部 将</w>
抽 屉</w>
康 乐</w>
全 盘</w>
修 剪</w>
监督 管理</w>
斗 牛
追 随</w>
指 标
千 人</w>
阿尔及 尔</w>
及 时性</w>
入 量</w>
不大 可能</w>
正 值</w>
乃 是</w>
达 到
秘 诀</w>
衔 接</w>
彼得 堡</w>
5. 4</w>
精 通</w>
所 获</w>
cr p
7 8
探 险
探 视</w>
楼 层</w>
实 在
2 100</w>
布里 斯托尔</w>
尼 诺</w>
军 舰</w>
电动 车</w>
塑料 袋</w>
氨 基
置 评</w>
突 显</w>
政治 局势</w>
手 榴弹</w>
剖 析</w>
直 流</w>
南 加州</w>
全 套</w>
线 上</w>
忠 于</w>
19 59</w>
紧急 状况</w>
公 牛</w>
立 案</w>
普里 什蒂纳</w>
伯 克</w>
资 历</w>
诱 人</w>
CO P
预 付</w>
价值 观念</w>
两 会</w>
壁 炉</w>
医 保</w>
过 重</w>
解 剖</w>
荒 唐</w>
草 莓</w>
两 部</w>
19 55</w>
奥 组委</w>
正 确性</w>
机 枪</w>
之 声</w>
尼 斯
阳 光
热 情
w a</w>
日程 安排</w>
移民 法</w>
伊 特</w>
预 案</w>
训练 营</w>
浦 东</w>
怜 悯</w>
多数 票</w>
参与 率</w>
3 6.
性 爱</w>
延 到</w>
2 200</w>
高 位</w>
精神 文明</w>
拉 罕</w>
好 坏</w>
四 国</w>
利 性</w>
id e</w>
用 药</w>
紊 乱</w>
后 方</w>
苏 黎
对 照
M oham
身份 证件</w>
溶 解</w>
出生 日期</w>
中 去</w>
集团 公司</w>
l os
腰 带</w>
家 政</w>
停车 位</w>
l is
名 片</w>
有效 途径</w>
t u
阅 读
应用 软件</w>
3 38</w>
资料 库</w>
沃 尔特</w>
大 吃
高 尚</w>
起 重
一览 表</w>
重 演</w>
迪 亚</w>
非洲 之角</w>
协 理</w>
互 换</w>
末 端</w>
v is
一 读</w>
c el</w>
C om
觉 醒</w>
波 特兰</w>
悼 念</w>
划 艇</w>
驱 散</w>
艾 玛</w>
时 器</w>
传 入</w>
个 案
DA W</w>
滋 生</w>
学 龄
地 层</w>
2 62</w>
准 予</w>
入 伍</w>
2 49</w>
整 顿</w>
标 语</w>
迪 亚
民 党</w>
金 矿</w>
相 差</w>
银行 业务</w>
现 行
入 门</w>
逐 步
网络 攻击</w>
塞 斯</w>
判 决书</w>
个案 研究</w>
s i
乏 味</w>
g al
加州 大学</w>
sh ar
CC C</w>
28 3</w>
约 合</w>
尼古 拉斯</w>
先 进
jon es</w>
编 排</w>
滤 波器</w>
分 在</w>
匆 匆</w>
发 电
真 心</w>
全 是</w>
粪 便</w>
外商 投资</w>
用 车</w>
探 员</w>
意 外
播放 机</w>
纸 条</w>
私 法</w>
耶 稣
受 让人</w>
公 元</w>
上 岗</w>
T A</w>
竭 力</w>
监 核</w>
促进 作用</w>
鸟 儿</w>
进 取</w>
大 院</w>
3 2.
联 保</w>
A S</w>
联系 方式</w>
dan iel
盖 伊</w>
古 典
亚 特</w>
m er</w>
枕 头</w>
普通 法</w>
互 动
考 克斯</w>
恶性 循环</w>
行为 准则</w>
教学 方法</w>
供 参考</w>
受 人</w>
过 大</w>
j ar
很久 以前</w>
逃 往</w>
高 危</w>
两 辆</w>
查 获</w>
斯坦 福
il e</w>
盗 版</w>
裁 判
杜 特特</w>
完全 同意</w>
命 中
银 色</w>
足 轻重</w>
压缩 机</w>
区 议会</w>
海 面</w>
抢 劫
起 源于</w>
获 奖者</w>
泰 尔</w>
a ul
军 警</w>
伦 西亚</w>
gl as
走 走</w>
第十 五条</w>
en a</w>
老 兄</w>
正 视</w>
床 位</w>
7. 2</w>
特 雷</w>
多米 尼克</w>
ort h</w>
第二 类</w>
吞 吐
伦 萨</w>
顺 差</w>
计 数
罗 恩</w>
构 思</w>
意大利 人</w>
小型 企业</w>
之 多</w>
k y
评 选</w>
第一 家</w>
年 纪念</w>
台 北
同 仁</w>
波利 萨</w>
盲 率</w>
外交 大臣</w>
中 来</w>
财 经</w>
规 矩</w>
文 盲率</w>
出 入境</w>
改叙 为</w>
an s</w>
动 者</w>
分 居</w>
2 59</w>
朱 巴</w>
布 伦
新 形势
新形势 下</w>
富 兰
卜 拉
做 梦</w>
19 54</w>
一 波</w>
西 南
工商 界</w>
正当 理由</w>
安 曼</w>
打击 犯罪</w>
毛 病</w>
二 维</w>
三 份</w>
破 产
亚 州</w>
目 击</w>
一 匹</w>
一 分
b h
B I</w>
一 列</w>
有 制</w>
数 万</w>
心 肌
太 空
丹 尼斯</w>
稀 缺</w>
用 力</w>
汇 丰</w>
快 要</w>
数十 万</w>
精神 疾病</w>
立 体</w>
朱 莉</w>
从 头
倒 下</w>
沉积 物</w>
U n
华 为</w>
19 56</w>
光 临</w>
骆 驼</w>
桑 拿
c u
V I</w>
暗 淡</w>
救 护</w>
篇 章</w>
很 感兴趣</w>
压 抑</w>
自 律</w>
g an</w>
CE DAW</w>
静 电</w>
许 诺</w>
光 源</w>
低 利率</w>
4 3
全 日制</w>
轮 值</w>
职业 道德</w>
民 防</w>
总 面积</w>
幻 觉</w>
或 多
力 拓</w>
P E
随 机
敢 于</w>
布达 佩斯</w>
乡 镇</w>
民间 团体</w>
恶作 剧</w>
保持 良好</w>
m un
重 命名</w>
哥 们</w>
票 数</w>
带 回家</w>
快捷 方式</w>
送 货</w>
肥 料</w>
世 代</w>
C C</w>
耗 时</w>
ur a</w>
4 9.
韦 伯</w>
系统 管理</w>
电 能</w>
探 析</w>
c el
v e</w>
增 补</w>
唤 起</w>
参 看</w>
P et
男 篮</w>
洛杉 矶
存储 器</w>
繁 琐</w>
法拉 奇</w>
房 委会</w>
奥 迪</w>
充 沛</w>
Y ou
更 替</w>
停 战</w>
渡 轮</w>
ec t
音 量</w>
山 坡</w>
密切 关系</w>
人 种</w>
绿 色
第四十 八届</w>
m ill
法 罗</w>
C M
金融 资产</w>
一 夫
储 蓄
上 层</w>
L in
鲜明 对比</w>
魁北 克</w>
手 术
一 岁</w>
有点 像</w>
情 绪
之 列</w>
口 头
高 空</w>
爱尔 兰
云 南省</w>
其 琛</w>
他 們</w>
诺 德</w>
核 扩散</w>
杂 项</w>
克鲁 斯</w>
0. 2%</w>
门 店</w>
清 新</w>
o c</w>
谨 此</w>
卡 利</w>
R O
七 天</w>
水 坝</w>
毯 子</w>
尼 说</w>
富兰 克林</w>
富 含</w>
大 面积</w>
取得 联系</w>
码 器</w>
松 散</w>
公 屋</w>
圣马 力
金融 公司</w>
里 尼</w>
统计 学</w>
接 获</w>
招 致</w>
怎 样
动 力
阁 楼</w>
对 齐</w>
G A</w>
国民 党</w>
自由 贸易区</w>
流 媒体</w>
有 近</w>
勋 章</w>
世界 市场</w>
ced aw</w>
J ohn
转 变成</w>
纳 尔逊</w>
履行 义务</w>
四川 省</w>
人才 培养</w>
爱 因
爱因 斯坦</w>
皮 埃尔</w>
三 个
警 觉</w>
左 手</w>
o ph
缩 写</w>
霍 姆斯</w>
伊利诺伊 州</w>
怎样 才能</w>
王 后</w>
芭 拉</w>
威 力</w>
介 于</w>
劳工 部</w>
佛罗 伦萨</w>
风 能</w>
猖 獗</w>
障 碍
工作 进展</w>
艺术 作品</w>
f e
走 动</w>
陆 上</w>
干 活</w>
农民 工</w>
告 终</w>
北 方
成 人
哥伦 布</w>
呼 唤</w>
中 美
道 琼斯</w>
站 楼</w>
航 站楼</w>
脚 趾</w>
享 年</w>
ma r</w>
电 路
光 彩</w>
初 稿</w>
鸡 肉</w>
视 察
范 式</w>
数百 万美元</w>
康 涅
存储 系统</w>
兰 政府</w>
m ou
轨 道
新 兵</w>
如 需</w>
民 盟</w>
数据 保护</w>
平均 年龄</w>
不复 存在</w>
ad e</w>
近几 年来</w>
缴 费</w>
施 瓦
博 格</w>
充分 就业</w>
正 规
对 系统</w>
是 如此</w>
扔 掉</w>
举例 来说</w>
挪 用</w>
地 基</w>
实在 在</w>
实 实在在</w>
一九 八
守 卫</w>
抵 抗
半 径</w>
M an
讲话 中</w>
在 讲话中</w>
原 产地</w>
分 局</w>
政 局</w>
食 者</w>
宵 禁</w>
交 响
野 餐</w>
st er</w>
芭 芭拉</w>
日本 首相</w>
工业 界</w>
sh e
奇 异</w>
弗 雷
天文 学家</w>
取得 胜利</w>
钱 其琛</w>
格林纳 达</w>
数据 交换</w>
最 先</w>
控制 面板</w>
古 迹</w>
使 者</w>
6 3%</w>
降 雨量</w>
布隆迪 政府</w>
岛 国</w>
2 29</w>
视 网膜</w>
涉 案</w>
康涅 狄
切 除术</w>
夜 里</w>
分 红</w>
中 年</w>
武 汉
智能 化</w>
谢 尔
合 成
一 棵树</w>
腐 烂</w>
细 微</w>
停火 协定</w>
马 里奥</w>
摇 滚
实际 行动</w>
威 斯</w>
五十 周年</w>
晋 三</w>
文化 背景</w>
ce o</w>
ag u
组 分</w>
方 言</w>
受 托人</w>
南 瓜</w>
伍 兹</w>
柯 林斯</w>
为 限</w>
5 3
脱 水</w>
曲 折</w>
CO NF
醉 酒</w>
net flix</w>
眉 睫</w>
政 见</w>
安 道尔</w>
一 至</w>
毁 掉</w>
旋 律</w>
手 无
人 则</w>
确保 安全</w>
金 发</w>
表 态</w>
公 允</w>
联 苯</w>
真 是
最小 化</w>
安 倍
安倍 晋三</w>
吃 掉</w>
古巴 政府</w>
I A</w>
一站 式</w>
公 署</w>
g an
欧洲 杯</w>
胜 过</w>
保 龄
亚 伯
多国 部队</w>
分析 法</w>
丰富 多彩</w>
在 眉睫</w>
会议 记录</w>
r ac
祸 首</w>
知识 库</w>
即 便
即便 如此</w>
异 步</w>
剥 夺
步 入</w>
剥夺 权利</w>
体 能</w>
电子 政务</w>
层 级</w>
8 50</w>
6 7%</w>
续 费</w>
亲 近</w>
方 同意</w>
双 方同意</w>
海盗 行为</w>
飞 跃</w>
口 服</w>
第三 轮</w>
警 示</w>
无处 不在</w>
a in
迫 在眉睫</w>
较 弱</w>
方 人</w>
19 47</w>
笼 罩</w>
保持 警惕</w>
水 里</w>
提 条件</w>
哈 里
最 深</w>
十 八</w>
关 联
麦 卡
集 会
塑 性</w>
三个 代表</w>
轻 伤</w>
布兰 登</w>
光 辉</w>
黎 波里</w>
追究 责任</w>
的 黎波里</w>
守门 员</w>
从那 以后</w>
参 谋</w>
相互 信任</w>
地方 法院</w>
圣 路易斯</w>
经济合作 组织</w>
篡 改</w>
全 港</w>
领 养</w>
第十 一条</w>
因 应</w>
相互 理解</w>
放 学</w>
29 2</w>
2 57</w>
难 点</w>
私 募</w>
比 索</w>
互 访</w>
顺利 进行</w>
生命 力</w>
杂货 店</w>
旱 地</w>
欠 缺</w>
本 报
卷 风</w>
获 救</w>
有 偿</w>
推 到</w>
祖 父母</w>
济 南</w>
所 犯</w>
二 个</w>
安徽 省</w>
跌 至</w>
环境 部</w>
游乐 场</w>
充满 希望</w>
副 产品</w>
乌 克兰
丝 绸</w>
预算 赤字</w>
硬 盘
前 提条件</w>
犯罪 率</w>
因 在</w>
识 别
ch er</w>
2 52</w>
时 空</w>
两 极
T E
要 花</w>
南 安
住 民</w>
屈 服</w>
保护 性</w>
保护 局</w>
4 25</w>
酸 奶</w>
道而 驰</w>
转换 器</w>
背 道而驰</w>
爱德华 兹</w>
龙 卷风</w>
矩 形</w>
曼 群岛</w>
徒 步
开 曼群岛</w>
世纪 末</w>
溢 价</w>
严格 执行</w>
行 车</w>
组 长</w>
修 缮</w>
ri gh
k u
能 见度</w>
再 有</w>
脱 落</w>
数 最多</w>
百分之 百</w>
丁 斯</w>
总统 令</w>
交易 者</w>
客户 关系</w>
la w
新 设</w>
工人 党</w>
中 称</w>
ot t
阿尔 卑
板 凳</w>
无关 紧要</w>
室 友</w>
前 走</w>
a q
工业 生产</w>
第三 款</w>
福 州</w>
沦 为</w>
降 温</w>
大吃 一惊</w>
大 笔</w>
哈 尼</w>
二 读</w>
推 车</w>
喝 一杯</w>
贝 特</w>
壁 画</w>
吓 坏</w>
un ivers
lin e</w>
标 注</w>
萨 克</w>
活 产</w>
仇 视</w>
D S</w>
明 日</w>
天 候</w>
汉 森</w>
ber n
问 答</w>
放射 性
一 两个</w>
蔓 延到</w>
收 于</w>
re s</w>
莱 纳</w>
无 能</w>
总 冠军</w>
卡 卡</w>
诺贝尔 奖</w>
火 力</w>
徒 劳</w>
太阳 系</w>
克 说</w>
add .2</w>
诺 斯</w>
无 国界</w>
电子 游戏</w>
熟 虑</w>
可 耻</w>
入 场</w>
自来 水</w>
法院 院长</w>
插 槽</w>
情 事</w>
假 冒</w>
el le
天 下</w>
有 色
说 唱</w>
H ar
预 后</w>
茶 叶</w>
维 德</w>
章 制度</w>
污 水处理</w>
大 都市</w>
周 年纪念</w>
华 沙</w>
2 39</w>
悄 悄
不 许</w>
不 言
浓 厚</w>
格 莱
缩 放</w>
暴 乱</w>
嫌 疑</w>
规模 较</w>
这 话</w>
一 审</w>
ang el
敬 畏</w>
并不 认为</w>
频 谱</w>
高 强度</w>
阐 释</w>
辩 方</w>
考 虑
深 思
台 词</w>
I X</w>
水 晶
期 盼</w>
方 在</w>
折 旧</w>
规 章制度</w>
港 币</w>
权 票</w>
方 面
g c.
退 房</w>
弃 权票</w>
奥 斯</w>
参与 方</w>
ro id</w>
c f
C F
重 症</w>
通 车</w>
两 院</w>
格 式化</w>
杰 弗里</w>
结 晶</w>
深思 熟虑</w>
候 审</w>
mar i
CR P
调 制</w>
棕 榈
南 希</w>
美 元
核 销</w>
凯 恩斯</w>
Inter net</w>
清 晰
另 行</w>
海 龟</w>
应 予以</w>
加 倍</w>
美 观</w>
第十 八条</w>
汇 聚</w>
合 乎</w>
十 九</w>
诺 基亚</w>
不能 不</w>
6 2%</w>
钢 管</w>
整 齐</w>
主 妇</w>
下 行</w>
闻 到</w>
银 幕</w>
选举 权</w>
比 拉</w>
望 未来</w>
展 望未来</w>
床 垫</w>
不足 为
骑 手</w>
阿肯 色
金 牌
非 官方</w>
霍 普
甲状 腺</w>
ma y
涨 价</w>
发 短信</w>
原 体</w>
十 分之一</w>
送 入</w>
机 车</w>
大 主教</w>
魁 祸首</w>
罪 魁祸首</w>
凝 聚</w>
冬 奥会</w>
扎 根</w>
或 少</w>
回 顾
暖 和</w>
计数 器</w>
独 裁</w>
灵 敏
流 畅</w>
v ar
二 元</w>
挡 住</w>
国务 秘书</w>
正 轨</w>
拉 拉</w>
并不 需要</w>
炸 毁</w>
日 到</w>
愉 悦</w>
滥用 权力</w>
皮 尔斯</w>
如 前
胃 口</w>
肉 体</w>
c s
这 些年来</w>
视 委</w>
先 行</w>
黑 白</w>
火 爆</w>
信 道</w>
裁 研</w>
新 兴
光 伏</w>
演唱 会</w>
日 产</w>
欧 亚</w>
卑 鄙</w>
创 性</w>
上 角</w>
谦 虚</w>
神经 系统</w>
较 量</w>
腿 部</w>
笼 统</w>
油 厂</w>
h en
辛 勤
气 流</w>
官方 网站</w>
无 休
可 口
A z
雅 各</w>
美国 银行</w>
拨 号</w>
首 席
起重 机</w>
英语 教学</w>
秘 密
死亡 威胁</w>
师 范
写 出</w>
it t
大 亨</w>
眼 球</w>
射 频</w>
贫困 地区</w>
老 牌</w>
电子 表格</w>
喝 醉</w>
内 幕</w>
c er
进 驻</w>
迈 尔</w>
过 往</w>
酒 厂</w>
界 人士</w>
口 处</w>
习惯 于</w>
亚伯 拉罕</w>
i x
遴 选</w>
类 固醇</w>
求 婚</w>
历 时</w>
D I</w>
普通 话</w>
评 述</w>
平 滑</w>
猛 虎</w>
预 先
错误 信息</w>
居 所</w>
如前 所述</w>
别 名</w>
三 类</w>
马 克斯</w>
研 讨</w>
原 始
重新 安排</w>
喀 什</w>
十 六</w>
一 球</w>
耐 力</w>
会 同</w>
开 源</w>
d ou
3 16</w>
化 工
先 是</w>
T D</w>
剥 离</w>
花 朵</w>
挑战 者</w>
基 建</w>
相互 合作</w>
柠 檬</w>
停 止
0. 1%</w>
实 业</w>
基 斯</w>
人人 平等</w>
各种 因素</w>
不 道德</w>
克里斯蒂 安</w>
预算 案</w>
礼 宾</w>
大 衣</w>
上 风</w>
c ap
改 委</w>
功 课</w>
走 私
纵 火</w>
热 窝</w>
未 经
阿肯色 州</w>
能源 供应</w>
福 岛</w>
力 气</w>
赶 快</w>
四 季</w>
应用 领域</w>
并 称</w>
借 此</w>
H S</w>
圆 桌</w>
乘 车</w>
煤 气</w>
总 支出</w>
南 南</w>
份 子</w>
船 队</w>
保险 业</w>
k a
经 理
大 意</w>
塔 那
产 资源</w>
扳 平</w>
伦 齐</w>
雄 性</w>
最大 值</w>
圣 文森特</w>
30 5</w>
脑 子里</w>
矿 床</w>
应 激</w>
格 拉
咖啡 厅</w>
五 种</w>
湖 南省</w>
奈 德</w>
乔 布斯</w>
真是 太</w>
无 用</w>
宁 夏</w>
尔 瓦</w>
国际 舞台</w>
m att
嗣 后</w>
办公 楼</w>
儿 所</w>
2 600</w>
车 臣</w>
蹒 跚</w>
肖 像</w>
托 儿所</w>
M I</w>
液 晶</w>
肾 上
吉林 省</w>
可 予</w>
S p
跑 者</w>
戈 马</w>
一大 堆</w>
ic s</w>
身 影</w>
A L
谢 赫</w>
乔 恩</w>
高 额</w>
2 63</w>
隶 属</w>
偷 窃</w>
帕 劳</w>
韦 恩</w>
只 用</w>
额 外
上 报</w>
苏黎 世</w>
泰 特</w>
阿 利</w>
电力 公司</w>
斯 菲尔德</w>
抽 出</w>
徒步 旅行</w>
杰 伊</w>
拨 给</w>
饮 品</w>
聚 光灯</w>
磺 酸</w>
万 年</w>
起 火</w>
军事 装备</w>
商务 中心</w>
不 成</w>
堪 称</w>
货 品</w>
海 景</w>
廉 正</w>
建 华</w>
发生 爆炸</w>
g s</w>
达尔 文</w>
顺 应</w>
巴 尼</w>
堕 落</w>
作 弊</w>
一 对
规范 化</w>
清 白</w>
文化 部</w>
一 下
诱 发</w>
米 德</w>
杰 作</w>
交 会</w>
颤 抖</w>
一 丝</w>
在 发言
在发言 中</w>
依赖 性</w>
中 锋</w>
平 坦</w>
海 豹</w>
拉 开
小 路</w>
快 讯</w>
赫 纳</w>
访 华</w>
外 币</w>
ul t
al a</w>
正 向</w>
接 连</w>
他 用</w>
小儿 麻
交易 商</w>
k am
住 院
美 化</w>
痊 愈</w>
平 衡
重 用</w>
备 案</w>
j a</w>
诺 克</w>
公 寓
脑 部</w>
C T
卡 达</w>
财政 赤字</w>
充分 反映</w>
b e</w>
abd ul
扩展 性</w>
我 花</w>
一 宗</w>
移 居</w>
监护 权</w>
打 得</w>
私人 资本</w>
利 息
默 多克</w>
衣 柜</w>
市场 化</w>
皇 室</w>
亚 伦</w>
德 培</w>
j a
马 绍
贫困 家庭</w>
全 天候</w>
牌 子</w>
对外 开放</w>
可 喜</w>
不 来</w>
铁 道
国家 标准</w>
v d</w>
收 视
手 续费</w>
奖 品</w>
贫 血</w>
er o</w>
放 牧</w>
开发 利用</w>
深入 分析</w>
消防 员</w>
巫 师</w>
场 址</w>
仍 会</w>
重新 安装</w>
重 创</w>
议 席</w>
或多 或少</w>
ra y</w>
尘 埃</w>
强 加
不 吃</w>
短 裤</w>
蒙 罗
分 派</w>
罐 头</w>
帕 默</w>
城市 居民</w>
双 打</w>
M A</w>
刑 院</w>
响 亮</w>
越来越 少</w>
挤 出</w>
原 住民</w>
en z
工 件</w>
不 向</w>
波 长</w>
恪 守</w>
富有 成果</w>
几 小时</w>
肆 虐</w>
北 韩</w>
歌 声</w>
凯 莉</w>
你 方</w>
知 觉</w>
直 言
畅 通</w>
彗 星</w>
大西洋 公
大西洋公 约组织</w>
北 大西洋公约组织</w>
伯 纳德</w>
罗 纳
点 心</w>
停 电</w>
维多 利亚
量 身</w>
赎 金</w>
本 会</w>
on s
弟 兄</w>
萨拉 热窝</w>
电子 邮件
温 州</w>
托 运</w>
剪 切</w>
款 下</w>
打 发</w>
丙 烯
证券 交易</w>
防 备</w>
蚊 帐</w>
良 知</w>
辐 射
每 秒</w>
尼泊 尔
巴基 斯坦
驯 鹿</w>
图 里</w>
自 首</w>
无 声</w>
数据 传输</w>
六 日</w>
自由 市场</w>
炼 油厂</w>
深 层次</w>
首 饰</w>
洗手 间</w>
长 途</w>
福 克</w>
坦 白</w>
28 5</w>
搬 运</w>
情 势</w>
对照 组</w>
在 技术上</w>
艺 人</w>
医 药
直言 不讳</w>
莱 昂</w>
吸烟 者</w>
19 52</w>
斯 诺</w>
拉 登</w>
巴 菲特</w>
载 人</w>
谈 起</w>
没 用</w>
怀 疑
基本 面</w>
第二十二 届</w>
特 大</w>
向 往</w>
辅 导
厄 尔
斯旺 西</w>
一 首歌</w>
高级 顾问</w>
放 在
偿 金</w>
劳 力</w>
一九九 九年</w>
无 私</w>
饰 演</w>
越 野
肠 癌</w>
杰 西</w>
天主 教徒</w>
8 9
玩 得</w>
19 57</w>
挑 起</w>
缺 乏
爆炸 性</w>
安 心</w>
基本 原理</w>
辛辛 那
无 奈</w>
导 管</w>
讲 台</w>
尔 群岛</w>
道 夫</w>
矿 产资源</w>
理 想
婊 子</w>
复印 件</w>
吞吐 量</w>
收视 率</w>
乔 希</w>
十 四</w>
几 起</w>
专 委</w>
谢 谢
图 尔</w>
进 攻
占 地</w>
该 组</w>
扑 克</w>
安 倍</w>
侨 民</w>
西 澳</w>
d i</w>
遗 漏</w>
遗 失</w>
利 奥</w>
埃 斯
七 名</w>
有 条
控 器</w>
具体 地说</w>
ath an
科 克</w>
波 斯</w>
有 不同</w>
迷 路</w>
花 生</w>
本 年度</w>
非 典型</w>
感 恩</w>
循 证</w>
常规 赛</w>
ab u
协调 会议</w>
大 连
早 前</w>
文 法</w>
ing s</w>
高峰 期</w>
北 欧国家</w>
矢 量</w>
销售 量</w>
格 纳</w>
数以百 万计</w>
马 科</w>
问 卷
问卷 调查</w>
s ub
那 年</w>
工程 学</w>
同 一时间</w>
iy a</w>
裨 益</w>
而 不见</w>
就 座</w>
霍 克</w>
课 堂
威 利</w>
一对 一</w>
该 名</w>
富 士
零 年</w>
离 家</w>
环境 监测</w>
明 朗</w>
视察 员</w>
汉 娜</w>
下 个</w>
7 9
自由 权</w>
指标 体系</w>
十二 个</w>
雨 季</w>
前 天</w>
分 流</w>
专 制</w>
爆炸 案</w>
编 译
卡 里</w>
音乐 剧</w>
革命 性</w>
红 宝石</w>
矿 井</w>
田 径
常 年</w>
b us
备 有</w>
香 肠</w>
陡 峭</w>
CONF .
豪 斯</w>
诺 维奇</w>
用 心</w>
不同 寻常</w>
阿 斯
自然 保护区</w>
立足 于</w>
转 弯</w>
生物 学家</w>
受 权</w>
ad el
尸 官</w>
4 6.
验 尸官</w>
蒙罗 维亚</w>
服务 水平</w>
停止 使用</w>
绝 对
脱 机</w>
一 季度</w>
极 有</w>
对 受</w>
转 化
泽 尔</w>
低 水平</w>
英 勇</w>
对 接</w>
培 养
国务 院
供应 量</w>
2 68</w>
罗宾 逊</w>
纠 缠</w>
卡塔 赫纳</w>
相 片</w>
哈 迪</w>
水 扁</w>
方面 面</w>
方 方面面</w>
打 下</w>
摸 索</w>
插 曲</w>
自 有</w>
第一 号</w>
f ri
状 况
机 上</w>
国际 海事
党 团</w>
n ick
好 些</w>
轻 轻
周 岁</w>
马 库斯</w>
这 门</w>
开 盘</w>
吞 并</w>
6 87</w>
签 订
湖 北省</w>
排 定</w>
p t</w>
沐 浴</w>
布 罗</w>
受 限</w>
很 近</w>
布 伦特</w>
c c</w>
4 7.
灵敏 度</w>
提 取
t ay
透 彻</w>
第三 世界</w>
碳 水
碳水 化合物</w>
入 睡</w>
新 手</w>
视 而不见</w>
葡萄 园</w>
t ra
M B</w>
F CCC</w>
马 可</w>
确 凿</w>
c la
炒 作</w>
邀 请
美国 联邦调查局</w>
圣马力 诺</w>
偷 偷</w>
博 彩</w>
里 亚
杰 里</w>
偏 向</w>
磁 共振</w>
山 西</w>
h a</w>
帐 目</w>
c ent
件 箱</w>
默 默
林 业
馆 长</w>
b i
监管 部门</w>
一 氧化
序列 号</w>
水 系统</w>
型 飞机</w>
巴西 政府</w>
陈 水扁</w>
G u
击 球手</w>
kh al
笔 译</w>
圣 徒</w>
哪 些
p s
硬 度</w>
太 子
一 则</w>
风 筝</w>
集会 自由</w>
梯 度</w>
连接 起来</w>
贝克 汉姆</w>
笨 蛋</w>
in f</w>
7 5
发射 器</w>
远 比</w>
预 设</w>
波 德</w>
哥伦比亚 政府</w>
页 岩</w>
洛 奇</w>
网 点</w>
期 满</w>
密切 协作</w>
I M</w>
重 现</w>
m i
血 性</w>
不足为 奇</w>
鼓 吹</w>
韧 性</w>
星 际</w>
政 司</w>
多 得多</w>
哥伦比亚 特区</w>
邮政 局</w>
破产 法</w>
F S</w>
协 同
能源 需求</w>
该 报</w>
感 人</w>
专 心</w>
特 洛伊</w>
期 货
全 心
大 笑</w>
染 色</w>
7 500</w>
太阳 报</w>
雅 克</w>
聚 在一起</w>
各 处</w>
I N</w>
百 度</w>
惩 教</w>
M on
定 额</w>
南 韩</w>
中 日
中 尉</w>
0. 3%</w>
重 金属</w>
抽 取</w>
托 运人</w>
成 套</w>
铁道 部</w>
犹 大</w>
点 至</w>
念 头</w>
在 历史
在历史 上</w>
做 个</w>
买 单</w>
看 不出</w>
拥 有者</w>
圣 多
回 收
劳 埃德</w>
公共 开支</w>
古 董</w>
加 德
韦 尔</w>
好 奇
头 巾</w>
约 克</w>
对话 者</w>
早 上
早上 好</w>
儿 科</w>
R S</w>
越 狱</w>
c y
名 人
28 00</w>
珍 视</w>
吸 收
去 掉</w>
T V</w>
年 均</w>
存 取</w>
办 案</w>
中间 人</w>
长 短</w>
裂 纹</w>
县 级</w>
余 名</w>
比 利亚</w>
标 的</w>
行 不通</w>
体 温</w>
税 法</w>
旷 日
王 朝</w>
摒 弃</w>
繁 华</w>
7 2%</w>
难 关</w>
政治 性</w>
专 责</w>
燃 气</w>
忽 然</w>
输入 您</w>
货 架</w>
维护 和平</w>
口 译员</w>
双 眼</w>
4 30</w>
辅 助
民 生</w>
昨天 晚上</w>
螺 栓</w>
自 愿
现金 流</w>
旷日 持久</w>
太 少</w>
一 站</w>
t v</w>
le w
巴 特勒</w>
医 治</w>
4 80</w>
近 一半</w>
罚 金</w>
阿塞拜疆 共和国</w>
莱 格</w>
惩 罚
学 童</w>
好奇 心</w>
前 身</w>
店 主</w>
ad i
项 链</w>
环境 因素</w>
深 色</w>
推 进
Q u
2 67</w>
基 薪</w>
厄尔 尼诺</w>
利 政府</w>
6 6%</w>
4 1.
背 心</w>
非 正常</w>
登 山</w>
拉 政府</w>
修 饰</w>
摩 根
德 文</w>
在 校</w>
k ir
选 为</w>
晓 得</w>
意大利 政府</w>
0. 0
阿 姨</w>
四 倍</w>
人大 代表</w>
粮食 价格</w>
回 购</w>
表示 歉意</w>
罗 西</w>
多 份</w>
4 5.
遗 骸</w>
贷 款人</w>
子 孙
m p
绿 灯</w>
航 海</w>
米 尔
生产 成本</w>
攀 登</w>
单 证</w>
R o
近 海</w>
说 得
长 跑</w>
基 数</w>
不 分
病 因</w>
机 体</w>
继承 权</w>
联合国 教科文组织</w>
无 助</w>
戈尔 诺</w>
k ev
阿拉 法特</w>
洞 察
尼日 利亚
非同 寻常</w>
行 使
切 实际</w>
氨基 酸</w>
尔 蒙</w>
上 周日</w>
oc k</w>
甲级 联赛</w>
6 4%</w>
离 境</w>
招 收</w>
河 边</w>
受 苦</w>
w a
A t
30 4</w>
卡 尼</w>
哈 珀</w>
劫 持
怨 恨</w>
背 离</w>
哈 维</w>
听 闻</w>
瓦 利</w>
成人 教育</w>
争 夺
C L
租 房</w>
b as
M ich
迄今 已</w>
无 遗</w>
慢 跑</w>
迫击 炮弹</w>
能源 价格</w>
忠 告</w>
治疗 师</w>
频 频</w>
树 叶</w>
哈 里斯</w>
千 名</w>
重 定向</w>
登 革
渊 源</w>
更 是如此</w>
农 夫</w>
m r</w>
ov i</w>
je ff
黄金 海岸</w>
避 税</w>
进口 商</w>
贸易 商</w>
红 军</w>
成 名</w>
身 于</w>
性 交</w>
帕 金
一 圈</w>
阿里 巴巴</w>
故 事
囚 禁</w>
手 头</w>
尼 治</w>
如 期</w>
两 间</w>
说 家</w>
打 法</w>
学 说</w>
助 益</w>
28 7</w>
低 碳</w>
等 奖</w>
格林 尼治</w>
多 处</w>
四 位</w>
M r</w>
运输 系统</w>
b n
秉 承</w>
失 明</w>
显 著
另一 端</w>
病 症</w>
明 斯克</w>
本 世纪</w>
数 控</w>
因 数</w>
降 息</w>
国民 大会</w>
卫生 署</w>
湾 仔</w>
岛 内</w>
痹 症</w>
巴布 达</w>
自由 泳</w>
竞 标</w>
白 俄罗斯
白俄罗斯 共和国</w>
来 时</w>
富 豪</w>
埃 利
这 要</w>
能 以</w>
生命 科学</w>
洞察 力</w>
v ii</w>
6. 6</w>
鼓 舞
称 职</w>
考 试
禁 赛</w>
护 理
j ac
最 合适</w>
麦 迪
福利 部</w>
海洋 资源</w>
捐 赠
通 勤</w>
外 阴</w>
坚 硬</w>
胡 萝卜</w>
w ell</w>
尔 茨</w>
使用 量</w>
导 则</w>
单 曲</w>
莫 里斯</w>
安提 瓜
熟 练
察 觉</w>
专门 从事</w>
总 有
邦 德</w>
该 署</w>
库 中</w>
塞 克斯</w>
第四十 六届</w>
赛 跑</w>
甲 基
演讲 者</w>
前 门</w>
看 书</w>
斯坦 福</w>
失 败
j as
通 胀率</w>
未 缴</w>
楼 下</w>
因 州</w>
卡 恩</w>
k ell
邦 特</w>
校 园
掌 管</w>
发 改委</w>
定 决心</w>
下 定决心</w>
药 店</w>
G IS</w>
A R</w>
空 洞</w>
全面 实施</w>
毫 升</w>
维 珍</w>
科学 知识</w>
总有 一天</w>
脊 髓</w>
物 件</w>
海 员</w>
谢 菲尔德</w>
朱 利安</w>
失 灵</w>
s h</w>
ar e</w>
太 过</w>
s ol
人 于</w>
+ +</w>
犯 错</w>
海 中</w>
婴 儿
非 他
费 尔</w>
贫困 率</w>
口头 报告</w>
博 士
堆 栈</w>
不起 作用</w>
不 知情</w>
闪 亮</w>
国际海事 组织</w>
D e
权威 性</w>
le t</w>
女 神</w>
诺 曼</w>
紧急 措施</w>
毫不 犹豫</w>
安 抚</w>
隐 含</w>
圣 母</w>
2. 8</w>
输 出
孙 女</w>
连 结</w>
夫 曼</w>
Ma c</w>
脑 子</w>
合作 者</w>
le v
莫 里森</w>
拿 来</w>
四 十年</w>
产业 结构</w>
b ank
稀 有</w>
多边 条约</w>
一个 男孩</w>
泥 土</w>
冲 击
不 切实际</w>
超 人</w>
恩 德培</w>
l as
梅 德
保 密
出生 率</w>
邮 轮</w>
第一 句</w>
筹 码</w>
无休 止</w>
扎 伊尔</w>
工商 企业</w>
老 公</w>
未 婚</w>
课 本</w>
感 性</w>
审 阅</w>
天 地</w>
再次 出现</w>
依 托</w>
破 灭</w>
慢 性病</w>
基 加利</w>
人 生
第四十 七届</w>
约 旦
博 特</w>
f ield</w>
. 15</w>
ab ri
最新 消息</w>
伯 利亚</w>
万 国
u l</w>
英文 版</w>
触摸 屏</w>
40 1</w>
特鲁 多</w>
雷 拉</w>
详细 分析</w>
n g
受害 国</w>
例 句</w>
优 秀
爬 行</w>
库 拉</w>
半 夜</w>
辛辛那 提</w>
武装 集团</w>
全民 教育</w>
都 会</w>
纵 容</w>
疲 倦</w>
流 逝</w>
完 成
万 次</w>
威 尔斯</w>
性 工作者</w>
开 机</w>
马 赛</w>
经济 繁荣</w>
瓦 解</w>
每 台</w>
强 盗</w>
看 重</w>
物理 学家</w>
探 望</w>
打 动</w>
联络 官</w>
快 船</w>
归 结为</w>
邓 迪</w>
迫击 炮</w>
候 补</w>
小儿麻 痹症</w>
安提瓜 和
安提瓜和 巴布达</w>
喷气 式</w>
面 条</w>
响 起</w>
NE T</w>
纯 洁</w>
相 位</w>
河 水</w>
提供 数据</w>
enk o</w>
哥伦比亚 大学</w>
当 代
主 板</w>
拨 付</w>
令人 惊叹</w>
足 球场</w>
马绍 尔群岛</w>
美国 市场</w>
渔 业
固 然</w>
28 6</w>
葡萄 糖</w>
增 益</w>
不 难</w>
k i</w>
白 金
拟 设</w>
以 赴</w>
栽 培</w>
赛 马</w>
学前 教育</w>
香港 特区</w>
清 华
队 部</w>
调查 小组</w>
维 和
维和 部队</w>
第六 章</w>
民 营企业</w>
本 期</w>
工程 建设</w>
莫 尔</w>
开 阔</w>
开 花</w>
后 于</w>
c .4</w>
这 太</w>
稀 释</w>
第六十 九</w>
卡 通</w>
儿 女</w>
赛 程</w>
花 旗
滤 波</w>
更 佳</w>
力 以赴</w>
全 力以赴</w>
按 键</w>
入 口处</w>
惩罚 性</w>
干 吗</w>
遵 行</w>
安 非他
实用 新型</w>
可 执行
代表 处</w>
斯特 林</w>
客观 性</w>
大 体上</w>
不 公</w>
蚀 性</w>
原 创</w>
b ou
an t</w>
捐 献</w>
B e
财 团</w>
传 教士</w>
民 权</w>
控 股
塞尔维亚 共和国</w>
园 林</w>
忘 掉</w>
哺 乳</w>
c s</w>
轨道 交通</w>
痴 呆</w>
朝 向</w>
显 出</w>
一夫 多
撒 切尔</w>
扼 要</w>
格 勒</w>
之 行</w>
塔 纳</w>
前 妻</w>
穆 巴拉克</w>
不 曾</w>
f in
辜 负</w>
时 速</w>
共 谋</w>
简 述</w>
太子 港</w>
劳工 法</w>
畜 牧业</w>
龙 虾</w>
日 出</w>
积极 行动</w>
盼 望</w>
ar n
7 6
薯 条</w>
点 火</w>
字 样</w>
缺 水</w>
鸭 子</w>
克 洛
4 4.
第一 手</w>
沃 特</w>
数据 管理</w>
迟 缓</w>
论 及</w>
萨 兰
考虑 一下</w>
闭 幕
戴 安娜</w>
嘴 巴</w>
rah im
保龄 球</w>
骨 髓</w>
装 入</w>
行政 拘留</w>
自由 派</w>
普 勒</w>
家庭 作业</w>
子孙 后代</w>
代 办</w>
举 重</w>
sco tt
别 处</w>
零 星</w>
艺术 节</w>
里 尔</w>
编译 器</w>
旅 舍</w>
巴 拉
家 门口</w>
亚 非</w>
西 门
移 至</w>
公 法</w>
晚 报</w>
拉 夫
雄 心</w>
批 次</w>
a qu
道 义</w>
猜 想</w>
传 票</w>
id a</w>
操 控</w>
行 进</w>
p e</w>
统计 分析</w>
水 利</w>
M O
本 款</w>
行为 能力</w>
忍 不住</w>
cor p</w>
陕 西</w>
比 前</w>
手 铐</w>
丢 掉</w>
荷 尔蒙</w>
免 费
中 约</w>
阿 米</w>
走 强</w>
固 化</w>
p re
阿 波罗</w>
育 种</w>
汇 总表</w>
足 额</w>
有 害
吉 林</w>
与 其
C S</w>
更 有
差 别
援 会</w>
k al
本 性</w>
准备 就绪</w>
毛 衣</w>
工具 箱</w>
中共 中央</w>
语 境</w>
缩 略
纳 波利斯</w>
描绘 成</w>
俄 方</w>
相 爱</w>
恢复 性</w>
年 终</w>
咖啡 因</w>
猫 猫</w>
民主 选举</w>
截 面</w>
天 前</w>
受 训</w>
僵 硬</w>
修 斯</w>
上 半
纸 币</w>
户 外
尚 有</w>
马拉 喀什</w>
零 食</w>
落 到</w>
斑 点</w>
心 协力</w>
法 尔</w>
大 师
任意 球</w>
29 5</w>
年 鉴</w>
杰 瑞</w>
寄生 虫</w>
专题 组</w>
s mith</w>
转 速</w>
罢 了</w>
有 太多</w>
悄 悄</w>
鲁 莽</w>
素 材</w>
归 根
常务 副</w>
投 射</w>
积极 合作</w>
小 朋友</w>
境 界</w>
牛 顿</w>
音乐 厅</w>
建 交</w>
雌 性</w>
边 上</w>
送 来</w>
沙 斯</w>
把 戏</w>
围 巾</w>
全 意</w>
伊斯兰 堡</w>
19 40</w>
橡 树</w>
心 动
电力 供应</w>
溃 疡</w>
另一 半</w>
小 厨房</w>
本 函</w>
候选 国</w>
教育 法</w>
不 解</w>
全 美</w>
车 身</w>
群 众
an k</w>
甜 点</w>
曼 德拉</w>
印度尼西亚 政府</w>
g il
土地 改革</w>
省 钱</w>
非洲 地区</w>
纳 斯达
基 普</w>
心 思</w>
另一 人</w>
上 安装</w>
不 景气</w>
科 院</w>
亲 身</w>
灯 塔</w>
帕 斯</w>
关 塔那
远 东</w>
副 教授</w>
30 1</w>
社 交
杰 明</w>
围 墙</w>
全心 全意</w>
w p.
食 物
就此 结束</w>
音 响</w>
干 线</w>
d eb
现金 流量</w>
水 灾</w>
圣 灵</w>
P N</w>
轻轻 地</w>
个 字符</w>
B u
连 环</w>
呼 应</w>
单 人床</w>
克罗地亚 共和国</w>
题 材</w>
蜜 月</w>
小 猫</w>
台湾 当局</w>
发 觉</w>
不 信</w>
就 象</w>
关键 在于</w>
但 愿</w>
收 件箱</w>
3. 5%</w>
高 层
社 论</w>
略 高于</w>
班 吉</w>
杜 古</w>
奶 粉</w>
表 面
pd f</w>
赛 区</w>
乡 下</w>
k im
隐 性</w>
时 许</w>
文本 框</w>
测 绘</w>
批 准
五 年期</w>
不 知道</w>
A .
顿 饭</w>
趋 向</w>
贮 存</w>
楼 盘</w>
投 机
征 募</w>
H am
集中 营</w>
推 高</w>
恩 说</w>
班 上</w>
年 增长率</w>
C. 4</w>
继 任</w>
突破 性</w>
中 弹</w>
金 星</w>
譬 如</w>
繁 多</w>
波 浪</w>
核 动力</w>
O ut
转 给</w>
新 世界</w>
缅 因州</w>
多 一点</w>
肩 上</w>
六 项</w>
还 款</w>
负 起</w>
梅德 韦</w>
v ic
证 监会</w>
平 面
以 至</w>
人 意</w>
浸 泡</w>
死 后</w>
小 将</w>
p ort
延 缓</w>
为 生</w>
纳斯达 克</w>
人民 党</w>
罗 纳德</w>
赛 尔</w>
伯 恩斯</w>
C. 6</w>
部 在</w>
越 大</w>
俄 文</w>
上 路</w>
g p</w>
流 派</w>
斯坦 利</w>
政治 危机</w>
披 肩</w>
十 一
W i</w>
隐 喻</w>
海湾 合作
海湾合作 委员会</w>
摄 入量</w>
拉 萨</w>
客 商</w>
普 特</w>
征 询</w>
名 牌</w>
细 心</w>
分离 主义</w>
赖 于</w>
受 制
R T</w>
木 星</w>
康复 中心</w>
公 爵夫人</w>
p ow
作 文</w>
无 核
方 便
富 国
子 孙</w>
降 价</w>
浮 出</w>
摔 倒</w>
指示 灯</w>
幸 运
商 量</w>
东 道</w>
b la
希 尔顿</w>
静 静
结构 设计</w>
二 日</w>
质量 体系</w>
课堂 教学</w>
庆 幸</w>
改 叙</w>
公共 关系</w>
鼓舞 人心</w>
碰 巧</w>
水 务</w>
挨 饿</w>
多 变</w>
钢 板</w>
里士 满</w>
政 坛</w>
抉 择</w>
慎 重</w>
咆 哮</w>
参 半</w>
c d
墨 菲</w>
严 厉
梅 森</w>
揭 晓</w>
即 兴</w>
等 同</w>
橄榄 油</w>
两 座</w>
红 酒</w>
城 乡
俱 增</w>
遗传 学</w>
电视 频道</w>
投 向</w>
奈 特</w>
f el
成功 经验</w>
戈 夫</w>
罗 比</w>
劝 说</w>
切 特</w>
h us
交易 成本</w>
领 队</w>
自然 界</w>
罗纳 尔多</w>
米 克</w>
尼 尔森</w>
掌 权</w>
发出 通知</w>
住 脚</w>
4 0.
两 军</w>
A B
十 天</w>
M P</w>
经理 人</w>
p r</w>
计算 器</w>
管 控</w>
微 粒</w>
之 大</w>
c at
复 习</w>
积 分
派 系</w>
凯 伦</w>
超 大</w>
片 机</w>
有 空</w>
所 学</w>
转 载</w>
和 睦</w>
两 所</w>
f f</w>
丹 利</w>
逐 一</w>
第十 六条</w>
29 6</w>
那 家伙</w>
联合 政府</w>
w ay</w>
ing ton</w>
b ul
歌 剧院</w>
扮 演
净 值</w>
日 托</w>
斯 山</w>
政治 处</w>
登革 热</w>
狙 击手</w>
急 诊</w>
各 段</w>
乌 鸦</w>
中 介
离 线</w>
社会 效益</w>
纠 结</w>
两 件</w>
V M</w>
苍 蝇</w>
尼古 拉</w>
报告 期</w>
高 层次</w>
主席 国</w>
7 .1</w>
扇 门</w>
舞 者</w>
转 子</w>
简 言之</w>
慈善 事业</w>
麦克 唐纳</w>
铝 合金</w>
方 程式</w>
堪 萨斯州</w>
劳 尔</w>
提 早</w>
俄克拉荷 马</w>
三角 形</w>
路 过</w>
扔 进</w>
理工 大学</w>
现实 主义</w>
岛 民</w>
宣誓 就职</w>
定 时</w>
天 真</w>
AC. 109</w>
成交 量</w>
喷 射</w>
卸 下</w>
附加 费</w>
说 起</w>
欢迎 您</w>
妥 当</w>
T C</w>
陆 路</w>
进攻 性</w>
横 幅</w>
域 控制器</w>
一点 儿</w>
违 禁</w>
吸 纳</w>
瑟 斯</w>
浑 身</w>
桂 林</w>
枪 战</w>
尼 罗</w>
医疗 器械</w>
迪 奥</w>
录像 带</w>
休 战</w>
老 大</w>
国 立大学</w>
分 心</w>
受制 于</w>
安非他 明</w>
圣 彼得堡</w>
出 动</w>
2 79</w>
1. 7</w>
米 德兰</w>
im f</w>
金融 交易</w>
记 下</w>
源 码</w>
德 雷
钻 探</w>
精 华</w>
第三 位</w>
投标 人</w>
p res
多 美元</w>
来 宾</w>
精 准</w>
少 将</w>
丹 麦
类 产品</w>
有 赖于</w>
安德 鲁斯</w>
奶 牛</w>
奥 利</w>
比 斯</w>
卓 有
互联 网
w in
h il
爵士 乐</w>
技术 标准</w>
感 叹</w>
分 包</w>
细 化</w>
正确 方向</w>
中 所作</w>
联邦 储备
征 兆</w>
地 去</w>
外 卖</w>
典 雅</w>
线 圈</w>
女 队</w>
埃塞俄 比亚
一 晚</w>
晶 体
国际 收支</w>
I E
普 兰</w>
打 着</w>
区 别
上 议院</w>
不 诚实</w>
打 来</w>
所 要</w>
垃圾 桶</w>
他 来</w>
主 人
f t</w>
行 李
税 务局</w>
睦邻 友好</w>
传 导</w>
酸 性</w>
计算 结果</w>
救 援
悄悄 地</w>
t y</w>
氟 碳</w>
控制 技术</w>
余 生</w>
不 休</w>
经济 性</w>
幸 免</w>
利 好</w>
逆 向</w>
持 股</w>
布 希</w>
安全 检查</w>
狱 中</w>
泛 美</w>
伤 痕</w>
一 楼</w>
关 机</w>
8 6
落 地</w>
联 运</w>
第一 次世界大战</w>
皮 带</w>
柯 克</w>
双 人间</w>
以 上
同 位
隐 形</w>
进行 性</w>
达 格</w>
辛 烷</w>
节 制</w>
纸 质</w>
才 干</w>
和平 奖</w>
份 文件</w>
热 切</w>
宇 宙
富国 银行</w>
丽 斯</w>
博 维</w>
g old
少年 犯</w>
图像 处理</w>
惯 常</w>
今年 以来</w>
s ant
航空 安全</w>
糊 涂</w>
发 来</w>
犯罪 团伙</w>
提 款
有 期徒刑</w>
所 持</w>
跳 动</w>
上 线</w>
r al
2 700</w>
计算机 科学</w>
德 克</w>
多 层次</w>
兆 瓦</w>
一 百</w>
梦 幻</w>
钢 笔</w>
日 间</w>
收入 水平</w>
3. 7</w>
计算机 辅助</w>
喷 雾</w>
劳 务</w>
相 适应</w>
本 杰明</w>
阿 比</w>
特 技</w>
民主 政体</w>
大 林</w>
超级 大国</w>
技术 水平</w>
吉布 森</w>
布 满</w>
系统 化</w>
相 吻合</w>
施 政
新生 力量</w>
跨 学科</w>
虫 害</w>
矿 物质</w>
lo r</w>
la h</w>
A A</w>
4 2.
插 头</w>
那 座</w>
我 司</w>
妮 特</w>
上 门</w>
19 29</w>
蒙特 州</w>
每 天
隶 属于</w>
戴 上</w>
亲 王</w>
lo s</w>
d en
的 士</w>
球 菌</w>
九 十年代</w>
调查 组</w>
普 利</w>
开幕 词</w>
多 纳</w>
模 范</w>
日 俱增</w>
分配 资源</w>
固体 废物</w>
被 选为</w>
奥 古
直升 飞机</w>
略 微</w>
教 义</w>
巴拿 马
纳 多</w>
与 日俱增</w>
下 半
地 区
第四十 届</w>
格林纳 丁斯</w>
成 见</w>
会 否</w>
电 容</w>
维 埃</w>
ap p
边 框</w>
赢 球</w>
照 明
常见 问题</w>
双 腿</w>
西 伯利亚</w>
就 诊</w>
亿 日元</w>
让 你
宫 颈
喷 泉</w>
12 44</w>
一下 子</w>
滴 滴
深 水</w>
租 车</w>
圣诞 树</w>
即 应</w>
常 客</w>
贺 卡</w>
最新 进展</w>
捷 克
P P</w>
保 佑</w>
民 意</w>
提取 物</w>
二 楼</w>
懒 惰</w>
好 几年</w>
电 动机</w>
打 工</w>
安吉 拉</w>
嘉 莉</w>
甲 方</w>
牵 引</w>
挂 牌</w>
病 床</w>
8 6%</w>
麦迪 逊</w>
这样 一来</w>
渗 入</w>
只 读</w>
b ut
职业 者</w>
耶稣 基督</w>
纪念 馆</w>
大 队</w>
中美 关系</w>
7. 3</w>
查 尔
急 剧
急剧 下降</w>
一 顶</w>
正 要</w>
服 于</w>
公 国</w>
两 用</w>
下 水道</w>
防 灾</w>
警 力</w>
米 兰
b ay
新闻 处</w>
看 一看</w>
l an</w>
代 言</w>
A pp
钢 材</w>
道 具</w>
身 而出</w>
服务 项目</w>
同 意
克利 夫</w>
梳 理</w>
各种 类型</w>
书 签</w>
杜 鲁
机 型</w>
n r
越野 车</w>
天主 教会</w>
am p
矿 区</w>
电 场</w>
流 感
桑拿 浴</w>
星 巴克</w>
人 造
ad e
第 十</w>
犹太 教</w>
失踪 者</w>
大大 降低</w>
节省 时间</w>
发 援会</w>
h ill
19 30</w>
ro y
翻 转</w>
延 至</w>
佛 蒙特州</w>
不断 加强</w>
c. 6</w>
热 身
泉 水</w>
廉 政</w>
广 岛</w>
保障 制度</w>
人 要</w>
言 辞</w>
第四 名</w>
熟 知</w>
海 斯</w>
净 利润</w>
揭 幕</w>
神 社</w>
沉 思</w>
拍卖 会</w>
变 态</w>
节 假日</w>
沉 降</w>
制 成品</w>
努 埃尔</w>
窃 听</w>
名 列
分析 员</w>
顶 点</w>
阿 德</w>
甚 远</w>
昔 日</w>
数据 挖掘</w>
8 3%</w>
林 地</w>
行政 法院</w>
燃 烧
校 区</w>
当 前
禁 忌</w>
奥 塞
吊 销</w>
休息 时间</w>
A M</w>
专业 培训</w>
科 斯塔</w>
挺 身而出</w>
利 克</w>
全 州</w>
先 天性</w>
归 来</w>
乙 方</w>
重 试</w>
2 77</w>
马 英
这 一
接受 者</w>
占 多数</w>
刀 片</w>
供 货</w>
表现 出色</w>
税 制</w>
el li
申 科</w>
囊 团</w>
一 個</w>
灾 情</w>
能源 部</w>
杰 布</w>
智 囊团</w>
原 件</w>
交 锋</w>
外 向</w>
肋 骨</w>
当 量</w>
北 达科他州</w>
核 弹头</w>
金 子</w>
许 多年</w>
运载 火箭</w>
巴 伐
旅游 者</w>
幽 默
基 层
合 乎
另一 只</w>
3 200</w>
女 巫</w>
马英 九</w>
月 光</w>
回 调</w>
卓有 成效</w>
花 卉</w>
两 套</w>
瓷 砖</w>
毁 林</w>
持 枪</w>
巴 克莱</w>
安 检</w>
各 异</w>
士 丹利</w>
司法 官员</w>
反 垄断</w>
减 慢</w>
巨大 贡献</w>
大 洋</w>
哈 克</w>
东 海</w>
画 画</w>
回忆 起</w>
ham mad
那 不
边 锋</w>
观察 者</w>
第一 周</w>
五 位</w>
玛 利亚</w>
点 到</w>
暖 气</w>
承 接</w>
我 见</w>
埃 弗
公 诉</w>
俄罗斯 政府</w>
大 蒜</w>
信 箱</w>
b ec
水 体</w>
方 框</w>
悬 浮</w>
后 门</w>
十二 条</w>
洲 际</w>
私 隐</w>
已 达</w>
利亚 姆</w>
由 该</w>
毅 力</w>
意大利 语</w>
滴滴 涕</w>
方 法学</w>
哈 里森</w>
Ex cel</w>
体育 部</w>
甚 少</w>
塞 拉</w>
大 哥</w>
组 在</w>
柔 性</w>
常 数</w>
厌 烦</w>
一切 顺利</w>
麦 克斯</w>
哥 大</w>
同位 素</w>
中 环</w>
油 脂</w>
四 点</w>
非 歧视</w>
空间 数据</w>
了 个</w>
5 0.
林 中</w>
承 载
开 立</w>
F ran
无 常</w>
描 写</w>
山 东
又 称</w>
亚太 经合组织</w>
第二十 四条</w>
头 疼</w>
哈 拉
公 升</w>
中 之
伊朗 核</w>
中 度</w>
开 着</w>
大 型
基 米尔</w>
积极 开展</w>
全球 定位系统</w>
费 力</w>
愤 慨</w>
坎 昆</w>
区别 对待</w>
中国 日报</w>
过 长</w>
百 万富翁</w>
烟 花</w>
西班牙 政府</w>
岸 边</w>
办 学</w>
r an</w>
阿 特
头 来</w>
3 11</w>
项 中</w>
模拟 器</w>
森林 资源</w>
智能 卡</w>
头 等
国家 有关</w>
两国 间</w>
6 1%</w>
钢 琴
摩根 士丹利</w>
远程 教育</w>
拉 什</w>
印 记</w>
几 场</w>
拖 鞋</w>
年轻 一代</w>
优质 服务</w>
g a
宿 主</w>
生 机</w>
摊 位</w>
恐 惧
iPh one</w>
演 进</w>
低 压</w>
不 如
默认 设置</w>
自由 民主党</w>
胡 椒</w>
极 少数</w>
帝 国主义</w>
大 有
入 胜</w>
七 岁</w>
听 觉</w>
半 天</w>
加 泰
it z
in son</w>
颜 料</w>
冷 淡</w>
瑞 德</w>
奋 力</w>
管理 程序</w>
挣 钱</w>
地 以</w>
递 送</w>
订 货</w>
翼 翼</w>
看 得
教学 质量</w>
西 澳大利亚</w>
引人 入胜</w>
群 落</w>
录 音
埃 及
d om
落 成</w>
版 本
本 协定</w>
乔 伊</w>
la v
技术 员</w>
希 亚</w>
th ew
格 罗</w>
自 卫队</w>
登 山
吹 风机</w>
哈利 波</w>
艾 迪</w>
现 役</w>
废 话</w>
存储 空间</w>
清华 大学</w>
工程 设计</w>
履行 任务</w>
北京 奥运</w>
分 从</w>
证 明
灾 民</w>
违 宪</w>
2 73</w>
而 生</w>
更 广</w>
网 路</w>
维 京</w>
处理 厂</w>
g o
4. 6</w>
29 9</w>
瓦 尔
28 1</w>
诺 威</w>
我 敢</w>
贩 子</w>
生态 旅游</w>
上 下班</w>
集成 电路</w>
坦 帕</w>
供 词</w>
8 2%</w>
八 次</w>
雪 橇</w>
大 都会</w>
g ov</w>
T 恤</w>
视 觉
有 损</w>
应 聘</w>
中国 外交部</w>
终 点
甜 美</w>
叶 利
美国 联邦</w>
充 气</w>
阿什 利</w>
玫 瑰
身 旁</w>
老 太太</w>
物 业
分 销商</w>
整 编</w>
地 面积</w>
黑 夜</w>
暴 徒</w>
捐赠 者</w>
并 存</w>
金 刚
那 会</w>
建筑 设计</w>
停 赛</w>
4 3.
迟 钝</w>
本 科
布雷 克</w>
谈 一谈</w>
班 机</w>
哈 哈</w>
L L</w>
蓝 军</w>
信息 管理系统</w>
装 卸</w>
蒙特 塞</w>
大 体</w>
宏 大</w>
马 什</w>
关系 密切</w>
发 起
失败 者</w>
人 听闻</w>
世界 观</w>
ri c
证 责任</w>
架 子</w>
微 风</w>
举 证责任</w>
越 高</w>
棍 子</w>
柠 檬
报告 书</w>
转 让
警 钟</w>
畏 惧</w>
光 顾</w>
第二十 三条</w>
陷入 僵局</w>
客 服</w>
F 1</w>
读 过</w>
维克 多</w>
加 杜古</w>
莱 曼</w>
祖 国
it z</w>
女 郎</w>
奥 马尔</w>
头 条</w>
动 队</w>
代表 作</w>
邦 迪</w>
家庭 主妇</w>
压 低</w>
麦 金</w>
瓦 加杜古</w>
智 商</w>
拉夫 罗夫</w>
哈 斯</w>
饭 菜</w>
g n
那不 勒斯</w>
电 离
宫颈 癌</w>
樱 桃</w>
芬 奇</w>
委 托人</w>
主持 会议</w>
微 薄</w>
王 星</w>
格 雷斯</w>
别 动队</w>
洛杉矶 分校</w>
大学 洛杉矶分校</w>
破 门</w>
种植 园</w>
说 真的</w>
蒸 气</w>
脱 节</w>
牺 牲
d em
银行 贷款</w>
洗 手</w>
无 所谓</w>
P S
19 53</w>
4 60</w>
灭 火</w>
夏 令
证券 公司</w>
不 致</w>
D B
当 做</w>
X 射线</w>
轻 度</w>
计算机 网络</w>
联 会</w>
那 件事</w>
穆 萨</w>
成 功率</w>
压 力
共 创</w>
信 片</w>
c is
门 徒</w>
寸 铁</w>
达 卡</w>
弗拉 基米尔</w>
基本 概念</w>
修 好</w>
破 旧</w>
游 泳
工 会
两 台</w>
t ran
闲 置</w>
简 单
瑞 尔</w>
氟 氯烃</w>
曲 目</w>
中央 电视台</w>
手无 寸铁</w>
巴基斯坦 政府</w>
固定 翼</w>
停 产</w>
b on
衍 生
汽车 行业</w>
推 动者</w>
招 牌</w>
到 访</w>
8 5
行业 协会</w>
sh er
退 缩</w>
最低 点</w>
最 起码</w>
闪 耀</w>
重大 事件</w>
教育 部长</w>
大学 毕业</w>
发 扬</w>
不 尽
r ab
替 补
战 争
a ir</w>
言 人</w>
约 瑟</w>
火箭 弹</w>
水 污染</w>
最 能</w>
住宅 区</w>
CA D</w>
接 任</w>
中 仅</w>
逻 辑
出 游</w>
九 日</w>
临时 政府</w>
a f</w>
单 边</w>
第二十 六届</w>
旁 观者</w>
伏 击</w>
M C</w>
肥 沃</w>
广泛 传播</w>
南 极
D S
这 颗</w>
裂 痕</w>
动 器</w>
而 上</w>
oo m
血 浆</w>
群 人</w>
南斯拉夫 联邦</w>
免 于
第二十 五届</w>
瑞士 政府</w>
型 肝炎</w>
伸 手</w>
c ra
文件 格式</w>
已 登记</w>
绿 地</w>
ev a</w>
观 测
e o</w>
贵 州</w>
贫困 者</w>
瓦 特</w>
全 队</w>
fo x
管理 体制</w>
涌 现</w>
拿 破
首 家</w>
磁 性</w>
实用 程序</w>
犹 如</w>
杂 交</w>
插 图</w>
属 实</w>
热身 赛</w>
使用 费</w>
一 班</w>
40 000</w>
智 库</w>
卢 布</w>
童 婚</w>
s o
磁盘 空间</w>
承 受
一 排</w>
卢 卡</w>
力 赛</w>
O S
混 沌</w>
Out l
重大 成就</w>
撞 倒</w>
人 用</w>
电 容器</w>
布 琼
三 分钟</w>
剧 组</w>
高中 生</w>
莱 士</w>
举 足轻重</w>
相互 竞争</w>
披 萨</w>
d y
Ex chang
和 谈</w>
r and
退 税</w>
幽默 感</w>
密西西比 州</w>
毛 利人</w>
旋 风</w>
安 市</w>
2 78</w>
该 片</w>
h ow
虫 子</w>
明 信片</w>
吃 晚饭</w>
侵 袭</w>
伐 木</w>
无 愧</w>
幸 免于
幸免于 难</w>
四 十</w>
3 90</w>
编 拟</w>
有 种</w>
跟 鞋</w>
航 道</w>
年 薪</w>
30 3</w>
玩 意</w>
导 航
客 运
塔 斯</w>
万 多名</w>
莱 达
她 家</w>
几十 个</w>
布琼 布拉</w>
防 护
铃 声</w>
羞 愧</w>
代 言人</w>
s ab
8 7
盖 子</w>
海 绵</w>
摩 天
差别 待遇</w>
交易 量</w>
j enn
盗 窃
圣 约翰</w>
俘 虏</w>
明 市</w>
拳 头</w>
社会 关系</w>
沙 巴</w>
国 度</w>
侄 子</w>
cr c</w>
间 距</w>
提 前
多 媒体
共 度</w>
一 旁</w>
豪华 酒店</w>
萨 里</w>
涂 鸦</w>
官 邸</w>
上 作</w>
chri s
机械 化</w>
成 败</w>
协 助
油 轮</w>
接 轨</w>
bri an
解 救</w>
自 拍</w>
pr st</w>
安 圭
x v</w>
高 跟鞋</w>
男 子
帝 力</w>
完 好</w>
公 益
燃料 电池</w>
股 长</w>
碳 酸
根 基</w>
壳 牌</w>
归 入</w>
女权 主义</w>
加泰 罗
足球 赛</w>
巴西 人</w>
八 日</w>
不同 之处</w>
4 40</w>
市 内</w>
害 虫</w>
失业 问题</w>
其 反</w>
严格 控制</w>
三 层</w>
提 炼</w>
拉 赫</w>
密 克罗
密克罗 尼
南 卡罗来纳州</w>
加州 大学洛杉矶分校</w>
切 入点</w>
pv .
沙 田</w>
屈 服于</w>
估 量</w>
i b</w>
奈 杰尔</w>
合 唱
被 称作</w>
菲 德尔</w>
纳 特</w>
夺 去</w>
调 节
彰 显</w>
大 喊</w>
借 钱</w>
遗传 算法</w>
广播 节目</w>
斯 巴
扮演 着</w>
天 文学</w>
这 间</w>
责 令</w>
建筑 群</w>
两极 分化</w>
丝 网</w>
丝 绸
d or
联邦 共和国</w>
栏 目</w>
吞 噬</w>
勾 结</w>
仅 如此</w>
怀 旧</w>
各 派</w>
河 里</w>
拿破 仑</w>
公共 信息</w>
er y</w>
大 洋
募 捐</w>
位 子</w>
四 星级</w>
器 中</w>
公民 自由</w>
n o</w>
圣 城</w>
反 复
骑 车</w>
阶 梯</w>
订 定</w>
组 和</w>
连 带</w>
er k
观 光
养 殖
停 泊</w>
表 列出</w>
接 地</w>
第二十 五条</w>
第一 张</w>
巡 航</w>
我 军</w>
俄罗斯 队</w>
暑 期</w>
创 新型</w>
专 科</w>
Wor d</w>
援 用</w>
库 尔</w>
口 中</w>
动 脉
五 十年</w>
东北 亚</w>
站 不
安全 事件</w>
ma z
郊 外</w>
迷 恋</w>
超 链接</w>
神 学</w>
废 气</w>
走 低</w>
小 提琴</w>
博 尔顿</w>
前 言</w>
st one</w>
霍 奇
衷心 感谢</w>
7 6%</w>
飞 速
退 货</w>
华盛顿 州</w>
阵 雨</w>
场 外</w>
保 单</w>
理 发
施 密
批准 书</w>
突 出
浓 缩
压 倒</w>
抑 制剂</w>
iv e</w>
电 费</w>
军 委</w>
青 藏
恭 喜</w>
困 难
喊 道</w>
s s</w>
引 致</w>
状 态
沃 基</w>
气 旋</w>
现 货</w>
明 智
不 详</w>
纽约 联合国总部</w>
神 职人员</w>
动 画
保险 人</w>
一 一</w>
预 处理</w>
萨 利
不 胜
男 孩子</w>
小 家伙</w>
ro n</w>
飞 翔</w>
顾 问
芭蕾 舞</w>
射 出</w>
名人 堂</w>
哈萨 克斯坦共和国</w>
颇 为</w>
5 1.
小心 翼翼</w>
满 面</w>
溶 性</w>
不 仅如此</w>
试 用
腺 素</w>
多米尼 加</w>
多 国</w>
7 4%</w>
工 时</w>
s i</w>
Off ice
28 2</w>
环境 治理</w>
派 往</w>
多 亏</w>
污 泥</w>
构 筑</w>
卫生 局</w>
几 条</w>
4 10</w>
那 人</w>
萨兰 国</w>
纪 律
我 试</w>
安圭 拉</w>
地方 性</w>
切 削</w>
开 普敦</w>
m cc
SA P</w>
M or
自 民党</w>
而 后</w>
玷 污</w>
广大 客户</w>
佩 德罗</w>
五 金</w>
与会 代表</w>
s il
5 9%</w>
汽车 旅馆</w>
施政 报告</w>
叶利 钦</w>
9 7%</w>
第四十 三届</w>
看 护</w>
总 费用</w>
外 商</w>
备 注</w>
中 未</w>
要 件</w>
管理 中心</w>
按 住</w>
六 周</w>
书 上</w>
边 远地区</w>
剩 余时间</w>
三 通</w>
金融 监管</w>
诀 窍</w>
油 井</w>
水 土
本 合同</w>
天 文</w>
鲁 萨兰国</w>
莱达 鲁萨兰国</w>
波 哥大</w>
文 莱达鲁萨兰国</w>
展 商</w>
互 联</w>
投 影
孔 子</w>
匹 马</w>
19 44</w>
羞 耻</w>
夏 日</w>
台 式</w>
李 先生</w>
救 赎</w>
催 泪
旺 盛</w>
怀 里</w>
大 盘</w>
吵 架</w>
侵 占</w>
随 时
起 身</w>
病毒 感染</w>
擅 自</w>
伊 拉</w>
w e</w>
师 傅</w>
多 德</w>
c ast
L a
编 制
一 等</w>
一 堵</w>
6 500</w>
高 高
高 贵</w>
长 远
莱 维</w>
脚 跟</w>
木 板</w>
i al
6 8%</w>
爱 滋
es and
款 待</w>
水 上
装甲 车</w>
同 名</w>
反 省</w>
军 政府</w>
伊 万
基督 教徒</w>
一九九 七年</w>
血 管
政治 部</w>
摇 晃</w>
专业 技能</w>
k en
该 类</w>
纪 要</w>
执 着</w>
冠军 联赛</w>
宝 座</w>
好 极了</w>
se y</w>
飞速 发展</w>
致 残</w>
自 上</w>
离 心
求 助于</w>
体育 赛事</w>
斯 曼</w>
摩 斯</w>
戒 毒</w>
宽 阔</w>
娱乐 活动</w>
证明 文件</w>
内 陆
以下 几点</w>
李 明
一 年级</w>
冰 冰</w>
cl ar
工 匠</w>
n s</w>
3 600</w>
降 幅</w>
交 涉</w>
通过 培训</w>
营养 素</w>
相 近</w>
斯 卡
哪 种</w>
格 州</w>
教学 模式</w>
d vd</w>
水 井</w>
梅 拉</w>
喝 水</w>
监 理</w>
2 74</w>
食 堂</w>
衣 裙</w>
特 意</w>
奥林匹克 运动会</w>
俄克拉荷 马州</w>
ma h
液晶 电视</w>
g b</w>
随 地</w>
奥斯 卡
亚历 克</w>
急 切</w>
征 用</w>
长 相</w>
脸 部</w>
第二十 七届</w>
盛 会</w>
关税 壁垒</w>
逼 近</w>
结 实</w>
固 态</w>
计 画</w>
出 访</w>
金融 工具</w>
肿 胀</w>
施 泰
尸 检</w>
大 巴</w>
疲 弱</w>
档 次</w>
排 练</w>
素 养</w>
社会 变革</w>
处 女</w>
华 裔</w>
边 坡</w>
缪 尔</w>
游 轮</w>
最 难</w>
中国 香港</w>
p m</w>
储 藏</w>
尔 姆</w>
孤 儿
之 遥</w>
co ok
R I</w>
迭 戈</w>
落 于</w>
种 姓</w>
真 主</w>
垄 断
奥塞 梯</w>
厦 门
乌兹别 克斯坦共和国</w>
西 德</w>
尽 责</w>
逮捕 证</w>
语言 学</w>
药 片</w>
波 及</w>
好 了
陈 列</w>
阿 克
端 的</w>
游 荡</w>
奇 奇</w>
他 花</w>
30 2</w>
伤 害
说 完</w>
申 根</w>
沃尔 沃</w>
抵 押
倒 数</w>
开 往</w>
人民 解放军</w>
不 理</w>
齐 兹</w>
顶 层</w>
调 味
潜水 员</w>
涉 足</w>
拆 毁</w>
贝 蒂</w>
球 门</w>
万 台</w>
高 价</w>
棕 榈</w>
中 士</w>
石 家
D E
都 灵</w>
致 以</w>
联邦储备 委员会</w>
守 护</w>
如 表</w>
v est
19 20</w>
解放 阵线</w>
因 果</w>
优惠 政策</w>
专 为</w>
ant on
al d</w>
设计 者</w>
米 饭</w>
河 内</w>
宠 物
女 议员</w>
世界 卫生</w>
马 铃
清 偿</w>
块 钱</w>
精 疲力
新 郎</w>
命 题</w>
丽 塔</w>
ha w
轰 动</w>
轮 子</w>
创 建
流 泪</w>
片 剂</w>
余 人</w>
亲 节</w>
著 作
中 山</w>
高 雅</w>
赛 艇</w>
留 存</w>
区域 开发</w>
侵略 性</w>
十 岁</w>
木 制</w>
后 座</w>
萃 取</w>
脂肪 酸</w>
数据 仓库</w>
房 主</w>
堆 积</w>
有 多
伤 疤</w>
头 球</w>
可口 可乐</w>
st an
明尼苏 达</w>
小 行星</w>
同意 书</w>
伊 科</w>
露 营</w>
第三十 八届</w>
法 制
根 于</w>
昂 山</w>
冠 状
令 牌</w>
la m</w>
货 柜</w>
失 常</w>
入 世</w>
以 待</w>
l l</w>
C RC</w>
记 分
现实 情况</w>
惧 怕</w>
圣 者</w>
六 岁</w>
mon d</w>
预 想</w>
第十 一次</w>
汉 字</w>
斟 酌</w>
捐 给</w>
几 代人</w>
V is
获 知</w>
哈 姆</w>
三十 日</w>
议 事</w>
螺 丝</w>
睾 丸</w>
出 面</w>
精 良</w>
低 谷</w>
迟 交</w>
棒 棒</w>
买 不起</w>
输 电</w>
跆 拳
软 化</w>
信息 网络</w>
青 海</w>
梗 死</w>
校 友</w>
抢 险</w>
年 计划</w>
防 病毒</w>
这么 久</w>
税 务
私 家
明 示</w>
英 雄
极 管</w>
伊朗 政府</w>
选 战</w>
枪 伤</w>
卧 底</w>
三 重</w>
灯 具</w>
枪 声</w>
杂 草</w>
克 文</w>
f al
无 一
弘 扬</w>
到 场</w>
使用 暴力</w>
熄 灭</w>
投标 书</w>
牵 连</w>
楼 市</w>
接 吻</w>
忌 惮</w>
ur i</w>
流行 音乐</w>
最 易</w>
房 客</w>
七 八
5 500</w>
拦 住</w>
常务 委员会</w>
a ut
等 效</w>
无 缘</w>
下 议院</w>
阿尔 法</w>
赶 来</w>
自 在</w>
ra l</w>
克莱 斯勒</w>
f ed
财 年</w>
调 入</w>
商业 街</w>
生物 医学</w>
发 疯</w>
中国 足协</w>
不 规则</w>
特 加</w>
单 人</w>
le g
回忆 录</w>
品 位</w>
ot t</w>
办 好</w>
倒 霉</w>
之 子</w>
6 3
放 过</w>
M at
控股 公司</w>
所 含</w>
四 强</w>
几 句</w>
an i
热 处理</w>
严 酷</w>
枚 举</w>
brow n</w>
阿 斯顿</w>
考 量</w>
M al
艾 伯
瑞 特</w>
水 印</w>
受 邀</w>
别 说</w>
分 散
装 甲</w>
摄 取</w>
抗 辩</w>
投资 额</w>
供应 国</w>
b ob
C on
记忆 力</w>
客 气</w>
坚持 下去</w>
内 需</w>
第三 项</w>
原子 弹</w>
N A</w>
费 德勒</w>
该 值</w>
耕 种</w>
法拉 利</w>
汉 斯</w>
侵略 者</w>
腐 蚀性</w>
发 热</w>
下 沉</w>
赫 勒
收 听</w>
附 文</w>
皮 划艇</w>
小 巷</w>
国 庆</w>
穿 透</w>
常 务</w>
低 落</w>
oc k
轻 罪</w>
打 折</w>
绑 架
拉 链</w>
分裂 症</w>
7 6.
毛 派</w>
支 队</w>
可 危</w>
冷 水</w>
7 3%</w>
防 洪</w>
讲 故事</w>
很 难
占 有
公 子</w>
ol a</w>
国 安
产 前</w>
黑 猩猩</w>
国 事
国事 访问</w>
另 行
部 厅</w>
膀 胱</w>
数 天</w>
尼 基</w>
塔 塔</w>
喷 洒</w>
韦尔 什</w>
气 动</w>
孤儿 院</w>
劫持 人质</w>
莫 迪</w>
单 片机</w>
高 校
马尔维 纳斯
马尔维纳斯 群岛</w>
诺 亚</w>
家 族
吸取 教训</w>
化 身</w>
桌 面上</w>
or ge
鲍 尔</w>
荷兰 政府</w>
罚 球</w>
人 格
r us
反 导</w>
你 去</w>
近 两年</w>
奖 台</w>
象 棋</w>
要 死</w>
老 天</w>
制 作者</w>
冲 浪
重复 使用</w>
选 拔
第一 任</w>
梅 林</w>
决 议案</w>
停火 协议</w>
ge org
活 下去</w>
抛 光</w>
互 通</w>
迪 奇</w>
高 手</w>
酒 后</w>
稀 土</w>
栏 作家</w>
专 栏作家</w>
谢 里夫</w>
故 乡</w>
弊 端</w>
冰 球</w>
默 斯</w>
精 力
海 岛</w>
拖 拉
车 载</w>
必 备</w>
各 行
入 围</w>
伊 夫</w>
第十 三条</w>
海 口</w>
植 根于</w>
机械 设备</w>
数据 文件</w>
4. 7</w>
屯 门</w>
喝 咖啡</w>
过 失
该 文</w>
分 遣队</w>
亦 然</w>
雷 恩</w>
解 锁</w>
碱 性</w>
努力 争取</w>
出 演</w>
中 要</w>
a in</w>
血 流</w>
系统 管理员</w>
天 安
5 20</w>
领 跑者</w>
德 林</w>
固 执</w>
中亚 国家</w>
p u
V PN</w>
马铃 薯</w>
酰 胺</w>
转 机</w>
航天 飞机</w>
积分 榜</w>
不 懂</w>
电子 书</w>
坐 落于</w>
it al
色 情
舒 适
滨 海</w>
a il
岌 岌
岌岌 可危</w>
伊朗 人</w>
b ow
社会 党</w>
克 减</w>
迪 卡</w>
远 足</w>
衍生 品</w>
相互 支持</w>
新 星</w>
喇 叭</w>
7 8%</w>
领 水</w>
周转 基金</w>
领 奖台</w>
忧 郁</w>
多 起</w>
制 冷
O K</w>
下 向</w>
音 频
花 岗
波 形</w>
水 壶</w>
标 示</w>
无 期徒刑</w>
脱 掉</w>
正 统</w>
加 西亚</w>
惊 艳</w>
复 印</w>
笑 了
or a</w>
l gb
软 禁</w>
平 地</w>
卫生 条件</w>
o x</w>
螺 纹</w>
废 水处理</w>
南安 普顿</w>
st ar
D H
30 6</w>
贝 里</w>
水 生</w>
拉 德福</w>
心 病</w>
爱滋 病</w>
5. 6</w>
澳 新</w>
时 任</w>
情 境</w>
起 居室</w>
计 时器</w>
德 堡</w>
异 化</w>
尤 文
一 例</w>
0. 4%</w>
双 层</w>
ag h
Off ice</w>
检 修</w>
二零零 一年</w>
驾 驭</w>
长期 投资</w>
脑 震荡</w>
对 口</w>
坚 守</w>
内部 事务</w>
大 炮</w>
t i</w>
集 市</w>
港 人</w>
丝绸 之路</w>
亨 德森</w>
乐 购</w>
P I</w>
电源 线</w>
政 制</w>
A W
另 类</w>
入 室</w>
电视 广告</w>
入 主</w>
erv er</w>
a id
辱 骂</w>
百 万英镑</w>
偏 爱</w>
风 俗</w>
让你 在</w>
而 作</w>
半 左右</w>
分 权</w>
Add .2</w>
腐败 问题</w>
参 观者</w>
m b
5 40</w>
水 电站</w>
思 念</w>
光 标</w>
k o</w>
诉 状</w>
出 事</w>
等 离子
大洋 洲</w>
减 刑</w>
转让 技术</w>
热 身</w>
大 小
图 中</w>
预算 内</w>
读 数</w>
桂 冠</w>
政治 学</w>
密 尔
单 项</w>
店 员</w>
第二 句</w>
东 盟
这 首</w>
诺贝尔 和平奖</w>
职 场</w>
激 励
时 为</w>
巨大 变化</w>
ste in</w>
壮 举</w>
事 故
通 性</w>
等离子 体</w>
方 药</w>
圣 节</w>
土地 权</w>
前 排</w>
未 付</w>
辨 别</w>
东 莞</w>
报 废</w>
德 克萨斯</w>
应 适当</w>
不知 所
错 综
错综 复杂</w>
紫 砂</w>
塔 尼</w>
发展 势头</w>
直 到
直到 现在</w>
热 刺</w>
刚 性</w>
光 环</w>
高 低</w>
争夺 战</w>
长 处</w>
远 远
杜 罗</w>
律 法</w>
jo sh
随 其后</w>
紧 随其后</w>
增 殖</w>
优 越
f c</w>
悚 然</w>
i z</w>
迟 于</w>
监 委</w>
比 基尼</w>
残 留
分 期</w>
肆 无
罗 德
机密 信息</w>
干 得</w>
处 所</w>
双 人床</w>
jos eph
邻 居
一 具</w>
欧洲 法院</w>
信息 网</w>
餐 具</w>
西门 子</w>
如 能</w>
临 界
钻 机</w>
人 去</w>
it ut
a x
知 情
官方 语言</w>
商 标
利 雅
A h
画 作</w>
小 说家</w>
i w
2 71</w>
索 要</w>
日 增</w>
彼得 森</w>
刺 痛</w>
qu e</w>
纳 达尔</w>
损 毁</w>
能 及</w>
肆无 忌惮</w>
各 司</w>
8 8%</w>
辛勤 工作</w>
转 售</w>
董 建华</w>
我 去</w>
土 机</w>
内 所</w>
保 镖</w>
蒂 娜</w>
栏 杆</w>
外 科
不 均</w>
波 尔
带 我去</w>
卡 住</w>
vi ii</w>
部 级</w>
热 点
淹 死</w>
扭 矩</w>
婴 幼儿</w>
拖 累</w>
归 结</w>
纸 板</w>
稳 步
敬 业</w>
康涅狄 格州</w>
童 话</w>
握 住</w>
可 扩展性</w>
l en
顺 畅</w>
5 60</w>
遇 害</w>
节 食</w>
短 短
巅 峰</w>
小 小</w>
万 圣节</w>
讲 授</w>
萨 拉姆</w>
苏 维埃</w>
急 诊
基 准
午 餐
中 学
金 砖</w>
脑 膜炎</w>
罗 兰</w>
初 级
阻 断</w>
教学 改革</w>
毛 骨
埃利 奥特</w>
过 身</w>
全 权
n er
恋 童</w>
一 身</w>
记 名</w>
灌 木</w>
母 乳</w>
林 奇</w>
新 奇</w>
ern and
艾 尔</w>
蒙 哥
罗 河</w>
网 球场</w>
合 力</w>
印度 教</w>
万 户</w>
喷 气</w>
e j
e B
玉 米
本地 人</w>
主 力</w>
l ing</w>
人民 共和
co p.
达 沃斯</w>
缺 血</w>
第四 轮</w>
睡 衣</w>
省 略</w>
ir i</w>
播 种</w>
吉 尼亚</w>
下 榻</w>
马 赫</w>
陆 克文</w>
直 航</w>
拉 斐
劝 阻</w>
举 报
盖 特</w>
满 载</w>
et a</w>
8 7%</w>
3 15</w>
官 司</w>
发展 潜力</w>
Ab d
莱 昂
毛骨 悚然</w>
卵 巢</w>
罗 拉</w>
石 墨</w>
波 段</w>
奥 德</w>
经贸 关系</w>
素 食</w>
卡 丁
精神 分裂症</w>
大 区</w>
马 斯
花 花
巴 博</w>
工作 日内</w>
存储 设备</w>
会 想</w>
7. 4</w>
第三十 九届</w>
狱 警</w>
中央政治 局</w>
好 战</w>
南极 洲</w>
五 百</w>
bri d
扩 大
手 写</w>
y an
曼 努埃尔</w>
总 而言之</w>
两 端</w>
4 70</w>
罪 案</w>
源 性</w>
油 画</w>
壮 丽</w>
国有 资产</w>
三 是</w>
体 重
阿 纳</w>
7 1%</w>
西 方人</w>
新 房</w>
拖拉 机</w>
非常 低</w>
经验 交流</w>
洗 浴</w>
一 国
连 衣裙</w>
科 尔多
3 25</w>
民 宿</w>
小 农</w>
击 退</w>
信 守</w>
一 战</w>
高 估</w>
音乐 节</w>
跆拳 道</w>
第四 十二届</w>
息 息
射 程</w>
协助 执行</w>
几 张</w>
C B
购 房</w>
洗 涤</w>
参 政</w>
信 条</w>
第五 节</w>
斯 大林</w>
开放 性</w>
华 莱士</w>
观 设计</w>
绿 洲</w>
胜 出</w>
着 装</w>
疑 惑</w>
搭 载</w>
强 队</w>
努 尔</w>
一 条
u li
格 利</w>
手 柄</w>
网络 化</w>
亲 家庭</w>
精 湛</w>
生产 厂家</w>
孕 产</w>
专 案</w>
荷 载</w>
攻 读</w>
全 科</w>
人民 代表大会</w>
主 队</w>
学 分</w>
克劳 斯</w>
香 草</w>
总统 府</w>
s m
黄 蜂</w>
骨 架</w>
苏 里</w>
美国 股市</w>
缉 毒</w>
所 欠</w>
驱 动力</w>
造 价</w>
转 过身</w>
填 满</w>
货币 联盟</w>
能 干</w>
琳 达</w>
河 道</w>
折 衷</w>
光 子</w>
酵 母</w>
蝙 蝠
和 表</w>
环 卫</w>
时 赛</w>
多 万美元</w>
关联 性</w>
T S</w>
选拔 赛</w>
赎 回</w>
西 红
单 车</w>
航空 器</w>
取 暖</w>
从业 者</w>
b ir
立 体
洞 察</w>
四 肢</w>
兹 曼</w>
l im
蒙哥 马利</w>
彼 此
广 度</w>
饮食 习惯</w>
改 成</w>
奥 多</w>
近 地</w>
纯 度</w>
玛 莎</w>
李明 博</w>
平 安
魔 力</w>
每 季度</w>
展 品</w>
偏 僻</w>
供 货
贝 斯</w>
西 娅</w>
本 金</w>
那 辆</w>
表 征</w>
意见 分歧</w>
以上 学历</w>
L A</w>
科技 成果</w>
生命 线</w>
卡 姆</w>
休 克</w>
胡 同</w>
荷兰 人</w>
关 头</w>
赫 斯特</w>
莫 拉</w>
防 汛</w>
养老 保险</w>
乌 尔</w>
B en
之 日</w>
安全 法</w>
圣 安东尼奥</w>
一 手</w>
A D</w>
转 折</w>
结 转</w>
征 集</w>
听 器</w>
愈 来
更 名</w>
代 孕</w>
万 能</w>
lu s</w>
行业 标准</w>
处 方药</w>
重大 意义</w>
伴 有</w>
编 造</w>
年 时</w>
布 隆</w>
AS P</w>
病 院</w>
棺 材</w>
末 期</w>
户 口</w>
请 勿</w>
西红 柿</w>
塞 维
城 墙</w>
现 在
特 异性</w>
多 条</w>
各 业</w>
glas g
g lo
坎 贝尔</w>
同 龄
总 杯</w>
埃 利</w>
同龄 人</w>
两 族</w>
赫 德</w>
帕 德</w>
内 心
美国 司法部</w>
看 病</w>
密尔 沃基</w>
佩 奇</w>
5 4.
29 8</w>
门 上</w>
救 命</w>
席 尔瓦</w>
气 泡</w>
摘 录</w>
拉 姆
土 木
空 格</w>
未经 许可</w>
叫 醒</w>
偏 高</w>
零 点</w>
校 方</w>
梅 尔
揭 幕
学术 研究</w>
名 者</w>
力 所
5 8.
足 总杯</w>
考 察
更有 意义</w>
凋 亡</w>
5 6.
链 路</w>
这 枚</w>
急 救
首席 法官</w>
住房 问题</w>
著 名
合 剂</w>
不 觉</w>
管 线</w>
梯 子</w>
库 克
卡 利亚</w>
五 场</w>
着 急</w>
全 明星</w>
S im
M y
支持 系统</w>
医 务
钟 表</w>
息息 相关</w>
几 份</w>
卡 比拉</w>
兵 营</w>
铁 轨</w>
汤 匙</w>
前 例</w>
别 于</w>
出 新</w>
停 放</w>
现在 起</w>
收 敛</w>
从未 见过</w>
从 现在起</w>
赞助 者</w>
橄 榄</w>
惠 特
微 量</w>
销 员</w>
第五 号</w>
卸 任</w>
努力 学习</w>
万 物</w>
n ig
马 舍尔</w>
递 解</w>
该 县</w>
挪威 政府</w>
伯 利
望 而
应 邀
专 用
大 夫</w>
土耳其 共和国</w>
鹰 队</w>
缺 省</w>
年 老</w>
家庭 事务</w>
马 哈</w>
萨 雷斯</w>
凯 科</w>
P LC</w>
工业 园</w>
复 查</w>
充 裕</w>
p er</w>
贸易 条件</w>
百 名</w>
维 利</w>
灌 木
极 小</w>
人类 学</w>
h t
心 率</w>
工业 园区</w>
制 衡</w>
利息 收入</w>
SO A</w>
O C</w>
黄金 周</w>
银 河
第三 年</w>
定 点</w>
地 道</w>
ad o</w>
触 动</w>
脸 颊</w>
截 获</w>
彼此 之间</w>
出 走</w>
赛 人</w>
教 师
大 跌</w>
单 亲家庭</w>
霸 权</w>
邪 教</w>
特 克斯</w>
成本 低</w>
多 来</w>
利益 集团</w>
9 8.
鲍 威尔</w>
重 中之
重中之 重</w>
贫 民</w>
维 夫</w>
每 张</w>
9 7.
联 安</w>
接 过</w>
带 头
外交 事务</w>
d j
艰 辛</w>
联 席</w>
成 品
适 得
适得 其反</w>
德 鲁</w>
5 3.
氧化 剂</w>
库 区</w>
co p</w>
站不 住脚</w>
珍 妮特</w>
嘲 弄</w>
古 城</w>
克罗 斯</w>
辖 下</w>
成 绩
密 码
娜 塔
五 国</w>
格雷 戈</w>
柴油 机</w>
基 点</w>
mart in
il a</w>
G S</w>
9 63</w>
3 14</w>
29 4</w>
财政 困难</w>
计 费</w>
大 不相同</w>
坐 牢</w>
初 衷</w>
全 过程</w>
一 如</w>
瑞 斯</w>
有 别于</w>
文 人</w>
低 音</w>
专 属
每 份</w>
卡 萨
w est
钉 子</w>
年 青
初 学者</w>
人大 常委会</w>
要 约</w>
弄 清</w>
建 材</w>
单 调</w>
辨 识</w>
有 事</w>
布 丁</w>
尊 贵</w>
电 荷</w>
理查 兹</w>
极 易</w>
小组 赛</w>
宁 可</w>
反 射
驾 照</w>
问 过</w>
难 看</w>
迷 宫</w>
物 力</w>
损 于</w>
B I
迪斯 尼
载 明</w>
缺 损</w>
精 算
外 衣</w>
公 积金</w>
9 50</w>
青 海
谢 意</w>
英 俊</w>
水 性</w>
收藏 品</w>
援 手</w>
佩 服</w>
鹦 鹉</w>
硬盘 驱动器</w>
港 岛</w>
太 低</w>
阿尔 瓦
蝙蝠 侠</w>
驶 入</w>
福 布斯</w>
有所 作为</w>
新 城</w>
售 货
借 以</w>
互 操作性</w>
改 名</w>
库克 群岛</w>
山 庄</w>
合唱 团</w>
3 18</w>
那 本书</w>
击 剑</w>
遥 控器</w>
截 图</w>
年青 人</w>
利 弊</w>
所 受</w>
5 7.
自动 更新</w>
果 然</w>
整 修</w>
聚 氨
数 控
写 字
居留 证</w>
化 为</w>
关键 所在</w>
OE M</w>
G C</w>
闪 闪
逃 税</w>
简 明</w>
投 下</w>
受 不了</w>
d ev
微 博</w>
净 收入</w>
一 大批</w>
高级 法院</w>
走 来</w>
名 气</w>
d s</w>
各行 各业</w>
墨西哥 人</w>
专属 经济区</w>
计 价</w>
班 子</w>
亚洲 地区</w>
不 经
断 电</w>
就 餐</w>
驱 回</w>
案文 见</w>
斯 宾
战 区</w>
ac. 109</w>
监管 者</w>
接 洽</w>
回 路</w>
医 用</w>
休 闲
乔 伊斯</w>
um b
nation al</w>
h at
组 办</w>
第一 组</w>
不及 待</w>
不 齐</w>
三 亚</w>
观 望</w>
粗 略</w>
盛 宴</w>
塔斯 马
一 票</w>
奎 尔</w>
鸟 巢</w>
转 诊</w>
头 寸</w>
多 万元</w>
l .1</w>
自助 餐</w>
住 客</w>
29 7</w>
构 造
小 队</w>
定 论</w>
g ri
法 伦</w>
恢复 过来</w>
很难 说</w>
开展 调查</w>
名 次</w>
方 块</w>
庸 置疑</w>
二 极管</w>
革命 武装力量</w>
长 江
象征 意义</w>
哥伦比亚 革命武装力量</w>
养老 院</w>
藏 品</w>
代理 服务器</w>
sa t</w>
道 义
皱 纹</w>
去 年底</w>
贝 卢
第三 天</w>
定 下</w>
不 明智</w>
ha z
c ru
鲜 艳</w>
责 怪</w>
p os
新 药</w>
定 理</w>
唯 有</w>
再 循环</w>
c re
A I
连 通</w>
维 吉尼亚</w>
施密 特</w>
公 鸡</w>
小 康
人 死于</w>
一 刻
辅导 员</w>
由 此
跑 动</w>
奖 章</w>
埃 克森</w>
3 12</w>
首 选项</w>
沿 途</w>
st er
迫 不及待</w>
行政 命令</w>
上 部</w>
7 7%</w>
美洲 开发银行</w>
欠 发达</w>
明 媚</w>
斯坦福 大学</w>
多 出</w>
剪 贴
编 程
纯 净</w>
马 格里
随时 随地</w>
请 求
摆 动</w>
就 职
多 拉</w>
归根 结
卡 车
出 头</w>
下 一场</w>
黄 河</w>
赐 给</w>
航 母</w>
比 勒
德 温</w>
写 给</w>
莫 特</w>
卡车 司机</w>
鼓 动</w>
赔 率</w>
屋 子里</w>
合同 规定</w>
反应 器</w>
国际 贸易中心</w>
五 年计划</w>
inter national
领 海</w>
继 而</w>
篮 球
W i
小 城镇</w>
圣 何塞</w>
呈 上升</w>
加 尼</w>
P ar
通 力
托 雷斯</w>
自然 科学</w>
脱 口
维 茨</w>
静静 地</w>
标 定</w>
塔 伊</w>
参赛 者</w>
列 示</w>
D on
黑 莓</w>
绳 索</w>
硫 丹</w>
忏 悔</w>
获得 性</w>
消 退</w>
土木 工程</w>
加 之</w>
逃 亡</w>
纬 度</w>
第三十 七届</w>
现 身</w>
子 军</w>
殊 荣</w>
收 看</w>
图 画</w>
发 泄</w>
该 届</w>
色 谱</w>
腔 镜</w>
29 3</w>
得 来</w>
平 日</w>
对 决</w>
魔 术
旅游 胜地</w>
料 理</w>
受 挫</w>
警 队</w>
网络 服务</w>
伤亡 人数</w>
一 角</w>
比 萨</w>
决 战</w>
获得 最佳</w>
塞 进</w>
腺 炎</w>
气象 台</w>
尼 罗河</w>
问 世</w>
肇 事</w>
拉 波
愚 弄</w>
保 有</w>
u ck
k in</w>
消耗 量</w>
汇 票</w>
伯 恩
利 基</w>
遣 散</w>
性 能
小 儿</w>
力所 能及</w>
t es
h y
资格 赛</w>
米 德尔</w>
签订 合同</w>
毒 药</w>
性 命</w>
奥 队</w>
公民 权</w>
米 尔斯</w>
图 用</w>
课 税</w>
自 一人</w>
珠 宝
日 刊</w>
范 本</w>
独 自一人</w>
泰 坦</w>
推 介</w>
就 医</w>
30 7</w>
好了 吗</w>
埃 迪</w>
共 事</w>
饿 死</w>
不知所 措</w>
30 8</w>
退 学</w>
着 色</w>
监督 制度</w>
应 答</w>
陀 利亚</w>
阿尔卑 斯山</w>
精算 师</w>
粮食 供应</w>
比勒 陀利亚</w>
克罗 伊</w>
汤 姆森</w>
仅 限</w>
血 栓</w>
知 悉</w>
民 法典</w>
地 使</w>
劳 斯</w>
刚果 共和国</w>
非 军事化</w>
极 化</w>
服务 处</w>
最高 点</w>
时 刻
中 校</w>
酿 造</w>
君 主
内 分泌</w>
林 顿</w>
取 证</w>
k as
走 得</w>
试验 性</w>
打 过</w>
带 你去</w>
冈 萨雷斯</w>
人 体
芳 香</w>
会 令</w>
音 符</w>
插 手</w>
宏观 调控</w>
再 造</w>
F A
明 斯</w>
并不 知道</w>
未婚 夫</w>
录 用</w>
平 淡</w>
9 3%</w>
香港 政府</w>
ma x
h om
17 18</w>
肯 尼亚
法 拉</w>
昆 士
布里 埃尔</w>
巴 斯
加 布里埃尔</w>
阿根廷 政府</w>
试 图用</w>
磨 难</w>
士 队</w>
发 抖</w>
ov ic</w>
散 文</w>
利雅 得</w>
28 4</w>
过失 杀人</w>
司 答</w>
几 句话</w>
科 尔曼</w>
截 肢</w>
惯 性</w>
引 来</w>
师 生</w>
内 存
v er</w>
皇 宫</w>
电 解
敲 响</w>
塞 德</w>
城市 论坛</w>
向 来</w>
劳资 关系</w>
关 乎</w>
核心 内容</w>
拍 拍</w>
成 就
平均 工资</w>
ing er</w>
b ak
赛 马
衡 量
梅 洛</w>
木 质</w>
晴 朗</w>
得 当</w>
购买 者</w>
维多利亚 州</w>
牵 涉
外汇 市场</w>
过 关</w>
有 否</w>
展 览
SQ LS
维 系</w>
盘 问</w>
旺 季</w>
南 澳大利亚</w>
再也 不会</w>
书面 通知</w>
专 营
t re
t ak
航 运
滋 味</w>
地 震
全 自动</w>
侄 女</w>
伯利 恒</w>
1. 0</w>
赶 往</w>
详 见</w>
数字 签名</w>
次 访问</w>
抗 菌</w>
走 高</w>
拉 莫斯</w>
抗 原</w>
内 裤</w>
顺利 完成</w>
衡量 标准</w>
绝 缘
平 和</w>
奥 尔</w>
p or
iP ad</w>
驶 向</w>
海 德</w>
大 喊
大喊 大叫</w>
同 步
厚 的</w>
厚 厚的</w>
供货 商</w>
花 瓶</w>
搏 斗</w>
外科 手术</w>
历 年</w>
节 日
晚 安</w>
无 意识</w>
共 和</w>
超 速</w>
逐 出</w>
着 想</w>
撇 子</w>
乘 船</w>
两 件事</w>
n ot
Lin ux</w>
损 失
在 上文</w>
但 应</w>
亚 裔</w>
G e
8 1%</w>
编 撰</w>
回 馈</w>
合乎 逻辑</w>
内 克</w>
求 是</w>
数百 个</w>
统计 调查</w>
宽 大</w>
客 栈</w>
原 地</w>
昆士 兰州</w>
协商 会</w>
ch e
考古 学家</w>
十 国集团</w>
玛 雅</w>
狮 子
博 科
乌 龟</w>
该 车</w>
消 亡</w>
机 油</w>
抓 捕</w>
尚 早</w>
劳工 处</w>
美国 国防部</w>
留 守</w>
颇 具</w>
效 率高</w>
广告 牌</w>
巴伐 利亚</w>
屋 宇</w>
实 基础</w>
坚 实基础</w>
马 诺
迷 信</w>
麻 木</w>
风 情</w>
聚氨 酯</w>
大 猩猩</w>
变 数</w>
经 合</w>
泊 车</w>
打 篮球</w>
手 语</w>
思想 家</w>
叠 加</w>
减 产</w>
举例 说明</w>
规 性</w>
综合 体</w>
Dav id
纳 迪</w>
本 周一</w>
任 地</w>
m ir
g roup</w>
水 族
三 菱</w>
庄 稼</w>
大 类</w>
LA N</w>
戈 里</w>
式 各样</w>
干 掉</w>
各 式各样</w>
印第 安</w>
B P</w>
代 号</w>
万 亿</w>
yp e</w>
麻 省
试 剂</w>
特 写</w>
消 遣</w>
业务 部门</w>
航空 运输</w>
紧急 会议</w>
童 子军</w>
在 建</w>
制 宪</w>
ton y
h ay
普 罗</w>
提款 权</w>
挥 霍</w>
创造 者</w>
洗 发
ju st
CP .
虫 病</w>
粘 度</w>
科 科长</w>
生 子</w>
引 起
千 禧
东北 地区</w>
不 合</w>
一 拳</w>
步 兵</w>
杂 质</w>
张 家
代 际</w>
30 9</w>
积 聚</w>
杜 夫</w>
敲 门</w>
打 乱</w>
扎 伊</w>
基础 知识</w>
南 非政府</w>
200 000</w>
0. 6%</w>
文件 类型</w>
29 1</w>
霍 根</w>
荒 野</w>
结 石</w>
祈 求</w>
描 述
失 眠</w>
参加 国</w>
关 注
下 设</w>
预 制</w>
这 辈子</w>
甜 心</w>
本 厂</w>
印 有</w>
一 环</w>
牛 队</w>
五 点</w>
NF L</w>
耐 克</w>
阿 瑟</w>
近 十年</w>
多 台</w>
上 班
皮 细胞</w>
斯蒂 安</w>
康 威</w>
多 点</w>
国 脚</w>
moham ed
耗 氧</w>
A li
3 300</w>
舞 蹈
喇 嘛</w>
h or
姑 姑</w>
黑 市</w>
每天 晚上</w>
妻 制</w>
多 谢</w>
内 阁
选 美</w>
逃 生</w>
掏 出</w>
s en
精 确度</w>
牵涉 到</w>
提 要</w>
成 真</w>
ni co
ic cd</w>
符合 国家</w>
水 龙头</w>
气 囊</w>
搞 好</w>
建 联</w>
中日 关系</w>
风 速</w>
普 曼</w>
向 东</w>
17 37</w>
格里 芬</w>
兄弟 会</w>
M D
车 者</w>
经济 运行</w>
派 克</w>
驾驶 执照</w>
编 剧</w>
六 点</w>
元 朗</w>
中华 民国</w>
跨 度</w>
每 一件</w>
日程 表</w>
p en
5 2.
埃 斯特</w>
三 星级</w>
癌 细胞</w>
掉 下来</w>
中 转</w>
萨斯 城</w>
堪 萨斯城</w>
入 账</w>
五 人</w>
遥 遥
脚 踏
法 老</w>
19 41</w>
马 西</w>
菌 株</w>
期 相比</w>
同 期相比</w>
偏 执</w>
肥 胖
维 吾
相 册</w>
抽 奖</w>
占 地面积</w>
九 名</w>
一个 半</w>
校 舍</w>
er e</w>
ap p</w>
福利 制度</w>
极 地</w>
加泰罗 尼亚</w>
it a</w>
随身 携带</w>
金刚 石</w>
脱 衣
湖 人队</w>
真 话</w>
燃 煤</w>
a g</w>
9 2%</w>
越 是</w>
受 精</w>
功 劳</w>
不言 而
阻 抗</w>
此 行</w>
无 穷
d un
抗 性</w>
段 性</w>
数 百</w>
扫 射</w>
sim on
间 谍
管理 机制</w>
占领 区</w>
亿 吨</w>
霍 夫</w>
雪 茄</w>
讲 坛</w>
政 界</w>
ber ni
托 尔</w>
老 客户</w>
机 身</w>
更 为
文艺 复兴</w>
尽 可
安全 套</w>
黄 昏</w>
花 旗</w>
减 量</w>
X 光</w>
美 英</w>
空 虚</w>
cr p.
百 科</w>
战 者</w>
惠 国</w>
农 历</w>
解 码</w>
紧 身
接 球</w>
师 资</w>
太 长</w>
两 轮</w>
j ay
b ab
核 反应堆</w>
必 拓</w>
l at
P er
实际 意义</w>
两 艘</w>
能源 消耗</w>
守 法</w>
组 策略</w>
拉斐 尔</w>
战略 武器</w>
体 质</w>
s ay
行政 法</w>
蠕 虫</w>
um p
无 前例</w>
史 无前例</w>
短短 的</w>
毛 坯</w>
建立 健全</w>
商业 伙伴</w>
卡丁 车</w>
苏丹 共和国</w>
效 忠</w>
八 十年代</w>
之 力</w>
卡 人</w>
儿童 医院</w>
供 暖</w>
社会 制度</w>
可 视</w>
客 流</w>
修订 案</w>
3 33</w>
开 战</w>
并 行
合 规性</w>
超 额</w>
误 区</w>
脚 踢</w>
来 之
我 妈</w>
大 局</w>
司 在</w>
另一 台</w>
其 下</w>
亿 多</w>
L u
斯特 恩</w>
克里斯蒂 娜</w>
钢 结构</w>
逆 差</w>
纪 委</w>
炸 伤</w>
八 名</w>
伺 服
耽 搁</w>
缩 水</w>
PV .
紧 紧
多 式</w>
不 相称</w>
不 决</w>
摇滚 乐</w>
接 力</w>
年 报</w>
单 亲</w>
5 00
铁 矿</w>
热 浪</w>
此 地</w>
既 定
之 无愧</w>
沉 淀</w>
惨 败</w>
T ube</w>
8. 5</w>
滥 杀</w>
披 头
优 缺点</w>
一 再
身 子</w>
数据 结构</w>
M ah
马 龙</w>
经 商</w>
每 分钟</w>
文化 产业</w>
后 勤
st on</w>
f red
巴 罗</w>
友 情</w>
二 百
3 75</w>
斯洛伐 克共和国</w>
及 第</w>
停 靠</w>
二 手</w>
公平 性</w>
G P
4. 5%</w>
14 000</w>
1. 4%</w>
1 1000</w>
确 有</w>
小 腿</w>
可 再生</w>
编 队</w>
特别 感谢</w>
本报 记者</w>
微 额</w>
寂 静</w>
中央 军委</w>
严重 不足</w>
e in
c b
潜 伏</w>
会 来</w>
计算机 技术</w>
直 达</w>
沃尔 夫</w>
体 型</w>
量 刑</w>
给 与</w>
福 尔
知识 产权
武汉 市</w>
国家 银行</w>
不言而 喻</w>
8 4%</w>
致 富</w>
极 佳</w>
日 光</w>
另行 通知</w>
人 时</w>
g w
阿尔 伯特</w>
药 剂</w>
尽可 能
补充 剂</w>
烟 囱</w>
决 不会</w>
三分 球</w>
ri s</w>
il la
递 增</w>
组 别</w>
奉 献
同 侪</w>
aw a</w>
韩 国政府</w>
特拉 维夫</w>
石 膏</w>
相 识</w>
布拉 特</w>
受 访</w>
不 法</w>
播 客</w>
撞 车</w>
中 等
菜单 中
菜单中 选择</w>
国 奥队</w>
前 去</w>
瑞典 政府</w>
滑 冰</w>
南 奥塞梯</w>
刘 翔</w>
列 斯</w>
专 线</w>
圣 战者</w>
一 英里</w>
国 情
合 唱</w>
尔 格</w>
o x
阿尔巴 尼亚
路易斯安 那州</w>
籍 法</w>
瑕 疵</w>
班 人</w>
汗 水</w>
此 值</w>
拉 诺</w>
划 船</w>
阿根廷 共和国</w>
精神 病院</w>
精心 设计</w>
泰 国政府</w>
桑 迪</w>
不 入</w>
c p</w>
渡 过</w>
干 练</w>
聊 聊</w>
很 远</w>
国 籍法</w>
万 平方米</w>
长 足
那 晚</w>
心 智</w>
咬 伤</w>
作 贡献</w>
为时 尚早</w>
紧密 联系</w>
所 设</w>
O n
紧迫 感</w>
六 十</w>
个 星期</w>
如 本</w>
储 层</w>
鲑 鱼</w>
阶 段性</w>
You Tube</w>
音 公司</w>
波 音公司</w>
i co
逃 逸</w>
英 属
片 面</w>
民 俗</w>
归 化</w>
之 举</w>
ol f
9 7
这 届</w>
斯 加州</w>
年 仅</w>
下 拉
解放 组织</w>
全体 成员</w>
it t</w>
B O
配 电</w>
英属 维尔京群岛</w>
点 子</w>
明 文
哈 希</w>
两 市</w>
ri s
k n
筹 办</w>
每 件</w>
怀 抱</w>
召 集
is t</w>
M E
非 军事
非军事 区</w>
拉 尔夫</w>
抓 住
香 格里
贝 基</w>
管 教</w>
人事 管理</w>
麦卡 锡</w>
气 压</w>
德里 安</w>
围 棋</w>
竞争 能力</w>
政 务
展 厅</w>
威 克</w>
吉 特</w>
卡 尔顿</w>
一分 钱</w>
非 人</w>
边界 地区</w>
花花 公子</w>
第二 代</w>
沉 闷</w>
接 通</w>
大师 赛</w>
j i</w>
ig n
奥斯卡 奖</w>
ak a</w>
高等 院校</w>
古 希腊</w>
下 星期</w>
血 迹</w>
水 力</w>
A F
6 9%</w>
黑 名单</w>
市 级</w>
谱 法</w>
调 情</w>
等 离子</w>
回 声</w>
请 假</w>
拉波 娃</w>
批 处理</w>
节 拍</w>
生 死</w>
怀 有</w>
婚姻 状况</w>
at h</w>
骑 着</w>
王 牌</w>
放 手</w>
免 责</w>
C ++</w>
6 60</w>
渺 茫</w>
妥善 处理</w>
和 准</w>
刻 意</w>
节 水</w>
绝 非</w>
最 棒</w>
戈 兰
漂 流</w>
日 来</w>
方 案
散 射</w>
性 状</w>
乌 鲁
水 泥
杀 掉</w>
两 层</w>
k enn
该 书</w>
康 沃尔</w>
执 勤</w>
玩 法</w>
强 硬
四 是</w>
刚 度</w>
会 因</w>
逗 号</w>
押 金</w>
布 法罗</w>
实 事
实事 求是</w>
瑞 秋</w>
猥 亵</w>
殿 下</w>
格 洛
打 字</w>
重要 途径</w>
咒 语</w>
入 院</w>
以 新</w>
七 项</w>
一 想</w>
欧安 会</w>
无法 访问</w>
总 价值</w>
安全 可靠</w>
卫星 通信</w>
九 岁</w>
st a</w>
j oh
赛 中</w>
总 括</w>
商业 利益</w>
后 部</w>
d ow
非 关税壁垒</w>
莱 姆</w>
孕 育</w>
创 作者</w>
钓 鱼
莫 妮
楼 房</w>
改善 生活</w>
增 拨</w>
启 程</w>
区 法院</w>
副 局长</w>
冠状 动脉</w>
入 籍</w>
6 3.
陈 代谢</w>
精力 充沛</w>
新 陈代谢</w>
原 产</w>
剔 除</w>
苯 酚</w>
毒 贩</w>
居留 权</w>
利 夫</w>
l ind
重 生</w>
洛 根</w>
沉 船</w>
事 件
软 骨</w>
花岗 岩</w>
尽 其
增 援</w>
召集 人</w>
争 议
无 礼</w>
去 向</w>
几 届</w>
ma d</w>
良 机</w>
第三 代</w>
时 尚
卫 冕</w>
未 指定</w>
切 斯特</w>
沙 姆
踪 迹</w>
跳 板</w>
耽 误</w>
条 形
i f</w>
方案 设计</w>
负 于</w>
莫妮 卡</w>
拟 将</w>
想 得到</w>
品 格</w>
鬼 魂</w>
无 形资产</w>
数据 库
成品 油</w>
后 备
化 器</w>
切 成</w>
辛 顿</w>
理 财
扰 动</w>
加 强
兰 经</w>
令人 振奋</w>
二零零 二年</w>
s id
理论 依据</w>
民族 解放</w>
一 秒</w>
被 关</w>
来之 不易</w>
功能 强大</w>
理 疗</w>
在 必
偏 袒</w>
加 班
好 笑</w>
咖啡 店</w>
透 析</w>
拆 分</w>
em y
S har
C ol
9 8
适应 能力</w>
说得 对</w>
而 论</w>
穆 沙
专 案
期 末</w>
i as
阿 马</w>
君 子</w>
企业 主</w>
一九九 八年</w>
g on
金融 城</w>
特拉 福德</w>
增 派</w>
r el
新 机制</w>
夏令 营</w>
初 创</w>
耀 眼</w>
生态 学</w>
巴 哈</w>
3 23</w>
镇 静</w>
这 栋</w>
杜 克</w>
b ol
资源 配置</w>
若 有</w>
源 地</w>
已 晚</w>
地 块</w>
十 五日</w>
兰 开
朝 圣者</w>
归根结 底</w>
序列 化</w>
泰 德</w>
气 来</w>
底 盘</w>
ag a</w>
门 托</w>
早 饭</w>
变 体</w>
卡罗 琳</w>
助 学金</w>
一个 多月</w>
药 剂
局 部
日 式</w>
et s</w>
居住 区</w>
外 加</w>
复 会</w>
5 10</w>
半 月</w>
波 利</w>
序 幕</w>
加班 费</w>
主 审</w>
辖 市</w>
痛 心</w>
拒 之
二零零 零年</w>
酸 钠</w>
电路 板</w>
巴 恩斯</w>
小 贩</w>
保 温</w>
d am
青 岛
商 议</w>
割 礼</w>
顺 着</w>
信号 处理</w>
恩 特</w>
高 密度</w>
比 勒</w>
歌 迷</w>
抢 走</w>
恒 定</w>
总 长</w>
佳 肴</w>
william s</w>
vil le</w>
u sh
糕 点</w>
时 宜</w>
东 亚
药 房</w>
斯科 尼</w>
国际 贸易
出 轨</w>
亚太 区</w>
豪 感</w>
循 序
循序 渐进</w>
专 卖
未 清</w>
回 扣</w>
不 育</w>
马 蒂
自 豪感</w>
导 性</w>
富 时</w>
哈 姆
麦当 娜</w>
沸 腾</w>
偏 移</w>
sp ac
s af
这 群人</w>
纳 什</w>
原 发性</w>
gu ez</w>
2. 2%</w>
然 大
时 捷</w>
d o
皈 依</w>
七八 糟</w>
路 德</w>
劳动 部</w>
ar s</w>
穆沙 拉夫</w>
戴维 森</w>
应 使</w>
光 束</w>
ab del
税 局</w>
武 警</w>
更为 严重</w>
普 莱斯</w>
实践 证明</w>
研究 组</w>
温 布利</w>
挥 手</w>
越 长</w>
极 低</w>
在 下文</w>
单 向</w>
克 族</w>
二十 四</w>
维 察</w>
新 版</w>
探 索
基 质</w>
地 站</w>
伽 利
个 股</w>
a o</w>
巴 斯蒂安</w>
一 记</w>
n g</w>
本 专题</w>
以 较</w>
稳 妥</w>
放射性 物质</w>
ot o</w>
不 朽</w>
三峡 工程</w>
越 野</w>
访问 控制</w>
冰 冻</w>
非 典</w>
卡 西
保 时捷</w>
国际 商会</w>
数据 表</w>
分 店</w>
人 房</w>
m ed</w>
改 用</w>
工程 技术</w>
钻 孔</w>
犀 牛</w>
柬埔寨 政府</w>
剑 桥
天 桥</w>
条 路</w>
实施 方案</w>
传 动
赢 取</w>
贸易 顺差</w>
第三 期</w>
想 来</w>
南 朝鲜</w>
何 况</w>
不良 反应</w>
阿 克</w>
每 条</w>
H IV</w>
擦 伤</w>
一 端</w>
衰 减</w>
至 此</w>
老 是</w>
立 方</w>
拉 美
反 之</w>
司法 独立</w>
值得 称赞</w>
c le
记 卡</w>
第三十 四届</w>
福利 金</w>
特 罗斯</w>
卡 纳
力 量
CO M</w>
留 用</w>
救援 队</w>
字 眼</w>
那 段</w>
订 于</w>
角 膜</w>
推 倒</w>
北 区</w>
3 00
粘 土</w>
第三 场</w>
支持 性</w>
佩 特</w>
曾 于</w>
抓 紧</w>
女 篮</w>
转 过</w>
乘 飞机</w>
不容 忽视</w>
d is
6 7.
聪 明
激光 器</w>
诊 治</w>
找 寻</w>
纤维 素</w>
数码 相机</w>
剧 集</w>
皮 克</w>
塔 赫</w>
台湾 地区</w>
v o
房 贷</w>
快 感</w>
胶 带</w>
硫 化物</w>
新闻 社</w>
宝 藏</w>
刺 客</w>
1. 9</w>
雷 纳</w>
路易 丝</w>
莫 莉</w>
格 蒂</w>
房 地
大 部份</w>
骨 干</w>
病 患</w>
地 人</w>
转化 成</w>
制造 者</w>
斯 维尔</w>
冰 雹</w>
迈 尔斯</w>
探 头</w>
德 纳</w>
储 存
中 低收入</w>
英 军</w>
灌木 丛</w>
南 克</w>
先 驱
伽利 略</w>
二十 五</w>
非常 容易</w>
斯 莱特</w>
年 华</w>
小康 社会</w>
实施 者</w>
d er</w>
恋 人</w>
举 办
9 6
预 应力</w>
普 利
文 具</w>
市场 机制</w>
山 丘</w>
地 里</w>
千禧 年</w>
化学 反应</w>
仿 效</w>
3 2
第八 章</w>
出 战</w>
会 展
站 台</w>
宣传 材料</w>
安 菲尔德</w>
冰 雪</w>
阿 诺德</w>
生产 量</w>
壁 纸</w>
百分 之</w>
烘 焙</w>
潜 入</w>
恫 吓</w>
不 堪
8. 2</w>
称 道</w>
保密 性</w>
他 时</w>
7 80</w>
韩 国
那 家</w>
费 尔德</w>
积 蓄</w>
家 门</w>
人民 检察院</w>
东盟 国家</w>
釜 山</w>
修订 本</w>
专家 学者</w>
不断 改进</w>
s erv
乱 七八糟</w>
h as
解 冻</w>
点 击
本 市</w>
一大 步</w>
bur y</w>
造 纸</w>
管 子</w>
瘟 疫</w>
打 猎</w>
开 球</w>
十 名</w>
交 警</w>
两 到</w>
l d</w>
and a</w>
前 三名</w>
af l</w>
长 春
政 和</w>
座 标</w>
分析 仪</w>
十一 五</w>
银河 系</w>
西 比</w>
就 学</w>
好 时机</w>
伦 堡</w>
上 加
In st
通 盘</w>
赛 义
莫 伊</w>
水族 馆</w>
捷 豹</w>
张 开</w>
常 备</w>
史蒂 文斯</w>
V II</w>
8 .1</w>
碳 纤维</w>
柱 子</w>
控 中心</w>
抵 免</w>
p as
R F
车 门</w>
外 伤</w>
red it
R es
整 形
司 将</w>
上 扬</w>
隔离 区</w>
费尔南 德斯</w>
管理 水平</w>
击 倒</w>
中 均</w>
i os</w>
通力 合作</w>
这 能</w>
预 知</w>
赫勒 拿</w>
照 管</w>
木 地板</w>
斯宾 塞</w>
如 画</w>
初 步
一 视
ri t
退 市</w>
粒 度</w>
猜 猜</w>
正规 化</w>
弹 出</w>
向 外</w>
交通 部</w>
u h
自 主
脑 海中</w>
改 观</w>
周 密</w>
侦 测</w>
一视 同仁</w>
W eb
自治 市</w>
互 不</w>
M ac
配 料</w>
税 前</w>
放 假</w>
外 来
全 军</w>
sn p</w>
顺 从</w>
熟 人</w>
满 都</w>
强 项</w>
大 方</w>
加德 满都</w>
交易 日</w>
il y
3 87</w>
马里 人</w>
面向 对象</w>
面 子</w>
索 马里人</w>
时 区</w>
供 求</w>
ch ap
肾上 腺素</w>
美 容
牛 市</w>
汽车 公司</w>
本 轮</w>
疾 控中心</w>
平均 收入</w>
T r
雨 伞</w>
武 士</w>
止 痛
接 电话</w>
执法 机关</w>
国 对</w>
保障 部</w>
交 代</w>
麻 管局</w>
说 不出</w>
肝 癌</w>
椭 圆</w>
希腊 人</w>
知情 权</w>
生存 能力</w>
浓缩 铀</w>
功能 区</w>
借 记卡</w>
E C
7 20</w>
哈 罗德</w>
含 糊
iph one
hou se</w>
负 着</w>
宝 贵
城镇 化</w>
收藏 家</w>
捏 造</w>
扩 张
恼 火</w>
外汇 交易</w>
售 票
冷 藏</w>
再也 不能</w>
无 机</w>
摆 出</w>
冠 心病</w>
一 段
一 扇</w>
ec on
五 一</w>
潜 意识</w>
滑 行</w>
渗透 到</w>
e i</w>
证据 规则</w>
攻 入</w>
不 耐
m os
续 约</w>
第五 十</w>
第二十 七条</w>
物 流
演 绎</w>
抛 开</w>
扣 减</w>
选择 地</w>
恰 恰
头 孢</w>
远 期</w>
续 集</w>
合法 利益</w>
o th
替补 席</w>
HT TP</w>
比利 时
头 皮</w>
反 腐</w>
冰 上</w>
今 世</w>
交 配</w>
美国 参议院</w>
真 想</w>
电信 联盟</w>
国际 电信联盟</w>
历 经</w>
直 辖市</w>
好 几
国际 形势</w>
直 流
核 战争</w>
朝 圣</w>
巴 马科</w>
6 40</w>
胸 罩</w>
民事 责任</w>
双 双</w>
全面 性</w>
非 但</w>
自 相
S D</w>
CO 2</w>
露 丝</w>
链 条</w>
多 尔
墨西哥 湾</w>
分 队</w>
公寓 楼</w>
流 满面</w>
民族 主义者</w>
世界 秩序</w>
达 伦</w>
收 成</w>
安大 略</w>
可信 性</w>
公开 场合</w>
l yn
am ar
3 26</w>
特蕾 莎</w>
令人 瞩目</w>
之 苦</w>
与 时
诺丁 汉</w>
电 图</w>
前列 腺癌</w>
二零零 六年</w>
moham med
闹 钟</w>
谦 卑</w>
视 窗</w>
红 牌</w>
听 过</w>
与此 相反</w>
贩 毒
诺 贝尔</w>
职 守</w>
液 相</w>
印 花
北 美
3. 8</w>
黑 手
歌 星</w>
板 材</w>
激励 机制</w>
格 勒
拒之 门外</w>
并 进</w>
重 审</w>
耐 药</w>
普及 教育</w>
总 司令</w>
也 好</w>
s v
达 致</w>
数据 流</w>
摇 篮</w>
沉 重
戒 备
大 力度</w>
加 大力度</w>
黑手 党</w>
空 地</w>
广 东
塔斯马 尼亚</w>
塑 胶</w>
罗伯 逊</w>
电 波</w>
强奸 犯</w>
交 手</w>
s o</w>
ett y</w>
7 9.
迪 纳</w>
实地 考察</w>
个 球</w>
c es
起 飞
货 款</w>
h ass
远 销</w>
社会 秩序</w>
正 交</w>
我 想</w>
奖 赏</w>
7 9%</w>
锂 离子</w>
没 想</w>
家 务
阅读 器</w>
求 偿</w>
有 色</w>
打 仗</w>
牧 羊
汉 城</w>
有害 物质</w>
评 语</w>
热 忱</w>
来 港</w>
春 运</w>
弥 撒</w>
出 乎
steph en
细 小</w>
真 人
瑞 银</w>
椰 子</w>
9 99</w>
更 近</w>
性别 差异</w>
IN F</w>
G E
理 工</w>
梅 托</w>
无 证</w>
前 夫</w>
破 损</w>
狂 野</w>
哈 龙</w>
而 知</w>
预 见到</w>
重 回</w>
灭 亡</w>
孩 儿</w>
人工 流产</w>
九 龙
闭幕 式</w>
连 线</w>
贯彻 执行</w>
绵 羊</w>
游戏 机</w>
旁 观</w>
大 胜</w>
亚 人</w>
ah mad
轮 船</w>
法 中</w>
中国 银行</w>
7 7.
麦 格
金 边</w>
第三十 六届</w>
石 灰</w>
曾 任</w>
十 几年</w>
5 30</w>
荃 湾</w>
海 南省</w>
最 美</w>
您 好</w>
w eb
阿 德里安</w>
脉 搏</w>
罗 尼</w>
百 货</w>
叛 徒</w>
全国 人大</w>
传 真
远 高于</w>
菲 亚</w>
若干 次</w>
恰恰 相反</w>
发展 壮大</w>
画 出</w>
拉 法</w>
虚 会</w>
新闻 周刊</w>
动 工</w>
书 桌</w>
上 岸</w>
钱 财</w>
法 西斯</w>
按 规定</w>
库 里</w>
避 免
波 兰
开 学</w>
刺 激
从 属</w>
货 人</w>
自愿 性</w>
牺牲 品</w>
务 虚会</w>
麻 袋</w>
根本 利益</w>
期 待
拉 格</w>
当事 国</w>
I R
4. 8</w>
量 权</w>
身体 状况</w>
独 特性</w>
德 育</w>
两 制</w>
ros s</w>
裁 量权</w>
挥 之
并 不多</w>
一 局</w>
诺 顿</w>
瑞典 人</w>
前 缀</w>
5 9.
二零零 三年</w>
旋 转
雷 克斯</w>
避 风
贡献 者</w>
检查 一下</w>
桑 德拉</w>
场 主</w>
圆满 完成</w>
mat thew
明 年初</w>
3 19</w>
通 缩</w>
有 损于</w>
纷 争</w>
额外 收费</w>
邦 国</w>
舞 厅</w>
处 女
势 必</w>
付 清</w>
fran k
通 电话</w>
戈 斯</w>
忠 诚
罢 免</w>
犯 错误</w>
灌 注</w>
单 是</w>
供 需</w>
N 1</w>
3 13</w>
篱 笆</w>
稻 米</w>
核 电厂</w>
妓 院</w>
铁路 运输</w>
百货 公司</w>
缩略 图</w>
结 识</w>
病 态</w>
本 信</w>
变 通</w>
福 田</w>
热 能</w>
推 入</w>
决 出</w>
体育 总局</w>
中 作</w>
解释 一下</w>
偿 还
不断 更新</w>
绩 效
独 奏</w>
活动 状态</w>
放 火</w>
亚美尼亚 共和国</w>
营 利性</w>
管 治</w>
真 人</w>
塔 尔
两 分</w>
微 机</w>
埃塞俄比亚 政府</w>
专卖 店</w>
S e
难以 获得</w>
谈判 代表</w>
调解 员</w>
沿 用</w>
布鲁 诺</w>
上 周四</w>
un n
栏 中</w>
架 上</w>
挥之 不去</w>
可 控</w>
之 争</w>
拉 近</w>
所 见</w>
外国 游客</w>
勤 劳</w>
切 尼</w>
几 千年</w>
今年 年初</w>
着重 强调</w>
相互 之间</w>
乞 讨</w>
中 医药</w>
st re
草 图</w>
第二十 条</w>
托 儿</w>
吉 祥
华 北</w>
局 外人</w>
孵 化</w>
品 店</w>
降 落
内 乱</w>
予 以
一 集</w>
明 星
收 割</w>
招 商</w>
展 台</w>
圆 圈</w>
公 有</w>
信 贷
不 全</w>
辩 论
W G</w>
犯罪 案件</w>
学 区</w>
亿 年</w>
g ov
诺 尔</w>
猎 枪</w>
普林 西比</w>
卡塔 尔
做 错</w>
战略 意义</w>
冒 充</w>
经济 秩序</w>
交易 会</w>
ic o</w>
班加 西</w>
未 作</w>
19 42</w>
涡 轮机</w>
扎 德</w>
希 姆</w>
外 围
各个 部门</w>
人 比</w>
预 告
茨 基</w>
而 过</w>
四 级</w>
可 恶</w>
专题 报告</w>
评论 者</w>
病 媒</w>
根本 无法</w>
实践 经验</w>
一 模
预告 片</w>
福 斯</w>
折 断</w>
投 行</w>
代 码
为 数</w>
血 液
美 林</w>
底 座</w>
五 千</w>
l ab
昵 称</w>
串 行</w>
一模 一样</w>
U S</w>
19 39</w>
录 得</w>
平方 英里</w>
测试 方法</w>
文 明
家庭 环境</w>
互动 式</w>
策 划
第三十 三届</w>
日 方</w>
宽 广</w>
作 响</w>
面包 店</w>
闭 上
脑 后</w>
立 面</w>
ou t</w>
A I</w>
5 5.
还 于</w>
丢 下</w>
ur y</w>
p m
小 得多</w>
出生 地</w>
2. 9</w>
电脑 游戏</w>
滥用 职权</w>
洗 碗
巴西 队</w>
书 亚</w>
东 西方</w>
w y
ry an
非常 规</w>
输 送
表达 意见</w>
砍 掉</w>
热带 风暴</w>
憎 恨</w>
光 照</w>
乔治 亚</w>
r ub
食 客</w>
比 拟</w>
抗 震</w>
性别 角色</w>
布 料</w>
优惠 待遇</w>
p o</w>
18 74</w>
触 发器</w>
抗 氧化</w>
阿尔 弗雷</w>
打 字
卑 微</w>
CE O</w>
海 量</w>
剪 刀</w>
利 文</w>
社会 治安</w>
最 迟</w>
库 什</w>
布鲁 克斯</w>
一 百万</w>
N P
救 世
因 斯</w>
清 澈</w>
格 特</w>
幌 子</w>
尿 布</w>
字 面上</w>
驾 车者</w>
笨 拙</w>
证 交所</w>
环 形</w>
出 对</w>
费 利
款 次</w>
thom as
奥运 村</w>
四 家</w>
人身 保护</w>
药 业</w>
涂 抹</w>
征 兵</w>
希 特</w>
酸 化</w>
偏 不
连 通性</w>
ber t</w>
爱国 主义</w>
外部 环境</w>
一 试</w>
裸 露</w>
对 流</w>
d on</w>
U PS</w>
逐 字</w>
萨 克拉
萨克拉 门托</w>
福 尔</w>
水 星</w>
普 选</w>
国民 收入</w>
化学 成分</w>
体 贴</w>
交 朋友</w>
二十 周年</w>
专业 性</w>
鲜 血</w>
泪 流满面</w>
新兴 国家</w>
h o
4 200</w>
温 和
韦 纳</w>
跃 升</w>
第二十 八届</w>
朋 克</w>
后 区</w>
m en
读 写</w>
穿 戴</w>
振 荡</w>
师 父</w>
U V</w>
贫 富
测 定
毫无 保留</w>
伊 比利亚</w>
查尔 斯顿</w>
得 上</w>
田 联</w>
P o
16 12</w>
自 满</w>
布莱 顿</w>
劳 伦</w>
am eric
A T</w>
长 袍</w>
那 件</w>
校 车</w>
无 动
无动 于
偏不 倚</w>
不 偏不倚</w>
at es</w>
实验 性</w>
卫 冕
万 事
降 雪</w>
现代 主义</w>
最 惠国</w>
安 乐
即 时
全 线</w>
与其 说是</w>
高 产</w>
装 水</w>
港 口
当 心</w>
干 扰
困难 重重</w>
终 审</w>
强加 于</w>
导航 系统</w>
压 裂</w>
d c</w>
问 题
当 之无愧</w>
囤 积</w>
包 商</w>
前 哨</w>
蓄 电池</w>
凯 斯</w>
x x</w>
un es</w>
br ad
马诺 河</w>
请 拨</w>
该 地</w>
展 现出</w>
妇女 节</w>
卡 塔</w>
肩 负</w>
期待 已久</w>
当 其
头 骨</w>
变 速
其他 费用</w>
了 结</w>
连 夜</w>
费尔南 多</w>
责任 心</w>
指导 意义</w>
麦 肯
马格里 布</w>
一 路上</w>
T CP</w>
累 累</w>
祖 马</w>
海洋 学</w>
技 师</w>
恶性 肿瘤</w>
弗里 敦</w>
基 里
咀 嚼</w>
呻 吟</w>
胜 利
红 外线</w>
无动于 衷</w>
前 茅</w>
法 塔赫</w>
摆 放</w>
接 听</w>
埃 斯</w>
卢 斯</w>
克莱 恩</w>
世界 杯赛</w>
默 许</w>
消防 队</w>
格 罗斯</w>
阿 黛
无 理</w>
同 化</w>
体 性</w>
逼 人</w>
运 算
社会 阶层</w>
glasg ow</w>
SS L</w>
计算 公式</w>
托 邦</w>
打 捞</w>
s om
9 6%</w>
除 夕</w>
适 量</w>
罗 琳</w>
煤 炭
斯拉 夫</w>
塞 缪尔</w>
蒸 汽
列 夫</w>
从 业</w>
额 头</w>
芝 士</w>
排 气</w>
换 算</w>
倒 计时</w>
信 使</w>
达 克</w>
英格兰 银行</w>
榜 单</w>
松 鼠</w>
挖 掘
心 所
H z</w>
阿 特</w>
迪斯尼 乐园</w>
美 和
如 一</w>
地 貌</w>
书 法</w>
那 份</w>
行 凶</w>
系统 分析</w>
生活 费用</w>
滚 石</w>
巴 比
尼 卡</w>
孤 独
大 容量</w>
针 织</w>
融 洽</w>
小 马</w>
学 报</w>
绝 育</w>
斗 士</w>
散 落</w>
打 倒</w>
夷 为
夷为 平地</w>
原则 立场</w>
作 案</w>
会 用</w>
马 术</w>
飞 地</w>
美国 大学</w>
特 色
公 司法</w>
风 气</w>
炉 灶</w>
国民 军</w>
皇 后区</w>
19 33</w>
首 当其
运输 成本</w>
粉 红</w>
信息 时代</w>
万 张</w>
b in
移 到</w>
渔 获</w>
毫不 含糊</w>
木 屋</w>
忠诚 度</w>
回 信</w>
印 章</w>
信 托
美国 财政部</w>
电 镀</w>
可 口</w>
公共 场合</w>
高 分子</w>
等 不及</w>
八 一队</w>
药剂 师</w>
滑 板</w>
汉 宫</w>
不断 完善</w>
法 委员会</w>
坠 入</w>
藉 以</w>
脱 硫</w>
拉 拉
小 板</w>
业 者</w>
1. 2%</w>
伦 纳德</w>
传 递
载 述</w>
纽 尔</w>
温和 派</w>
深刻 印象</w>
埃 米尔</w>
向 南</w>
博 世</w>
华 南</w>
艾 米
尘 器</w>
只 得</w>
Outl ook</w>
8 9.
讲 究</w>
烈 士</w>
收 支
心 力
墨 盒</w>
P E</w>
1. 8%</w>
透 镜</w>
花旗 集团</w>
自 传</w>
本 体</w>
回顾 性</w>
R os
谢 天
薄 弱
秘 鲁
暴 发</w>
扎 尔</w>
W il
学生 会</w>
决 斗</w>
走私 者</w>
美元 汇率</w>
托 夫</w>
总体 规划</w>
出 炉</w>
关 在</w>
公 证</w>
of f</w>
目 瞪
机 舱</w>
6 6.
长 久
重 温</w>
地区 性</w>
ol d</w>
推 送</w>
对 前</w>
之 王</w>
lo w</w>
k o
邮 戳</w>
炮 火</w>
抑 或</w>
先 天</w>
特 价</w>
卷 曲</w>
沙 伊
幸 好</w>
乘 数</w>
x ml</w>
首当其 冲</w>
玩 玩</w>
牡 蛎</w>
江 南</w>
晚 年</w>
安全 策略</w>
外交 人员</w>
圣 洁</w>
吴 邦国</w>
高 薪</w>
目瞪 口
目瞪口 呆</w>
格 格
探险 家</w>
以 示</w>
残 障</w>
染 上</w>
图 示</w>
单 靠</w>
刑事 警察</w>
买 到</w>
名 新</w>
勘 查</w>
停 机
交 错</w>
ur t
而 至</w>
第二 季</w>
水晶 宫</w>
正 义
样 板</w>
政策 性</w>
开 庭
周 内</w>
飞 去</w>
金正 恩</w>
采取 相应</w>
系统 工程</w>
务 员</w>
三 者</w>
15 14</w>
思 索</w>
两 难</w>
gre g
韩 元</w>
贝 勒</w>
薄弱 环节</w>
戈 德</w>
德国 联邦</w>
A le
氯 联苯</w>
方向 盘</w>
多 氯联苯</w>
呈 交</w>
医 改</w>
加拉 加斯</w>
er t
注 资</w>
曙 光</w>
无 故</w>
自 立</w>
监测 员</w>
于 本</w>
i es
病 原体</w>
生物 体</w>
拉 比</w>
下 而上</w>
点 数</w>
活 化</w>
土耳其 人</w>
别 国</w>
举 出</w>
软 管</w>
美和 普林西比</w>
法 论</w>
弱 者</w>
圣多 美和普林西比</w>
car ol
at e
IS O</w>
马 桶</w>
谢 地</w>
西 卡</w>
期 付款</w>
卡 洛
se c</w>
锋 利</w>
转 用</w>
贾 德</w>
烹 调</w>
技术 厅</w>
我 以</w>
工商 管理</w>
z al
普 斯卡</w>
总 裁
长 岛</w>
方 法论</w>
谢天 谢地</w>
比 上</w>
思 科</w>
尿 液</w>
麦 凯</w>
越 发</w>
谢尔 盖</w>
说 不定</w>
生长 因子</w>
吸 食</w>
罗 尔</w>
电影 明星</w>
简 陋</w>
示 范
灵 敏</w>
潮 汐</w>
大 专</w>
国际 联盟</w>
加 速器</w>
列 中</w>
18 000</w>
公 河</w>
不耐 烦</w>
阿姆斯特 朗</w>
轻 而易
赢 利</w>
裁判 员</w>
督 促</w>
白金 汉宫</w>
涌 向</w>
党 组织</w>
亲 密
严 禁</w>
e ed</w>
脑 损伤</w>
小 牛</w>
卵 石</w>
保安 人员</w>
轻而易 举</w>
经 管</w>
星 光</w>
并 肩</w>
前 辈</w>
for d
cam er
热点 问题</w>
测 算</w>
每 星期</w>
母 鸡</w>
未 交</w>
婚 前</w>
同 上</w>
催 眠</w>
一国 两制</w>
流 落</w>
查 德</w>
五 金
索 瓦</w>
炼 油</w>
大力 发展</w>
关 进</w>
不知 不觉</w>
R am
捷 径</w>
尼泊尔 政府</w>
以 向</w>
ma c</w>
8. 3</w>
推 土机</w>
当 月</w>
阿 齐兹</w>
美国 联邦储备委员会</w>
继 电器</w>
支 付
布 森</w>
爱 是</w>
多种 不同</w>
六 大</w>
克 隆
C E</w>
3 21</w>
马 力</w>
盾 牌</w>
战斗 员</w>
大学 教授</w>
营 商</w>
侵 者</w>
lo g
安 达</w>
前 卫</w>
乌 托邦</w>
贝卢 斯科尼</w>
直 属</w>
新 股</w>
埃 利斯</w>
喜 马拉
烟 气</w>
湄 公河</w>
拼 凑</w>
市政 局</w>
内 障</w>
9 1%</w>
见 见</w>
福尔 摩斯</w>
易 事</w>
总裁 兼</w>
切 口</w>
中共 中央政治局</w>
3 28</w>
驱逐 令</w>
运动 鞋</w>
组织 协调</w>
播 音
打 了个</w>
差 错</w>
产品 名称</w>
联合国 国际贸易
联合国国际贸易 法委员会</w>
一 滴</w>
这 时候</w>
贪 污
英语 口语</w>
耶 尔</w>
第三 种</w>
白 金</w>
毋 庸置疑</w>
歹 徒</w>
柜 子</w>
无 名</w>
宜 家</w>
定期 检查</w>
一 室</w>
默 默</w>
环保 署</w>
泰晤士 河</w>
德 伯格</w>
口 感</w>
菲 茨</w>
女 婴</w>
单 体</w>
佩 顿</w>
re g
首 日</w>
追 捧</w>
系 指</w>
影 视</w>
sp r
妮 可</w>
县 城</w>
临时 代办</w>
七 十</w>
达 利</w>
身份 证明</w>
督 导</w>
不 惜
ma j
c m</w>
迅 猛</w>
解 职</w>
梅 斯</w>
恶 棍</w>
布 赖</w>
万 别</w>
一 伙</w>
L O
谐 波</w>
来 访者</w>
D ec
5 80</w>
粉 色</w>
第三 十二届</w>
甄 别</w>
本科 生</w>
提供 方便</w>
蓝 天</w>
德意志 联邦共和国</w>
巴 库</w>
P aul
1. 25</w>
高等 学校</w>
过渡 性</w>
自 已</w>
海 外
大 军</w>
ett y
6 20</w>
联络 人</w>
氯 苯</w>
恩 恩
新 低</w>
八 岁</w>
一 千</w>
顺 序
项 工作</w>
等 待
等待 时间</w>
演 变成</w>
此 项工作</w>
密 苏里</w>
双 臂</w>
他 称</w>
为时 已晚</w>
im ana</w>
离 谱</w>
振 作
巡 游</w>
野 火</w>
重 开</w>
尔 尼</w>
协会 主席</w>
出 货</w>
联 阵</w>
电话 线</w>
晃 动</w>
当代 艺术</w>
吉尔吉斯 共和国</w>
白 内障</w>
水 事</w>
新 政</w>
敌 视</w>
微 调</w>
幼 稚</w>
导 电</w>
再 者</w>
克 特</w>
走 了</w>
豪华 轿车</w>
肯尼亚 政府</w>
爱 情
教 练
搅 拌
实验 教学</w>
地 壳</w>
喷 涂</w>
S er
莫 里</w>
美国 空军</w>
缝 隙</w>
初 等</w>
丽 尔</w>
网络 适配器</w>
私家 车</w>
烧 结</w>
残留 物</w>
显 式</w>
完全 一致</w>
铁 路线</w>
赫 拉</w>
莫 过于</w>
当 有</w>
冲 绳</w>
马 蒂</w>
脸 色</w>
经济 基础</w>
摩天 大楼</w>
开放 源码</w>
学 步</w>
学 好</w>
兼 任</w>
车 牌</w>
计算机 化</w>
流 星</w>
黄 瓜</w>
输 血</w>
茁 壮
茁壮 成长</w>
真 空
清晰 度</w>
承受 能力</w>
军 区</w>
n ab
赡 养费</w>
霍普 金斯</w>
圣 殿</w>
闪闪 发光</w>
贴 近</w>
深 表
大 相
夜 生活</w>
卫冕 冠军</w>
价 位</w>
中国 女排</w>
9. 2</w>
洗发 水</w>
参 展商</w>
入 侵者</w>
re y
而 设</w>
布 洛
争 先
ro m
ra ch
6 2.
恐 后</w>
商业 中心</w>
反 之
几 步</w>
会 厅</w>
ne y
L .1</w>
高 棉</w>
高 官</w>
蜂 窝</w>
批 出</w>
彻底 改变</w>
剑桥 大学</w>
内 脏</w>
nr l</w>
胶 片</w>
盛 名</w>
盘 点</w>
欧 后</w>
无 锡</w>
par k</w>
胜 负</w>
社会 民主党</w>
有 氧</w>
耳 环</w>
约 书亚</w>
移 植
日 趋
改 变
心 意</w>
反之 亦然</w>
重新 配置</w>
约翰 斯顿</w>
甘 肃</w>
势 在必
黑龙 江省</w>
贸易 部</w>
真人 秀</w>
物业 管理</w>
散 热</w>
所 订</w>
南 区</w>
前列 腺</w>
争先 恐后</w>
ob e</w>
射 杀</w>
可执行 文件</w>
之 心</w>
3 17</w>
盘 存</w>
生 成
敬 请</w>
推 广
劳工 市场</w>
凯 撒</w>
以色列 国</w>
n c</w>
经常 出现</w>
简 而言之</w>
已 使</w>
H u
重 度</w>
水 线</w>
格里 菲斯</w>
宴 会厅</w>
子 网</w>
住 址</w>
附 着</w>
短 路</w>
流浪 汉</w>
分 明</w>
疤 痕</w>
授 权
头等 舱</w>
勒 庞</w>
义 词</w>
青 铜</w>
运行 状况</w>
打 斗</w>
全 书</w>
B BC</w>
装 成</w>
状况 不佳</w>
救 济
复 制品</w>
传 奇
中国人民 银行</w>
7 4
降落 伞</w>
背 诵</w>
直 销</w>
特别 行政
少 见</w>
im a</w>
en erg
齐 下</w>
闭 路
闭路 电视</w>
更 多
宁 波
土 星</w>
共和 军</w>
为人 所知</w>
ac. 105</w>
这 应</w>
网络 空间</w>
bn b</w>
数据 量</w>
取 悦</w>
决 定
便利 店</w>
乳 头</w>
马 戏
吉祥 物</w>
双边 贸易</w>
0 8
紧 身</w>
物价 指数</w>
区 块</w>
不 至于</w>
f i</w>
酒 馆</w>
跟 不上</w>
置 换</w>
立 医院</w>
扫 除</w>
复 国主义</w>
减 到</w>
ir o</w>
h ot
订 票</w>
第一 副</w>
私 生活</w>
查 克</w>
发生 器</w>
不能 容忍</w>
瓦 伦西亚</w>
据 我
据我 所知</w>
团 在</w>
令人 吃惊</w>
专家 建议</w>
莱 利</w>
茨 海
山 体</w>
姊 妹</w>
失 学</w>
墨西哥 州</w>
呼吸 系统</w>
镶 嵌</w>
监督 员</w>
火 势</w>
左 撇子</w>
尼日利亚 政府</w>
名 下</w>
几百 年</w>
闲 逛</w>
税 费</w>
松 动</w>
战 事</w>
弗里 德曼</w>
嵌 套</w>
0. 8%</w>
珍 珠
梅 纳</w>
暴力 行动</w>
喂 食</w>
5 70</w>
闪 存</w>
语 种</w>
推 开</w>
变 种</w>
新 举措</w>
教育 者</w>
拉斯 堡</w>
震 中</w>
闭 上</w>
锤 子</w>
铁 塔</w>
要 地</w>
肆 意</w>
第二十 一条</w>
抽 查</w>
俱 进</w>
财政 危机</w>
显 眼</w>
合同 条款</w>
假 发</w>
买 进</w>
计算机 上安装</w>
舒适 性</w>
礼 堂</w>
携 带
优越 性</w>
u ch
环境 质量</w>
爱尔 兰人</w>
惊 慌</w>
巴 迪</w>
增加 收入</w>
塔 利</w>
取 自</w>
加 速度</w>
下 才</w>
阿拉伯 联盟</w>
清 点</w>
最 高级</w>
无 畏</w>
开放 市场</w>
ag ram</w>
闪 光灯</w>
手 镯</w>
猎 犬</w>
放在 首位</w>
布 里亚</w>
同 感</w>
三十 一日</w>
餐 桌上</w>
esand ers</w>
重 重
胡 须</w>
病 历</w>
不断 创新</w>
金 发
采 摘</w>
遇 上</w>
科威特 政府</w>
点 亮</w>
数十 亿</w>
推 力</w>
多 用途</w>
号 称</w>
再 融资</w>
k el
阿 片
脱 下</w>
泄 密</w>
抗 灾</w>
太 近</w>
兰 格</w>
倒 台</w>
一个 个</w>
经济 指标</w>
社 保</w>
眨 眼</w>
狗 狗</w>
污染 源</w>
无 罪
救 出来</w>
揭幕 战</w>
[...]
