#version: 0.2
t h
i n
th e</w>
a n
t i
r e
e n
e r
o n
o n</w>
o f</w>
e d</w>
an d</w>
o r
a r
t o</w>
in g</w>
o u
i t
e s</w>
a ti
e r</w>
i n</w>
s t
r o
a l</w>
a t
a l
e c
i c
o m
p o
a t</w>
a c
s i
o r</w>
i s</w>
e l
i l
m en
a s</w>
a n</w>
i s
ati on</w>
e s
p ro
u r
po s
T h
a s
v e</w>
r i
p l
e n</w>
q u
t s</w>
& a
c on
&a pos
th at</w>
f or</w>
o t
d e
on s</w>
s u
o l
u n
men t</w>
l y</w>
@ -
@- @</w>
&apos ;
r a
h a
ti on</w>
c e</w>
l i
Th e</w>
d i
u s
a b
re s
v i
w h
c om
l e
a g
o p
a d
it h</w>
l o
e x
ou n
c i
l e</w>
v er
w ith</w>
f or
e m
n o
it y</w>
t er
b e
c h
p or
a m
i t</w>
qu ot
s h
quot ;</w>
& quot;</w>
g h
u l
b e</w>
th e
&apos; s</w>
i m
at e</w>
ar e</w>
n e
f f
b y</w>
on al</w>
l d</w>
p ar
a p
a y</w>
en t</w>
er e</w>
o u</w>
w as</w>
u c
ati ons</w>
t r
er s</w>
t ed</w>
a r</w>
p er
s e
m e
f i
a i
t e
ou ld</w>
w or
a k
th er</w>
p e
2 0
b u
y ou</w>
st r
v el
d ing</w>
s t</w>
al l</w>
ha ve</w>
si on</w>
ro m</w>
u m
no t</w>
re n
f rom</w>
m e</w>
d s</w>
ati onal</w>
it s</w>
m o
ou r</w>
c l
c o
t er</w>
s o</w>
ou t</w>
il l</w>
t h</w>
g i
h as</w>
w e
a in
ur e</w>
an ce</w>
h i
d e</w>
g o
ti es</w>
ti c
th is</w>
ar y</w>
es s</w>
c oun
s p
s e</w>
con t
re d</w>
S t
at ed</w>
w ill</w>
t ing</w>
i z
d er</w>
ou r
t y</w>
i r</w>
v er</w>
on e</w>
vel op
an t</w>
n ational</w>
p re
gh t</w>
c h</w>
m an
em b
d uc
e t</w>
U n
for m
v e
m in
C om
ab le</w>
d ed</w>
r ou
h e</w>
por t</w>
t o
I n</w>
d is
ec i
ti ons</w>
ic h</w>
a y
e ar
or e</w>
the ir</w>
ic e</w>
d o
m it
re c
f e
p u
in ter
an g
wh ich</w>
s ec
20 0
g h</w>
de velop
at es</w>
in g
al ly</w>
C h
p res
ha d</w>
pl e</w>
ai d</w>
cl u
I n
al so</w>
it ed</w>
be en</w>
s er
men ts</w>
c an</w>
t u
i c</w>
t ri
o d</w>
on g</w>
w ere</w>
en ce</w>
ag e</w>
pl e
p r
d u
ver n
i r
v en
o ther</w>
f in
m ore</w>
en er
c re
om e</w>
s aid</w>
e st
h is</w>
ti ve</w>
pro vi
s o
t ra
es s
ec t</w>
us t</w>
st e
d er
us e</w>
es t</w>
Un ited</w>
g ra
t en
w e</w>
re s</w>
ak e</w>
as t</w>
I t</w>
m is
h e
es e</w>
bu t</w>
a f
ou s</w>
c e
ac e</w>
ar d</w>
l a
C on
c es</w>
w ould</w>
men t
in clu
wor k</w>
the y</w>
as e</w>
a in</w>
k ing</w>
su p
c u
h o
a d</w>
i es</w>
d ay</w>
R e
g n
s y
s ti
t ec
ff ic
ci al</w>
a u
b o
en t
op er
k s</w>
e v
f u
w i
r u
p ri
sh ould</w>
e ment</w>
te e</w>
l ic
20 1
gh ts</w>
m on
g e</w>
g an
in e</w>
g u
&apos; t</w>
1 9
t w
ti me</w>
develop ment</w>
w n</w>
o ple</w>
al l
c ri
f o
fi r
u p</w>
ic al</w>
el l</w>
mit tee</w>
y our</w>
re qu
ac c
g r
re t
al s</w>
t ;</w>
an y</w>
ar i
res p
am e</w>
l is
en ti
i d
o b
ener al</w>
u d
inter national</w>
or s</w>
m ar
com m
e w</w>
f ac
por t
ne w</w>
tri es</w>
ser v
i ties</w>
k e
ab out</w>
N ations</w>
St ates</w>
emb er</w>
pu b
S ec
Ch in
Com mittee</w>
ati ve</w>
be t
wh o</w>
no w</w>
k e</w>
or y</w>
re l
i st
v es</w>
pe ople</w>
t ure</w>
m s</w>
coun tries</w>
re g
su b
vern ment</w>
G o
gan iz
W h
e f
oun d</w>
in form
ol u
ver y</w>
lo w
a re
y e
il e</w>
re e</w>
il ity</w>
om en</w>
th an</w>
ay s</w>
el y</w>
a v
m y</w>
g e
u s</w>
um an</w>
th ere</w>
h el
o c
su ch</w>
h er</w>
p en
si b
at ing</w>
c er
on om
in to</w>
ing s</w>
m il
P ro
Th is</w>
l l</w>
tw o</w>
b er</w>
su l
ac ti
re gi
v ed</w>
&apos ;</w>
ur ity</w>
ad e</w>
ac k</w>
g y</w>
h n
a il
A n
ec onom
t e</w>
o se</w>
u e</w>
D e
ste m</w>
b ec
st an
il l
p h
H e</w>
d o</w>
li c</w>
s el
ye ar</w>
ol d</w>
W e</w>
im ple
G eneral</w>
an s</w>
tr y</w>
as s
ur ing</w>
tr an
is su
C oun
en c
ac h</w>
n ing</w>
it e</w>
com p
si d
s ome</w>
si ons</w>
per s
0 0</w>
as ed</w>
lo c
p s</w>
a m</w>
gra m
w omen</w>
per i
e i
b i
p er</w>
e l</w>
inform ation</w>
or d
ol o
sh i
ch ang
on ly</w>
ri ghts</w>
fir st</w>
v ing</w>
th rou
sp eci
w ay</w>
u m</w>
str uc
f un
wh en</w>
cont in
sy stem</w>
ch il
ear s</w>
f ic
f t</w>
le g
we en</w>
pro duc
n o</w>
tic al</w>
inclu ding</w>
U N
or ganiz
pub lic</w>
m ade</w>
re port</w>
sup port</w>
ren t</w>
in v
B u
resp on
con si
si s</w>
g et</w>
es ti
mo st</w>
i f</w>
ff ec
r e</w>
wi th
bet ween</w>
o ver</w>
for e</w>
ic es</w>
k ed</w>
the m</w>
d el
d re
c ap
r on
y ears</w>
s ed</w>
A f
sh o
st s</w>
si gn
mis sion</w>
vi ew</w>
ci l</w>
h an
en ts</w>
res s</w>
un der</w>
at e
c ould</w>
in i
sti tu
in cre
olu tion</w>
w s</w>
19 9
tec hn
e y</w>
n um
ap pro
li ke</w>
im port
af ter</w>
g n</w>
us ed</w>
h ed</w>
Coun cil</w>
t ak
Chin a</w>
pro c
h uman</w>
comm un
d eci
r ic
wh at</w>
A s
m at
th ese</w>
c ur
throu gh</w>
m a
w ell</w>
en d</w>
a use</w>
par t
re at
pl o
d ic
re por
rou p</w>
oper ation</w>
man y</w>
s ure</w>
m i
m ay</w>
ab lis
o k</w>
al ity</w>
c ent</w>
sh e</w>
m ain
j ec
i a</w>
f ol
ti onal</w>
un der
d ra
pro gram
u res</w>
t or</w>
est ablis
in te
Y ou</w>
fe ren
as si
n ed</w>
ac t</w>
coun try</w>
f ul
ve l</w>
i al</w>
ne ed</w>
man ag
Go vernment</w>
m an</w>
tran s
e t
St ate</w>
in ce</w>
is e</w>
c or
c ol
lo w</w>
ur al</w>
l ar
ri ght</w>
m es</w>
t ake</w>
t ly</w>
ap pl
th ose</w>
th ing</w>
j o
po lic
ot e</w>
ff e
ment ation</w>
ain st</w>
P ar
In ter
num ber</w>
Bu t</w>
l in
a st
fu l</w>
f l
me as
wor ld</w>
en g
ch o
ag ainst</w>
ven tion</w>
m ake</w>
ul ar</w>
dre n</w>
ci p
A c
com e</w>
re sul
or der</w>
econom ic</w>
po in
m p
com men
ex t</w>
con cer
j ust</w>
un k</w>
ment al</w>
an c
so ci
H o
th en</w>
u p
e qu
sec urity</w>
g t;</w>
& gt;</w>
l t;</w>
& lt;</w>
Sec ret
res olution</w>
m er
hi m</w>
e p
for m</w>
sib le</w>
shi p</w>
ab ility</w>
par tic
b el
al th</w>
o ffic
m ust</w>
ter s</w>
l ed</w>
f e</w>
e ffec
N o
c ar
o f
s ur
th ou
vi ties</w>
v is
our ces</w>
ou t
par ti
au th
b r
bu il
chil dren</w>
el ec
j ect</w>
en tr
d at
g en
ef for
at er</w>
ex p
li on</w>
wh ere</w>
la w</w>
st ance</w>
at t
si ve</w>
pro b
is m</w>
ho w</w>
ri bu
n ec
requ i
l and</w>
acti vities</w>
r it
feren ce</w>
E n
imple mentation</w>
po si
v en</w>
import ant</w>
enc y</w>
s c
P re
se e</w>
y ing</w>
s it
M r
o ff
s ing</w>
e ting</w>
re commen
I f</w>
proc ess</w>
im pro
w ar
n i
th ree</w>
k now</w>
be ing</w>
e d
v al
d on</w>
u ation</w>
e g
se t</w>
vi ron
vi ol
A d
le vel</w>
S p
es sion</w>
provi de</w>
on d</w>
be fore</w>
W or
d ec
A s</w>
lo b
s en
an ts</w>
As s
f am
po li
d uring</w>
we ver</w>
b a
il y</w>
ad di
ot h</w>
ro w
Com mission</w>
ar ly</w>
re le
emb ly</w>
r is
g re
c lo
g g
al iz
po l
A u
an cial</w>
co operation</w>
pres ent
di ffe
k et</w>
parti cip
g o</w>
go od</w>
le ar</w>
om e
ac h
par t</w>
d es</w>
bec ause</w>
1 0</w>
f ur
ag re
meas ures</w>
st ud
so cial</w>
Mr .</w>
ic ation</w>
sid ent</w>
ren g
c us
e duc
ad d
fol low
u ro
serv ices</w>
ai r
chang e</w>
ce p
o l</w>
l ast</w>
manag ement</w>
in ing</w>
th in
Ass embly</w>
cont ro
me di
hi gh</w>
s ame</w>
Af ric
olo gy</w>
i d</w>
ch ar
ne e
as es</w>
ra p
prob le
m emb
si de</w>
c ul
wh ile</w>
str y</w>
tic le</w>
An d</w>
o ver
effor ts</w>
A l
el l
ac tion</w>
t ro
E x
ac coun
en d
f ra
di rec
A t</w>
sel f</w>
me eting</w>
st reng
uc h</w>
k no
c our
com ple
issu es</w>
fi c</w>
fin ancial</w>
ad v
b us
E uro
m ak
ver s
an n
ou th</w>
res ources</w>
l ine</w>
C o
al y
w er</w>
li fe</w>
Th ey</w>
dat a</w>
M ar
go ing</w>
re ad
ac hi
d es
s s</w>
p ur
n ot
st ed</w>
ad op
on g
ec ted</w>
he alth</w>
s ession</w>
th er
p p
in ess</w>
en viron
A r
are as</w>
tak en</w>
di d</w>
R i
t ors</w>
l ong</w>
Secret ary</w>
b ack</w>
y p
Inter national</w>
regi onal</w>
fur ther</w>
contin u
d y</w>
organiz ations</w>
i str
st ar
b ased</w>
em s</w>
w ant</w>
lob al</w>
&apos; re</w>
T r
pro tec
un i
en sure</w>
al i
s es</w>
pro m
pro pos
Th ere</w>
par ty</w>
s a
st at
sti ll</w>
hi gh
l es</w>
A mer
0 00</w>
Amer ic
n on</w>
le ad
pl ace</w>
memb ers</w>
o m</w>
I s
go vernment</w>
d ate</w>
we e
cont ribu
go vern
poli tical</w>
c all
vel y</w>
De velop
b oth</w>
D ec
in ci
fi ed</w>
ex am
an d
O n</w>
ev en</w>
ati c</w>
plo y
ord in
Con vention</w>
F or</w>
leg al</w>
hel d</w>
r y</w>
m ed</w>
e ach</w>
ain ed</w>
rec ei
s ince</w>
M o
T o</w>
is h</w>
educ ation</w>
cri min
t ain</w>
ve st
mil lion</w>
is t</w>
ti c</w>
it al</w>
with in</w>
in stitu
provi ded</w>
ag es</w>
dis cus
or ity</w>
re co
res t</w>
w ays</w>
s ome
h ere</w>
L i
b an
re i
str ate
s m
m ul
u al</w>
b le</w>
af f</w>
w a
b il
thin k</w>
h ol
hel p</w>
p ul
t en</w>
program me</w>
pl an
B o
Un i
ap pe
2 0</w>
s ol
G roup</w>
deci sion</w>
h ou
, 000</w>
ti on
bel i
polic y</w>
D i
al e</w>
h ar
g ress</w>
mit ted</w>
min istr
mar ket</w>
do wn</w>
l ess</w>
e ve</w>
Develop ment</w>
com pl
m uch</w>
assi stance</w>
pro ce
&apos; m</w>
v ari
develop ing</w>
o p</w>
p a
ex peri
di vi
wor king</w>
commun ity</w>
n er
el d</w>
peri od</w>
e ty</w>
pen d
m ain</w>
contin ue</w>
Chin ese</w>
il ities</w>
pl ay
cap ac
ati on
S he</w>
si a</w>
ma j
t on</w>
s cho
diffe rent</w>
ro le</w>
n er</w>
acc ess</w>
o wn</w>
loc al</w>
tra ining</w>
a im
st ri
l ing</w>
Sec urity</w>
c ase</w>
Pre sident</w>
in du
col l
follow ing</w>
3 0</w>
con f
b ro
O r
rel ated</w>
st aff</w>
ten tion</w>
pr is
il i
ac k
sit uation</w>
t al
wor k
ar ticle</w>
dra ft</w>
partic ular</w>
tic s</w>
g row
Ho wever</w>
s pe
c an
con di
are a</w>
pu t</w>
O n
g roup</w>
b en
an aly
O ff
L e
t ural</w>
ear ch</w>
wh e
g lobal</w>
F e
N ew</w>
ai r</w>
ati ves</w>
su c
pl es</w>
in vest
or ities</w>
rele v
par ag
vi e
ini ti
pos sible</w>
im p
contro l</w>
do cu
re present
ac e
c ed</w>
Sp eci
P e
b er
ex pres
pol ice</w>
with out</w>
as s</w>
or i
t re
g ed</w>
f er
bus iness</w>
reg ard</w>
1 5</w>
in d</w>
pres ent</w>
t le</w>
pro f
ke y</w>
sec ond</w>
of f</w>
f ri
w ater</w>
c a
id enti
S er
u t
h al
stan d
1 2</w>
i fic
Off ice</w>
v ic
r ang
Th at</w>
w ard</w>
S u
i l</w>
protec tion</w>
nec ess
inte gr
ent ly</w>
th s</w>
in dic
te am</w>
serv ice</w>
thou gh</w>
relev ant</w>
el e
en ing</w>
ec han
n ext</w>
rei gn</w>
am ong</w>
struc tion</w>
ffic i
read y</w>
av ail
e p</w>
o w
buil ding</w>
capac ity</w>
an t
o ds</w>
Re public</w>
del eg
effec tive</w>
me th
it ary</w>
esti g
speci al</w>
incre ase</w>
re view</w>
em p
part ment</w>
u r</w>
t ur
addi tion</w>
fam ily</w>
pri v
nee ds</w>
di es</w>
comp any</w>
sup por
ou s
bu d
e ver
pl ac
at ure</w>
j ud
qu es
t able</w>
fu ture</w>
pe ace</w>
h ear
inv ol
ter min
recommen d
Con ference</w>
a ve</w>
g in
C ha
s ay</w>
issu e</w>
c am
b est</w>
f ound</w>
ful l</w>
su st
c ha
cur rent</w>
d om
Wh en</w>
i p
a ff
tra de</w>
ar ds</w>
su m
h op
suc c
P ol
com pe
techn ology</w>
in de
i als</w>
Speci al</w>
jec ts</w>
pro ject</w>
rap h</w>
Ri ghts</w>
sib ility</w>
S y
ti ce</w>
re as
n s</w>
F or
m en</w>
do es</w>
bet ter</w>
acc ord
ve ment</w>
g rou
lo o
par ties</w>
c ases</w>
Wh at</w>
b re
l it
ro ss</w>
consi der
pro gress</w>
m it</w>
ben ef
ou ra
ch all
t ot
si gn</w>
pers ons</w>
f our</w>
posi tion</w>
ic ations</w>
1 1</w>
h ome</w>
S o
ar ound</w>
at er
pl an</w>
s k
f y</w>
fun c
ul arly</w>
de red</w>
es p
M e
ful ly</w>
port un
t reat
G u
qu ality</w>
m echan
sp ec
um p</w>
S outh</w>
S h
ir d</w>
uc lear</w>
fi eld</w>
N ational</w>
un e</w>
re li
regi on</w>
s ha
parag raph</w>
establis hed</w>
s ci
n ess</w>
inv estig
grou ps</w>
pl y</w>
e f</w>
sy st
t or
s on</w>
t yp
se e
per form
at ely</w>
pl ay</w>
an other</w>
necess ary</w>
gre at</w>
st ate</w>
J u
i ous</w>
ai l</w>
cu st
vi sion</w>
vi l</w>
program mes</w>
W ith</w>
to o</w>
op portun
hal f</w>
accord ance</w>
ul t</w>
ec u
n or
M in
Euro pe
iz ed</w>
avail able</w>
se ver
ti m
sign ific
call ed</w>
an k</w>
an g</w>
H uman</w>
tr ac
M an
ex per
e very</w>
g ener
h ment</w>
H e
requ est
conf lic
re main
ploy ment</w>
maj or</w>
ex ist
f il
re duc
n al</w>
de t
d n</w>
d ri
w el
si c</w>
d ge</w>
in es</w>
bo dy</w>
r or
techn ical</w>
fi ve</w>
le ar
Europe an</w>
sh all</w>
c entr
fic ation</w>
develop ed</w>
us ing</w>
h um
con sul
mil itary</w>
Wor ld</w>
inclu de</w>
whe ther</w>
ret ur
d ays</w>
i ed</w>
Dec ember</w>
resul ts</w>
g es</w>
f a
f ace</w>
viol ence</w>
bec ome</w>
li ght</w>
l ack</w>
ter m</w>
c li
reco gn
1 4</w>
po pul
po wer</w>
m ember</w>
soci ety</w>
pers on</w>
li g
ba sis</w>
ci es</w>
di st
resul t</w>
co ordin
a k</w>
i de
sm all</w>
poin t</w>
R us
mat er
add ress</w>
our s</w>
g eneral</w>
appro pri
N or
mak ing</w>
M on
gi ve</w>
er ing</w>
c r
not ed</w>
d ence</w>
or ing</w>
in t</w>
ac y</w>
at h</w>
mon it
divi du
ti mes</w>
ati s
repor ts</w>
&apos; ve</w>
t old</w>
th ers</w>
struc ture</w>
lar ge</w>
t a
is l
se t
C entr
Afric a</w>
prom ote</w>
Or ganiz
con duc
z e</w>
&apos; ll</w>
stan ding</w>
vers ity</w>
accoun t</w>
st ing</w>
our ce</w>
200 8</w>
J o
n uclear</w>
ari at</w>
com b
pr inci
5 0</w>
mi ght</w>
en ter
ain able</w>
si an</w>
imp act</w>
P er
am es</w>
ad ministr
stud y</w>
l s</w>
ne t
in dividu
requi re
institu tions</w>
g ical</w>
speci fic</w>
polic ies</w>
res earch</w>
f ree</w>
J une</w>
produc tion</w>
re fore</w>
P l
v ice</w>
pro per
grow th</w>
ous ly</w>
1 0
tot al</w>
at ors</w>
p ast</w>
fin d</w>
an y
us tice</w>
o re
Th ese</w>
partic ularly</w>
1 8</w>
appl ication</w>
de termin
fo od</w>
exam ple</w>
we ap
h en
C our
adop ted</w>
ir e</w>
tu al</w>
ne l</w>
o ve</w>
c are</w>
ter ror
1 6</w>
ap er</w>
to ok</w>
environ ment</w>
de m
1 3</w>
s po
priv ate</w>
vari ous</w>
me ans</w>
pr ac
proble m</w>
go t</w>
th em
di ffic
vel s</w>
del i
Tr ump</w>
chil d</w>
gi ven</w>
de b
kno w
t ain
le ast</w>
s ays</w>
am oun
M ay</w>
201 0</w>
ne ver</w>
al ways</w>
proble ms</w>
reg ul
A ll</w>
m un
J ap
rec ent</w>
m or
ot ing</w>
ge ther</w>
war ds</w>
gi es</w>
du ce</w>
R o
200 5</w>
enti al</w>
scho ol</w>
c ity</w>
com mit
2 5</w>
t ar
R es
O c
requi red</w>
ear ly</w>
impro ve</w>
ol s</w>
p e</w>
w in
S o</w>
ic s</w>
ti al</w>
sec tor</w>
rec or
ic k</w>
gen der</w>
lo ok</w>
for ce</w>
ever y
st or
res sed</w>
to day</w>
condi tions</w>
resp ect</w>
st er</w>
ris k</w>
d ers</w>
auth orities</w>
fe w</w>
200 9</w>
ag ain</w>
in ation</w>
De partment</w>
al ready</w>
cust om
201 2</w>
200 6</w>
syst ems</w>
le vels</w>
Ju ly</w>
b ur
str ic
re ally</w>
sh or
D is
at or</w>
de f
gi r
Afric an</w>
I C
s ite</w>
to gether</w>
appropri ate</w>
concer ned</w>
g ency</w>
y oun
comp an
ul es</w>
201 1</w>
200 7</w>
sign ed</w>
Organiz ation</w>
pers on
repor ted</w>
he ad</w>
enc oura
sever al</w>
air s</w>
recommend ations</w>
Cour t</w>
S ep
ro om</w>
pro jects</w>
en ted</w>
wee k</w>
si onal</w>
mon ths</w>
ass ess
t om
consul t
produc ts</w>
en s</w>
mul ti
M r</w>
th ird</w>
econom y</w>
u b
F o
J an
as k</w>
On e</w>
in ed</w>
c ent
propos ed</w>
co st</w>
pre hen
sp ace</w>
olo gical</w>
T ra
at tention</w>
invest ment</w>
an it
ist er</w>
ex pl
v ol
in tro
g reat
iz ation</w>
em er
an ds</w>
en ces</w>
know le
c le
w ed</w>
ou gh</w>
s ch
H i
do m</w>
e ven
ex ten
of ten</w>
ob jec
j u
chang es</w>
L a
tak ing</w>
acc or
fac t</w>
b ri
& #
st ory</w>
ari an</w>
p ass
U S</w>
con fi
consi dered</w>
esti c</w>
deleg ation</w>
me work</w>
E con
leg isl
olu tions</w>
c lear</w>
a red</w>
conflic t</w>
Econ om
con clu
op en</w>
val ue</w>
d en</w>
pre vi
de fin
lit tle</w>
t ember</w>
h ing</w>
govern mental</w>
ess es</w>
n ers</w>
Sep tember</w>
r ate</w>
e ments</w>
h u
&# 9
I m
v al</w>
1 7</w>
ab ove</w>
P al
F in
ener gy</w>
perform ance</w>
F un
d ly</w>
en cies</w>
continu ed</w>
b ed</w>
sec u
mi gr
cur ren
Is ra
r an
require ments</w>
ti l</w>
mon ey</w>
fo reign</w>
200 4</w>
ci vil</w>
le ft</w>
Go vern
ep ing</w>
imple men
du e</w>
si t</w>
stat ement</w>
experi ence</w>
v ity</w>
exp ected</w>
con struction</w>
incre as
al low
ci r
pe ace
e m</w>
str u
ri ed</w>
se qu
sust ainable</w>
su gg
popul ation</w>
an s
re fl
incre ased</w>
b al
con nec
a ffec
import ance</w>
cu s</w>
in ten
M ember</w>
2 4</w>
No v
medi a</w>
al ia</w>
I ra
ac cep
Uni on</w>
bud get</w>
qu ar
me et</w>
recei ved</w>
por ts</w>
Mar ch</w>
ol e</w>
En g
chall eng
oper ations</w>
sa fe
f ar</w>
comm on</w>
el s</w>
prehen sive</w>
dom estic</w>
cl aim
li k
aliz ation</w>
et ings</w>
le t</w>
ec tion</w>
vic ti
O b
N o</w>
go ti
me d
pos e</w>
streng then</w>
indu stry</w>
al o
re e
ra is
a z
S e
1 9</w>
to ber</w>
Bo ard</w>
er n</w>
i ght</w>
inte re
gu e</w>
Oc tober</w>
sho w</w>
establis hment</w>
l y
accor ding</w>
2 1</w>
ar s</w>
en ed</w>
Af ter</w>
ater al</w>
agre ed</w>
n ame</w>
w it
s al
t em
u ary</w>
compe ti
ques tion</w>
vel op</w>
N e
it ing</w>
addi tional</w>
Nov ember</w>
cour se</w>
ti vely</w>
o s</w>
y s</w>
organiz ation</w>
f er</w>
le t
streng th
ang u
st and</w>
Jan uary</w>
iz e</w>
d ru
particip ation</w>
I D
po ver
ne t</w>
de l</w>
p ed</w>
dis crimin
at ory</w>
un til</w>
ne goti
form ation</w>
re al</w>
ro w</w>
me etings</w>
I I</w>
a way</w>
G er
e ffici
p ing</w>
1 .
o t</w>
di t</w>
treat ment</w>
ab or
ce ment</w>
beli eve</w>
Americ an</w>
Wh ile</w>
200 0</w>
m u
youn g</w>
provi des</w>
si on
gi c</w>
provi sions</w>
a de
A pri
pover ty</w>
Apri l</w>
co sts</w>
ur y</w>
appro ach</w>
d le</w>
m ate</w>
vie ws</w>
gu id
2 2</w>
com es</w>
n am
respon se</w>
si x</w>
de velop</w>
analy sis</w>
ch ed</w>
ac tions</w>
R ec
anit arian</w>
com pu
weap ons</w>
gr ound</w>
p ai
re form</w>
p aper</w>
ec ts</w>
en ni
d ent</w>
exist ing</w>
lo ve</w>
de sign</w>
h ours</w>
it ation</w>
he ad
inde pend
H ong</w>
fra mework</w>
S ome</w>
Econom ic</w>
en ter</w>
ob lig
po ten
lar g
ill ed</w>
ni ght</w>
fo cus</w>
tra di
f ail
th ings</w>
3 1</w>
ecu tive</w>
d on
intro duc
lo t</w>
201 3</w>
C ol
ke eping</w>
agre ement</w>
com ing</w>
ev ed</w>
some thing</w>
p at
So cial</w>
char ac
esp eci
A p
c all</w>
j ing</w>
ag o</w>
g an</w>
ag encies</w>
K ong</w>
especi ally</w>
expres sed</w>
g ame</w>
pr acti
star t</w>
d ro
2 3</w>
ag ed</w>
up on</w>
compan ies</w>
m ary</w>
form s</w>
T o
pre par
str ong</w>
ay ing</w>
wi de</w>
li mit
signific ant</w>
F i
ist an</w>
us es</w>
lis t</w>
Americ a</w>
concer n</w>
V i
pos ed</w>
em ployment</w>
in e
e ver</w>
M is
b l
com prehensive</w>
hou se</w>
clo se</w>
aliz ed</w>
o thers</w>
In di
ver age</w>
to p</w>
si m
b an</w>
tu ally</w>
h er
pub lic
d one</w>
cer tain</w>
des cri
respon sibility</w>
s h</w>
pos t</w>
d r
mo ve</w>
consi der</w>
ab ly</w>
c ame</w>
offic ials</w>
H is</w>
g ing</w>
ag end
requ est</w>
stat us</w>
w on</w>
for ward</w>
wor ks</w>
ip ment</w>
consider ation</w>
Th e
p ay</w>
off ice</w>
Pro gram
4 0</w>
la un
v o
li ving</w>
D em
wh y</w>
stand ards</w>
M y</w>
s ing
M ini
mon th</w>
ter ms</w>
Fun d</w>
ser ious</w>
oc cu
the refore</w>
as h</w>
n ote</w>
enni um</w>
l ater</w>
ha pp
ev al
person nel</w>
Mini stry</w>
can not</w>
in fl
t ory</w>
b ru
K ore
stud ents</w>
Q u
sub mitted</w>
ar ri
challeng es</w>
ke ts</w>
d en
agend a</w>
environ mental</w>
amoun t</w>
Pal est
B e
cam pai
ho wever</w>
B ei
es day</w>
- -</w>
h ard</w>
s ex
m ing</w>
to wards</w>
C an
y et</w>
docu ment</w>
net work</w>
ge t
Jap an</w>
w rit
z ed</w>
n at
a w
l angu
e ff
for ces</w>
kno wn</w>
ve red</w>
ver s</w>
inte rest</w>
r ules</w>
W omen</w>
t est</w>
ac tive</w>
k ind</w>
request ed</w>
att ac
nee ded</w>
strate gy</w>
cre ate</w>
le ad</w>
inclu ded</w>
B ri
Bei jing</w>
mat ter</w>
h old</w>
oun d
P o
Au str
pre v
se en</w>
e vi
pl ans</w>
st u
Program me</w>
poin ts</w>
200 3</w>
lik ely</w>
form er</w>
Secret ariat</w>
fu ge
s .</w>
ing ly</w>
ro ad</w>
ar ti
proper ty</w>
deci ded</w>
bo dies</w>
b all</w>
A n</w>
ic k
y s
cul tural</w>
ci v
en ds</w>
mo tion</w>
6 0</w>
as ked</w>
Ho w</w>
2 .
di dn</w>
er y</w>
in come</w>
high er</w>
g s</w>
Par ties</w>
Euro pe</w>
Wor king</w>
monit oring</w>
w ing</w>
ac ts</w>
knowle dge</w>
w ar</w>
equ ipment</w>
om an</w>
A ra
succ ess
achi eve</w>
2 6</w>
ke ep</w>
ar med</w>
d ou
hum anitarian</w>
repor ting</w>
r un
bi g</w>
cont ext</w>
I N
fin al</w>
Au g
on es</w>
b or
prac tic
mis sions</w>
ai m</w>
Ac cor
in c
hop e</w>
ti ves</w>
l u
de al</w>
st re
ther n</w>
ti z
imple ment</w>
ak ing</w>
st o
cri sis</w>
as p
practi ce</w>
v ation</w>
set t
fun ds</w>
2 8</w>
plan ning</w>
con tr
h ot
j ustice</w>
wh ole</w>
sub stan
lis h</w>
ha ving</w>
jo b</w>
ag ement</w>
x im
200 2</w>
h and</w>
oc r
D P</w>
eff ect</w>
F r
on ce</w>
or ies</w>
Min ister</w>
ru n</w>
ric ul
rel ation
Ira q</w>
ex c
Hi gh</w>
indu stri
l ab
re ad</w>
in st
c al
ex plo
fac il
thou ght</w>
Aug ust</w>
E ast</w>
Accor ding</w>
r ac
det ail
represent atives</w>
w an
U .
A b
poten tial</w>
A sia</w>
T ur
ba sic</w>
p ic
2 7</w>
de ath</w>
qu e</w>
diffic ult</w>
rang e</w>
previ ous</w>
D uring</w>
re at</w>
li ve</w>
de mo
cour t</w>
con ven
L o
l ong
Dem ocr
d am
s ent</w>
fe el</w>
ad ded</w>
w ent</w>
mo del</w>
reg ar
fer red</w>
st ra
man date</w>
is ms</w>
con stitu
invol ved</w>
pres ented</w>
i tion</w>
i or</w>
safe ty</w>
S .</w>
bil lion</w>
c o</w>
bru ary</w>
discrimin ation</w>
Fe bruary</w>
plac ed</w>
i an</w>
vis ory</w>
respon sible</w>
tu res</w>
p tion</w>
A ff
er ship</w>
provi ding</w>
200 1</w>
gu ar
in a</w>
ast er</w>
work ers</w>
p i
ab ilities</w>
du res</w>
re ly</w>
ec hn
c ou
as soci
ac ross</w>
establis h</w>
retur n</w>
offic ial</w>
di alo
er c
R ap
is hed</w>
c ar</w>
199 9</w>
ar ing</w>
s em
por te
meth od</w>
ch i
victi ms</w>
Y or
u es</w>
en jo
201 4</w>
sub ject</w>
at s</w>
cap ital</w>
crimin al</w>
shi ps</w>
W e
qu i
es sional</w>
d a
opportun ity</w>
i de</w>
ann oun
se ts</w>
S ince</w>
pur su
s or
C ri
w oman</w>
t ation</w>
anc ing</w>
it em</w>
M a
P ri
p ay
po w
bo ok</w>
Ser vice</w>
sel ves</w>
do ing</w>
in f
pre ci
represent ative</w>
sh are</w>
g in</w>
m ess
pa ren
elec tr
proce dures</w>
sci enti
diffe ren
prev ent</w>
t es</w>
esti m
op s</w>
ade qu
an ces</w>
affec ted</w>
Aff airs</w>
li a
Fe der
curren tly</w>
1 8
Govern ments</w>
c are
s ou
v ot
facil it
am s</w>
t ect</w>
t ent</w>
ist s</w>
v ices</w>
practic es</w>
y es</w>
g a
&apos; d</w>
ill s</w>
m er</w>
br ing</w>
produc t</w>
pr ice</w>
ar ma
mo der
med ical</w>
suppor ted</w>
typ e</w>
1 5
Uni versity</w>
Centr al</w>
w at
mp ;</w>
&a mp;</w>
201 5</w>
d ated</w>
19 8
dist ribu
r ing</w>
d ates</w>
sec ret
equ ality</w>
bo o
o il</w>
fol low</w>
Rus sian</w>
nat ural</w>
t ell</w>
b ack
re fuge
ap poin
vi sit</w>
Yor k</w>
id dle</w>
ar rang
great er</w>
ch ec
mechan isms</w>
o gra
in no
ach ing</w>
out side</w>
pris es</w>
rel ations</w>
le ave</w>
auth or</w>
limit ed</w>
1 00</w>
ner ship</w>
ann ual</w>
Di rec
individu al</w>
se as
re duce</w>
B y</w>
an ti
op e</w>
2 9</w>
im medi
pro tect</w>
ti sh</w>
per cent</w>
ex change</w>
en ough</w>
Palest ini
su sp
evi dence</w>
porte ur</w>
C O
exper ts</w>
arma ment</w>
ra ther</w>
ly mp
assess ment</w>
c y</w>
T echn
coordin ation</w>
under standing</w>
Pe ople</w>
o d
ch ing</w>
cl es</w>
hi story</w>
ic ally</w>
at ten
ne w
buil d</w>
fun ding</w>
n ation
se par
pr ise</w>
strength ening</w>
in s</w>
a u</w>
I V</w>
li gh
ph one</w>
fi f
occu p
B ank</w>
direc t</w>
Rap porteur</w>
i gh
as h
o w</w>
increas ing</w>
ex erc
om s</w>
O lymp
ill ing</w>
in stru
cep t</w>
. 1</w>
c y
ter rit
b it
ev ent</w>
C ar
terror ism</w>
sex ual</w>
O ur</w>
rou ght</w>
a vi
legisl ation</w>
Nor th</w>
si mil
S up
part ners</w>
l at
C lin
provi sion</w>
posi tive</w>
a wa
La w</w>
remain s</w>
tr u
pro gra
p ati
opportun ities</w>
jo int</w>
bi a</w>
ste ps</w>
r an</w>
la ws</w>
par ts</w>
0 ,000</w>
res er
No w</w>
civ ili
compu ter</w>
reg ular</w>
campai gn</w>
elec tion</w>
cor por
w al
Re gi
car ried</w>
h y
deci sions</w>
am a</w>
ho sp
st oc
p t</w>
w in</w>
sec tion</w>
h un
c ra
ch em
commun ication</w>
U. S.</w>
av ing</w>
O p
anc ed</w>
Eng lish</w>
oun ds</w>
man u
in fra
cul ture</w>
C or
shor t</w>
f av
Cha ir
c ause</w>
ru le</w>
an el</w>
dialo gue</w>
h on
gen ous</w>
di ed</w>
low er</w>
ser ies</w>
T A
cri me</w>
mo ther</w>
tion ed</w>
w r
Sy ri
r ural</w>
h ic
over all</w>
ag ricul
me t</w>
E l
s af
Ch ar
so on</w>
adv ant
Ad ministr
comple te</w>
v ote</w>
sing le</w>
lar ation</w>
princi ples</w>
1 3
il ies</w>
b it</w>
ac hed</w>
re main</w>
ph ys
ci tiz
cont ained</w>
S i
lead ers</w>
I S
fir e</w>
Mis sion</w>
ain s</w>
b un
m om
re f
Is l
Ar ticle</w>
e th
gir ls</w>
jud ic
in t
reli gi
al low</w>
dis e
relation ship</w>
st ated</w>
av o
n ature</w>
ron t</w>
f lo
al most</w>
us er</w>
emp ha
ut es</w>
play ed</w>
ha p
princi ple</w>
benef its</w>
ar ms</w>
ste p</w>
fac ilities</w>
M s.</w>
pa red</w>
ffic king</w>
d a</w>
guar an
f el
res olutions</w>
Par ty</w>
issu ed</w>
go al</w>
exp an
com mitted</w>
strate gic</w>
cir c
loc ation</w>
Ac t</w>
pri ority</w>
mechan ism</w>
B ra
w ish</w>
gh out</w>
u su
sur ve
T ri
g l
P r
t ext</w>
mak es</w>
co l</w>
199 8</w>
min d</w>
In formation</w>
Man agement</w>
ob serv
con ference</w>
con fir
a th
C ity</w>
p aid</w>
te red</w>
pur pose</w>
sugg est
langu age</w>
to col</w>
hap pen
investig ation</w>
f ile</w>
po or</w>
dru g</w>
commit ment</w>
h ance</w>
mo d
en s
demo cr
m ach
P h
s ource</w>
Kore a</w>
ad a</w>
man ent</w>
la w
st age</w>
simil ar</w>
G en
administr ative</w>
it er
e a
under stand</w>
implemen ted</w>
loo king</w>
Ch il
al ong</w>
it self</w>
recommen ded</w>
Re present
en ding</w>
ne x</w>
S c
independ ent</w>
D o</w>
infl u
ve hic
T er
dem and</w>
nor m
t led</w>
T ai
resp ec
en hance</w>
wor ds</w>
f ree
oblig ations</w>
j ur
comp on
tur n</w>
de st
A m
ori gin
Clin ton</w>
clo s
prom oting</w>
Ac tion</w>
lo st</w>
ne ws</w>
pers onal</w>
F ir
go als</w>
pre vention</w>
el ines</w>
infra structure</w>
centr al</w>
F ri
at ures</w>
comm er
l ate</w>
ven ess</w>
ne y</w>
T u
reduc tion</w>
en for
adop tion</w>
ar t</w>
pen s
appro ved</w>
pro motion</w>
pr ices</w>
vi de
Isra el</w>
re ach</w>
integr ation</w>
direc tly</w>
tradi tional</w>
th reat
adequ ate</w>
re ment</w>
ha i</w>
ques tions</w>
fam ilies</w>
v ul
Centr e</w>
con trac
tar ge
ch es</w>
Palestini an</w>
cont ent</w>
ren ess</w>
al leg
or gan
pri mary</w>
our th</w>
sho ws</w>
scho ols</w>
min utes</w>
cli mate</w>
throu ghout</w>
seas on</w>
ne ar</w>
fa ther</w>
long er</w>
organiz ed</w>
mater ials</w>
pre pared</w>
stan ces</w>
be gan</w>
re st
them selves</w>
ex tre
r ates</w>
S tr
conduc t</w>
en n
concer ns</w>
a verage</w>
me an</w>
even ts</w>
manu fac
can di
m em
meth ods</w>
be gin
Ex ecutive</w>
inform ed</w>
add ressed</w>
trans fer</w>
pro v
pp ed</w>
is tics</w>
Af gh
mar kets</w>
sup ply</w>
ag ue</w>
b rought</w>
a men
G e
us e
k illed</w>
se ar
E U</w>
Pol ice</w>
enter prises</w>
ser ver</w>
commun ities</w>
so f
su per
reas on</w>
Democr atic</w>
li er</w>
tra fficking</w>
proce d
hear t</w>
su mp
Al though</w>
en ded</w>
inclu des</w>
lead ing</w>
de mon
discus sion</w>
su ffici
paren ts</w>
olo gies</w>
Com mun
viol ations</w>
r ati
achi e
ei ther</w>
b ir
c ing</w>
am p</w>
In stitu
stand ard</w>
si tion</w>
1 4
W est</w>
awa reness</w>
succ ess</w>
connec tion</w>
M al
docu ments</w>
us ers</w>
fri ends</w>
Rus sia</w>
ta x</w>
as y</w>
tw are</w>
ve ments</w>
sid es</w>
E S
pub lis
b lo
H ou
bel ow</w>
g er</w>
in di
st atis
rec ently</w>
c op
eval uation</w>
in ter</w>
offic ers</w>
sc ale</w>
li ves</w>
s olution</w>
en able</w>
wan ted</w>
contribu tions</w>
Austr alia</w>
demon str
en han
el im
rel ating</w>
han d
er ia</w>
negoti ations</w>
Ad visory</w>
Bri tish</w>
si ze</w>
le ase</w>
lo ss</w>
th us</w>
ap preci
vul ner
att emp
d ol
t ren
As soci
su s</w>
ess ing</w>
func tions</w>
we b
regi ons</w>
benef it</w>
sa w</w>
tra vel</w>
st op</w>
d ings</w>
aim ed</w>
intere sts</w>
pres sure</w>
L on
1 7
pro mis
th y</w>
fri end</w>
re sid
ffe red</w>
appl ications</w>
f is
rais ed</w>
3 ;</w>
&#9 3;</w>
1 6
not es</w>
fac tors</w>
u ti
h om
u te</w>
ment ary</w>
lin es</w>
our n
hol ders</w>
pre sident</w>
identi fied</w>
inter nal</w>
1 ;</w>
&#9 1;</w>
Indi a</w>
No .</w>
pro secu
charac ter
M any</w>
ar ies</w>
on ic</w>
f le
bro ad
wor d</w>
S un
st ability</w>
mis sion
ar re
star ted</w>
Fir st</w>
agre ements</w>
I O
cor rec
recor d</w>
o ples</w>
mater ial</w>
H C
ant i</w>
ate g
enti tled</w>
au tom
F rom</w>
administr ation</w>
al le
recei ve</w>
success ful</w>
att ack</w>
E duc
Ara b</w>
equ al</w>
ur ban</w>
Fr ance</w>
let ter</w>
fun da
co vered</w>
cl ass</w>
h ind</w>
P ub
ser ve</w>
conduc ted</w>
He alth</w>
cre ated</w>
s cre
F ur
func tion</w>
si x
UN DP</w>
cri tical</w>
consi st
off er</w>
H ar
initi atives</w>
F ren
assi st</w>
effec tively</w>
S te
acti vity</w>
s aying</w>
min im
t ou
c ru
es n</w>
U K</w>
t i</w>
tr ying</w>
fo c
se ven</w>
Un der</w>
pres s</w>
claim s</w>
indi genous</w>
grow ing</w>
do w
S a
sc en
z h
Ger many</w>
re ached</w>
do c
A N
mor ning</w>
effec ts</w>
S um
compl ain
ei ght</w>
hear d</w>
prof essional</w>
achi eved</w>
oper ational</w>
asp ects</w>
sp a
man ner</w>
particip ate</w>
com mittee</w>
em plo
bo ard</w>
3 .
m ag
t op
f em
M ill
w an</w>
res ource</w>
exerc ise</w>
co ver</w>
ide a</w>
T im
competi tion</w>
ti veness</w>
1 ,
it able</w>
sci ence</w>
effor t</w>
loc ated</w>
me an
i m</w>
ac i
A T
it ems</w>
al though</w>
Lon don</w>
wee ks</w>
B ar
sump tion</w>
peace keeping</w>
do esn</w>
D o
ca used</w>
comple ted</w>
ab s
w o
l dn</w>
quar ters</w>
be half</w>
us h</w>
saf e</w>
all s</w>
individu als</w>
r ound</w>
M ic
3 5</w>
a di
contribu te</w>
consult ations</w>
Direc tor</w>
l er</w>
be hind</w>
circ um
ver sion</w>
ver si
fi ght</w>
char ge</w>
ach es</w>
c le</w>
P lease</w>
bal ance</w>
ban k</w>
chang ed</w>
men tioned</w>
f ront</w>
d ang
O ther</w>
proc esses</w>
he av
en ge</w>
ul ation</w>
gra du
s atis
spo k
UN C
x i
regar ding</w>
b order</w>
de al
st ay</w>
g ar
de sign
ra di
vi a</w>
wh ose</w>
recogn ized</w>
er ous</w>
integr ated</w>
strate gies</w>
requ ire</w>
H IV</w>
st ates</w>
h or
d i</w>
introduc ed</w>
B ec
U S
deb ate</w>
Pro tocol</w>
t ele
objec tives</w>
contr act</w>
st ressed</w>
po sts</w>
oper ating</w>
announ ced</w>
Fren ch</w>
y a</w>
p un
re stric
pos es</w>
ec h</w>
st y
c ateg
ati c
a ther</w>
r ace</w>
Can ada</w>
cri mes</w>
on line</w>
Sh ang
go ods</w>
A gency</w>
z er
trans port</w>
phys ical</w>
ess ential</w>
vie wed</w>
ste ad</w>
t ask</w>
to wn</w>
mat ters</w>
compl i
Di vision</w>
effici ency</w>
T V</w>
Represent ative</w>
T w
sal es</w>
all ing</w>
ID S</w>
tak es</w>
b ra
ab les</w>
sof tware</w>
cont act</w>
por ary</w>
Su b
iz ing</w>
re ference</w>
W ell</w>
bec ame</w>
offic es</w>
hou sing</w>
le ment</w>
custom ers</w>
T e
de signed</w>
B rit
indic ated</w>
Th en</w>
e asy</w>
loc k</w>
appl y</w>
proced ure</w>
B el
b ility</w>
si st
tran spa
Sy stem</w>
ten ance</w>
wa it</w>
propos al</w>
Olymp ic</w>
pre sid
discus sed</w>
tec tion</w>
ele ments</w>
vol un
deb t</w>
ali an</w>
b ers</w>
vis ed</w>
sup pl
f f</w>
r a</w>
b as
arrang ements</w>
vide o</w>
refuge es</w>
main ly</w>
impro ved</w>
facilit ate</w>
I s</w>
op ening</w>
car ry</w>
attac ks</w>
g ave</w>
c ore</w>
S ud
E C
ate ments</w>
elec tions</w>
dou b
scienti fic</w>
migr ation</w>
t ained</w>
g ure</w>
ter n
con sum
chall enge</w>
contribu tion</w>
ast e</w>
sp i
no thing</w>
Isra el
dis armament</w>
C am
impro ving</w>
T reat
main tain</w>
tal k</w>
ens uring</w>
u ations</w>
ro r</w>
t al</w>
tri al</w>
cl aim</w>
p il
se a</w>
pre ven
an im
ra ise</w>
aff ir
Dec laration</w>
mess age</w>
ne g
ear lier</w>
A IDS</w>
S en
guid elines</w>
enfor cement</w>
h im
suffici ent</w>
Shang hai</w>
al ities</w>
k er</w>
Sc ot
ea si
bec om
r ise</w>
any thing</w>
de pen
f ast</w>
coll abor
op ini
G lobal</w>
sur ance</w>
G i
reas ons</w>
pe oples</w>
res ol
tar get</w>
com pens
emer gency</w>
comp ared</w>
4 5</w>
Fri day</w>
fin ancing</w>
get ting</w>
th reat</w>
sen se</w>
Fo reign</w>
funda mental</w>
is tic</w>
19 7
stitu tion</w>
play ers</w>
G re
M I
judic ial</w>
de pend
ac tually</w>
str ong
mo ved</w>
techn ologies</w>
v ill
sol id
des p
some one</w>
continu es</w>
free dom</w>
g res
larg est</w>
b and</w>
Mon day</w>
O f</w>
b ul
as sets</w>
ak e
s ources</w>
call s</w>
201 6</w>
be au
ad ju
secret ariat</w>
S ci
199 7</w>
tri bu
M i
ad s</w>
s mo
ch e
begin ning</w>
lead ership</w>
request s</w>
re ferred</w>
industri al</w>
moder n</w>
x ed</w>
fo ot
jec ted</w>
s co
t uring</w>
do or</w>
Wh y</w>
every thing</w>
fun d</w>
concer ning</w>
multi l
progra m</w>
f ourth</w>
bun al</w>
typ es</w>
a h</w>
j i
E m
ev ing</w>
dat ab
emplo ye
f ying</w>
cu t</w>
b ab
regul ations</w>
0 s</w>
y ed</w>
A R
wi fe</w>
ha vi
Educ ation</w>
ne arly</w>
hot el</w>
sib ilities</w>
ell s</w>
par a</w>
mar k</w>
sc ope</w>
J ustice</w>
descri bed</w>
ter nal</w>
Pub lic</w>
Chair man</w>
ru ption</w>
b ase</w>
En viron
3 2</w>
for ced</w>
laun ched</w>
P anel</w>
h it</w>
ci ties</w>
Isl am
citiz ens</w>
tr ue</w>
E R
cre dit</w>
en se</w>
Ob ama</w>
s qu
prepar ation</w>
avo id</w>
E F</w>
an tly</w>
ex clu
C i
commun ications</w>
Mill ennium</w>
comb at</w>
implemen ting</w>
Inter net</w>
t in
ab use</w>
sec on
y ond</w>
4 .
c anc
identi fy</w>
diffic ul
arti cles</w>
ogra ph
Institu te</w>
Y our</w>
circum stances</w>
p age</w>
b ad</w>
all ed</w>
is ed</w>
el i
requi res</w>
Tu esday</w>
ag ing</w>
em ploy
m a</w>
res sing</w>
lab our</w>
Tai wan</w>
distribu tion</w>
re pe
com ments</w>
aliz e</w>
bi gg
discus sions</w>
publis hed</w>
sho p</w>
Israel i</w>
Associ ation</w>
auth ority</w>
tor al</w>
N i
run ning</w>
Res earch</w>
wi d
con sequ
f all</w>
co oper
h es</w>
o di
le y</w>
recommen ds</w>
appl ic
pow er
confi dence</w>
M ore</w>
ar gu
W ed
Brit ain</w>
I ran</w>
estim ated</w>
C hi
ail y</w>
treat y</w>
Tra de</w>
gh ter</w>
ex ic
O per
c at
m y
D on
anc y</w>
6 5</w>
com ed</w>
min ist
sen ior</w>
every one</w>
Ser vices</w>
Bra z
W est
wel comed</w>
g as</w>
main tenance</w>
M exic
ph ot
happ y</w>
objec tive</w>
recommend ation</w>
be havi
sk ills</w>
in k</w>
vers al</w>
f ar
allow ed</w>
on going</w>
col le
sec tors</w>
rec ru
Bec ause</w>
commer cial</w>
M c
M or
exper t</w>
govern ance</w>
al ed</w>
st ation</w>
re si
coll ec
pend it
reco very</w>
ne igh
sho wn</w>
sen sus</w>
dam age</w>
For um</w>
ag ency</w>
fel t</w>
st atements</w>
t un
re ve
ff ic</w>
particip ants</w>
k a</w>
t ely</w>
maj ority</w>
wor ked</w>
A sian</w>
st ake
en ty</w>
auth or
enter prise</w>
str ation</w>
c ro
d ents</w>
desp ite</w>
C .
Wed n
ho st</w>
cle arly</w>
qu ick
tu red</w>
thou s
oun ded</w>
web site</w>
re au</w>
S uch</w>
Sun day</w>
pur ch
ver se</w>
8 0</w>
ad ap
Wedn esday</w>
7 0</w>
sear ch</w>
dis pu
mission er</w>
h n</w>
e ar</w>
gir l</w>
centr e</w>
ur s
al one</w>
lat est</w>
lear n</w>
rele ased</w>
him self</w>
cer tain
be yond</w>
i ti
at ur
guid ance</w>
ple ase</w>
t our
to ols</w>
posi tions</w>
cer ti
est s</w>
l an
plac es</w>
con cept</w>
ph ase</w>
A t
fem ale</w>
0 .
part ments</w>
c ross</w>
pr in
Tr ans
ound ation</w>
un its</w>
cent res</w>
an ese</w>
vi r
immedi ately</w>
min e</w>
el ds</w>
co de</w>
lear ning</w>
initi ative</w>
b s</w>
an istan</w>
mo di
oc cur
d in
L .
an nex</w>
k in
ex ecu
f air</w>
prac tical</w>
propos als</w>
ain ing</w>
ex pen
tr ust</w>
Afgh anistan</w>
de tention</w>
L ab
terror ist</w>
W i
f requ
Com p
institu tional</w>
4 8</w>
aci fic</w>
dow n
see k</w>
usu ally</w>
suggest ed</w>
m ic
bil ateral</w>
stu dies</w>
su ff
G ames</w>
B i
bre ak</w>
Th urs
bo x</w>
compli ance</w>
fe atures</w>
ob s</w>
A S
St ud
ast ern</w>
spok es
H u
encoura ge</w>
5 00</w>
sto od</w>
P acific</w>
Re port</w>
sit es</w>
Thurs day</w>
instru ments</w>
fri end
appl ied</w>
Pl an</w>
hosp ital</w>
mom ent</w>
6 3</w>
F ol
w is
es sions</w>
high est</w>
determin e</w>
deleg ations</w>
w on
sem in
6 7</w>
val ues</w>
199 6</w>
k i
op tions</w>
199 5</w>
hi stor
se x</w>
te ams</w>
clo sed</w>
lin ed</w>
pl at
qu ali
impro vement</w>
3 4</w>
discus s</w>
s olutions</w>
im pl
feren ces</w>
detail s</w>
U N</w>
enti re</w>
sho wed</w>
z one</w>
comple x</w>
qu ite</w>
l ess
b ar
w ise</w>
d y
Sud an</w>
contro l
3 6</w>
bi ennium</w>
condi tion</w>
ma xim
ing dom</w>
bu y</w>
a i</w>
deli very</w>
remain ed</w>
Com missioner</w>
eng ine
dic tion</w>
l and
do w</w>
adv ice</w>
3 3</w>
im age</w>
Islam ic</w>
ex pendit
in surance</w>
Tw o</w>
vulner able</w>
pati ents</w>
n ation</w>
sim ple</w>
t an
elim in
ec e</w>
cra ft</w>
s ound</w>
y er</w>
Co ordin
al tern
stric t</w>
UN O
5 5</w>
foc used</w>
ur g
multil ateral</w>
religi ous</w>
per f
agricul tural</w>
sha red</w>
L eg
m its</w>
ad d</w>
mo vement</w>
O ffic
Sup port</w>
er a</w>
ev es</w>
fo re
ati vely</w>
ex tent</w>
dis aster</w>
effici ent</w>
ban ks</w>
b lack</w>
s la
ac ci
The refore</w>
h our</w>
origin al</w>
ord ers</w>
op ened</w>
t ting</w>
b ot
Mo st</w>
Tri bunal</w>
dise ase</w>
6 4</w>
G od</w>
he al
reg im
spe ed</w>
L et</w>
peace ful</w>
u t</w>
5 7</w>
de ployment</w>
w as
buil t</w>
ro wn</w>
li min
T i
produc tive</w>
quick ly</w>
ste red</w>
uc k</w>
J i
meas ure</w>
enjo y</w>
neg ative</w>
in side</w>
pl om
al d</w>
fi gh
ing ton</w>
proc essing</w>
play ing</w>
s anc
li fer
In du
mat ch</w>
Pro v
P ak
plan ned</w>
it ors</w>
ay be</w>
min al</w>
datab ase</w>
ti vity</w>
Techn ology</w>
cent ury</w>
con sensus</w>
de vice</w>
associ ated</w>
se ems</w>
low ing</w>
Jo hn</w>
k ers</w>
f low</w>
multi ple</w>
commit ments</w>
reduc ed</w>
Hou se</w>
chec k</w>
hi bi
jur is
5 8</w>
g ames</w>
clos ely</w>
mp i
pur poses</w>
a ur
Re public
ac tors</w>
appe ar</w>
the re
territ ory</w>
surve y</w>
achi eving</w>
out come</w>
coll ection</w>
P or
b ac
fil m</w>
gu n</w>
tra ffic</w>
E N
detail ed</w>
ri t</w>
t a</w>
g old</w>
fe der
cho ose</w>
respon d</w>
rele ase</w>
re iter
6 2</w>
suppor ting</w>
p ack
sit uations</w>
M iddle</w>
Au th
C ub
H ot
ri es</w>
af ter
effec tiveness</w>
3 7</w>
acti vely</w>
ch ance</w>
a o</w>
stoc k</w>
respon sibilities</w>
ex ternal</w>
si l
el ess</w>
re m
y l
lo ad</w>
stake holders</w>
lifer ation</w>
Str ate
K u
E ven</w>
Treat y</w>
b om
follow ed</w>
il legal</w>
loo ked</w>
Bu reau</w>
op tion</w>
Administr ation</w>
tri c</w>
j obs</w>
di g
A no
al es</w>
un it</w>
increas ingly</w>
ven ant</w>
initi al</w>
compens ation</w>
sty le</w>
sch em
3 8</w>
5 1</w>
as ks</w>
B er
B ur
on ed</w>
advant age</w>
aw are</w>
n om
ur ation</w>
civili an</w>
t ability</w>
wh ite</w>
fin ance</w>
tran sition</w>
20 0</w>
p sy
under taken</w>
fail ed</w>
form al</w>
I T
Ano ther</w>
Sum mit</w>
Feder ation</w>
gi ving</w>
bre ak
norm al</w>
de ep</w>
lia ment</w>
an a</w>
u an</w>
K ingdom</w>
C ul
ul ed</w>
influ ence</w>
Le ban
s le
re pres
bit r
5 3</w>
de si
mu sic</w>
inter pre
gener ally</w>
al ist</w>
tion ing</w>
Co operation</w>
he ar</w>
sur vi
con struc
C ap
eth n
C an</w>
opini on</w>
encoura ged</w>
inform al</w>
S im
c ard</w>
set ting</w>
sho t</w>
cre te</w>
ed ings</w>
tem per
bor n</w>
wel come</w>
te es</w>
tain ing</w>
com par
9 0</w>
t on
UN IC
beli eved</w>
wr ong</w>
ri age</w>
m ass</w>
y e</w>
econom ies</w>
Ad d
confir med</w>
ex ecutive</w>
pu ty</w>
m oun
dis abilities</w>
S atur
monit or</w>
tur ned</w>
streng th</w>
ar ch
is land</w>
dra w</w>
Ap pl
5 .
Al so</w>
quar ter</w>
pri or</w>
appe al</w>
lead er</w>
sub mit</w>
Co venant</w>
A gre
fe el
ell ing</w>
West ern</w>
Ge or
n e</w>
s w
f re
S om
E ar
Mexic o</w>
mon y</w>
c ash</w>
high ly</w>
gr an
tem porary</w>
6 .
atic ally</w>
part nership</w>
s end</w>
B a
dri ve</w>
determin ed</w>
am e
is ing</w>
it es</w>
C N
cho ice</w>
s av
6 1</w>
neigh b
ro l
5 4</w>
fail ure</w>
con c
H ol
po p
n u
ad es</w>
aff ect</w>
ex tr
For ce</w>
fi elds</w>
Syri an</w>
I S</w>
tri ed</w>
dec re
de ad</w>
re over</w>
prob ably</w>
ho od</w>
blo od</w>
Pri me</w>
el lig
happen ed</w>
D C</w>
P A</w>
rel ation</w>
UNIC EF</w>
writ ten</w>
substan tive</w>
Jap anese</w>
pre dic
tim ate</w>
proce edings</w>
4 9</w>
pat ter
I II</w>
equ i
pres ence</w>
c ele
si zed</w>
d au
a head</w>
at a</w>
Cri minal</w>
n ia</w>
li ghts</w>
B C</w>
statis tics</w>
c au
ang e</w>
6 6</w>
lin k</w>
pay ment</w>
presid ential</w>
sp on
ad or</w>
est er
il li
w ants</w>
p hi
di plom
han ds</w>
ris ks</w>
Feder al</w>
4 4</w>
sh aring</w>
te en
I ts</w>
pre p
con sumption</w>
Ger man</w>
li st
r ich</w>
An aly
4 2</w>
Con stitution</w>
direc tion</w>
enc ed</w>
3 9</w>
ca uses</w>
resul ting</w>
the ory</w>
D on</w>
sub sequ
P R
mo ving</w>
K o
5 9</w>
4 6</w>
pro por
ac tual</w>
use ful</w>
continu ing</w>
Go als</w>
h ur
Chil dren</w>
p an
Pro duc
b ile</w>
No t</w>
k new</w>
appe ared</w>
ex port</w>
per manent</w>
D ay</w>
du le</w>
acc ur
Per s
sy n
p ain
wee k
St at
s l
enti ties</w>
ro c
bus in
Satur day</w>
O h</w>
ev a</w>
ar ity</w>
t ment</w>
Braz il</w>
re v
adv anced</w>
elec ted</w>
5 2</w>
el se</w>
4 7</w>
4 1</w>
n ine</w>
Con tro
te sts</w>
d aily</w>
difficul ties</w>
beli eves</w>
arre sted</w>
ak es</w>
sp ent</w>
per spec
migr ants</w>
k y</w>
chi ef</w>
Ex per
in spec
ag ree</w>
E g
El ec
Un it</w>
electr onic</w>
de partments</w>
be gin</w>
mo bile</w>
Pro tection</w>
z ing</w>
wor th</w>
Pol i
m iddle</w>
consist ent</w>
me dic
appro val</w>
sett lement</w>
A ir
custom er</w>
uni que</w>
mach ine</w>
fin e</w>
care er</w>
tal ks</w>
lear ned</w>
develop ments</w>
S ha
pop ular</w>
th an
produc ed</w>
Re view</w>
J ust</w>
st ly</w>
ti ful</w>
employe es</w>
as su
r ying</w>
ver ing</w>
en ab
cal cul
pris on</w>
g ation</w>
S A
de e
legisl ative</w>
fil es</w>
exp ec
reas on
spe ak</w>
ob ject</w>
sel ected</w>
educ ational</w>
C y
st ar</w>
ven ue</w>
C A
D avi
t ary</w>
separ ate</w>
Me eting</w>
we ight</w>
spi rit</w>
air craft</w>
minim um</w>
form ed</w>
to ol</w>
refl ect</w>
ta x
guaran tee</w>
refl ected</w>
rap id</w>
ti tu
Mo reover</w>
adv oc
character istics</w>
sim ply</w>
si ght</w>
or ial</w>
al ty</w>
5 6</w>
li es</w>
is on</w>
ess or</w>
J e
lin ked</w>
accoun ts</w>
rais ing</w>
en g</w>
num bers</w>
bigg est</w>
pri orities</w>
ro b
Tur key</w>
l ands</w>
appoin ted</w>
z ation</w>
is n</w>
199 4</w>
B r
cre d
y outh</w>
thin king</w>
en try</w>
bri ef
b ing</w>
res ear
con crete</w>
bo y</w>
al ism</w>
dru gs</w>
consult ation</w>
An g
cep tion</w>
pris on
B us
ge ts</w>
st able</w>
g ree</w>
R el
S ou
Pak istan</w>
C o</w>
zh ou</w>
hol ding</w>
li ber
. m
vehic les</w>
Li ber
some times</w>
adop t</w>
e yes</w>
ans wer</w>
viol ation</w>
du ty</w>
indic ators</w>
fif th</w>
N et
flo or</w>
s ports</w>
in stead</w>
e th</w>
off ers</w>
ic ip
fac ed</w>
ren cy</w>
f are</w>
direc tor</w>
S m
tra in</w>
fac ing</w>
du m</w>
regim e</w>
ph s</w>
f low
L u
ethn ic</w>
L oc
pos sibility</w>
corpor ate</w>
ri st
cor ruption</w>
cele br
ha ps</w>
retur ned</w>
fir m</w>
h us
ch ers</w>
g one</w>
el er
accep t</w>
Co de</w>
Gen eva</w>
cu rement</w>
Agre ement</w>
hel ped</w>
Ac c
g ent
sa ve</w>
coun ter</w>
manag er</w>
f ru
sen si
em ed</w>
H er</w>
c enter</w>
ou ght</w>
inci dent</w>
Don ald</w>
li sted</w>
achie vement</w>
de man
fi gu
adv ance</w>
chang ing</w>
Eg yp
re vised</w>
j ury</w>
lo g
uni versal</w>
inv ited</w>
ti ci
acc used</w>
.m .</w>
au di
ati n</w>
en tered</w>
spo ke</w>
is hment</w>
tra ding</w>
signific antly</w>
at trac
cre ation</w>
u n</w>
Chi ef</w>
T H
part ner</w>
consequ ences</w>
Regi onal</w>
E P</w>
D esp
al ists</w>
fi gure</w>
hibi tion</w>
loo ks</w>
Th ose</w>
hou se
sanc tions</w>
an ia</w>
TA D</w>
ner ships</w>
ther more</w>
ach ers</w>
stru gg
establis hing</w>
inten ded</w>
bro ad</w>
UNC TAD</w>
val u
determin ation</w>
heav y</w>
Eng land</w>
0 0
invest ors</w>
sch ed
m ur
Prov ince</w>
defin ed</w>
differen ce</w>
conclu sion</w>
d ar
any one</w>
sol di
collabor ation</w>
candi dates</w>
dou ble</w>
recor ds</w>
To day</w>
Desp ite</w>
em is
R ic
ro oms</w>
W ash
compon ents</w>
Con gress</w>
cl assi
expres s</w>
s essions</w>
sub si
sp ir
2 ,
sum mer</w>
mo bil
fle xi
beau tiful</w>
claim ed</w>
oblig ation</w>
form ul
tr ack</w>
lo se</w>
tren d</w>
S ing
extre m
c rit
hu ge</w>
C O</w>
appe ars</w>
chem ical</w>
cl ass
uti li
Lab our</w>
te sting</w>
ci pl
D ar
Pro f
di ag
Wash ington</w>
me t
prov in
pp ing</w>
clu b</w>
er ial</w>
v ac
o k
de gree</w>
Min ist
ester day</w>
reduc ing</w>
l or
star ting</w>
com for
S we
lo s
f ell</w>
mo del
I P
C l
spe ak
p ter</w>
and a</w>
H er
re pl
xim ately</w>
pro liferation</w>
X i
w aste</w>
fa ult</w>
spe aking</w>
ur ged</w>
ic i
un g</w>
un able</w>
o ffered</w>
O N
appe ar
con solid
for d</w>
ra y</w>
ul ts</w>
y our
previ ously</w>
g lob
ra phs</w>
te aching</w>
d ged</w>
civili ans</w>
Sec ond</w>
thous ands</w>
bu t
govern ments</w>
rei gn
ti se</w>
tr ou
particip ated</w>
li mit</w>
invol ving</w>
ar bitr
n or</w>
remain ing</w>
exten ded</w>
rest aur
tim ely</w>
th i
Poli tical</w>
mu tual</w>
feder al</w>
re member</w>
pl ant</w>
cont ains</w>
4 3</w>
as tic</w>
D ra
end or
I tal
ti l
sec ure</w>
ac her</w>
adju st
de partment</w>
com mod
mar ks</w>
recogn ition</w>
at ell
fo cus
Pe ace
pass eng
add ressing</w>
speci fic
jud ges</w>
rou gh</w>
amen d
ic ate</w>
gre en</w>
har d
T a
D ef
j ourn
um e</w>
le gi
re t</w>
ho t</w>
Ital y</w>
pres sion</w>
M il
ou ldn</w>
des er
Fur thermore</w>
e ts</w>
an e</w>
dau ghter</w>
e ding</w>
cour ts</w>
S cho
n ar
tra vel
stor age</w>
cre ating</w>
o s
S el
l d
jo in</w>
techn i
mar riage</w>
b ass
po st
ti fication</w>
Char ter</w>
accoun tability</w>
f ting</w>
gener ation</w>
defin ition</w>
Environ ment</w>
cle an</w>
B re
compon ent</w>
po ol</w>
wh om</w>
appreci ation</w>
ser i
go es</w>
ser vers</w>
de struction</w>
wid ely</w>
high ligh
Pol ic
pl ays</w>
conflic ts</w>
be an</w>
ol der</w>
Davi d</w>
reli ef</w>
C P
ess ed</w>
te dly</w>
Ne ws</w>
inno v
UN F
pass ed</w>
cou ple</w>
democr atic</w>
th ir
C re
syst em
satis fac
lit er
Le ague</w>
am ing</w>
tro ops</w>
ex ac
conclu ded</w>
k en</w>
le aving</w>
b att
fu el</w>
cy cle</w>
read ing</w>
port ation</w>
at tribu
L atin</w>
coun ter
um s</w>
ha m
sel ect</w>
dest ro
ro te</w>
Y es</w>
R E
intere sted</w>
play er</w>
ac qui
plat form</w>
pursu ant</w>
immedi ate</w>
pro duce</w>
inno vation</w>
applic able</w>
tour ism</w>
In te
p air</w>
bu s</w>
acc eler
oc ca
y ers</w>
Ch rist
spokes man</w>
regi stration</w>
fin ally</w>
dy nam
O ver</w>
UN HC
cha ir
Par is</w>
char ges</w>
char ged</w>
F u
E ach</w>
parag raphs</w>
ic ity</w>
abs ence</w>
boo ks</w>
shor t
pre gn
UNHC R</w>
M us
cl ick</w>
au dit</w>
spe ech</w>
w rote</w>
I A
C E
ol er
W el
ju red</w>
7 .
plac ement</w>
wo od</w>
part nerships</w>
Fin ally</w>
de vices</w>
accep ted</w>
L ast</w>
gra de</w>
exper tise</w>
transpa rency</w>
ide as</w>
exp and</w>
canc er</w>
Syri a</w>
no on</w>
di a</w>
Y ear</w>
sh ops</w>
min ister</w>
ow ned</w>
figu res</w>
eng aged</w>
I F
op tim
so ve
emer ging</w>
vehic le</w>
poin ted</w>
medi um</w>
con centr
strength ened</w>
b at
t asks</w>
nor th</w>
St re
A re</w>
in jured</w>
C u
mul ti</w>
Pe ace</w>
b ar</w>
B l
ho to</w>
indic ate</w>
199 3</w>
pr e</w>
s outh</w>
follow s</w>
d ary</w>
l ay
hus band</w>
Y u
writ ing</w>
fac tor</w>
bab y</w>
Im ple
O R
respon ding</w>
w all</w>
tor ture</w>
con serv
M ad
oun ding</w>
jud ge</w>
prep are</w>
phi c</w>
appro ximately</w>
stud ent</w>
Re g
mar ke
st ations</w>
re ality</w>
ing ing</w>
br an
dis cipl
di e</w>
alleg ed</w>
tal king</w>
bir th</w>
s cri
pro mp
resid ents</w>
scen e</w>
threat s</w>
perspec tive</w>
inter view</w>
res ses</w>
scre en</w>
6 8</w>
R u
spec ts</w>
Cub a</w>
Sec tion</w>
Per manent</w>
psy ch
your self</w>
maxim um</w>
expan sion</w>
weap on</w>
see m</w>
mor t
urg ent</w>
gi ves</w>
n on
g ain</w>
b on</w>
l ad
M emb
k ra
it or</w>
wat ch</w>
int ellig
com ment</w>
regi stered</w>
s li
contribu ted</w>
se as</w>
as hi
def ence</w>
comple tely</w>
Contro l</w>
mic ro
Bus iness</w>
M ed
c old</w>
Ter rit
exc ell
h a</w>
ex tra
op position</w>
C enter</w>
coun t</w>
depend ent</w>
st ore</w>
tele vision</w>
pic ture</w>
experi ences</w>
L i</w>
offic er</w>
A l</w>
fe ar</w>
ke pt</w>
gr ounds</w>
st ac
becom ing</w>
vari ety</w>
extrem ely</w>
w are</w>
or ation</w>
dis placed</w>
re viewed</w>
sel ection</w>
el ement</w>
The ir</w>
ha bil
Fol lowing</w>
wal k</w>
p ass</w>
allow s</w>
3 0
easi ly</w>
C ur
v o</w>
dom in
Pro secu
op h
laun ch</w>
aff airs</w>
see king</w>
R om
w est</w>
c en
an ish</w>
Ci vil</w>
B ased</w>
cl ari
gu ide</w>
m ist
dec ades</w>
1 2
g eria</w>
Auth ority</w>
speci alized</w>
r o</w>
foot ball</w>
hu a</w>
sh e
et c</w>
victi m</w>
ha m</w>
3 00</w>
independ ence</w>
A C
Wi th
sur face</w>
ap s</w>
ar ily</w>
Hot el</w>
Ph ili
we ather</w>
hop ed</w>
ari b
atten ded</w>
te achers</w>
se ven
friend ly</w>
Wh ere</w>
pro hi
tic ally</w>
cl in
th ank</w>
meas u
Gu ang
N G
o ther
respec tive</w>
deal ing</w>
p ath</w>
was n</w>
re al
dig ital</w>
G reat</w>
sp ending</w>
re presented</w>
Par liament</w>
UN EP</w>
happ en</w>
b on
si mul
figh ting</w>
speci fied</w>
K en
con vic
s we
wr ite</w>
L t
D u
y esterday</w>
juris diction</w>
identi ty</w>
X in
A .</w>
arri ved</w>
trans l
ph en
H ere</w>
fif ty</w>
perf ect</w>
a dem
n ames</w>
st op
oc k</w>
temper ature</w>
net works</w>
respec tively</w>
ob vi
crit eria</w>
charac ter</w>
qu ir
win dow</w>
s am
a por
m ot
ti n</w>
o x
mo vi
pu ts</w>
N on</w>
agricul ture</w>
J ud
s atell
di men
rel atively</w>
ren ce</w>
A M
On ly</w>
par ame
re affir
sp read</w>
Ch ris
si vely</w>
r s</w>
m ail</w>
expres sion</w>
manag ed</w>
cru cial</w>
qu anti
ti an</w>
c row
ga p</w>
cli ent</w>
odi c</w>
re ti
U kra
hol ds</w>
targe ts</w>
C arib
ordin ary</w>
back ground</w>
recogn ize</w>
Carib bean</w>
K e
ac ted</w>
ex ce
vill age</w>
ei gh
Austr alian</w>
ld wide</w>
man age</w>
o ts</w>
mem ory</w>
am bi
te acher</w>
F am
A N</w>
dec ade</w>
Wh ite</w>
g ri
fe ature</w>
R C</w>
m id
correc t</w>
er o
D el
Tur k
fun ded</w>
vot ers</w>
them e</w>
top ic</w>
He ad
we ak
explo itation</w>
B oth</w>
st ress</w>
Sp ain</w>
ex ist</w>
fo rest</w>
jec tive</w>
as ing</w>
Stud y</w>
manufac turing</w>
7 5</w>
heal thy</w>
get ary</w>
es tions</w>
per form</w>
Con go</w>
F ac
y uan</w>
attemp t</w>
loc ked</w>
mi d</w>
o g
ati es</w>
Cri me</w>
e at</w>
f light</w>
tion ally</w>
volun tary</w>
tw enty</w>
B en
em o
m ers</w>
Commun ity</w>
ma p</w>
categ ory</w>
we alth</w>
on y</w>
G r
dis play</w>
pre me</w>
m al
democr acy</w>
mak ers</w>
ob tain</w>
Republic an</w>
differen ces</w>
ra in</w>
car s</w>
201 7</w>
han g</w>
sp here</w>
accoun ting</w>
dri ving</w>
engine ering</w>
H un
S al
Im age</w>
ic t</w>
pol lu
eval u
k es</w>
occur red</w>
dise ases</w>
har mon
in si
ab road</w>
mis sing</w>
dec line</w>
busin esses</w>
s ale</w>
ar my</w>
R ob
t ty</w>
re a</w>
stre et</w>
lar s</w>
achie vements</w>
uni versity</w>
inter governmental</w>
reason able</w>
l a</w>
c ast</w>
in stance</w>
dri ver</w>
in struc
diag no
et ary</w>
ili ation</w>
exp ect</w>
dang erous</w>
7 7</w>
Par k</w>
nation ally</w>
ast ers</w>
ass ess</w>
dro p</w>
sy m
car rying</w>
Memb ers</w>
rel and</w>
re in
ar di
H am
dre w</w>
vo ice</w>
On ce</w>
Stre et</w>
D istr
v a</w>
q i</w>
seri ously</w>
ac knowle
U p
ac ting</w>
new sp
t ations</w>
hom es</w>
er t</w>
pre ce
M at
M ac
secon dary</w>
199 2</w>
Egyp t</w>
per pe
P en
appoin tment</w>
lic it</w>
estim ates</w>
w illing</w>
st ers</w>
up date</w>
B ud
los ses</w>
re r</w>
pro curement</w>
it ment</w>
proper ties</w>
Jo int</w>
st ant</w>
suppor ts</w>
out standing</w>
bro ther</w>
p h</w>
es sion
enhan cing</w>
Americ ans</w>
in king</w>
Z e
we st
strong ly</w>
soldi ers</w>
sched uled</w>
H R</w>
sid ers</w>
m as</w>
I reland</w>
altern ative</w>
g row</w>
collec tive</w>
Scho ol</w>
z es</w>
er ad
qu esti
er ror</w>
reve aled</w>
sh ar
Th ree</w>
i e</w>
8 .
So ci
end ers</w>
rem ote</w>
ti tle</w>
serv ed</w>
expl ained</w>
l eng
ari a</w>
recor ded</w>
S ur
th ly</w>
ay ed</w>
certain ly</w>
Polic y</w>
b y
om en
power ful</w>
n it
cour ses</w>
head s</w>
Distr ict</w>
elimin ate</w>
vot ed</w>
S ever
hel ping</w>
ob stac
S T
de dic
min ute</w>
Kore an</w>
s ell</w>
Su st
wor ldwide</w>
Analy sis</w>
est er</w>
peri odic</w>
don e
Bu il
f ish</w>
under stood</w>
M s</w>
H a
Comp any</w>
wa iting</w>
ver ti
mo de</w>
nam ed</w>
S am
work shop</w>
habil itation</w>
S wit
un less</w>
Ro ad</w>
ap ers</w>
UN ID
nu tri
at titu
y al</w>
g en</w>
li ons</w>
feel ing</w>
resul ted</w>
7 2</w>
mean ing</w>
deci de</w>
In done
main stre
S au
su b</w>
ot ed</w>
sel ling</w>
re su
De puty</w>
resol ve</w>
ar m</w>
highligh ted</w>
tru th</w>
C a
cooper ate</w>
m atic</w>
ow ing</w>
Fin ancial</w>
occup ation</w>
alleg ations</w>
br ary</w>
pres er
sou ght</w>
6 9</w>
tre ated</w>
instru ment</w>
fam ous</w>
sen ten
memb ership</w>
ad vis
Som alia</w>
industri es</w>
Wh o</w>
Imple mentation</w>
comple tion</w>
ce re
Z h
dol lars</w>
em ail</w>
emb ar
M u
ag g
We b</w>
R A
I M
col or</w>
inst all
Be fore</w>
candi date</w>
after noon</w>
cap e</w>
S pe
ac adem
dra wn</w>
don ors</w>
re forms</w>
experi enced</w>
enn a</w>
for tun
exist ence</w>
der ing</w>
ar rest</w>
el ine</w>
sub mission</w>
certi fic
por ting</w>
s old</w>
pl i
fl u
n esses</w>
Net work</w>
br and</w>
su ffered</w>
l in</w>
to m</w>
b le
Pro ject</w>
mun icip
un ity</w>
consider ing</w>
techn ological</w>
call ing</w>
T O</w>
f res
refuge e</w>
apor e</w>
struc tures</w>
war ning</w>
my self</w>
lin ks</w>
z y</w>
in jury</w>
particip ating</w>
loc ations</w>
Sing apore</w>
Op en</w>
l ying</w>
g ate</w>
U se</w>
appro aches</w>
di strict</w>
for um</w>
success fully</w>
en ary</w>
co he
w il
C D</w>
six th</w>
fin dings</w>
su n
iz es</w>
k ill</w>
pro per</w>
introduc tion</w>
v oc
cont ain</w>
sp end</w>
appear ance</w>
confi g
Head quarters</w>
pre tty</w>
de p
tain s</w>
Scot land</w>
recru itment</w>
expendit ure</w>
it i</w>
model s</w>
jo ined</w>
de ploy
tre aties</w>
9 .
sm all
li qu
larg er</w>
hear ing</w>
se l</w>
res cu
Se a</w>
hum an
vis its</w>
fac es</w>
competi tive</w>
A le
ag er</w>
ing u
ou d</w>
coordin ated</w>
excell ent</w>
langu ages</w>
Appl ication</w>
colle ge</w>
promis e</w>
acci dent</w>
targe ted</w>
resear chers</w>
Ar gent
e ing</w>
vol ume</w>
west ern</w>
er gy</w>
vic tory</w>
fin ding</w>
sou thern</w>
s en</w>
or row</w>
pil ot</w>
B ro
Par t
recei ving</w>
Sever al</w>
B al
purch ase</w>
Chil d</w>
B ang
we b</w>
comm and</w>
In v
ific ation</w>
bo ys</w>
exten d</w>
con ferences</w>
hop es</w>
f ted</w>
t ex
m us
b es</w>
Cha ir</w>
ex ports</w>
mar ried</w>
j us
Th rough</w>
in o</w>
O F</w>
f oundation</w>
por ted</w>
Su preme</w>
Exper ts</w>
exam ination</w>
win ning</w>
vis ited</w>
D r
or d</w>
bri dge</w>
M ul
mil es</w>
e ds</w>
g ment</w>
As si
In de
ob tained</w>
199 0</w>
prov ince</w>
de a
comb ined</w>
pen alty</w>
inclu sion</w>
phen omen
IN G</w>
bra in</w>
inde x</w>
de ad
prof it</w>
sever e</w>
min ing</w>
propor tion</w>
co verage</w>
cha mpi
Fo od</w>
larg ely</w>
B ill</w>
Ku wait</w>
ur ch</w>
fic ations</w>
extr a</w>
Col om
c as
teen th</w>
elec toral</w>
do ws</w>
gu ard</w>
ad ed</w>
ec ture</w>
Ob jective</w>
gi ble</w>
sh el
Dis armament</w>
An y</w>
regul ation</w>
l ar</w>
men d
control led</w>
Pre vention</w>
radi o</w>
P S</w>
S ch
ki ds</w>
Vi enna</w>
UNID O</w>
UNF PA</w>
invol vement</w>
n ations</w>
ch ron
poli tics</w>
ail s</w>
g ol
limin ary</w>
Ira qi</w>
out put</w>
author ized</w>
m ale</w>
arch it
so ft</w>
br inging</w>
St atis
plan e</w>
d ance</w>
c ell</w>
consum er</w>
k il
ap p
v ital</w>
contribu ting</w>
C H
nam ely</w>
b in
V ice</w>
E ver
sol ve</w>
W ar</w>
Po wer</w>
J er
con v
man i
investig ate</w>
S ome
C ro
Sust ainable</w>
schem e</w>
C .</w>
buil dings</w>
im ag
p ain</w>
del ay</w>
ac compl
C ali
R em
de fic
main tained</w>
li e</w>
s per
2 8
employ ed</w>
connec ted</w>
pi ece</w>
n a</w>
ail and</w>
con ver
contrac ts</w>
ch an
m ber</w>
K y
Coun ty</w>
au t
im pe
doc tor</w>
suff ering</w>
sust ained</w>
ru s</w>
ab il
innov ative</w>
on ing</w>
V ol
per haps</w>
tradi tion</w>
par k</w>
fu r</w>
U R
Administr ative</w>
exten sive</w>
expl ore</w>
re move</w>
Ear th</w>
Th ailand</w>
no tice</w>
Christ mas</w>
se emed</w>
gu y</w>
Phili pp
u ally</w>
um n</w>
progra ms</w>
Th us</w>
air port</w>
Leg al</w>
empha sis</w>
avail ability</w>
cle an
Leban on</w>
doub t</w>
In vest
sk in</w>
f la
con stra
I t
tri p</w>
Cu st
reli able</w>
jo in
investig ations</w>
conven i
S an</w>
head quarters</w>
fi xed</w>
expl ain</w>
do g</w>
occup ied</w>
gran ted</w>
deli ber
con siders</w>
f illed</w>
consider able</w>
qu es</w>
O s</w>
mar ked</w>
protec ted</w>
duc tion</w>
sensi tive</w>
week end</w>
cent age</w>
an ning</w>
re alize</w>
inci dents</w>
Pro vi
b ound</w>
histor ical</w>
Oper ations</w>
require ment</w>
zer land</w>
restric tions</w>
ha el</w>
s low</w>
C li
el led</w>
st one</w>
Swit zerland</w>
pollu tion</w>
he at</w>
c oura
ate ver</w>
il licit</w>
fin ished</w>
f it</w>
ill ary</w>
Offic er</w>
cro s
f ans</w>
pack age</w>
regul atory</w>
E A</w>
abs olu
dec la
ris ing</w>
j our
st er
identi fication</w>
li ved</w>
nor thern</w>
p on
e ye</w>
m ar</w>
Sp anish</w>
id ly</w>
wel comes</w>
pro ved</w>
inclu sive</w>
pl us</w>
kno ws</w>
impl ications</w>
whe re
mis si
don or</w>
Ze al
ast ing</w>
re habilitation</w>
specific ally</w>
D ru
M er
marke ting</w>
valu able</w>
hon our</w>
h an</w>
E qu
reg ularly</w>
del e
cou ldn</w>
c ells</w>
capac ities</w>
eng age</w>
G az
ha z
Strate gy</w>
y n
diplom atic</w>
dep th</w>
E very</w>
w ers</w>
sur r
empha sized</w>
Tra ining</w>
perpe tr
pro ve</w>
in ven
pa rent</w>
ti ous</w>
re present</w>
cli ents</w>
G ol
hosp it
mar ine</w>
quir y</w>
pen ding</w>
En ergy</w>
prof ession
le ments</w>
even ing</w>
S hi
b ill</w>
re conc
V er
Sau di</w>
Cali for
R w
ru p
ex changes</w>
7 3</w>
ter y</w>
L E
deli vered</w>
integr ity</w>
an ci
sum mary</w>
usu al</w>
I T</w>
kin ds</w>
satell ite</w>
B .</w>
re feren
meth od
mis sed</w>
up dated</w>
V en
Ukra ine</w>
D ata</w>
j e
tren ds</w>
sy mp
ic ated</w>
ent al</w>
n ings</w>
Ko so
fi re
com mission</w>
men ted</w>
gh t
Zeal and</w>
sor ry</w>
fo rec
enhan ced</w>
s mar
s wit
ic als</w>
bel ong
min ority</w>
dra w
ori gin</w>
ple ased</w>
rac ial</w>
num erous</w>
incre ases</w>
un employment</w>
emis sions</w>
it ch
fi l</w>
ma ster</w>
Techn ical</w>
represent ation</w>
Coordin ation</w>
Sci ence</w>
assi ve</w>
sha res</w>
other wise</w>
4 00</w>
im posed</w>
ow nership</w>
H um
R ed</w>
qu ake</w>
dol lar</w>
oler ance</w>
Mic hael</w>
exac tly</w>
intellig ence</w>
tr act</w>
fi es</w>
less ons</w>
six ty</w>
trans portation</w>
ag gres
dist inc
prepar ing</w>
Rec o
W H
In iti
C up</w>
le ts</w>
see ing</w>
m ac
statis tical</w>
curren cy</w>
in form</w>
prohi b
subsequ ent</w>
ha ir</w>
UN MI
substan tial</w>
Turk ish</w>
ste el</w>
pay ments</w>
ad ing</w>
c ell
suppl ies</w>
ke t
cha in</w>
car bon</w>
Koso vo</w>
observ ed</w>
ti v
bi d</w>
deploy ed</w>
tom orrow</w>
7 6</w>
institu tion</w>
ful fil</w>
I L
Nor thern</w>
es tion</w>
main taining</w>
versi ties</w>
par lia
ro se</w>
ear th
N ote</w>
o red</w>
al ing</w>
ob jects</w>
di stance</w>
G ar
campai gn
Ever y
Mus li
at mo
Go od</w>
n ur
V al
struc tural</w>
C C
5 0
aim s</w>
observ ations</w>
categ ories</w>
me ant</w>
p anel</w>
Califor nia</w>
n y</w>
i ded</w>
s low
dynam ic</w>
seven th</w>
inspec tion</w>
rap idly</w>
Fi eld</w>
inter nationally</w>
t ance</w>
dre ds</w>
Xin hua</w>
ex cept</w>
k illing</w>
G ra
le a
great est</w>
accep table</w>
mess ages</w>
attac hed</w>
ou l
p ip
sh op
in ts</w>
ad verti
Prosecu tor</w>
V ic
dea ths</w>
E d
bass ador</w>
consum ers</w>
F ra
under take</w>
manag ers</w>
hel ps</w>
z a</w>
c al</w>
i ther</w>
expan ded</w>
en ting</w>
d den</w>
becom es</w>
M y
we ar</w>
Ri o</w>
D A
f ill</w>
i day</w>
Se e</w>
l ers</w>
pre c
or t</w>
ge ograph
as yl
constitu tional</w>
an ni
B as
al ties</w>
Th ird</w>
Sa fe
pri mar
flow s</w>
Fur ther</w>
gu ards</w>
Minist ers</w>
fe et</w>
complain ts</w>
pl enary</w>
5 ,000</w>
An nex</w>
oper ate</w>
vi rus</w>
b arri
es h</w>
ol i
contro ls</w>
IO N</w>
Y et</w>
ce an</w>
Li ke</w>
Gu ine
behavi or</w>
il s</w>
Indone sia</w>
3 ,
dre am</w>
M E
subsi di
R esp
sub regional</w>
repres ents</w>
Ri ver</w>
im ages</w>
is ation</w>
un c
de ter
I C</w>
Indu stry</w>
J ord
s or</w>
re rs</w>
Cul tural</w>
perform ed</w>
asyl um</w>
ha ven</w>
sett ings</w>
even tually</w>
al a</w>
A gr
restaur ant</w>
great ly</w>
elec tric</w>
conclu sions</w>
s ent
En ter
pow ers</w>
Ad di
advant ages</w>
i o</w>
Ne ther
n ice</w>
sust ain
Lt d</w>
mur der</w>
legi timate</w>
er ra</w>
sti mul
Ab out</w>
B et
C s</w>
invest ments</w>
con dem
migr ant</w>
W in
w ouldn</w>
sch e
cha pter</w>
cir cul
per centage</w>
bot tom</w>
exam ples</w>
s er</w>
Sp ace</w>
la u
g ot
s ors</w>
atten d</w>
sup ple
p us
U r
stoc ks</w>
Sh en
A ir</w>
an i</w>
F A
H el
TH E</w>
W ater</w>
Fi f
pre liminary</w>
dis asters</w>
i ding</w>
ac compan
fac ts</w>
1 ,000</w>
def ense</w>
Nether lands</w>
w ind</w>
W ang</w>
bud getary</w>
patter n</w>
stu died</w>
religi on</w>
di versity</w>
m aybe</w>
D en
enab ling</w>
der ly</w>
Qu e
est ate</w>
sign s</w>
e astern</w>
HC HR</w>
allow ing</w>
tw ice</w>
am m
dispu te</w>
S ol
den ied</w>
sche dule</w>
Swe den</w>
lat ter</w>
ti ally</w>
ic ul
work shops</w>
St and
Pro c
au l</w>
ad ding</w>
O HCHR</w>
um b
join tly</w>
sist ant</w>
pl ate</w>
ell ec
transpa rent</w>
Pers ons</w>
gradu ally</w>
co ach</w>
decre ase</w>
pro te
T or
satisfac tion</w>
ste ad
Inte gr
O ver
ec ting</w>
an i
deli ver</w>
H illary</w>
199 1</w>
sent ence</w>
al location</w>
repor ters</w>
e ast</w>
Me th
pati ent</w>
as set</w>
w age</w>
fa ith</w>
organ s</w>
Dar fur</w>
S P
cont aining</w>
y i
assess ments</w>
p m</w>
p ick</w>
compl y</w>
academ ic</w>
P a
su itable</w>
a po
exten sion</w>
el abor
mi ti
O ut
suppl i
over seas</w>
Si erra</w>
I P</w>
F oundation</w>
occu r</w>
in sul
sp ring</w>
decla red</w>
re views</w>
stop ped</w>
deman ds</w>
N E
sur pris
L ord</w>
min es</w>
M aybe</w>
s n
amoun ts</w>
Hi gh
vers ary</w>
ab led</w>
spo t</w>
gu il
is es</w>
gen e
in put</w>
squ are</w>
cop y</w>
gu ys</w>
V ir
2 9
preven ting</w>
cap it
P op
W A</w>
stan ds</w>
y m
pun ishment</w>
G DP</w>
de fault</w>
ur s</w>
D eci
reiter ated</w>
super vision</w>
Argent ina</w>
t ac
re place</w>
dedic ated</w>
t ons</w>
to ward</w>
O k
adjust ment</w>
ver i
Guine a</w>
W at
acc es
sle ep</w>
Lo ok</w>
form at</w>
th or
1 st</w>
St an
bl ue</w>
constitu te</w>
H on
dis h</w>
clo sure</w>
comb ination</w>
jur ies</w>
inde ed</w>
ag ent</w>
movi e</w>
sec ret</w>
s tic
re venue</w>
Indi an</w>
tu m</w>
volun te
re alization</w>
pre ne
M ain
st an</w>
organiz ational</w>
serv ing</w>
g er
Ang el
trans ferred</w>
repor tedly</w>
prin cip
P at
ra id</w>
re aching</w>
Col le
C al
cu tting</w>
infl ation</w>
cri tic
hou ses</w>
id ity</w>
Assi stance</w>
re construction</w>
inter n
E astern</w>
min i
mil lions</w>
De sign</w>
re moved</w>
Olymp ics</w>
il ed</w>
b ol
f ashi
in th</w>
Op tional</w>
A gen
ex plan
protec ting</w>
D id</w>
W o
Agr icul
N ic
provi sional</w>
we red</w>
re fer</w>
pro sper
in tention</w>
as king</w>
signific ance</w>
poli tici
rec alled</w>
ul ing</w>
min orities</w>
affec ting</w>
reign ty</w>
ref used</w>
config uration</w>
Indu stri
d ad</w>
proper ly</w>
D om
be at</w>
z e
8 5</w>
sugg est</w>
im port</w>
op en
leg ally</w>
wel fare</w>
primar ily</w>
co vering</w>
aliz ing</w>
st ages</w>
g un
fac tory</w>
d less</w>
i ved</w>
pr int</w>
f al
respon ses</w>
equ ity</w>
ri c</w>
leng th</w>
Sci enti
war m</w>
har m</w>
comb ating</w>
t ree</w>
su res</w>
Me an
Jo hn
sho wing</w>
E st
dar k</w>
clos er</w>
be gun</w>
autom atically</w>
sha pe</w>
de fe
d ry</w>
A P
A D</w>
inter ven
extre me</w>
en em
sto red</w>
ro les</w>
easi er</w>
de tec
7 4</w>
Nor way</w>
law yer</w>
d ges</w>
dra wing</w>
than ks</w>
g or
endor sed</w>
Coun tries</w>
pe ti
be ar</w>
sc ore</w>
sove reignty</w>
ob servers</w>
secret ary</w>
ear th</w>
J ames</w>
glob alization</w>
tra ined</w>
is h
ol es
refl ects</w>
fra me</w>
o dy</w>
F ace
care fully</w>
be d
in corpor
Res ources</w>
ri ver</w>
wor st</w>
uni on</w>
T able</w>
small er</w>
Geor gi
p .m.</w>
ic a</w>
g ross</w>
Am ong</w>
e ded</w>
p ac
we ak</w>
ab ol
mo stly</w>
b loc
a x
cau ght</w>
la sting</w>
Safe ty</w>
is hing</w>
f ts</w>
Colle ge</w>
ji ang</w>
in juries</w>
Tr ust</w>
go sla
cre di
encoura ging</w>
r i</w>
Loc al</w>
bro ken</w>
rel ative</w>
sol id</w>
e ties</w>
sav ings</w>
f air
val ent</w>
esti val</w>
Yu gosla
ag u
journ alists</w>
Face book</w>
confi dent</w>
dec laration</w>
scienti sts</w>
cam p</w>
th u
continu ous</w>
ap p</w>
ul l</w>
W al
Bo s
P aul</w>
C er
Isl ands</w>
quali fied</w>
ill u
K ar
con sent</w>
Com mer
ge dly</w>
gg ing</w>
interpre tation</w>
St aff</w>
ch ann
passeng ers</w>
B BC</w>
Le one</w>
de gra
Sou thern</w>
H ave</w>
gr and
pl ants</w>
su it</w>
install ation</w>
in ary</w>
st on</w>
qu ick</w>
doc tors</w>
are n</w>
hun dreds</w>
si ster</w>
trans actions</w>
Ro om</w>
tele phone</w>
ris es</w>
trou ble</w>
g ence</w>
ther ap
cap abilities</w>
in ated</w>
d enti
F O
ligh tly</w>
re jected</w>
intere sting</w>
te sted</w>
sco red</w>
N uclear</w>
design ated</w>
Gaz a</w>
speci es</w>
al located</w>
fe es</w>
t ack
hol iday</w>
her it
gra ph
eng agement</w>
9 9</w>
on to</w>
sign ing</w>
dang er</w>
fav or
ple as
cont ing
det ail</w>
impro vements</w>
prof ile</w>
ro ll</w>
pre ad</w>
inst alled</w>
Fam ily</w>
com man
chil d
tou ch</w>
ai re</w>
intro duce</w>
Buil ding</w>
cere mony</w>
fam ili
dispu tes</w>
fo ot</w>
dec lined</w>
ow ner</w>
in ations</w>
sign al</w>
ass a
L in
docu mentation</w>
Gi ven</w>
ment ally</w>
pos ite</w>
manufac tu
re min
det ained</w>
desi re</w>
anni versary</w>
fu n</w>
broad er</w>
war ned</w>
6 00</w>
newsp aper</w>
alle gedly</w>
B ush</w>
se at</w>
atmo sphere</w>
ellec tual</w>
E R</w>
si tional</w>
medic ine</w>
i gn
over sight</w>
accur ate</w>
public ation</w>
stan tly</w>
con cep
pursu e</w>
pu tting</w>
compe tent</w>
man dates</w>
b ound
electr icity</w>
W illi
Colom bia</w>
ad visory</w>
pri me</w>
ten d</w>
p ace</w>
func tioning</w>
indic ates</w>
al g
ent re
dee ply</w>
CN .
de v
P i
hot els</w>
S ir</w>
ti ll</w>
cor responding</w>
bur den</w>
referen dum</w>
uni versities</w>
Cha mber</w>
run s</w>
depen ds</w>
st aff
stra ight</w>
re productive</w>
8 1</w>
dr ink</w>
Rec alling</w>
ne ither</w>
b lock</w>
gu ests</w>
Philipp ines</w>
t ative</w>
con vention</w>
conven tions</w>
Mon it
im possible</w>
D es
let es</w>
8 3</w>
far mers</w>
k o</w>
Dis crimin
dis covered</w>
b ought</w>
WH O</w>
expec tations</w>
construc tive</w>
rescu e</w>
sustain ability</w>
no w
Sim il
eigh th</w>
Mal ay
ic ide</w>
Tr an
nor ms</w>
It alian</w>
prosecu tion</w>
off ering</w>
sp ac
s pl
ag ues</w>
re d
tru ly</w>
th es</w>
present ation</w>
win ter</w>
over come</w>
Ch ang
sti c</w>
ari o</w>
s port</w>
expen sive</w>
Par t</w>
Monit oring</w>
er r
inten si
v ast</w>
ori th
G l
wor se</w>
shi ft</w>
8 6</w>
ed oms</w>
ori ented</w>
Mean while</w>
sor t</w>
Te am</w>
Palest ine</w>
Dr .</w>
ri d</w>
Re qu
en sive</w>
Peace keeping</w>
fin ish</w>
obstac les</w>
mar gin
guaran te
su n</w>
fe a
e u
I L</w>
sk y</w>
Jord an</w>
phenomen on</w>
Discrimin ation</w>
v als</w>
l ac
M echan
coll ap
fres h</w>
comfor table</w>
behavi our</w>
val uation</w>
e z
k m</w>
ro ads</w>
for get</w>
suc ce
off ences</w>
et t
use um</w>
re medi
ti mat
entre prene
Rw anda</w>
con n
Ni geria</w>
Fr anc
chem icals</w>
do z
dri ven</w>
Cor por
con sci
fac ility</w>
Con sul
batt le</w>
li fe
Wor k</w>
territ ories</w>
Agen da</w>
encoura ges</w>
es sive</w>
bal anced</w>
divi ded</w>
P M</w>
p aying</w>
gr ant</w>
Sm ith</w>
Pre mi
gl ass</w>
Con struction</w>
eng ine</w>
wi des
fis cal</w>
id ation</w>
T ake</w>
NG Os</w>
k o
ex ception</w>
f it
off ence</w>
E S</w>
7 1</w>
B I</w>
bro ke</w>
parame ters</w>
or dered</w>
initi ated</w>
Air port</w>
y an</w>
respon ded</w>
x es</w>
sho oting</w>
trans mission</w>
W il
pres ents</w>
N AT
tan e
anim als</w>
wides pread</w>
hur t</w>
Bel gi
p ush</w>
is ol
coordin ate</w>
sib ly</w>
psych ological</w>
expendit ures</w>
x i</w>
t our</w>
civ il
strong er</w>
u d</w>
Bre x
lo sing</w>
our ing</w>
fis hing</w>
ic ial</w>
pre mis
demonstr ated</w>
power ment</w>
mit ting</w>
P ur
Reco gn
Resp on
ou ter</w>
thi op
m ly</w>
din ner</w>
fav our</w>
Me as
F D
ban king</w>
4 0
ad mitted</w>
profession als</w>
po sted</w>
secon ds</w>
j an</w>
E thiop
y o</w>
C S
vis itors</w>
happen s</w>
z z
v ations</w>
suggest s</w>
new ly</w>
timat ely</w>
m ir
ath letes</w>
sh ire</w>
earth quake</w>
l un
x ing</w>
9 5</w>
K ing</w>
resol ved</w>
M el
han dle</w>
Tim e</w>
R a
system atic</w>
dr inking</w>
s ity</w>
distribu ted</w>
nutri tion</w>
provin ces</w>
ul ations</w>
ot es</w>
Inde ed</w>
them atic</w>
geograph ical</w>
St u
reconc iliation</w>
ail ed</w>
H ab
Gen der</w>
p rou
H y
In stead</w>
elim ination</w>
fir ms</w>
Dra ft</w>
th eless</w>
ear n</w>
I D</w>
W he
au d
Par ti
ra il
viol ent</w>
recommen d</w>
inter vention</w>
destro yed</w>
strugg le</w>
fl at</w>
Statis tics</w>
anim al</w>
ro ot</w>
on ia</w>
produc tivity</w>
K i
S ar
Liber ia</w>
Initi ative</w>
comp ati
al li
ow ners</w>
suppor ters</w>
Can adi
J am
ol a</w>
cap able</w>
Sel ect</w>
4 ,
id a</w>
har m
focus ing</w>
Ken ya</w>
m assive</w>
ab in
c el
list en</w>
Au stri
vie wing</w>
ve y</w>
hand ling</w>
rel ess</w>
Brex it</w>
im mun
li ability</w>
Mor oc
exam ined</w>
pro gres
Geor ge</w>
fi red</w>
e .
prison ers</w>
relation ships</w>
b a</w>
resi stance</w>
N P
ari time</w>
in ery</w>
pres sed</w>
v oting</w>
custom s</w>
techni ques</w>
Z hang</w>
integr ate</w>
divi sion</w>
tion ary</w>
ur ities</w>
ag s</w>
ur ges</w>
Con si
7 9</w>
princip al</w>
Soci ety</w>
l ay</w>
ir ing</w>
ad ults</w>
popul ations</w>
fortun ately</w>
Inv estig
pol y
d ness</w>
A C</w>
U gan
th ro
re new
acknowle dged</w>
inter im</w>
ak h
commit tees</w>
To k
s aving</w>
S he
ex cep
a ward</w>
sit ting</w>
wh atever</w>
T ot
sum mar
mort ality</w>
j i</w>
li mits</w>
on a</w>
ar m
clo thes</w>
wat ching</w>
S and
In spec
govern ing</w>
di gn
sw im
s in
shop ping</w>
ag ents</w>
compu ters</w>
C le
fer ring</w>
dis pos
re la
T wit
Is land</w>
hy dro
W TO</w>
y ang</w>
n inth</w>
f alling</w>
cam era</w>
Elec tr
j unc
instruc tions</w>
bin ding</w>
coll ected</w>
m ass
jus ti
g ro
sec tions</w>
out comes</w>
wis hes</w>
bo at</w>
a p</w>
fre edoms</w>
ph il
af raid</w>
Ad v
re mo
g ar</w>
gener ated</w>
N um
e x</w>
stor ies</w>
organiz e</w>
alg orith
v it
Territ ory</w>
M un
Am bassador</w>
lo ans</w>
8 7</w>
8 00</w>
attitu de</w>
ph ones</w>
co vers</w>
s ac
L im
D r</w>
exam ine</w>
t elling</w>
equ itable</w>
certific ate</w>
chann els</w>
In ter</w>
re ply</w>
patter ns</w>
im migration</w>
Twit ter</w>
ch er</w>
l ity</w>
let ters</w>
coll ect</w>
i ally</w>
assess ed</w>
cont ra
O M</w>
ap ping</w>
ate dly</w>
or al</w>
lo g</w>
chair man</w>
enjo y
O r</w>
top ics</w>
stri ke</w>
sum mit</w>
Ap pe
vir tual</w>
il ing</w>
accompan ied</w>
E limin
mon thly</w>
obvi ous</w>
it ely</w>
ade my</w>
minist ers</w>
flexi ble</w>
war ded</w>
m al</w>
dri vers</w>
al i</w>
intern ally</w>
ffe e</w>
g ement</w>
susp ected</w>
se ment</w>
M ag
deal t</w>
be l</w>
8 4</w>
con vers
as signed</w>
mil it
house hold</w>
p hoto</w>
chan nel</w>
gr at
s lightly</w>
invol ve</w>
d red</w>
Ho sp
trans action</w>
expen ses</w>
inter action</w>
St ra
Gre ece</w>
IA EA</w>
g ains</w>
l abor
E C</w>
ber g</w>
9 8</w>
ass ur
contr ary</w>
Parti cip
lin ing</w>
func tional</w>
anit ation</w>
Bur un
Fra mework</w>
Fin ance</w>
P an
sem ination</w>
colle agues</w>
H ey</w>
no ti
li sts</w>
mis s</w>
du ties</w>
e k</w>
e ase</w>
amend ments</w>
Cha mpi
sal ary</w>
bi o
gg ed</w>
an ks</w>
AN D</w>
pen sion</w>
R ules</w>
pat ri
inter face</w>
repe atedly</w>
inter net</w>
7 8</w>
lo ts</w>
enti ty</w>
re pu
form ing</w>
For ces</w>
as c
f aster</w>
co c
mor al</w>
Pl anning</w>
Leban ese</w>
UNO DC</w>
dis ability</w>
tre at</w>
nation ality</w>
M ur
not ing</w>
re cip
O D
M P
the red</w>
Afgh an</w>
dis abled</w>
re placed</w>
hospit als</w>
rap e</w>
sh r
y right</w>
amend ment</w>
- -
pro spects</w>
co ast
Pre par
ou se</w>
s man</w>
abin et</w>
so il</w>
A S</w>
W ill</w>
Ar my</w>
ar ising</w>
Inter nal</w>
Mo del</w>
Invest ment</w>
promis ed</w>
regar dless</w>
co al</w>
law yers</w>
cont em
g ers</w>
re action</w>
provin cial</w>
H en
rati o</w>
reser ve</w>
ide al</w>
for th</w>
ou red</w>
beli ef</w>
perpetr ators</w>
i ary</w>
audi ence</w>
te en</w>
inv itation</w>
hol der</w>
form ulation</w>
Ha iti</w>
Ma j
frequ ently</w>
fil ed</w>
Ch ange</w>
H aving</w>
Govern ing</w>
bi ological</w>
el a</w>
pic tures</w>
ex pos
defin e</w>
rou te</w>
og le</w>
ali tion</w>
ree ts</w>
an cement</w>
fashi on</w>
8 2</w>
famili ar</w>
C ru
enti rely</w>
trans formation</w>
Environ mental</w>
moder n
ca using</w>
car ds</w>
5 ,
li brary</w>
an o</w>
asp ect</w>
equi valent</w>
ay or</w>
o king</w>
IO S</w>
in ced</w>
subsidi ary</w>
Prof essional</w>
ed ge</w>
B ul
p apers</w>
An n
W ar
sur g
er al</w>
ver ification</w>
retur ns</w>
Tim es</w>
T om</w>
h i</w>
the sis</w>
f ers</w>
K az
enter ing</w>
cont acts</w>
8 8</w>
anti cip
wor ry</w>
prom oted</w>
ter ri
ree k</w>
v .</w>
commod ity</w>
P O
phot os</w>
fin ds</w>
histor ic</w>
ac qu
val id</w>
demonstr ate</w>
w ished</w>
frequ ency</w>
e red</w>
pregn ant</w>
b ad
lead s</w>
ail ing</w>
advoc acy</w>
p ra
g y
G et</w>
a ment</w>
t y
Ter ror
Com e</w>
ba th
re n</w>
N a
r are</w>
Stat us</w>
Industri al</w>
Go ogle</w>
d able</w>
co m</w>
constra ints</w>
dro pped</w>
1 50</w>
judic iary</w>
prou d</w>
flexi bility</w>
cap tion</w>
guil ty</w>
associ ation</w>
c lear
em powerment</w>
Ri ght</w>
human ity</w>
Ne w
En gin
E r
l aid</w>
p ages</w>
Malay sia</w>
sugg estions</w>
complain t</w>
complain ant</w>
hun dred</w>
min ent</w>
ci ve</w>
f r
inv est</w>
st reets</w>
O K</w>
v il
le ague</w>
ass embly</w>
ur o</w>
m on</w>
bus y</w>
preven tive</w>
lo an</w>
b orders</w>
A rea</w>
trans mitted</w>
with draw
f ly</w>
op pon
L an
ne ar
C R
M IN
Ch em
ang er</w>
Canadi an</w>
sch ol
Gre en</w>
for ty</w>
Med ical</w>
int ellectual</w>
yp e</w>
re alized</w>
ev ol
soci o</w>
dra fting</w>
de par
P ress</w>
gre w</w>
T ask</w>
m ic</w>
clin ical</w>
tran sit</w>
agg reg
bo ss</w>
en e</w>
terror ists</w>
As sistant</w>
tur ning</w>
con stant</w>
lo ved</w>
there by</w>
jec tion</w>
deter i
territ orial</w>
g aps</w>
anci ent</w>
. 2</w>
bran ch</w>
John son</w>
resid ence</w>
necess arily</w>
i g
row ing</w>
Cy pr
stor m</w>
gen u
t esti
Ch en</w>
am ed</w>
provi ders</w>
ac commod
parti al</w>
her self</w>
se ats</w>
Cypr us</w>
campaign s</w>
me tal</w>
d ur
wi der</w>
to w
ES CO</w>
Ara bia</w>
dom ain</w>
dis semin
ex pe
Re v
S il
St reng
g rown</w>
we aring</w>
roc k</w>
ex ha
Engin e
hard ware</w>
ti vation</w>
D .</w>
ali gn
sp ect</w>
ch urch</w>
s anitation</w>
ar d
subsequ ently</w>
car ri
but ton</w>
semin ar</w>
IC T</w>
F lor
wa ve</w>
b ai
E l</w>
Sa har
our selves</w>
ab sor
conserv ation</w>
en vis
Scot tish</w>
af for
cha ir</w>
aut onom
reser vations</w>
dis semination</w>
A M</w>
emer ged</w>
a sion</w>
E M</w>
med al</w>
w ater
ti s</w>
program ming</w>
as hed</w>
tec h</w>
substan ces</w>
E mer
wal king</w>
certain ty</w>
acqui sition</w>
expl ic
Hab it
w ill
lab or</w>
wit nesses</w>
rest ore</w>
erad ication</w>
con stantly</w>
k istan</w>
Ven ez
Pr inci
speak ers</w>
T ex
near by</w>
P res
UN ESCO</w>
Part nership</w>
ef s</w>
ton ight</w>
zh en</w>
head ed</w>
c ents</w>
m el
Acc ord
threat ened</w>
t ough</w>
mean ing
crow d</w>
the ast</w>
O N</w>
Premi er</w>
prepar ations</w>
star s</w>
w ine</w>
Venez u
ic ious</w>
manag ing</w>
UN IF
Habit at</w>
ef ul
Li fe</w>
imp acts</w>
a .m.</w>
accep tance</w>
s y</w>
techni que</w>
A L</w>
A L
ti s
S an
G o</w>
ke e
Yugosla via</w>
Cro ati
com position</w>
Georgi a</w>
enjoy ment</w>
rati fication</w>
b row
Accord ingly</w>
ac tor</w>
el derly</w>
cam ps</w>
f ail</w>
mem or
bir th
care ful</w>
har ass
depen d</w>
fe e</w>
coun ty</w>
6 ,
ent ation</w>
ok ay</w>
f lights</w>
direc ted</w>
ec o
Ugan da</w>
an mar</w>
Ro yal</w>
Ap ple</w>
We ap
Elimin ation</w>
sup posed</w>
cat ch</w>
C lu
In dependent</w>
Po st</w>
vot es</w>
bur g</w>
Mr s.</w>
My anmar</w>
Mil itary</w>
O IOS</w>
contr ast</w>
Vi ol
identi fying</w>
Qu ality</w>
g ained</w>
expan ding</w>
repres enting</w>
gra ve</w>
clu ster</w>
Por tu
pro of</w>
archit ecture</w>
b its</w>
A g
de als</w>
di v
gener ate</w>
depen ding</w>
prosper ity</w>
il es</w>
F ar
withdraw al</w>
ch ester</w>
produc ing</w>
tor ies</w>
R en
s ong</w>
T est</w>
no tic
Pre sid
br ings</w>
st abil
r is</w>
con ce
barri ers</w>
A zer
viol ated</w>
men u</w>
com posed</w>
With out</w>
Hosp ital</w>
associ ations</w>
den ly</w>
L os</w>
lic en
gh ly</w>
9 7</w>
co ffee</w>
focus es</w>
S lo
h ate</w>
T an
ven ues</w>
log istics</w>
inf ection</w>
Burun di</w>
to x
or m
moun tain</w>
re integration</w>
cli m
ri sts</w>
F ree</w>
main land</w>
j um
confir m</w>
C z
mar k
zer o</w>
b o</w>
ren tly</w>
conn ect</w>
F our</w>
Scienti fic</w>
investig ated</w>
gra phic</w>
se where</w>
sh oc
k itch
i red</w>
G reek</w>
sub jected</w>
conven tional</w>
star ts</w>
tal ent</w>
inst all</w>
al co
execu tion</w>
foc al</w>
bri ef</w>
class es</w>
T aking</w>
ob ile</w>
dest ination</w>
per mit</w>
susp ended</w>
en tum</w>
enem y</w>
F ourth</w>
du al</w>
ar ts</w>
Hum anitarian</w>
dis played</w>
ref ers</w>
mom entum</w>
be t</w>
mag az
n one</w>
suff er</w>
municip al</w>
Proc ess</w>
L O
el low</w>
i on</w>
ten sion</w>
Mo sco
per sist
con grat
Con tin
prof its</w>
cop yright</w>
Def ence</w>
auth ors</w>
initi ally</w>
com missions</w>
Azer bai
CO N
NAT O</w>
fra g
pl astic</w>
fis her
t ables</w>
f ing
Simil arly</w>
cust ody</w>
amen ded</w>
T ru
prepar atory</w>
Li u</w>
sav ed</w>
H ome</w>
si zes</w>
r uling</w>
pres cri
boo st</w>
be aring</w>
Strate gic</w>
speci fy</w>
Mosco w</w>
Chair person</w>
f an</w>
acces sible</w>
ri de</w>
me works</w>
Leg isl
compar ison</w>
cont ents</w>
P uti
b ly</w>
qu e
C E</w>
pre mi
e ating</w>
f ounded</w>
utili zation</w>
imp unity</w>
ti e</w>
Pe ter</w>
vulner ability</w>
e .</w>
ur ge</w>
k i</w>
Requ ests</w>
um ul
pro p
7 00</w>
ho sti
ha bit
ec es</w>
ic ing</w>
Fif th</w>
Mis s</w>
n d</w>
clo sing</w>
beau ty</w>
explan ation</w>
M ake</w>
missi le</w>
enc ing</w>
9 1</w>
Bang lad
dign ity</w>
conv inced</w>
Terror ism</w>
enab led</w>
attemp ts</w>
equi pped</w>
B e</w>
Mar k</w>
ven ture</w>
al em</w>
Re fuge
comm it</w>
cont ain
autom atic</w>
staff ing</w>
at tract</w>
charac ters</w>
in sufficient</w>
ex hibition</w>
e di
Jer us
Pro ce
uc ky</w>
Puti n</w>
il ateral</w>
om mun
m m</w>
vi c</w>
vi sible</w>
senten ced</w>
I N</w>
lay er</w>
contin ent</w>
cur ricul
up gra
am az
P C</w>
st a</w>
di ff
tax es</w>
tur ns</w>
Flor ida</w>
Ethiop ia</w>
8 9</w>
evalu ate</w>
R ac
k id
adap tation</w>
E M
Jerus alem</w>
see ks</w>
v ate</w>
sur prise</w>
a partment</w>
P .
Cam bo
v an</w>
conf ron
prison ment</w>
Moroc co</w>
re sident</w>
rac ism</w>
attac ked</w>
conduc ting</w>
h as
bre aking</w>
a uc
Th om
lic k</w>
Musli m</w>
ve sted</w>
j a</w>
sub stance</w>
public ations</w>
Ac ademy</w>
Ex peri
B lack</w>
fe wer</w>
equ ally</w>
Mic ro
ad ult</w>
t ence</w>
d ating</w>
Do cu
P hoto</w>
we d
Bos nia</w>
c rises</w>
thir ty</w>
j ac
A D
9 6</w>
m ol
guaran tees</w>
susp ect</w>
In t
phot ograph
fra meworks</w>
regar ded</w>
Pro per
Shen zhen</w>
del ays</w>
f all
fal se</w>
poten tially</w>
appreci ate</w>
am p
commer ce</w>
su icide</w>
cor ner</w>
reser vation</w>
Ok ay</w>
de tection</w>
S ports</w>
reser ves</w>
en der</w>
surr ounding</w>
de plo
no ise</w>
CO P</w>
Pop ulation</w>
vis iting</w>
7 ,
oura ble</w>
Un der
bi an</w>
M oun
im prisonment</w>
descri ption</w>
compl ex
1 20</w>
inv o
stu ff</w>
lea ves</w>
mach inery</w>
arrang ement</w>
m outh</w>
a sts</w>
minist erial</w>
illu str
Mar ket</w>
dispos al</w>
dam aged</w>
V I</w>
ci de</w>
co ast</w>
coast al</w>
ul timately</w>
Angel es</w>
gu ess</w>
Sm all</w>
Rec om
premis es</w>
sub programme</w>
recogn izes</w>
Coordin ator</w>
Pl at
un likely</w>
hol e</w>
pro tocol</w>
L et
peri ods</w>
Le e</w>
adi um</w>
v acc
elec ommun
sto res</w>
par as</w>
mi xed</w>
2 ,000</w>
t les</w>
Ch o
f illing</w>
Ti an
go v
Kaz akh
g .</w>
FA O</w>
L ong</w>
add resses</w>
Fi ve</w>
re pair</w>
I ran
N ext</w>
p al
esti mate</w>
With in</w>
A ud
B is
os oph
F P</w>
announ cement</w>
remedi es</w>
sti pul
bom b</w>
d ney</w>
. m</w>
fra ud</w>
inf ec
Kazakh stan</w>
Sen ate</w>
Cul ture</w>
smar t</w>
s ick</w>
M ong
convic ted</w>
passeng er</w>
rati fied</w>
norm ally</w>
ec k</w>
tom s</w>
employe e</w>
n avi
tre es</w>
conclu ding</w>
ak ed</w>
hel p
B A</w>
the tic</w>
ti mis
cr ash</w>
coun cil</w>
d u</w>
tic ket</w>
In cre
Is su
A P</w>
assu me</w>
ti eth</w>
e es</w>
5 0,000</w>
B ay</w>
ho sted</w>
amoun ted</w>
han ded</w>
uc k
ti le</w>
H ist
B rown</w>
el sewhere</w>
Mo vement</w>
ther ing</w>
Banglad esh</w>
F er
p it
op posed</w>
P u
fe els</w>
9 2</w>
stud ying</w>
assi sted</w>
won der
solid arity</w>
measu rement</w>
guarante ed</w>
E rit
S O
j in</w>
Com b
en de
questi on
prohib ited</w>
argu ment</w>
jour ney</w>
assi sting</w>
Sec on
b n</w>
T ar
C ross</w>
sol e</w>
wat ers</w>
Weap ons</w>
k ill
T al
shi p
mainstre aming</w>
con du
gr ants</w>
ing ness</w>
enjo yed</w>
Me dia</w>
re ver
ad mis
d ong</w>
wor ried</w>
E ffec
Austri a</w>
Mechan ism</w>
des k</w>
par king</w>
Belgi um</w>
en rol
H all</w>
acceler ate</w>
heav ily</w>
Cz ech</w>
b right</w>
u sted</w>
FO R</w>
exist s</w>
c ot
descri bes</w>
critic ism</w>
work er</w>
cu ts</w>
pass word</w>
pos sibly</w>
investig ating</w>
b lin
sen ding</w>
Re form</w>
ho l</w>
man dated</w>
en orm
L ar
t ap
Y oun
dist ingu
Tot al</w>
in quiry</w>
cl ing</w>
p ill
pro jected</w>
ba g</w>
min or</w>
expos ure</w>
Z i
M O
Th ank</w>
safe guards</w>
J es
Ap pro
transl ation</w>
de puty</w>
U sing</w>
ru b
UN D
regi ster</w>
cho sen</w>
Est ablis
Stan ding</w>
w ake</w>
re ne
algorith m</w>
adverti sing</w>
discrimin atory</w>
L and</w>
Ac coun
method ology</w>
de voted</w>
cooper ative</w>
r us
cir cu
parlia mentary</w>
herit age</w>
T em
mo thers</w>
Sub committee</w>
youn ger</w>
out lined</w>
cre ative</w>
pres sing</w>
alle l</w>
o v</w>
struc k</w>
tou rists</w>
en tic
W ales</w>
R ome</w>
F ran
2 nd</w>
house holds</w>
Bel ar
Man chester</w>
z ones</w>
tin y</w>
sequ ently</w>
gar den</w>
Al li
offic ially</w>
ex posed</w>
Vol un
inven tory</w>
Res er
sett lements</w>
ol ing</w>
negoti ating</w>
gre es</w>
Bet ween</w>
ter ing</w>
B S</w>
ous ness</w>
pi eces</w>
f alls</w>
199 0s</w>
will ingness</w>
N ep
junc tion</w>
smo oth</w>
re y</w>
sh an</w>
t ab
Sy dney</w>
re marks</w>
be ach</w>
ret ail</w>
prosecu tors</w>
every body</w>
politici ans</w>
T R
d ation</w>
re placement</w>
sm u
resu med</w>
mach ines</w>
9 3</w>
b ic</w>
re struc
bor ne</w>
in al</w>
0 1</w>
typ ical</w>
re ts</w>
col umn</w>
d uration</w>
di versi
appl ies</w>
sam ple</w>
cust om</w>
c able</w>
Mong ol
sel s</w>
remo val</w>
Y outh</w>
L D
Tim or</w>
satis fied</w>
w w
pu s</w>
te a</w>
op timis
under mine</w>
lin k
vill ages</w>
Republic ans</w>
Li b
surg ery</w>
decre ased</w>
typ ically</w>
Indi genous</w>
repe ated</w>
AS E
at en</w>
proce ed</w>
ep tion</w>
pat ro
em en</w>
y st
bigg er</w>
M an</w>
harm ful</w>
man ual</w>
invol ves</w>
W all</w>
Develop ing</w>
happ iness</w>
co ol</w>
Con clu
met res</w>
a o
to col
Au tom
ex emp
oc k
f ab
thous and</w>
discipl inary</w>
Vi et
brief ing</w>
Prof essor</w>
f at</w>
10 ,000</w>
loc ate</w>
fir mly</w>
de grees</w>
Car ol
repu tation</w>
N ever
S ho
restric ted</w>
Add .1</w>
conven ed</w>
soci eties</w>
fe ed
dist ur
ali ve</w>
m ation</w>
O ri
ad oles
E .</w>
J in
lu x
e an</w>
negoti ation</w>
swim ming</w>
origin ally</w>
accommod ation</w>
st ret
V ill
ze gov
conveni ent</w>
break fast</w>
IL O</w>
inv asion</w>
Her zegov
organiz ing</w>
tocol s</w>
W ould</w>
th r
Herzegov ina</w>
Ar med</w>
d ented</w>
priv il
friend ship</w>
i .
Democr ats</w>
Ch ile</w>
writ er</w>
Sand ers</w>
compe tence</w>
requ iring</w>
w l</w>
se y</w>
e. g.</w>
la d</w>
depend ence</w>
R adi
es cape</w>
as er</w>
sh ir
Tok yo</w>
s cape</w>
pos ing</w>
Chris tian</w>
D N
Acc ess</w>
citiz en</w>
ra w</w>
pregn ancy</w>
su d
Palestini ans</w>
NP T</w>
ash es</w>
analy zed</w>
W a
arri val</w>
en coun
nation als</w>
Addi tional</w>
smu gg
descri be</w>
M ON
harass ment</w>
Br us
occur s</w>
compl icated</w>
1 1
figh ters</w>
mist ake</w>
semin ars</w>
assa ult</w>
condu cive</w>
Venezu ela</w>
integr al</w>
modi ties</w>
dev ast
bu ying</w>
Princi ples</w>
i ds</w>
I vo
Cust om
Num ber</w>
de pri
trac king</w>
meaning ful</w>
M D
L at
wit ness</w>
occa sion</w>
Never theless</w>
pass ing</w>
de pos
s at</w>
observ ation</w>
birth day</w>
Azerbai jan</w>
the ore
as ser
voc ational</w>
pro test</w>
I G
re mark
genu ine</w>
commen ded</w>
ten n
Ivo ire</w>
C T
det ain
thin ks</w>
ra d
del ayed</w>
c ad
wonder ful</w>
fe ed</w>
Ad vis
ju ven
shar p</w>
ASE AN</w>
perform ing</w>
pul l</w>
as e
Iran ian</w>
modi fied</w>
adjust ments</w>
Fo ot
tri als</w>
Mr s</w>
diagno sis</w>
rec all</w>
ga thered</w>
in adequate</w>
prin ting</w>
accoun ted</w>
fru it</w>
employ ers</w>
se gment</w>
ende av
B ran
ate ful</w>
stead y</w>
end ar</w>
L ou
sh oul
ab and
sub jects</w>
du pl
mo vements</w>
Agricul ture</w>
B or
reti rement</w>
stre am</w>
coordin ating</w>
commun icate</w>
R eli
up per</w>
9 4</w>
c lock</w>
Com prehensive</w>
st ems</w>
sec toral</w>
feel ings</w>
bac ked</w>
experi ment</w>
Ex cell
swit ch</w>
sud denly</w>
m ad</w>
men tion</w>
speak er</w>
un prece
pos s
Some times</w>
real istic</w>
ul ate</w>
g al</w>
Territ ories</w>
rail way</w>
Cli mate</w>
Produc ts</w>
ess els</w>
N oting</w>
tour ist</w>
Gu id
mag ne
D a
d ging</w>
Pol and</w>
odi versity</w>
eli gible</w>
ill ance</w>
help ful</w>
Regi on</w>
O m
Cha pter</w>
expl oration</w>
par allel</w>
separ ation</w>
I l
competi tiveness</w>
a side</w>
pr o</w>
vel i
N ai
mobil ization</w>
C ô
benef icial</w>
res ort</w>
Ch ic
fi x</w>
concep ts</w>
ann ually</w>
emp ty</w>
y ard</w>
survi val</w>
defin itely</w>
Cô te</w>
unprece dented</w>
thu si
H ai
Trans port</w>
An ti</w>
su red</w>
as sign
f ro
o es</w>
certi fication</w>
s wi
ic op
se ized</w>
Brus sels</w>
plan et</w>
Oper ation</w>
E D</w>
mater nal</w>
envis aged</w>
vis ual</w>
ain t</w>
C C</w>
di verse</w>
Represent atives</w>
tain ment</w>
m ates</w>
retur ning</w>
i. e.</w>
u tr
no vation</w>
st ro
suppli ers</w>
absolu tely</w>
c asting</w>
public ly</w>
I R
d ress</w>
T our
en ever</w>
ili an</w>
op ing</w>
ten sions</w>
cap ability</w>
won der</w>
on ship</w>
symp toms</w>
fla g</w>
G ul
form ally</w>
sh ut</w>
difficul ty</w>
for ums</w>
t olerance</w>
be red</w>
di am
Con t
cu p
B oli
Gr and</w>
av y</w>
under ing</w>
in ev
O u
discipl ine</w>
s ory</w>
ve ter
contem porary</w>
qui et</w>
priv acy</w>
ad verse</w>
J ones</w>
ev ac
ag ers</w>
Den mark</w>
sil ver</w>
O S
an k
mo tiv
u de</w>
as on</w>
simul tane
accoun table</w>
Integr ated</w>
recip i
ot a</w>
ed y</w>
en thusi
port fol
head ing</w>
emo tional</w>
mon etary</w>
ec ological</w>
Lib ya</w>
pen ing</w>
Engine ering</w>
cre w</w>
Dru gs</w>
r ice</w>
radi ation</w>
def enders</w>
ad he
St ation</w>
slow ly</w>
pul led</w>
therap y</w>
enn ial</w>
se g
consi sts</w>
schem es</w>
mo on</w>
happen ing</w>
col on
win ner</w>
6 0
M et
tr a</w>
Belar us</w>
tot ally</w>
stri kes</w>
jo y</w>
t ells</w>
adop ting</w>
rel ate</w>
cho ices</w>
cl oud</w>
arbitr ary</w>
enorm ous</w>
Ad d</w>
it ting</w>
classi fication</w>
Wh ich</w>
ten ed</w>
alco hol</w>
K im</w>
ang le</w>
gi ant</w>
low est</w>
h o</w>
v ent</w>
compati ble</w>
reaffir med</w>
obvi ously</w>
up dates</w>
Con cer
do ors</w>
g a</w>
im ports</w>
bound ary</w>
per mission</w>
clo thing</w>
adap t</w>
c in
ou ts</w>
forec ast</w>
div or
ad just</w>
un d
Croati a</w>
tack le</w>
tro op</w>
v essels</w>
Dis cus
Ba sic</w>
F C</w>
pos session</w>
op posite</w>
el ect</w>
sol ar</w>
li veli
o cean</w>
at ar</w>
inter ference</w>
gra m</w>
For mer</w>
&apos; Ivoire</w>
vi ation</w>
q ing</w>
electr ical</w>
I V
plac ing</w>
quanti ty</w>
ven d
she et</w>
Sen ior</w>
ep ide
Jam a
kitch en</w>
rene wed</w>
tor ate</w>
attemp ted</w>
r on</w>
r d</w>
Emer gency</w>
le g</w>
favor ite</w>
constitu tes</w>
a warded</w>
convers ation</w>
se es</w>
allow ance</w>
exc essive</w>
ear ning</w>
Stu dies</w>
C A</w>
gr ati
Youn g</w>
Ex change</w>
Guang zhou</w>
eful ly</w>
EN T</w>
m aritime</w>
organ ic</w>
defe at</w>
sh ore</w>
UN R
mot or</w>
tic kets</w>
cur y</w>
ogra phic</w>
ori entation</w>
stic k</w>
d um
r at
8 ,
determin ing</w>
L ist
gg er</w>
secu red</w>
Recogn izing</w>
high light</w>
argu ed</w>
s car
ru pt</w>
Ma ur
measu red</w>
H or
op ho
olo g
Inter ior</w>
S wis
Exper t</w>
wil d</w>
dat ory</w>
t ourn
consult ative</w>
Do es</w>
spon sors</w>
indic ating</w>
sign ature</w>
ar a</w>
restaur ants</w>
co alition</w>
fl ying</w>
un known</w>
A li
S T</w>
B est</w>
M ol
Cambo dia</w>
acci dents</w>
Su per
t age</w>
di an</w>
b id
vol ati
po c
ob server</w>
dis k</w>
pic ked</w>
2 50</w>
mat ure</w>
opini ons</w>
h ome
rob i</w>
occa sions</w>
phil osoph
3 ,000</w>
E L
renew able</w>
feed back</w>
Nai robi</w>
stand ardi
mainstre am</w>
over view</w>
smo king</w>
mil k</w>
sk i</w>
resu me</w>
Plat form</w>
Whe ther</w>
resp ected</w>
Peace building</w>
re vision</w>
tal ked</w>
gener ations</w>
rel atives</w>
Al geria</w>
got ten</w>
form ity</w>
liter ature</w>
defic it</w>
pl ed</w>
Fin ancing</w>
Un fortunately</w>
gi ft</w>
M ater
in ser
com mon
Or din
pro minent</w>
Co sta</w>
lik es</w>
ra m</w>
gene tic</w>
fall en</w>
in equality</w>
er on</w>
prof essor</w>
posi t</w>
kno c
ex tradition</w>
Reg ulations</w>
Corpor ation</w>
di o</w>
minist ries</w>
sec urities</w>
sh ock</w>
inten sive</w>
begin s</w>
pic tured</w>
Si x
consider ations</w>
ket ball</w>
deliber ations</w>
fin ed</w>
la h</w>
St ar
dis cre
Meas ures</w>
ste re
com pris
. com</w>
Chic ago</w>
su gar</w>
peti tion</w>
restruc turing</w>
ir on</w>
M ain</w>
on e
resid ential</w>
Dec ade</w>
inv ite</w>
y ards</w>
Swis s</w>
vo y</w>
C lick</w>
N O
mot or
accur acy</w>
S har
benef ici
Fin land</w>
tu s</w>
fel low</w>
f at
3 rd</w>
Su n</w>
comfor t</w>
hel icop
wed ding</w>
appe als</w>
ro ots</w>
Fi gure</w>
elec tro
bud gets</w>
gu ided</w>
un certainty</w>
me rely</w>
R am
produc ers</w>
any where</w>
compe te</w>
C P</w>
ang ry</w>
acqui red</w>
Th ough</w>
un ilateral</w>
pe ak</w>
th o
cul tures</w>
y l</w>
N an
w ast
r uled</w>
uni ons</w>
me ters</w>
b ond</w>
interven tions</w>
r ant</w>
Con serv
stre am
wal ked</w>
p ir
Clu b</w>
por tion</w>
adequ ately</w>
pl enty</w>
He ad</w>
lan tic</w>
tu p</w>
ne utr
str ing</w>
targe ting</w>
appl ying</w>
UNR WA</w>
h all</w>
Qu estions</w>
in cur
la m</w>
s si
relev ance</w>
consult ants</w>
clari fy</w>
t ant</w>
arbitr ation</w>
stric tly</w>
Ac ti
fore sts</w>
Let ter</w>
degra dation</w>
Nep al</w>
embar go</w>
Guang dong</w>
w ages</w>
Per haps</w>
trans fers</w>
repor ter</w>
s now</w>
calcul ation</w>
al lies</w>
Si gn
g lo
0 5</w>
Con ven
pursu it</w>
reli ability</w>
Re al</w>
mechan ical</w>
tenn is</w>
Tan z
absolu te</w>
neighb ouring</w>
u l</w>
Mongol ia</w>
ric k</w>
do gs</w>
sove reign</w>
bud ge
P ic
c er</w>
no tification</w>
el ev
10 0,000</w>
tion ality</w>
bath room</w>
adju sted</w>
mu tually</w>
v an
5 th</w>
con version</w>
F A</w>
b al</w>
re viewing</w>
20 20</w>
coura ge</w>
analy sts</w>
D aily</w>
O s
fil ms</w>
susp en
E valuation</w>
facilit ating</w>
Up on</w>
depar ture</w>
Mo der
err ors</w>
par liament</w>
hop ing</w>
frequ ent</w>
surve illance</w>
pro stitution</w>
conclu de</w>
om a</w>
enti ally</w>
L ove</w>
sub scri
Con stitu
attrac ted</w>
ke y
L ist</w>
S ett
bal ances</w>
ill ness</w>
hun ger</w>
at em
a part</w>
concentr ation</w>
ant a</w>
H S</w>
Win dows</w>
ben ch
IM F</w>
cal endar</w>
Enter prise</w>
li ft</w>
b one</w>
mo bility</w>
serv es</w>
complex ity</w>
consist ently</w>
V is
In st
far m</w>
law ful</w>
ti red</w>
oper ators</w>
Stud ents</w>
Man ager</w>
gr ateful</w>
cas u
champi on</w>
F estival</w>
rev olution</w>
we igh
encoun tered</w>
I A</w>
D ou
peace building</w>
Ar men
mani fe
af ford</w>
th row</w>
mil iti
alo gue</w>
cohe rence</w>
Treat ment</w>
presid ency</w>
im pose</w>
ret ain</w>
explo sion</w>
h at
asp ir
ce l</w>
1. 5</w>
ren tal</w>
fair ly</w>
chec k
S em
has n</w>
C ould</w>
sugg estion</w>
he re
Com pu
them es</w>
dec ent</w>
Produc t</w>
hon est</w>
Cap ital</w>
i um</w>
s a</w>
Refuge es</w>
fe at
em or
belong ing</w>
S R
Prepar atory</w>
hi dden</w>
ve get
tra ge
C I</w>
flow ers</w>
1 2.
gradu ate</w>
com modities</w>
consolid ation</w>
trans national</w>
f oun
reco ver</w>
correc tly</w>
rel ates</w>
collap se</w>
provi der</w>
cri tici
ter ror</w>
Om bud
inter active</w>
St ar</w>
ear ned</w>
thou ghts</w>
B E
pre fer</w>
UNO PS</w>
surve ys</w>
ans wers</w>
Per u</w>
o cide</w>
auth entic
bon ds</w>
subsi dies</w>
Man u
for th
contro versi
fol der</w>
Ji ang
for cing</w>
li z
extra ordinary</w>
L ine</w>
N at
refl ecting</w>
u a</w>
arri ve</w>
Pro motion</w>
Alli ance</w>
amaz ing</w>
Cam eron</w>
explo sive</w>
so red</w>
Rom a</w>
10 .
pl ing</w>
T ele
pres sive</w>
inc enti
P L
up grade</w>
re patri
on ics</w>
Sel f</w>
mobil ize</w>
mac ro
Or gan
di um</w>
c ope</w>
c ited</w>
ac id</w>
coun sel</w>
so c
ti ed</w>
pe t</w>
M ary</w>
su m</w>
magaz ine</w>
w ounded</w>
child hood</w>
shi pping</w>
Mar tin</w>
S k
J ack</w>
ch ances</w>
detain ees</w>
An y
S ource</w>
B on
ni e</w>
adv ancement</w>
request ing</w>
imag ine</w>
Legisl ative</w>
198 9</w>
ul timate</w>
ear nings</w>
hum ans</w>
M P</w>
fu sion</w>
fo ster</w>
Hun g
exce ed</w>
t une</w>
o to</w>
no vel</w>
F il
sha re
trans mit</w>
M S</w>
sm ile</w>
en ables</w>
T S</w>
F l
issu ance</w>
Streng th
Gu atem
Rel ated</w>
uni tion</w>
wh el
an dum</w>
a c</w>
ple dged</w>
se ve
G ener
mo dule</w>
broad cast</w>
manufactu rers</w>
st ering</w>
he ight</w>
l ec
ak er</w>
Tex as</w>
Stat ute</w>
rec alls</w>
serv ants</w>
Jes us</w>
aggres sion</w>
bo y
tr uck</w>
hor se</w>
be i</w>
K er
Gu ide</w>
vi br
comp ul
connec tions</w>
S till</w>
gr ation</w>
back up</w>
ast ly</w>
Coun try</w>
affec ts</w>
ig no
He ads</w>
uni vers
suspen sion</w>
spir it
yi eld</w>
Maj or</w>
r ally</w>
portfol io</w>
gu est</w>
Ass ess
su peri
audi o</w>
US A</w>
W u</w>
b i</w>
Y ang</w>
incorpor ated</w>
T uni
pleas ure</w>
K ur
spok en</w>
in ner</w>
cap tured</w>
dis co
bat tery</w>
es cal
M useum</w>
9 ,
is o
ex it</w>
D ow
l or</w>
def end</w>
Sh ould</w>
nom ine
wor thy</w>
incre di
Pr ince</w>
attribu table</w>
E cu
ro p
Ji ang</w>
s cor
bo l</w>
manufac ture</w>
k id</w>
h ell</w>
every where</w>
ast y</w>
shor tly</w>
su spects</w>
lo aded</w>
me at</w>
g lad</w>
mod alities</w>
Th anks</w>
ad o</w>
D ist
seve rely</w>
si r</w>
et te</w>
scen ario</w>
per mitted</w>
uni fied</w>
Carol ina</w>
dec lar
au ght</w>
wi reless</w>
I I
A d</w>
attrac tive</w>
oper ative</w>
Stand ard</w>
remark able</w>
under lying</w>
nar row</w>
er ation</w>
alle y</w>
fo reign
bac ter
0 9</w>
ati zation</w>
Commun ications</w>
dimen sion</w>
assu med</w>
fo res
C ath
M ach
gre en
st y</w>
ti me
tu de</w>
is co</w>
low s</w>
im bur
in vested</w>
sol ved</w>
bi odiversity</w>
cal m</w>
ourn e</w>
reg ards</w>
Foot ball</w>
G et
surpris ed</w>
sh ouldn</w>
H an
Uni versal</w>
f ate</w>
ro bo
St ri
Viol ence</w>
S A</w>
inno cent</w>
credi bility</w>
or gan</w>
promis ing</w>
circu it</w>
Su b</w>
ver sions</w>
S ri</w>
re me
Erit rea</w>
de posit</w>
air space</w>
E quality</w>
Dru g</w>
r ation
introduc ing</w>
k ni
Que en</w>
L ake</w>
pro hibition</w>
challeng ing</w>
Pro gress</w>
under taking</w>
tow ns</w>
im per
Por t</w>
ac ce
inten se</w>
lo gical</w>
dis placement</w>
mak er</w>
reiter ates</w>
incenti ves</w>
ob serve</w>
survi v
Commer ce</w>
mist akes</w>
j ump</w>
Every one</w>
laun ching</w>
con junction</w>
tem por
calcul ated</w>
inci dence</w>
Def ense</w>
ac ute</w>
sou l</w>
ar chi
Secon dly</w>
Me dic
i tive</w>
w ron
it ly</w>
dele te</w>
rec ur
un t</w>
accord ingly</w>
O P
E mp
reme dy</w>
Com mit
ho c</w>
ff s</w>
ar ise</w>
con secu
un usual</w>
v ary</w>
f ears</w>
down load</w>
terri ble</w>
commun ic
nit ure</w>
me ets</w>
over whel
re vi
Bi g</w>
high lights</w>
t ments</w>
v ated</w>
Do ha</w>
man datory</w>
a b</w>
att le</w>
recor ding</w>
sp are</w>
Bud get</w>
log is
4 th</w>
Bl ue</w>
NG O</w>
dec entr
t ine</w>
off ensive</w>
lun ch</w>
question n
Li brary</w>
ac com
in dis
Tanz ania</w>
f ran
ap paren
Q ing
vi et</w>
B en</w>
convic tion</w>
exclu sion</w>
graph y</w>
Ser bia</w>
s ad</w>
Oc cup
apo lo
demo bil
apparen tly</w>
de emed</w>
elecommun ications</w>
en ship</w>
quar ter
ass es</w>
D am
b all
l ucky</w>
W u
a str
in stances</w>
di stric
Ric hard</w>
spi red</w>
recei pt</w>
s ounds</w>
M ot
Rob ert</w>
M L</w>
T om
propos e</w>
g am
en a</w>
t aste</w>
s in</w>
Cur rently</w>
with draw</w>
Acti vities</w>
IO N
C D
Spe aking</w>
tr y
y ellow</w>
spon sored</w>
separ ated</w>
der ived</w>
distric ts</w>
T D</w>
smo ke</w>
Del eg
t ail</w>
S pr
A T</w>
e uro
Jud ge</w>
organ is
Pro ble
t um
Q atar</w>
Mi ke</w>
land scape</w>
er ies</w>
conting ent</w>
win s</w>
affor dable</w>
mi x</w>
simul ation</w>
F ree
in tim
cra zy</w>
predic table</w>
re bel
logis tical</w>
Assess ment</w>
k ne
pus hed</w>
Strength ening</w>
monit ored</w>
ber y</w>
indic ator</w>
Ordin ance</w>
Vi ew</w>
fic ial</w>
So viet</w>
accom mo
consecu tive</w>
arti st</w>
link ages</w>
ard ous</w>
sc ru
G O
ol l</w>
e z</w>
character istic</w>
U p</w>
forth coming</w>
pro tests</w>
u red</w>
ho ods</w>
out reach</w>
polic y
pr ud
tran sitional</w>
dimen sions</w>
bre ach</w>
fore ver</w>
S et</w>
um in
d am</w>
Tian jin</w>
F is
exclu sive</w>
ap parent</w>
Recom mend
ase fire</w>
C ra
b ourne</w>
re stor
Ac ting</w>
Im pro
bas ically</w>
w ell
2 7
9 00</w>
pro ven</w>
cha ired</w>
satisfac tory</w>
reco vered</w>
them atic
pre jud
S of
volunte ers</w>
Produc tion</w>
Har ry</w>
Re gar
Commun ication</w>
in y</w>
celebr ate</w>
b ird</w>
condi tioning</w>
nat ur
ga thering</w>
n ity</w>
distinc tion</w>
mo ves</w>
t ari
ev olution</w>
inter views</w>
safe guard</w>
n ic
conserv ative</w>
fisher ies</w>
hu an</w>
us age</w>
sa u</w>
IS IS</w>
sho ts</w>
re imbur
k g</w>
T reas
ace u
appro ve</w>
ste in</w>
ex act</w>
clean ing</w>
mo m</w>
om et
att or
S in
flo od</w>
wit n
cor respon
empha size</w>
requ is
f ant
am i</w>
ori an</w>
H al
ong side</w>
char ity</w>
modern ization</w>
preser ve</w>
Hou sing</w>
lux ury</w>
lad y</w>
T ali
speci ally</w>
pen alties</w>
meas uring</w>
limit ations</w>
O cean</w>
carri er</w>
environ ments</w>
vis a</w>
constitu tion</w>
some body</w>
val ence</w>
fil ter</w>
proced ural</w>
Ur ban</w>
h in
pri ze</w>
Sy stems</w>
In tro
D ut
te ach</w>
y n</w>
mort g
gr ass</w>
veri fy</w>
boo k
f ron
progres sive</w>
A U</w>
controversi al</w>
n am</w>
Li a
Proper ty</w>
clu bs</w>
inf ected</w>
web sites</w>
V e
D un
insi sted</w>
off set</w>
dis missed</w>
chron ic</w>
uc ks</w>
consolid ated</w>
vac ancy</w>
enter tainment</w>
Mun icip
cap ture</w>
1. 2</w>
isl ands</w>
Mon etary</w>
ten s</w>
expres ses</w>
fav ourable</w>
proc essed</w>
ou l</w>
oper ated</w>
pro spect</w>
am bia</w>
ke l</w>
Minist erial</w>
C el
lic ense</w>
fre ely</w>
anticip ated</w>
te or
ad ds</w>
ain e</w>
Mi gration</w>
S P</w>
Al ban
C ent
continu ously</w>
k ic
pol ls</w>
ici ans</w>
vi able</w>
pain ting</w>
Em ployment</w>
prec ise</w>
ra rely</w>
At lantic</w>
chec ks</w>
CP C</w>
A h
bu yer</w>
S qu
bro thers</w>
dic tions</w>
Ch eck</w>
omet res</w>
UN AM
dead line</w>
promp t</w>
liqu id</w>
rang ing</w>
reg ret</w>
Mad rid</w>
la undering</w>
soci alist</w>
et es</w>
C ou
busin ess
succe ed</w>
person ality</w>
b low</w>
jo ining</w>
th in</w>
Le ad
str ange</w>
sel ec
ot yp
adv ances</w>
ad vised</w>
198 8</w>
con formity</w>
kil ometres</w>
pre ferred</w>
see kers</w>
medi ation</w>
L A</w>
pursu ed</w>
is s
Ch ris</w>
CN N</w>
discus sing</w>
F L</w>
t aught</w>
analy se</w>
e able</w>
AT ION</w>
S C</w>
consul t</w>
s ong
cre ates</w>
O EC
vide os</w>
ast le</w>
Bis sau</w>
ti ght</w>
Th ir
spirit ual</w>
Wor k
rob ust</w>
survi ve</w>
Elec toral</w>
f uc
reve al</w>
th res
St ock
r yp
liber ty</w>
deplo y</w>
bu ff
swe et</w>
dele ted</w>
com promise</w>
FD I</w>
Commun ist</w>
sup er</w>
cohe rent</w>
D F</w>
g ated</w>
notic ed</w>
gan g</w>
S E
vi gor
N ot
analy tical</w>
recru ited</w>
0 8</w>
ac ity</w>
s our
Par ag
A MI
G han
win dows</w>
compul sory</w>
cop ies</w>
0 6</w>
K in
R yan</w>
ly wood</w>
n es</w>
leg es</w>
k is
Y emen</w>
po ll</w>
ban ned</w>
assess ing</w>
s par
sho es</w>
r ing
F ore
as sion</w>
ran ean</w>
negoti ate</w>
acc ession</w>
sy ner
cap tain</w>
Portu gal</w>
is c
environ mentally</w>
s ons</w>
har dly</w>
ra il</w>
cont am
V II</w>
Tali ban</w>
gen cies</w>
Advis er</w>
part ly</w>
Cub an</w>
ten th</w>
Ser ies</w>
wat ched</w>
mer cury</w>
mat h</w>
repl ied</w>
f ast
U C</w>
def end
claim ing</w>
ph r
ari ties</w>
theore tical</w>
Issu es</w>
reg ret
ke ys</w>
im ported</w>
l en
jud gement</w>
n ative</w>
comple ment</w>
in i</w>
u ph
C lar
avi ation</w>
F i</w>
vil le</w>
destro y</w>
u ps</w>
be aten</w>
M a</w>
attitu des</w>
2. 5</w>
CA P</w>
Ex am
tion ers</w>
char t</w>
gr and</w>
me al</w>
f loo
ass ure</w>
J ack
H aw
sem i</w>
uni form</w>
t ail
ox ide</w>
Wat ch</w>
list ening</w>
stoc k
n an</w>
b ling</w>
c ry</w>
ti er</w>
inc ere</w>
H K
bas ketball</w>
g on
S chem
extre mis
Mal i</w>
miti gation</w>
ri val</w>
preven ted</w>
formul ated</w>
l o</w>
bur gh</w>
contrac tors</w>
altern atives</w>
im migrants</w>
Guatem ala</w>
questi oned</w>
Li ver
classi fied</w>
O ld</w>
S ic
Gul f</w>
sho ot</w>
pp o</w>
j ail</w>
D ev
OEC D</w>
en opho
bir ds</w>
tra um
Chem ical</w>
v ar
Coun ter</w>
ol en</w>
bl ame</w>
re ferring</w>
Constitu tional</w>
b in</w>
rou tes</w>
C ir
wron g
di et</w>
un clear</w>
198 0s</w>
defic i
hor iz
d rought</w>
e uro</w>
L it
di ab
dis closure</w>
amm unition</w>
be ings</w>
U z
than ked</w>
B .
Bul g
k in</w>
tribu te</w>
Stra its</w>
sam ples</w>
el ed</w>
custom ary</w>
nec k</w>
id ays</w>
bel ong</w>
Mel bourne</w>
persist ent</w>
B an
b les</w>
threat ening</w>
d or
per ce
ath le
re p
St .</w>
t ank</w>
mat ches</w>
G al
civil ization</w>
Te aching</w>
ap ped</w>
Med iter
igno red</w>
st resses</w>
qu ery</w>
Micro soft</w>
arrang ed</w>
de ep
Be sides</w>
S B
LD Cs</w>
s incere</w>
re verse</w>
u ters</w>
T ay
har mony</w>
refl ection</w>
sh ut
per su
spl it</w>
sett led</w>
B ag
p in
main tains</w>
ne gl
Ecu ador</w>
tourn ament</w>
st ayed</w>
f ound
m ayor</w>
Ar t</w>
6 th</w>
med als</w>
liter acy</w>
Lo g
Mediter ranean</w>
w a</w>
ass emb
rol ling</w>
aband oned</w>
er b
X X
casu alties</w>
der i
termin ation</w>
S or
set tle</w>
O versi
0 7</w>
depri ved</w>
arti sts</w>
exc ited</w>
st aying</w>
Cru z</w>
sym bol</w>
al ongside</w>
introduc es</w>
legi tim
syn chron
gu iding</w>
Meth ods</w>
read s</w>
Swe dish</w>
pl u
thir ds</w>
A ri
O S</w>
Investig ation</w>
in ks</w>
Ang ola</w>
cros sing</w>
z i
Liver pool</w>
govern or</w>
pri ori
ograph y</w>
Oversi ght</w>
t ress</w>
uni or</w>
K ey</w>
n es
Lan ka</w>
M A</w>
V ide
Ear lier</w>
v es
Fol low</w>
pe tro
out puts</w>
Mon tre
know ing</w>
0 3</w>
me tr
cho o
rec y
sco res</w>
di ver
ob li
ch ose</w>
Si x</w>
direc tors</w>
N ar
per si
mini stry</w>
desi red</w>
cad res</w>
Ho c</w>
U .</w>
atten ding</w>
am id</w>
Scot t</w>
Thom as</w>
recogn izing</w>
Re affir
A ma
advis ers</w>
In clu
com mission
develop ers</w>
ess entially</w>
appreci ated</w>
ak ers</w>
Con trac
Ric a</w>
analy ses</w>
A th
di r
desi ra
20 ,000</w>
as m</w>
ea p</w>
condem ned</w>
Pers onal</w>
capit a</w>
sha dow</w>
Uz be
RA L</w>
cat aly
al bu
demonstr ation</w>
phot ogra
por ters</w>
d d
pris ons</w>
ari ous</w>
inten ds</w>
G M</w>
Sur vey</w>
Ch urch</w>
po t</w>
car go</w>
E CO
Or der</w>
Hol lywood</w>
k ok</w>
exp ects</w>
fail ing</w>
Rel ations</w>
olu tionary</w>
a h
al ert</w>
docu mented</w>
sk ill</w>
Hot els</w>
labor atory</w>
Bar ack</w>
fores e
su e</w>
a us
Ber lin</w>
week ly</w>
Res ults</w>
post p
B ir
experi mental</w>
wh enever</w>
assur ance</w>
For ms</w>
indic ation</w>
si zing</w>
sc and
z o
abor tion</w>
Com mon
men ting</w>
col our</w>
enfor ced</w>
investig ators</w>
1 30</w>
sim pli
Cust oms</w>
shel ter</w>
facilit ated</w>
fur niture</w>
dre ams</w>
d est</w>
acc umul
Tran sitional</w>
concentr ated</w>
prop ag
acc o</w>
dis charge</w>
contin uation</w>
L angu
G ab
M id
deteri or
S H
D ani
work place</w>
1. 1</w>
Di g
employ er</w>
Ph il
re stra
Tour ism</w>
consci ous</w>
minim ize</w>
Franc isco</w>
har der</w>
dis appeared</w>
curricul um</w>
con su
ner v
chec ked</w>
reiter ate</w>
Proce d
foreign ers</w>
des per
Inspec tion</w>
Cur rent</w>
V alley</w>
Willi ams</w>
Ale ppo</w>
philosoph y</w>
m ir</w>
domin ated</w>
Li by
dra matic</w>
common ly</w>
rou tine</w>
r ational</w>
Fo x</w>
Su per</w>
re mind</w>
mom ents</w>
ac he</w>
Viet nam</w>
Res ource</w>
sub mits</w>
ill a</w>
G ir
form ance</w>
c abinet</w>
det ect</w>
ol ic</w>
separ ately</w>
missi les</w>
T ype</w>
it ative</w>
doz en</w>
po o
Montre al</w>
juven ile</w>
Braz ilian</w>
Lim ited</w>
bur n</w>
Sahar an</w>
U P
me ter</w>
bo ards</w>
S t</w>
s an
Pr in
conveni ence</w>
P ow
bran ches</w>
privil eg
E T</w>
un acceptable</w>
execu ted</w>
magne tic</w>
F lo
st atic</w>
Ar ti
Cy pri
stere otyp
exac erb
S how</w>
consist ency</w>
L astly</w>
dis appearance</w>
J our
ph arm
Jo e</w>
on ym
rev it
l en</w>
haz ardous</w>
control ling</w>
R O
inst ability</w>
credi ble</w>
he ating</w>
C had</w>
n an
s ers</w>
vir tu
rup ted</w>
Pro gram</w>
Reser ve</w>
formul a</w>
prof ound</w>
ay a</w>
ow ed</w>
dra fted</w>
at ories</w>
w alls</w>
p .m</w>
acqu ire</w>
Deci des</w>
clear ance</w>
leg s</w>
c at</w>
bi o</w>
re bel</w>
b ars</w>
in spir
L a</w>
bun als</w>
f rac
Ombud sman</w>
nom ination</w>
duc ed</w>
consolid ate</w>
exc iting</w>
resi li
hi de</w>
Bang kok</w>
promp ted</w>
up coming</w>
re w</w>
the at
v able</w>
emer gencies</w>
plat forms</w>
w are
b led</w>
suppli er</w>
rec ession</w>
Com ple
thor ough</w>
Cont act</w>
C la
ber t</w>
u ated</w>
tim ing</w>
Add .
ini a</w>
expl ains</w>
I denti
Ste ph
ren a</w>
bac ks</w>
ak a</w>
fea sible</w>
senten ces</w>
argu ments</w>
O x
eng aging</w>
not ably</w>
M en</w>
po p</w>
g aining</w>
p es</w>
exerc ises</w>
person ally</w>
nomine e</w>
ar i</w>
Commer cial</w>
O thers</w>
Pri vate</w>
B each</w>
circ le</w>
citiz enship</w>
Ex p
ar ray</w>
ce asefire</w>
character ized</w>
su dden</w>
iz ations</w>
ES CAP</w>
Tor ture</w>
assi stant</w>
in spired</w>
ch ick
preci sion</w>
gener ating</w>
Meth od</w>
bre a
C op
Ch el
oper ator</w>
memor andum</w>
sim pl
Common wealth</w>
gun s</w>
ic on</w>
P ot
Govern or</w>
suffici ently</w>
inter medi
assu red</w>
Bran ch</w>
T ell</w>
ac ks</w>
Vi e
exclu ded</w>
st olen</w>
ec h
mon d</w>
Ta ji
um es</w>
s u</w>
fe eding</w>
sur plus</w>
evi dent</w>
im pressive</w>
Str uc
Pr acti
gen ocide</w>
integr ating</w>
in he
ep iso
in corporate</w>
N am</w>
ans wered</w>
im m
hy per
l ot
Y un
ten d
ti gh
sk illed</w>
restor ation</w>
P un
constitu ted</w>
S it
Re uters</w>
en sures</w>
gir l
f estival</w>
deleg ates</w>
t at
circul ated</w>
bloc ks</w>
Cre ate</w>
Ob server</w>
g ay</w>
confi d
Au dit</w>
de pression</w>
is tic
fin anced</w>
Pro m
Ju l</w>
stri ve</w>
S .
eth ics</w>
Liby an</w>
Mul ti
exc ess</w>
excep tional</w>
ic ed</w>
10 5</w>
Res olution</w>
shir t</w>
D ate</w>
Inter governmental</w>
R ail
doz ens</w>
parame ter</w>
ear ing</w>
inv al
simultane ously</w>
a wards</w>
vi sts</w>
Deci sion</w>
Ky oto</w>
a ver
an xi
R est
d ul
Conclu sion</w>
sac ri
re tri
cam pus</w>
Sof tware</w>
sing er</w>
sub stitu
ak s</w>
clari fication</w>
certific ates</w>
bo xes</w>
expen se</w>
obstac le</w>
f li
li abilities</w>
coun try
re ments</w>
ack ers</w>
short age</w>
movi es</w>
4 ,000</w>
U ru
initi ate</w>
ob taining</w>
detec ted</w>
ge o
se iz
Volun te
R ural</w>
A .
mar gin</w>
smugg ling</w>
r he
ap point</w>
aggres sive</w>
At tor
explic itly</w>
intensi fy</w>
Offic ers</w>
ran ked</w>
aggreg ated</w>
M aster</w>
dialo g</w>
aff ili
F ed</w>
tra in
coun ts</w>
I .</w>
deci sive</w>
oph istic
sal aries</w>
h ang
blin d</w>
v is</w>
out set</w>
shoul der</w>
br ands</w>
l uck</w>
U l
s .
sign als</w>
ro t
prom otes</w>
tic ul
D ue</w>
newsp apers</w>
til ity</w>
Per formance</w>
loc ally</w>
disco very</w>
er to</w>
out break</w>
hol idays</w>
regul ated</w>
surviv ors</w>
competi tors</w>
el ly</w>
6 ,000</w>
Zi ka</w>
bi ke</w>
witn essed</w>
prosecu tor</w>
differen ti
Moder n</w>
car ries</w>
entreprene urs</w>
moun tains</w>
navi gation</w>
A C.
Gre en
glob ally</w>
ul sion</w>
adoles cents</w>
Excell ency</w>
fo ods</w>
R is
S us
Tuni sia</w>
La w
elimin ating</w>
rec re
manufactu rer</w>
an cies</w>
Municip al</w>
ann ex
Radi o</w>
promp tly</w>
High er</w>
em an</w>
exist ed</w>
demobil ization</w>
On line</w>
DA W</w>
ur a</w>
un anim
T own</w>
Particip ants</w>
reaffir m</w>
fit ness</w>
0 4</w>
Over all</w>
conven ing</w>
out line</w>
au to</w>
si le</w>
Ste ve</w>
spo t
Char les</w>
compe ting</w>
valu ed</w>
benef ited</w>
neigh bor
ac cred
hand led</w>
F re
Int ellig
ge l</w>
s s
Ghan a</w>
CN. 4</w>
pip eline</w>
sal t</w>
T ER
D ri
E le
ar gue</w>
liber alization</w>
Dut ch</w>
ch eap</w>
ho sting</w>
cu p</w>
Un til</w>
UNIF IL</w>
divor ce</w>
o tive</w>
corpor ations</w>
dis appointed</w>
Sic huan</w>
pun ished</w>
b ags</w>
am in</w>
po wered</w>
supple mentary</w>
C T</w>
DN A</w>
on er</w>
lo ading</w>
SA S</w>
occup ying</w>
break s</w>
bur ning</w>
adv ise</w>
poo rest</w>
hi re</w>
in puts</w>
contrac tual</w>
N ame</w>
Z one</w>
P et
CE DAW</w>
fav our
duc t</w>
0 2</w>
tan gible</w>
por tra
fur n
D av
epide mic</w>
temper atures</w>
S han
C. 5</w>
Pur su
s ophistic
work load</w>
spec tr
c ils</w>
US D</w>
p ure</w>
ris on</w>
trage dy</w>
prote in</w>
tem plate</w>
whe el</w>
re venues</w>
appear ances</w>
1 1.
strugg ling</w>
j ian</w>
d ust</w>
perf ec
ni ght
Uru gu
some where</w>
tre as
ro of</w>
oppon ents</w>
dimen sional</w>
li ked</w>
pursu ing</w>
CE O</w>
B ab
incur red</w>
pre valence</w>
kee ps</w>
modi fy</w>
S ales</w>
Vi et</w>
ra dic
int olerance</w>
l am
comb at
z en</w>
pens able</w>
inten sity</w>
ell o</w>
appoin tments</w>
spo ts</w>
ga ther</w>
datab ases</w>
concer ted</w>
Z im
Addi tionally</w>
Musli ms</w>
Willi am</w>
O il</w>
sust ain</w>
ke en</w>
uc tu
E th
brow ser</w>
C. 3</w>
Schem e</w>
Sen eg
necess ity</w>
ad here</w>
macro economic</w>
tempor arily</w>
on ization</w>
f lic
N S
P hot
on ships</w>
Je wish</w>
mo od</w>
b ases</w>
n t</w>
Th ai</w>
sy l
any more</w>
b ic
Ara bic</w>
sur ge</w>
purch ased</w>
Aud itors</w>
st ake</w>
k ick</w>
te ars</w>
medic ines</w>
mal aria</w>
E f
coun selling</w>
discus ses</w>
co des</w>
D oc
Add ress</w>
IT RAL</w>
analy ze</w>
fl ed</w>
off enders</w>
reti red</w>
pack aging</w>
UNC ITRAL</w>
op ens</w>
Ky r
E ven
M obile</w>
Pro curement</w>
he l</w>
er as</w>
t elecommunications</w>
Ch an
1 10</w>
Docu ment</w>
her o</w>
thres hold</w>
aceu tical</w>
scor ing</w>
ni ghts</w>
oun ced</w>
Po int</w>
in habit
lin ear</w>
ba i</w>
land locked</w>
kil ome
won dered</w>
emis sion</w>
sen al</w>
conf isc
om ing</w>
Guid elines</w>
entr ance</w>
spac es</w>
invest ing</w>
t ar</w>
compar ative</w>
ce ase</w>
sex ually</w>
rec eption</w>
Hist ory</w>
indis pensable</w>
rel uc
immun ity</w>
direc tory</w>
associ ate</w>
us al</w>
uti lity</w>
sho w
domin ant</w>
it ement</w>
K a
consequ ence</w>
sil ence</w>
go od
pl as
H ill</w>
Log istics</w>
bed room</w>
C .1</w>
au g
im pression</w>
Proced ure</w>
ad mit</w>
Consi der
anc ell
prejud ice</w>
fa x</w>
lo gic</w>
Vir g
tor ia</w>
F BI</w>
sol ven
x enopho
ret ro
es cap
W FP</w>
PR O
Armen ia</w>
cr yst
questionn aire</w>
ST A</w>
T O
mer its</w>
Rec on
b loo
t wee
bab ies</w>
bot tle</w>
eval uations</w>
municip alities</w>
ex hi
h ill</w>
legitim acy</w>
lan ding</w>
br illi
S BI</w>
Gi ve</w>
termin al</w>
parti ally</w>
travel ling</w>
we ren</w>
fav or</w>
some what</w>
th west</w>
per for
n a
harmon ious</w>
Ke ep</w>
green house</w>
un necessary</w>
jud gment</w>
w ire</w>
transl ated</w>
c ab
dis par
dro ve</w>
Ann ual</w>
Main land</w>
o v
li sting</w>
dec or
net working</w>
hon or</w>
s and</w>
rais es</w>
optim al</w>
comple mentary</w>
pro jec
alle vi
T y
tex ts</w>
E v
2 1st</w>
ic ian</w>
her o
G s</w>
deci des</w>
maxim ize</w>
exce eded</w>
lia ison</w>
bre ast</w>
ce ans</w>
effici ently</w>
ati vity</w>
Hung ary</w>
trans form</w>
st up
d an</w>
mo s
A sh
nerv ous</w>
min g
cru el</w>
Econom y</w>
l on
ati al</w>
Pursu ant</w>
wa ves</w>
utili zed</w>
pl ates</w>
fea sibility</w>
imper ative</w>
vari able</w>
re di
ep ers</w>
aspir ations</w>
brief ly</w>
sol ving</w>
upgra ding</w>
acceler ated</w>
repatri ation</w>
fl uctu
Treas ury</w>
ma thematic
in direct</w>
ack er</w>
design ing</w>
ac king</w>
Electr onic</w>
Practi ce</w>
An drew</w>
Appe als</w>
l ending</w>
UN AMI
no body</w>
G EF</w>
Ch ong
promis es</w>
ther mal</w>
ret ained</w>
gra ph</w>
ap ps</w>
A I</w>
enc ryp
recei ves</w>
pus hing</w>
Di ffe
Appe al</w>
T op</w>
Ef for
Attor ney</w>
p ers</w>
engine ers</w>
expres sing</w>
ad y</w>
M IS
poli tically</w>
l ap
U R</w>
ag eing</w>
empha sizes</w>
found ations</w>
Co ast</w>
Vic toria</w>
acti vists</w>
Agricul tural</w>
desira ble</w>
invest or</w>
un ited</w>
Cor ruption</w>
wid th</w>
ren der</w>
Virg inia</w>
compris ing</w>
ang ers</w>
cen ters</w>
V ery</w>
gen e</w>
song s</w>
Com mon</w>
patro l</w>
cont est</w>
devast ating</w>
execu tives</w>
rou ghly</w>
We b
SB STA</w>
under ground</w>
publis hing</w>
propos es</w>
dec l
Jour nal</w>
C are</w>
pos sibilities</w>
emer gence</w>
benefici aries</w>
M ess
uc c
regi stry</w>
b locked</w>
al ised</w>
miti gate</w>
M B</w>
bu yers</w>
Uzbe kistan</w>
c ann
X i</w>
J .</w>
Six th</w>
scre ening</w>
st uck</w>
sen sor</w>
tri bunal</w>
autonom ous</w>
Chel sea</w>
p ts</w>
isol ated</w>
natur ally</w>
organ isation</w>
econom ics</w>
in security</w>
inter ior</w>
Mexic an</w>
fac to</w>
m useum</w>
per mits</w>
fl ag
less on</w>
g all
bi ennial</w>
tox ic</w>
sequ ence</w>
CC C</w>
Stat ement</w>
Stri p</w>
mani pul
B ase</w>
pub lish</w>
P AD</w>
B ot
Ph one</w>
Bri dge</w>
diab etes</w>
system atically</w>
vol tage</w>
summar ized</w>
func tionality</w>
er ts</w>
dis advant
proce eds</w>
requis ite</w>
scri pt</w>
Mar ine</w>
b and
any body</w>
d ining</w>
S am</w>
organis ations</w>
circul ation</w>
hor ri
contain er</w>
P s</w>
Re duction</w>
nom inated</w>
Squ are</w>
every day</w>
entreprene ur
I J
is ely</w>
sear ching</w>
ir ates</w>
Educ ational</w>
D .
re ferences</w>
comp are</w>
fun ny</w>
ing redi
d ens</w>
Vide o</w>
are r</w>
dis plays</w>
susp ici
li ver</w>
urg ently</w>
J ac
t all</w>
oper ates</w>
d .</w>
Urugu ay</w>
I R</w>
s essional</w>
extra budgetary</w>
cru de</w>
Equ ipment</w>
classi c</w>
ves sel</w>
pass es</w>
M other</w>
assur ances</w>
inten d</w>
Sum mary</w>
ed onia</w>
k er
oppon ent</w>
Mo z
counter parts</w>
ari ans</w>
a qu
dissemin ate</w>
p ack</w>
Li ght</w>
F ire</w>
Pe oples</w>
Offic ial</w>
tre mend
plan es</w>
facil itation</w>
dic t</w>
den y</w>
cl am
mar ry</w>
ful filling</w>
th rew</w>
reg rets</w>
aut umn</w>
por ter</w>
regul ate</w>
Parag raph</w>
exten ding</w>
sub missions</w>
C abinet</w>
a e</w>
SA R</w>
Ser ver</w>
ed itor</w>
girl friend</w>
vi ously</w>
stro ke</w>
bom bing</w>
negoti ated</w>
deman ding</w>
C L
F .
H RC</w>
Di alogue</w>
f ai
b ills</w>
min ors</w>
fail s</w>
dr inks</w>
comp il
U ser</w>
S earch</w>
em a</w>
B at
ir o</w>
Effor ts</w>
St or
ac knowledge</w>
Be ing</w>
mon o
erad icate</w>
Compu ter</w>
NE PAD</w>
gi sts</w>
ti a</w>
V o
assign ment</w>
ish ments</w>
Rec ently</w>
Sal v
attor ney</w>
kni fe</w>
motiv ated</w>
H u</w>
to il
MON UC</w>
ox y
hol m</w>
Al i</w>
tap e</w>
Dig ital</w>
Stand ards</w>
justi fied</w>
cro ps</w>
Taji kistan</w>
dis pat
prosecu te</w>
C ase</w>
10 9</w>
d il
est e</w>
C alls</w>
H ur
S aint</w>
deli vering</w>
A G
spokes woman</w>
ro ws</w>
com prehen
pr on
In novation</w>
Dom in
th care</w>
expe di
ran king</w>
rati fy</w>
wis dom</w>
ci a</w>
dam ages</w>
infec tions</w>
ran ks</w>
O w
ret ail
Som ali</w>
198 0</w>
lo y
re fra
direc tions</w>
brief ed</w>
sc op
Pal ace</w>
protec tive</w>
defin ing</w>
op tional</w>
I .
col ors</w>
de ple
com ings</w>
kid n
Regar ding</w>
J on
M ari
Gu ests</w>
ta b</w>
i di
fuc king</w>
t one</w>
E arly</w>
Seneg al</w>
quali fications</w>
respon dents</w>
m in</w>
testi mony</w>
col li
l ake</w>
t emp
O ut</w>
design s</w>
suppor tive</w>
T ony</w>
ref use</w>
l i</w>
life time</w>
imm une</w>
ar range</w>
Gu ardi
Tra vel</w>
combat ants</w>
Y ou
trans mitting</w>
qui ries</w>
claim ant</w>
inhabit ants</w>
I ow
ra m
o tic</w>
gran ting</w>
man ces</w>
In surance</w>
sist ence</w>
en ters</w>
li fted</w>
Rom ania</w>
re mun
is ure</w>
M ay
deb ates</w>
ab st
re tention</w>
deser tification</w>
att ach</w>
eg gs</w>
th ri
I ris
Ex pl
dis aggregated</w>
sel ler</w>
la di
mar king</w>
ga ret
tradi tions</w>
m ere</w>
lic ence</w>
be ds</w>
an der</w>
predic t</w>
O ffici
De t
out look</w>
preser vation</w>
R ound</w>
got ta</w>
Tra di
decl are</w>
N otes</w>
fi er</w>
sh ed</w>
li ties</w>
inc en
sk i
l aser</w>
grati tude</w>
Cap acity</w>
harmon ization</w>
f ed</w>
k top</w>
Manu fac
ess ors</w>
Bro ad
S N
d ental</w>
are dness</w>
F al
Ac count</w>
En coura
P over
dis cover</w>
d ite</w>
exp ulsion</w>
consul ting</w>
an ian</w>
en force</w>
Langu age</w>
M it
B lo
ligh ting</w>
foun der</w>
G old</w>
collec ting</w>
comb ine</w>
Go al</w>
IP SAS</w>
r ating</w>
ambi tious</w>
B ack</w>
Col um
leg acy</w>
Ob serv
exclu sively</w>
ur ban
al arm</w>
e e</w>
Pover ty</w>
beli efs</w>
Slo v
appropri ately</w>
Ale x
sp r
R T</w>
den sity</w>
in tent</w>
critici zed</w>
prin ted</w>
objec tion</w>
re sumption</w>
read ers</w>
f ought</w>
St art</w>
intellig ent</w>
C as
mortg age</w>
A ward</w>
S hand
b ron
oc ol
compar able</w>
Ph ys
ic an</w>
Xi a
Pro liferation</w>
Zh ou</w>
accommo date</w>
Discus sion</w>
amen d</w>
t oler
g on</w>
st ating</w>
am i
eth ical</w>
pip e</w>
adv ancing</w>
mag nit
dupl ication</w>
argu es</w>
e vil</w>
disadvant aged</w>
Sci ences</w>
Con nec
it ably</w>
B an</w>
ut ory</w>
B ack
Pers on
cul tivation</w>
contribu tes</w>
repe at</w>
adap ted</w>
Nic ar
entr usted</w>
ath y</w>
appropri ation</w>
administr ator</w>
eco system</w>
econom ically</w>
Bag h
dur able</w>
Mon ey</w>
sec t</w>
z i</w>
rec k
Cre dit</w>
short comings</w>
en shr
construc ted</w>
Shand ong</w>
in struction</w>
formul ate</w>
prec isely</w>
Re porting</w>
At l
Gol den</w>
sli de</w>
tra ins</w>
out door</w>
schol ars</w>
Pen al</w>
wast es</w>
remin ded</w>
insul a</w>
10 1</w>
inter viewed</w>
optimis tic</w>
hal t</w>
Nat ural</w>
Kyr gy
any way</w>
br ac
influ enced</w>
ign ore</w>
b is
Fun c
si ves</w>
v y</w>
roc ket</w>
veget ables</w>
un fair</w>
min ed</w>
appe aled</w>
sub region</w>
T re
m atically</w>
ing er</w>
advis er</w>
analy sed</w>
C RC</w>
Ch eng
cle ared</w>
recipi ent</w>
Iow a</w>
Ba h
foot age</w>
y cle</w>
war ming</w>
il lion</w>
br aries</w>
ad mission</w>
U L
squ ad</w>
enhan cement</w>
cam eras</w>
author ization</w>
em ails</w>
rebel s</w>
E N</w>
ur ies</w>
P ra
no se</w>
en ric
neighb ours</w>
inspec tions</w>
satis fy</w>
SR .
ful filled</w>
high way</w>
arti ficial</w>
pro tocols</w>
F a
Cath olic</w>
hu i</w>
IJ ING</w>
dee per</w>
lau gh
be er</w>
ri d
rus hed</w>
ph y
18 0</w>
sophistic ated</w>
un ning</w>
interpre ted</w>
di min
milit ants</w>
y en</w>
L and
magnit ude</w>
tw el
thor ou
tro p
BE IJING</w>
cre am</w>
P ay
Cam ero
pit ch</w>
nation wide</w>
vie wers</w>
7 th</w>
e ge</w>
ren dered</w>
ti tles</w>
fin als</w>
Y ang
pain t</w>
as sumption</w>
soldi er</w>
an ch
Lab or</w>
cl ause</w>
S O</w>
L este</w>
o th
perfec tly</w>
br is</w>
Chong qing</w>
ste pped</w>
sc ared</w>
ut most</w>
Pro vision</w>
reduc tions</w>
m ut
prescri bed</w>
Tay lor</w>
consult ant</w>
Ama z
superi or</w>
journ alist</w>
il a</w>
Ex plo
def ensive</w>
ke wise</w>
work force</w>
2. 2</w>
choo sing</w>
hi o</w>
anxi ety</w>
enti eth</w>
lay out</w>
Wel fare</w>
prohi bit</w>
L earn</w>
P it
ke epers</w>
confid ential</w>
no de</w>
num er
in qu
Proble ms</w>
co gn
ancell or</w>
Boli via</w>
tri gger</w>
ur gency</w>
p raised</w>
in ity</w>
bu b
Ta x</w>
Bud getary</w>
hi red</w>
stup id</w>
propor tion
c ence</w>
p ounds</w>
Tra fficking</w>
I X</w>
OD A</w>
Em irates</w>
threat en</w>
up set</w>
te m</w>
ri x</w>
enti als</w>
D ad</w>
divi de</w>
Free dom</w>
i tions</w>
Dani el</w>
albu m</w>
El ection</w>
Y a
agu a</w>
youn g
Occup ied</w>
we t</w>
tra ffic
r y
lo ads</w>
jum ped</w>
mod ules</w>
distinc t</w>
autonom y</w>
sp ite</w>
perfor mances</w>
fin ite</w>
1. 3</w>
Mad am</w>
repl ies</w>
appro ached</w>
col leges</w>
ban k
gol f</w>
re b
d life</w>
A B
doub tedly</w>
Custom er</w>
Rec ent</w>
We ek</w>
where as</w>
al thy</w>
t less</w>
198 6</w>
Y O
pa th
confir mation</w>
P ass
crimin als</w>
embar r
to b
Wor kers</w>
anc er</w>
lab el</w>
favour ite</w>
li fting</w>
ti ps</w>
ach ment</w>
predic ted</w>
as hing</w>
Prov in
ex trac
attribu ted</w>
avo iding</w>
share holders</w>
el ing</w>
li m
limit ation</w>
scand al</w>
ten ing</w>
el der</w>
E D
L ater</w>
C lo
y ours</w>
st airs</w>
admis sible</w>
fri ger
en acted</w>
O hio</w>
1 60</w>
St adium</w>
Au t
experi ments</w>
col um
read iness</w>
Offici als</w>
gol den</w>
att aches</w>
MP s</w>
olog ist</w>
s wee
prom ul
c tic</w>
Dow n
I B
Stock holm</w>
moder ate</w>
Is lam</w>
ris en</w>
sil ent</w>
Sy n
UNAMI D</w>
Char ac
speci alist</w>
in k
saf ely</w>
R ou
Im migration</w>
bu re
Re ports</w>
Zim bab
Le vel</w>
expl oring</w>
un g
purch asing</w>
solven cy</w>
no tion</w>
frag ile</w>
ge red</w>
tob acco</w>
h at</w>
C at
Ar ch
z er</w>
W AS</w>
ci garet
blo g</w>
produc er</w>
margin alized</w>
tax i</w>
Mur ray</w>
D at
for gotten</w>
20 th</w>
eco systems</w>
stimul ate</w>
re fu
fru str
e k
w ai
Com m
Iris h</w>
car di
fortun ate</w>
Ru le</w>
H O
ol onization</w>
e ous</w>
perce ived</w>
i i</w>
are ly</w>
tru sted</w>
y le</w>
on ds</w>
dro me</w>
pre dec
o ks</w>
coun ties</w>
bur y</w>
tic es</w>
Pan ama</w>
A v
ge ar</w>
phr ase</w>
ess ence</w>
ven th</w>
el and</w>
ab uses</w>
F ind</w>
Con di
optim ization</w>
dang ers</w>
dis closed</w>
E ight</w>
p um
UNIF EM</w>
Enter prises</w>
consider ably</w>
gr ound
8 th</w>
nar r
it ate</w>
ri vals</w>
hol es</w>
canc elled</w>
il ton</w>
lo on</w>
gr as
co oking</w>
N u
M en
attemp ting</w>
independ ently</w>
qu it</w>
curren ce</w>
sion ally</w>
mil est
it a</w>
Re ad</w>
deser ve</w>
confi gu
ast ro
up dating</w>
Pu erto</w>
sol ely</w>
d ying</w>
surpris ing</w>
pri de</w>
kee per</w>
Ar bitr
N HS</w>
conven e</w>
er arch
control ler</w>
fin alized</w>
un expected</w>
p en</w>
t el
f lower</w>
f on
Tri al</w>
tiz ation</w>
volunte er</w>
avo ided</w>
policy makers</w>
su rely</w>
pack ages</w>
y ou
ir s</w>
tal ents</w>
gri d</w>
Hel p</w>
mi x
gradu al</w>
applic ants</w>
pat ent</w>
Bulg aria</w>
mass es</w>
resol ving</w>
continu ity</w>
rac es</w>
or i</w>
advoc ate</w>
ri gh
ME s</w>
val idity</w>
gener ous</w>
sh ine</w>
M E</w>
A R</w>
vern ight</w>
hy po
us tin</w>
pr inter</w>
pe er</w>
st om
elabor ation</w>
applic ant</w>
s enti
ki e</w>
vac ation</w>
lo ves</w>
N on
il legally</w>
ro g
L am
or ph
op tical</w>
isol ation</w>
MD Gs</w>
Statis tical</w>
Lit tle</w>
An ti
consci ousness</w>
er ly</w>
celebr ation</w>
sty les</w>
ph ases</w>
pow der</w>
Qu ar
Jama ica</w>
wel coming</w>
gon na</w>
air line</w>
Tw enty</w>
viol ate</w>
stat utory</w>
Associ ated</w>
d ressed</w>
comp ound</w>
accur ately</w>
Con tribu
appoin ting</w>
st ation
en counter</w>
Fac ility</w>
ann y</w>
til ation</w>
susp icious</w>
t oll</w>
sho wer</w>
Con sequently</w>
m ouse</w>
id ated</w>
duc ted</w>
D ong
c a</w>
fi ber</w>
Z ambia</w>
belong s</w>
we i
Lu x
Ch all
pl ain
s and
vir al</w>
un lawful</w>
cul tiv
Lt d.</w>
ari os</w>
Bagh dad</w>
K ir
hear ts</w>
te eth</w>
prep aredness</w>
announ ce</w>
13 .
chi p</w>
rein force</w>
tremend ous</w>
H om
li est</w>
Jo se
tw entieth</w>
elimin ated</w>
bad ly</w>
F ull</w>
scen es</w>
deteri oration</w>
reser ved</w>
sp atial</w>
Z he
T A</w>
it an</w>
enthusi asm</w>
f ounding</w>
Cho ose</w>
dead ly</w>
Rev .1</w>
s ake</w>
cont acted</w>
gr y</w>
an onym
import antly</w>
arti stic</w>
Camero on</w>
Commit tees</w>
sle eping</w>
Rem ember</w>
H ear
Steph en</w>
do se</w>
declar ations</w>
dra ma</w>
Slo ven
E sti
Sec tor</w>
T yp
congrat ulate</w>
ide ological</w>
dis count</w>
ren ts</w>
st am
Con flic
H us
Ru bio</w>
stead ily</w>
produc es</w>
cl ic
L is
r um
design er</w>
L earning</w>
mod est</w>
un employed</w>
ter ies</w>
I mp
198 7</w>
I cel
suppl ied</w>
Fi ji</w>
fore stry</w>
tou ched</w>
teor ological</w>
tend ency</w>
3 0,000</w>
x y</w>
auc tion</w>
or ds</w>
L uc
l es
reat h</w>
cl ed</w>
10 0
dra ws</w>
dist or
bass y</w>
a res</w>
configu red</w>
coordin ator</w>
sing ing</w>
conver ted</w>
i stry</w>
kill ings</w>
substan tially</w>
Em bassy</w>
re alities</w>
UNMI K</w>
Qu estion</w>
t am
Des cri
M uch</w>
Sh u
rela x</w>
Appl ications</w>
ini an</w>
pu pil
authentic ation</w>
Spr ing</w>
le dge</w>
M ayor</w>
alli ance</w>
r ounds</w>
inf ant</w>
L au
str act</w>
B T</w>
Col l
bo w</w>
ES C
electr onics</w>
bed ded</w>
uni fication</w>
pupil s</w>
2. 1</w>
bre ad</w>
Je re
bel t</w>
in vention</w>
R ol
confi gure</w>
S MEs</w>
the ft</w>
y nam
19 67</w>
seas ons</w>
elabor ate</w>
ch est</w>
contrac tor</w>
A mend
Air lines</w>
tradi tionally</w>
vi g
P enn
v est</w>
cri tics</w>
tr action</w>
Sp i
st adium</w>
super vis
olo gists</w>
embarr ass
helicop ter</w>
pe red</w>
Dom estic</w>
W i</w>
Fu ture</w>
ro tation</w>
F as
agre es</w>
F .</w>
th rown</w>
deman ded</w>
app rais
gr o</w>
aus p
en ess</w>
chick en</w>
pass port</w>
inhe rent</w>
ce ments</w>
comman der</w>
P ap
ha bits</w>
o vernight</w>
en sured</w>
Every thing</w>
pass age</w>
ri ding</w>
pill ars</w>
Com man
remun eration</w>
min ds</w>
H P</w>
Consul tative</w>
9 th</w>
Sou theast</w>
tr illion</w>
p assion</w>
Ris k</w>
pe i</w>
bu l</w>
D eli
hi p</w>
ausp ices</w>
enshr ined</w>
e tr
p ump</w>
poc ket</w>
incen tive</w>
divi sions</w>
public ity</w>
t ag
Maur iti
shar ply</w>
country side</w>
collabor ative</w>
le um</w>
experi encing</w>
tu be</w>
lin king</w>
Inde x</w>
tra gic</w>
Pl ay
Mi ami</w>
prof ession</w>
budge ting</w>
xenopho bia</w>
bul l</w>
neighb our
al locate</w>
mic ro</w>
List en</w>
un a</w>
Develop ed</w>
198 5</w>
regim es</w>
Cer ti
ell ation</w>
Ar senal</w>
stan ts</w>
8 0
inev itable</w>
f asc
bri d</w>
S ite</w>
Coun ter
free ze</w>
Pr ice</w>
sym bol
pir acy</w>
C AR
P age</w>
Reg ulation</w>
wor ding</w>
Com par
comple ting</w>
T T
N az
H R
P y
Vill age</w>
Ne ver</w>
prosecu ted</w>
Dist ribu
Zhe jiang</w>
Gol d
Rail way</w>
a 0</w>
ul ty</w>
ha o</w>
f ake</w>
dec lining</w>
Jack son</w>
succe eded</w>
admis sibility</w>
con ve
chec king</w>
mater nity</w>
W ol
Q i
pres sures</w>
enrol ment</w>
brilli ant</w>
depos its</w>
tri g
ten ure</w>
re stored</w>
par ks</w>
Hen ry</w>
de ar</w>
fil ing</w>
class room</w>
Tai wan
ra p</w>
in equ
fire arms</w>
ha dn</w>
Sub sequently</w>
ell a</w>
vir tually</w>
r ush</w>
3 D</w>
diagno sed</w>
religi ons</w>
pun ish</w>
197 0s</w>
sun g</w>
soc cer</w>
10 2</w>
perspec tives</w>
oun ce</w>
re moving</w>
boo king</w>
ann er</w>
S port</w>
ge on</w>
spectr um</w>
g by</w>
explo red</w>
Sh er
rele ases</w>
Salv ador</w>
er ce</w>
ha r</w>
preci ous</w>
dra matically</w>
10 4</w>
bal lot</w>
fast est</w>
inc umb
F le
char ging</w>
radi o
Fu jian</w>
ho sts</w>
Ar ms</w>
Bas el</w>
incredi ble</w>
The ory</w>
1 12</w>
me als</w>
in appropriate</w>
Cl ass</w>
k ins</w>
thorou ghly</w>
ex ual</w>
Wh atever</w>
fi able</w>
C. 2</w>
p ast
refra in</w>
dri ves</w>
d ili
Chan nel</w>
D E
W en
Intro duction</w>
B ou
sha ped</w>
hear ings</w>
H K</w>
Par lia
specific ations</w>
Con sum
C air
im partial</w>
attribu tes</w>
UNO CI</w>
Ou ter</w>
Col on
per ception</w>
Fo rest</w>
occup ational</w>
diam ond</w>
in jection</w>
w .
Nicar agua</w>
e y
p ile</w>
D V
ori ous</w>
fla v
la sted</w>
1 40</w>
ca p</w>
K ab
pr icing</w>
A tom
volati le</w>
se ed</w>
ri ots</w>
ne uro
c ali
bom bs</w>
ac le</w>
tis sue</w>
bo ar
Al most</w>
OS CE</w>
in sp
dis close</w>
f old</w>
de bris</w>
un doubtedly</w>
hosti lities</w>
brief ings</w>
rac ing</w>
Lo w</w>
bacter ia</w>
j unior</w>
condi tional</w>
Taiwan ese</w>
prote sters</w>
scen arios</w>
G A</w>
t ings</w>
g al
exclu ding</w>
i ans</w>
B un
saf er</w>
2 5
n as
h man</w>
Bu t
Sit uation</w>
writ ers</w>
b bed</w>
rol led</w>
S ession</w>
enjo ying</w>
En han
hi erarch
atten dance</w>
V III</w>
eth eless</w>
reve als</w>
cou p</w>
ho p</w>
ke ting</w>
Experi ence</w>
ick ness</w>
ta p</w>
cro p</w>
Bud d
und ant</w>
Bar cel
ha gen</w>
by n</w>
ref usal</w>
liveli hoods</w>
Sup ple
q i
excep tions</w>
man kind</w>
quanti tative</w>
ex am</w>
speci alists</w>
sol ic
Zimbab we</w>
life style</w>
b ath</w>
L in</w>
com mentary</w>
e dit</w>
Fin al</w>
Fran k
C BS</w>
appl i
pleas ant</w>
mil l
docu mentary</w>
l ut
K now
sec uring</w>
V ladi
Egyp tian</w>
bound aries</w>
heal thcare</w>
gen ital</w>
obli ged</w>
gradu ates</w>
fer tility</w>
co at</w>
evalu ated</w>
ful fil
Provin cial</w>
res a</w>
R ot
dis order</w>
Establis hment</w>
Mauriti us</w>
gra vity</w>
lo vely</w>
ha bit</w>
W rit
method ologies</w>
Tar get</w>
veter an</w>
Barcel ona</w>
in ning</w>
F R
Dis abilities</w>
Atom ic</w>
or bit</w>
O l
j et</w>
sum ing</w>
an ies</w>
A id</w>
Ti bet</w>
Conven tions</w>
Institu tions</w>
c astle</w>
sensi tivity</w>
Chris t</w>
present ations</w>
Tai pei</w>
Mor gan</w>
sk ir
Inter im</w>
particip atory</w>
photograph s</w>
g ad
T ro
neutr al</w>
eng ines</w>
mol ec
3. 5</w>
sh ell</w>
nur sing</w>
educ ated</w>
pain ful</w>
challeng ed</w>
Pa ul
accompl ishments</w>
14 .
struc tured</w>
j a
ar ming</w>
m aps</w>
Pl aying</w>
Wo ods</w>
fu els</w>
por no
N .</w>
F ather</w>
re ward</w>
en do
J im</w>
neighbor hood</w>
Con fi
fle w</w>
fro zen</w>
st al
Con duct</w>
ch ocol
chair s</w>
break down</w>
en comp
cor ro
L y
mi a</w>
MIN US
Pen sion</w>
with drawn</w>
war rant</w>
il le</w>
Effec tive</w>
Ex c
weak ness</w>
be ating</w>
MIN UR
B ol
n i</w>
vers y</w>
ECO WAS</w>
G ri
vot er</w>
tun nel</w>
oxy gen</w>
M ine</w>
cros sed</w>
Cor byn</w>
trop ical</w>
serv icing</w>
den ial</w>
S anta</w>
gol ese</w>
intensi fied</w>
li p
practi tioners</w>
ww w.
L ic
D or
hu b</w>
war s</w>
pharm aceutical</w>
Wel come</w>
S ave</w>
ship ment</w>
engine er</w>
g ent</w>
t s
ell er</w>
vers ely</w>
commen ted</w>
fi res</w>
ton nes</w>
ak ia</w>
boy friend</w>
Mu sic</w>
discrimin ate</w>
Comp anies</w>
rac ist</w>
sla very</w>
pill ar</w>
bloc k
concer t</w>
C r
ten e
explic it</w>
Sup ply</w>
limit ing</w>
Wor ks</w>
defin itions</w>
Organiz ations</w>
spec tive</w>
Per i
H ong
re friger
C open
Amaz on</w>
fle et</w>
shel ters</w>
R on
attribu te</w>
des cent</w>
won dering</w>
suspici on</w>
rub ber</w>
mag ic</w>
Copen hagen</w>
G or
alo g</w>
Mat the
premi um</w>
in her
ha med</w>
T our</w>
ra ft</w>
min eral</w>
ett lement</w>
H as</w>
Ci tiz
o h</w>
IC T
un changed</w>
cou ples</w>
Can ber
mo tivation</w>
stan bul</w>
p raise</w>
cy cles</w>
S ino</w>
es el</w>
D e</w>
Ku wa
am bul
Com petition</w>
1 25</w>
si ans</w>
accompl ished</w>
Fr ank</w>
connec ting</w>
trac ks</w>
compu ting</w>
du ly</w>
ver tical</w>
Mon tene
re as</w>
curren cies</w>
cha ins</w>
Sor ry</w>
shoc ked</w>
Lar ge</w>
H ang
un certain</w>
cy cl
deep en</w>
smar t
s wing</w>
il er</w>
Ch e
Cent ury</w>
Consider ation</w>
stereotyp es</w>
phys ically</w>
Adv anced</w>
UNMI L</w>
Mo ham
urban ization</w>
c k</w>
compl ained</w>
G B</w>
demo graphic</w>
o ceans</w>
rei ght</w>
contrac ting</w>
arri ving</w>
X ML</w>
Kuwa iti</w>
after math</w>
ren sic</w>
episo de</w>
Cypri ot</w>
Je an</w>
fac tories</w>
ro man
1. 4</w>
Dec ree</w>
Pri or</w>
the ories</w>
1 14</w>
exha usted</w>
U T
D er
m bers</w>
o zone</w>
I stanbul</w>
cl ou
fer r
Accoun ting</w>
feat ured</w>
comm emor
vacc ine</w>
g est
glo be</w>
uni tions</w>
quali fication</w>
tr ace</w>
Op portun
Dis aster</w>
Y u</w>
tre ating</w>
cent uries</w>
var ying</w>
aw i</w>
acc ess
at om
Bo b</w>
su its</w>
to wer</w>
reduc es</w>
e v</w>
contro versy</w>
m ile</w>
su l</w>
201 8</w>
trans late</w>
law suit</w>
stipul ated</w>
Chris ti
S D
Regi stration</w>
Direc torate</w>
licen sing</w>
Ale x</w>
vo ices</w>
gh ters</w>
b ye</w>
dra u
acces sibility</w>
Gl as
Nan jing</w>
suggest ing</w>
Get ty</w>
w ash</w>
co er
F AR
Re viewed</w>
Intellig ence</w>
R ather</w>
Bo ston</w>
champi onship</w>
c ake</w>
overwhel ming</w>
satell ites</w>
li braries</w>
confron tation</w>
ab is</w>
tra de
ha ble</w>
sub paragraph</w>
T un
acc us
Ag ainst</w>
wal ks</w>
mem ories</w>
lo sis</w>
eg o</w>
war ran
analy st</w>
G E</w>
b ell</w>
An ton
ple dges</w>
th ick</w>
autom ation</w>
sh it</w>
10 3</w>
exc use</w>
re par
For d</w>
N BA</w>
I TA
militi a</w>
St op</w>
evol ving</w>
A W
trig gered</w>
bus es</w>
iz ard</w>
justi fy</w>
ord on</w>
uni verse</w>
E ff
coun ted</w>
p her</w>
ch er
UND CP</w>
an don</w>
K han</w>
highligh ting</w>
quot ed</w>
deci ding</w>
rad ical</w>
cred entials</w>
p tions</w>
dee pening</w>
1 11</w>
time table</w>
prud ence</w>
o ked</w>
a es
syner gies</w>
wor n</w>
P sy
exam ining</w>
Lo oking</w>
Ex ternal</w>
mus cle</w>
der son</w>
ti de</w>
ch at</w>
mat ching</w>
Fam ilies</w>
resp ects</w>
ambi que</w>
flo ods</w>
In dic
prev ailing</w>
vend or</w>
where ver</w>
M om</w>
establis hes</w>
2 4
sho ot
est y</w>
re fin
gu es</w>
co tic</w>
ver b
cy ber
ag o
port al</w>
l l
Sahar a</w>
pro long
respon sive</w>
Val ue</w>
I U</w>
Wh it
No thing</w>
S S</w>
dis man
Que ens
ro ster</w>
G reat
pra g
hat red</w>
Li thu
T en</w>
D al
Moz ambique</w>
lo s</w>
travel led</w>
&apos; an</w>
n est</w>
Vladi mir</w>
s light</w>
tin ational</w>
su nam
T en
aw a</w>
b reath</w>
pre ference</w>
F ront</w>
L es
k it</w>
minist ering</w>
go w</w>
oc currence</w>
Auth orities</w>
juris dictions</w>
CO M
li able</w>
kne e</w>
C B
com prises</w>
for cement</w>
P P</w>
N avy</w>
hun gry</w>
W as</w>
ti p</w>
H an</w>
L B</w>
asc ular</w>
En voy</w>
doub ts</w>
po is
su ite</w>
H and
Jere my</w>
postp oned</w>
z zy</w>
impe tus</w>
cr ack</w>
tou gh
i er</w>
cen sus</w>
198 4</w>
hear t
G ame</w>
B ac
Fri ends</w>
jour nal</w>
resili ence</w>
st ery</w>
particip ant</w>
succ ession</w>
sc ar</w>
P rac
m apping</w>
vari ed</w>
plo t</w>
clari fied</w>
Emp ha
ION S</w>
ab eth</w>
Res ear
lau gh</w>
ab a</w>
sh ou
la p</w>
vi sibility</w>
ce iling</w>
av al</w>
eng er</w>
consi sting</w>
tac tics</w>
or ally</w>
in human</w>
C e
barri er</w>
red ress</w>
strugg led</w>
Regi stry</w>
b ail</w>
mir ror</w>
ware house</w>
S w
cros s
s al</w>
allevi ate</w>
under lined</w>
win ds</w>
Canber ra</w>
Sloven ia</w>
al lo
h itting</w>
B il
mater i
s mil
ot echn
h u</w>
. .</w>
GO P</w>
standardi zed</w>
gi fts</w>
u h</w>
apprais al</w>
hen g</w>
flu id</w>
monit ors</w>
Ar ts</w>
B row
lo ving</w>
N ature</w>
Bo ok</w>
horiz on
M em
P aper</w>
connec tivity</w>
quot a</w>
un like</w>
mean time</w>
Un like</w>
G lob
Medic ine</w>
l ingu
intim idation</w>
h its</w>
ev in</w>
od d</w>
Sim on</w>
st ones</w>
d ay
198 2</w>
tax pay
S ul
ch i</w>
gra in</w>
fail ures</w>
O ther
W an</w>
our g</w>
Ste el</w>
ro ad
o a</w>
feren tial</w>
bo ats</w>
di c</w>
ch ina</w>
T enn
bas eline</w>
iss ance</w>
bul k</w>
bur ied</w>
pan ic</w>
L TD</w>
smo o
sm ell</w>
st ag
Y i</w>
Conflic t</w>
diversi fication</w>
Par aly
plu g</w>
treat ments</w>
2. 3</w>
stra r</w>
dar k
ab andon</w>
struc tive</w>
Jose ph</w>
popul arity</w>
Champi onship</w>
P ut</w>
coun cils</w>
tur n
Presid ents</w>
ta g</w>
substan ti
Ab u</w>
des ktop</w>
vend ors</w>
stret ch</w>
mo des</w>
ph y</w>
govern ed</w>
Glas gow</w>
3. 2</w>
To gether</w>
arre sts</w>
wor e</w>
h es
certi fied</w>
accep ting</w>
G all
Sen ator</w>
sel ecting</w>
pro active</w>
au x</w>
Know ledge</w>
rob bery</w>
mis conduct</w>
o dic
pac ked</w>
reaffir ms</w>
stra in</w>
fe ver</w>
EC A</w>
fab ric
Other wise</w>
surr ounded</w>
J an</w>
H ague</w>
veri fied</w>
A y
en quiry</w>
corpor ation</w>
A BC</w>
can cel</w>
privileg es</w>
mini stered</w>
val ve</w>
el ite</w>
align ed</w>
v in
N ev
M ing</w>
K at
rel la</w>
s ely</w>
gent le
er o</w>
distingu ished</w>
Ch er
Mic hi
reli ance</w>
b arre
B O
spon sor</w>
O t
r ated</w>
Rac ial</w>
fin anci
doub led</w>
Se oul</w>
I r
C ER
fer ti
tri ps</w>
inc ess</w>
St atements</w>
quanti ties</w>
E liz
Respon se</w>
proce eding</w>
drau lic</w>
Sar ah</w>
ac tu
e i</w>
K h
stu dio</w>
degra ding</w>
manag erial</w>
compil ation</w>
M ail</w>
T ob
off s</w>
Im ages</w>
lan ded</w>
demonstr ations</w>
per taining</w>
stat ute</w>
p ays</w>
Encoura ges</w>
regul ators</w>
clear ing</w>
bron ze</w>
ran dom</w>
s k</w>
far ming</w>
Contin ue</w>
strong est</w>
schol ar
attrac tions</w>
Montene gro</w>
seg ments</w>
Administr ator</w>
Reaffir ming</w>
Ar ound</w>
floo ding</w>
tr ic
M e</w>
N ing
fol k</w>
Jo han
co oling</w>
am en</w>
Con golese</w>
Ad am</w>
S af
stake holder</w>
des c
Particip ation</w>
2 6
pen etr
u um</w>
propag anda</w>
conclu des</w>
la b</w>
edi tion</w>
M aritime</w>
R oman</w>
fing er</w>
s me
vo ir</w>
gh ted</w>
inequ alities</w>
ol dest</w>
ber cu
herit ance</w>
10 th</w>
Pak ist
ric ane</w>
tur no
h en</w>
sub sistence</w>
robo t</w>
ligh t
1, 500</w>
Re qui
re sign
fab ric</w>
counter measures</w>
st ab
defend ant</w>
y land</w>
explo ded</w>
endeav our</w>
S even</w>
hosti le</w>
ann a</w>
bercu losis</w>
per secu
cot ton</w>
ir a</w>
Z em
norm ative</w>
C F
break through</w>
bat ch</w>
pre cau
G row
Sec urities</w>
Pro tocols</w>
dir ty</w>
bro wn</w>
Gar den</w>
wo o
dem ic</w>
Presid ential</w>
ad ministering</w>
7 ,000</w>
reimbur sement</w>
7 0
substitu te</w>
Cel tic</w>
tr o</w>
le isure</w>
dow ns</w>
diplom acy</w>
bi e</w>
K as
fi ghter</w>
b age</w>
u k
ti gation</w>
in ability</w>
t ably</w>
w is</w>
descri bing</w>
Mic hel
ad i</w>
decentr alization</w>
Cor r
commission ed</w>
ch ro
bl ack
ali ke</w>
ac tress</w>
vari ables</w>
Un less</w>
v ard</w>
lo ose</w>
Bur k
Bl ack
vo id</w>
le ep</w>
el eg
celebr ated</w>
on ate</w>
chi at
l an</w>
Tradi tional</w>
res ettlement</w>
hy gi
war nings</w>
success or</w>
C rown</w>
t ancy</w>
G rou
15 .
con fusion</w>
w rap
demonstr ates</w>
impl ies</w>
ass ass
I tem</w>
S ucc
ec tor</w>
per missions</w>
b last</w>
ap y</w>
sub ur
g li
desper ate</w>
fulfil ment</w>
Pet ro
c .</w>
Ass ad</w>
d ancing</w>
D re
enti t
te l</w>
differen tly</w>
V .</w>
La o</w>
de but</w>
defin es</w>
accumul ated</w>
pul se</w>
A ge</w>
inf ring
10 6</w>
M .</w>
Ukra inian</w>
S EC
N ation
em bedded</w>
Vic ti
restric t</w>
ul ous</w>
p a</w>
emer ge</w>
Mer kel</w>
z ona</w>
Tr y</w>
conting ency</w>
collap sed</w>
Al tern
rein forced</w>
A pp
ad ministered</w>
Organiz ed</w>
at tered</w>
colum ns</w>
En d</w>
defe ated</w>
de priv
10 8</w>
Jud icial</w>
under stand
co ok</w>
ol ds</w>
diam onds</w>
K un
ch lor
w ic
gi an</w>
Michi gan</w>
ten ds</w>
ow ns</w>
V an</w>
200 ,000</w>
e ager</w>
u plo
ti les</w>
bac king</w>
win ners</w>
pi one
le verage</w>
ne ed
F air</w>
Yun nan</w>
ex t
Paraly mp
ro yal</w>
1 15</w>
favor able</w>
sp her
doc tr
s an</w>
pre am
pl un
dra g</w>
bo ot</w>
B ar</w>
ingredi ents</w>
Volunte ers</w>
Eff ect</w>
poss ess</w>
proc essor</w>
Moun tain</w>
Reli ef</w>
mal nutrition</w>
contin ental</w>
Bo dy</w>
ne ys</w>
broad ly</w>
Wel coming</w>
vol umes</w>
ten ded</w>
cre ativity</w>
si tions</w>
Provi sional</w>
hibi tions</w>
concentr ate</w>
Tu be</w>
expec ting</w>
Re si
Ken ne
Wel comes</w>
Mac edonia</w>
modi fication</w>
ref res
me tric</w>
B ru
stri king</w>
cl er
titu de</w>
il in</w>
Pri mary</w>
K elly</w>
re ject</w>
Ari zona</w>
s i</w>
id en
Du bai</w>
cop per</w>
influ ential</w>
B lu
Grow th</w>
she ets</w>
V an
wa ited</w>
let ting</w>
r ank</w>
st ops</w>
Y an
attac king</w>
sunam i</w>
Lia oning</w>
8 ,000</w>
sp reading</w>
ag gra
dynam ics</w>
fo ssi
Govern mental</w>
ple dge</w>
compati bility</w>
W inter</w>
speak s</w>
Al ong</w>
um ulation</w>
es cor
D anish</w>
b arely</w>
S mar
D eng</w>
priori ti
Tra ffic</w>
Mol do
mat rix</w>
u k</w>
squ e
ch ol
infec tious</w>
Adv ancement</w>
W en</w>
Eliz abeth</w>
fair ness</w>
ten der</w>
em e
To wer</w>
p ound</w>
gu ese</w>
u g
N AS
sc al
je op
e ted</w>
a issance</w>
fis sile</w>
A wards</w>
liber al</w>
I de
under stands</w>
in compatible</w>
add y</w>
6 0s</w>
R A</w>
T ren
id es</w>
se ize</w>
aim ing</w>
con gres
Regi ster</w>
3 .1</w>
was hing</w>
St ock</w>
guar ding</w>
execu tions</w>
Integr ation</w>
posi tively</w>
Ali gn
li on
construc t</w>
I v
Hai tian</w>
sen sing</w>
ass y</w>
N ami
mus ical</w>
evalu ating</w>
uph old</w>
B ret
de bu
Pol y
scho ol
un ch</w>
en i
Mill er</w>
C all</w>
A F
Z o
ment arians</w>
kill er</w>
T it
bor row
Icel and</w>
Bi ological</w>
kilome ters</w>
CP .
optim ize</w>
Comman der</w>
Contin u
cl arity</w>
is hes</w>
ai res</w>
S hel
Alban ia</w>
F ile</w>
Portu guese</w>
sti g
ge ographic</w>
pen sions</w>
ai da</w>
197 8</w>
recru it</w>
sub mitting</w>
hom eless</w>
ban ds</w>
ali en</w>
Fas o</w>
e ball</w>
inspir ation</w>
re deployment</w>
pl ain</w>
competi tions</w>
Cair o</w>
a is</w>
s cep
Sud anese</w>
se ments</w>
cl a
appe aring</w>
Burk ina</w>
ste am</w>
ic ating</w>
dau ghters</w>
Re sid
un to</w>
commen cement</w>
av a</w>
Mo sul</w>
radio active</w>
di oxide</w>
fran ch
air ports</w>
bur ned</w>
attrac ting</w>
gen ic</w>
off shore</w>
Dav is</w>
com posite</w>
ne sty</w>
advoc ated</w>
stom ach</w>
see ds</w>
ra ge</w>
run ner</w>
ON G</w>
chocol ate</w>
ex ported</w>
cann abis</w>
H ay
liveli hood</w>
pres enting</w>
N FL</w>
T im</w>
In f
L E</w>
dis hes</w>
coordin ates</w>
weak nesses</w>
under took</w>
v ania</w>
depriv ation</w>
Ac tually</w>
analy zing</w>
Lou is</w>
Zem in</w>
b old</w>
le y
ex changed</w>
exha us
determin es</w>
there in</w>
Le ast</w>
Equ al</w>
whe at</w>
cur ve</w>
in aug
institu te</w>
analy zes</w>
Wu han</w>
se em
stimul us</w>
Mul til
Elec tric</w>
Kyrgy z
CA T</w>
clin ic</w>
Ma h
S U
G ordon</w>
supple ment</w>
10 7</w>
Great er</w>
where by</w>
deser t</w>
B order</w>
ed iting</w>
cred itors</w>
w ound</w>
distingu ish</w>
i res</w>
gras p</w>
tis m</w>
w ich</w>
gi ous</w>
photogra ph</w>
En sure</w>
3 50</w>
M ass
in d
ch ur
E s
pan els</w>
pre requisite</w>
Kyrgyz stan</w>
pro mo
stabil ization</w>
insi st</w>
dis proportion
si lic
o res
G a
16 .
tw in</w>
apolo gi
quali fy</w>
aff air</w>
un de
Trans fer</w>
S TA
P D</w>
Ste p</w>
clam ation</w>
st a
in duced</w>
Corr .1</w>
spec tac
n ine
Corpor ate</w>
ess ness</w>
in solvency</w>
man n</w>
un paid</w>
consul ted</w>
Jer sey</w>
bu reau</w>
con vey</w>
recy cling</w>
M T
Mal ta</w>
B run
sour cing</w>
for tune</w>
hu h</w>
bl es
p y</w>
expec tation</w>
syl vania</w>
hun ting</w>
ol ly</w>
2. 4</w>
at al</w>
it ted</w>
issu ing</w>
shor ter</w>
commen d</w>
ori um</w>
man ship</w>
M as
escap ed</w>
enn y</w>
er als</w>
rad ar</w>
4. 5</w>
ear liest</w>
prece ding</w>
def ending</w>
Queens land</w>
inter act</w>
ne um
Mon ter
in heritance</w>
gl asses</w>
phenomen a</w>
Struc ture</w>
Amend ment</w>
forec asts</w>
Hang zhou</w>
jac ent</w>
at ro
Sep t</w>
Rel ation
ill iter
A F</w>
econom ists</w>
def ects</w>
syn drome</w>
re aches</w>
pol itan</w>
m as
ain an</w>
less ly</w>
b is</w>
c m</w>
with standing</w>
p in</w>
streng ths</w>
accompl ish</w>
Nor we
Impro ving</w>
H ello</w>
Ur ges</w>
Ex hibition</w>
acti vated</w>
l oud</w>
go d</w>
co stly</w>
N ick</w>
acceler ating</w>
qu al
mo ther
Mat t</w>
tan ks</w>
inv ites</w>
pre ferential</w>
IP O</w>
align ment</w>
ha ir
conver t</w>
fl ash</w>
H app
Y i
porno graphy</w>
endor sement</w>
writ es</w>
Ni ger</w>
CN. 9</w>
Pakist ani</w>
organ ised</w>
under mined</w>
advoc ates</w>
bor rowing</w>
U C
S D</w>
Bah rain</w>
deser ves</w>
Con sensus</w>
inter s</w>
twee ted</w>
Mul ti</w>
ear marked</w>
broad casting</w>
comb ining</w>
k ings</w>
U sers</w>
Slov akia</w>
syn thesis</w>
awa iting</w>
acc umulation</w>
p y
plan ted</w>
Hon dur
avo id
purch ases</w>
K im
enc lo
pp ers</w>
investig ative</w>
Regi strar</w>
re build</w>
T on
D an</w>
ne ver
De b
f reight</w>
Vie ws</w>
patro ls</w>
ac ies</w>
In dividu
er up
Cap e</w>
h ec
un ve
che aper</w>
A viation</w>
Prin cip
A gain</w>
th ful</w>
re mit
z y
open ness</w>
on au
Penn sylvania</w>
autom ated</w>
X u</w>
t ful</w>
f ice</w>
in ch</w>
50 0,000</w>
c ous
human kind</w>
Li ve</w>
Un ity</w>
The resa</w>
bru tal</w>
juris prudence</w>
fru it
re sistant</w>
dec ree</w>
sen sors</w>
Prom oting</w>
k es
Certi fic
Franc is</w>
prolong ed</w>
S n
G H
in comes</w>
L e</w>
fant astic</w>
Parlia mentary</w>
it ated</w>
Champi onships</w>
sc rat
prosper ous</w>
Provi de</w>
formul ating</w>
bo om</w>
et ly</w>
D yn
m ad
re start</w>
G ran
curricul a</w>
spec ulation</w>
calcul ate</w>
mobil izing</w>
L yn
fir ing</w>
H op
graph ics</w>
bra ve</w>
predec essor</w>
discre tion</w>
Contro l
Le wis</w>
Com pared</w>
se al</w>
resign ation</w>
tra pped</w>
ben ch</w>
os ity</w>
Al an</w>
D ak
1 000</w>
im pressed</w>
r hy
Matthe w</w>
Her it
ag ram</w>
enem ies</w>
1 22</w>
pe ac
individu ally</w>
canc ellation</w>
there on</w>
197 9</w>
K evin</w>
hang ing</w>
iden tical</w>
i Phone</w>
theat re</w>
al tar</w>
lo gy</w>
comp act</w>
reason ably</w>
coc k
hi ding</w>
P ear
En ter</w>
19 th</w>
av ed</w>
institu tes</w>
l ung</w>
ur able</w>
jo ke</w>
fat al</w>
ab o
bench marks</w>
Recommend ation</w>
J S
Arti cles</w>
there of</w>
peri odic
noti fied</w>
si veness</w>
chem istry</w>
ess ation</w>
Jiang su</w>
L AC</w>
inev itably</w>
c af
Monter rey</w>
lay ers</w>
explo sives</w>
cir cles</w>
reluc tant</w>
M aking</w>
ul ated</w>
Herit age</w>
b re</w>
clim b</w>
bur st</w>
smoo thly</w>
O f
st ressing</w>
spokes person</w>
barre l</w>
S ong</w>
execu te</w>
c iting</w>
aliz es</w>
adhe rence</w>
Hen an</w>
mean while</w>
am bassador</w>
peace keepers</w>
An im
tal ented</w>
ai de</w>
W it
Hol y</w>
Effec ts</w>
pre fer
c ure</w>
x ation</w>
horizon tal</w>
har b
ans as</w>
rhe tor
Colum bia</w>
bid ding</w>
rein forcing</w>
In flu
ton gue</w>
Sam sung</w>
Norwe gian</w>
stor ms</w>
projec tions</w>
R ad
op pose</w>
here with</w>
pol ling</w>
manufac tured</w>
v a
pro pri
in directly</w>
deliber ately</w>
collec tively</w>
clin ics</w>
wil dlife</w>
eg g</w>
sump tions</w>
incumb ent</w>
h ers</w>
occur ring</w>
tari ff</w>
kis s</w>
fa thers</w>
ec tural</w>
tra ders</w>
coc aine</w>
d ent
crow ded</w>
bri dges</w>
P la
L iter
Ste ering</w>
stop ping</w>
k h</w>
g as
Th rou
Tor onto</w>
G as</w>
never theless</w>
198 1</w>
vest ock</w>
fun eral</w>
p esti
Cheng du</w>
sha ke</w>
colon ial</w>
p ters</w>
don ations</w>
rela xed</w>
exerc ised</w>
se tup</w>
od ds</w>
Moldo va</w>
lac king</w>
Guardi an</w>
we althy</w>
F it
N one</w>
R Y</w>
ac re</w>
ad jacent</w>
Wil son</w>
mem bered</w>
in ating</w>
brea thing</w>
minim al</w>
Ker ry</w>
Im port
si e</w>
bench mark</w>
He bei</w>
Ric o</w>
An th
An dre
Mac ao</w>
J ason</w>
Ben in</w>
M ir
s lo
fru its</w>
E X
Ch ancellor</w>
ó n</w>
Americ as</w>
Lithu ania</w>
si ded</w>
trans formed</w>
it ory</w>
noti fy</w>
cl ashes</w>
sor ship</w>
R ose</w>
Chang es</w>
ur ging</w>
commun i
YO U</w>
al isation</w>
traum a</w>
restric tion</w>
m unitions</w>
M S
o be
lu gg
Cam pai
ch e</w>
or a</w>
to oth</w>
P ack
t ances</w>
Charac ter
sup pose</w>
ab used</w>
As ked</w>
18 .
Al low</w>
re placing</w>
le ather</w>
Con n
pro be</w>
I M</w>
de tri
travel ing</w>
A chi
M R</w>
Par tic
lut ants</w>
volati lity</w>
1 19</w>
umin um</w>
paren tal</w>
ar y
Th er
posi um</w>
diff er</w>
po ly</w>
law makers</w>
ve to</w>
gra ms</w>
R oc
val idation</w>
develop er</w>
F ul
contain ers</w>
P V
ro oted</w>
con spir
T ang</w>
entrepreneur ship</w>
vari an</w>
dis gu
th read</w>
h ence</w>
e ased</w>
Wa it</w>
ou ses</w>
Sett lements</w>
tax ation</w>
2 3
in ate</w>
poin ting</w>
Pl ant</w>
sp ra
ght ful</w>
k an</w>
h ut
w ling</w>
Q aida</w>
assi gn</w>
IN G
Concer ning</w>
s can</w>
kic ked</w>
exerc ising</w>
re location</w>
197 3</w>
co operating</w>
hi ring</w>
am ic</w>
s ad
liqu idity</w>
cred its</w>
Diffe rent</w>
quarter ly</w>
B R
we i</w>
compe ten
colle ague</w>
otechn ology</w>
noti fications</w>
gradu ation</w>
jus tification</w>
Align ed</w>
t land</w>
swi m</w>
free zing</w>
long est</w>
prof iles</w>
Hun an</w>
guarante eing</w>
ul a</w>
N early</w>
f th</w>
ven s</w>
un fortunately</w>
wi ves</w>
system ic</w>
U. S.
bir ths</w>
fi erce</w>
emo tions</w>
comp iled</w>
ban e</w>
be ars</w>
t we
L ong
exam inations</w>
re alizing</w>
K .</w>
lon ely</w>
Recommend ations</w>
S E</w>
Pol ish</w>
neighb ors</w>
1 13</w>
4. 2</w>
ger ian</w>
u sion</w>
er ion</w>
or g</w>
Th ink</w>
car ing</w>
scienti st</w>
fo rensic</w>
t sunami</w>
pro vo
Clin ical</w>
vac uum</w>
en ko</w>
tr ucks</w>
fu tures</w>
T akes</w>
S exual</w>
M C</w>
A k
P ati
bal con
po sting</w>
Throu ghout</w>
D A</w>
coun ting</w>
lo ver</w>
Ro ss</w>
In formal</w>
Phili p</w>
fo stering</w>
P eng</w>
diplom ats</w>
0. 5</w>
be side</w>
air lines</w>
accor d</w>
susp end</w>
roman tic</w>
an o
ak i</w>
di al</w>
negl ect</w>
tra il</w>
lac ked</w>
B ris
Fil m</w>
bl amed</w>
au to
gi e</w>
Hu ang</w>
Hist or
cha mber</w>
mer cen
industri alization</w>
not e
f our
a partments</w>
mul tinational</w>
exp ir
land mines</w>
H .
z o</w>
bre eding</w>
Jan e</w>
di str
D urban</w>
em an
T es
Arbitr ation</w>
1 16</w>
se is
nur se</w>
prag matic</w>
re actions</w>
e ful</w>
fem ales</w>
cha os</w>
ad ays</w>
in coming</w>
scru tiny</w>
as a</w>
exemp tion</w>
t ling</w>
Comb at</w>
institu tion
Bri an</w>
cr ying</w>
N ice</w>
EC E</w>
ra in
r ats</w>
In fra
1. 6</w>
euro s</w>
ri vers</w>
fin ishing</w>
re membered</w>
C are
out lets</w>
tra ded</w>
rap ed</w>
in door</w>
recipi ents</w>
per man
hun g</w>
ch ase</w>
denti ality</w>
bom b
Co st</w>
psy chiat
Incre ased</w>
survi ved</w>
Domin ican</w>
un cle</w>
impe de</w>
con science</w>
Min im
clos est</w>
fin es</w>
Kur dish</w>
shoc ks</w>
b alls</w>
Rec ords</w>
unanim ously</w>
innov ations</w>
it ability</w>
in s
six tieth</w>
E c
con g
gen es</w>
spot ted</w>
invo ked</w>
he res</w>
elabor ated</w>
N et</w>
ani um</w>
IN TER
coordin ators</w>
Speci fies</w>
K ate</w>
dro pping</w>
exclu de</w>
dem ol
met als</w>
evac uation</w>
bas ket</w>
feat uring</w>
renew al</w>
Be au
re act</w>
Arch it
affir med</w>
in complete</w>
car riage</w>
ten ant</w>
a .m</w>
expres s
No v</w>
p ap
Mar keting</w>
ec ho
fo rest
DV D</w>
f uck</w>
loc ks</w>
civil izations</w>
ri gor
T est
op er</w>
fem in
197 4</w>
igh t
dum ping</w>
17 .
helicop ters</w>
rat ings</w>
x ious</w>
bil lions</w>
Ham ilton</w>
tr as
Man ual</w>
M ENT</w>
re ar</w>
Sing le</w>
inter rupted</w>
s porting</w>
administr ators</w>
Ex port</w>
G .</w>
fl u</w>
Main tenance</w>
def ended</w>
argu ing</w>
har sh</w>
sen ds</w>
bl u
hy dr
exce eding</w>
Anth ony</w>
Volun tary</w>
Speci fic</w>
pu rely</w>
haz ard</w>
im position</w>
a rena</w>
home work</w>
parti ality</w>
Ber nie</w>
Sy m
Inv ites</w>
in ception</w>
vibr ation</w>
T ION</w>
sla u
inter sessional</w>
cor relation</w>
ver ies</w>
We i</w>
cor rid
comman ds</w>
Nami bia</w>
sub way</w>
1 28</w>
lik eli
dic t
An dy</w>
turno ver</w>
war ding</w>
dam aging</w>
Mar s</w>
Po st
fing ers</w>
g ang
distribu te</w>
dist ant</w>
as sumptions</w>
Ho ward</w>
Champi ons</w>
ap h
circ ular</w>
qu alities</w>
excell ence</w>
woo den</w>
tr ick</w>
Co ok</w>
conf used</w>
l aying</w>
f its</w>
cu te</w>
ne ts</w>
ce rely</w>
Inte l</w>
3. 3</w>
ha ul</w>
arre n</w>
Op tim
porte urs</w>
R ele
soci ally</w>
L u</w>
Ex ecu
fic ally</w>
Conserv ative</w>
em ia</w>
heav en</w>
g ases</w>
198 3</w>
Scienti sts</w>
ab ide</w>
tex t
que ue</w>
Com pli
1. 8</w>
priv ately</w>
th rowing</w>
slow down</w>
extremis t</w>
bon us</w>
Consi der</w>
ev ic
or derly</w>
Le on
Y esterday</w>
posi tioning</w>
Person nel</w>
S po
phys ics</w>
C S</w>
1 18</w>
arbitr al</w>
vig il
commit ting</w>
Pow ers</w>
K al
M aria</w>
re unification</w>
inter ro
tion er</w>
parlia mentarians</w>
stri p</w>
hy brid</w>
prohib iting</w>
buff er</w>
P AR
Econom ics</w>
distur bing</w>
ali gn</w>
flo ating</w>
extr action</w>
Mc C
o ke</w>
Tele vision</w>
PR ES
milest one</w>
hon ey</w>
f arms</w>
ho o</w>
bo wl</w>
ju ana</w>
commer ci
2. 6</w>
audi ences</w>
00 1</w>
deb ts</w>
inst ant</w>
vill agers</w>
O pening</w>
13 73</w>
ann e</w>
2 2
wor rying</w>
my ster
es tive</w>
ri dic
a rest</w>
re novation</w>
roc ks</w>
Re ference</w>
ph ased</w>
Ex pres
super market</w>
hom o
psy cho
extremis m</w>
rev ise</w>
differen tial</w>
F air
abol ition</w>
cor n</w>
LE D</w>
Democr acy</w>
prov oc
Phys ical</w>
follow ers</w>
interven e</w>
Det ails</w>
hero in</w>
Pro jects</w>
st em
In c</w>
pre ferences</w>
cha p</w>
Respon sible</w>
mix ture</w>
for got</w>
liter ary</w>
K ow
AM IS
cli p</w>
end ang
V in
Democr at</w>
crit erion</w>
toil et</w>
ESC WA</w>
R ole</w>
psych ology</w>
ner ve</w>
emb race</w>
char ter</w>
knoc ked</w>
tar ily</w>
licen sed</w>
B ay
m ess</w>
R ES
AMIS OM</w>
str o</w>
lo gging</w>
U s</w>
ar ization</w>
budge ted</w>
commen ced</w>
UNMI S</w>
ley ball</w>
in consistent</w>
V oc
e tic</w>
cryst al</w>
read er</w>
S co
op t</w>
im migrant</w>
H av
rec ep
al arming</w>
fil tr
sist ers</w>
V eg
D E</w>
te ar</w>
autom obile</w>
di esel</w>
Pl an
Ox ford</w>
mat ched</w>
H i</w>
forese en</w>
Rw and
su ited</w>
a than</w>
pe l</w>
E T
spher ic</w>
retail ers</w>
emb assy</w>
Co alition</w>
develop s</w>
1, 0
D ol
R MB</w>
Cou ples</w>
mer ger</w>
S Q
Y e
For m</w>
emb o
Victi ms</w>
C ause</w>
ti ble</w>
ing e</w>
ame ter</w>
Out come</w>
expres sions</w>
an thro
c essation</w>
Ben ef
e ye
Rem ote</w>
C ard</w>
G U
some how</w>
work flow</w>
ap pen
to ys</w>
th a</w>
persu ade</w>
Ob viously</w>
comprehen sively</w>
list ened</w>
sex u
rescu ed</w>
inst al
after wards</w>
L en
De velop</w>
Lux emb
Psy ch
sp ouse</w>
di ves</w>
Hondur as</w>
cred itor</w>
pay able</w>
R ock</w>
wa ste
A ber
to ol
lo op</w>
m p</w>
um bered</w>
wh is
escal ation</w>
compens ate</w>
S ab
narr ative</w>
D ji
Comm and</w>
mar ri
ste al</w>
A part</w>
Re d
cha pters</w>
an ing</w>
parti cles</w>
install ations</w>
s now
Sign ific
ra b
hygi ene</w>
Mater ials</w>
ele venth</w>
hard ship</w>
batt le
Mach ine</w>
sh ells</w>
en tries</w>
dis orders</w>
Loc ation</w>
dr unk</w>
Turk men
evol ved</w>
Imp act</w>
r at</w>
L ady</w>
objec tions</w>
S even
pu zz
gy m</w>
Consum er</w>
stream line</w>
fe ared</w>
15 th</w>
Gu ard</w>
cru ise</w>
succ essive</w>
ran e</w>
Trans national</w>
not able</w>
g ym
Sh i</w>
x on</w>
Ma x</w>
analy sing</w>
W ater
sli p</w>
qu est</w>
jec ting</w>
nur ses</w>
Resear chers</w>
Sum mer</w>
stock pil
Some one</w>
Pl ace</w>
mag ni
wis hing</w>
ac ked</w>
W all
l ou
gra des</w>
TA H</w>
dedic ation</w>
or ange</w>
we l</w>
ef f</w>
ax y</w>
shel f</w>
quir ing</w>
Fi re
1 17</w>
resi st</w>
Ar ctic</w>
dis mis
ali enable</w>
K or
Under standing</w>
acti vis
Zh ong
pr one</w>
compl ications</w>
s ni
regul ating</w>
mac ro</w>
design ers</w>
co ol
vis as</w>
dis appointment</w>
dis appointing</w>
Par agu
likeli hood</w>
m ales</w>
Cla im
min ded</w>
J im
nor m</w>
business men</w>
Eth ics</w>
Y ea
ambul ance</w>
Grou ps</w>
197 0</w>
Indone sian</w>
res or
remin der</w>
cur b</w>
sp heres</w>
re ferr
sen ator</w>
qu é</w>
autom otive</w>
4 .1</w>
militi as</w>
inser t</w>
y ah</w>
open ly</w>
class ical</w>
MINUS TAH</w>
n aval</w>
E .
re z</w>
del icate</w>
Ad option</w>
m o</w>
confi dentiality</w>
d al</w>
gi bility</w>
ab ducted</w>
vac ancies</w>
&apos; clock</w>
viol ating</w>
train ers</w>
sp an</w>
sque e
f ere</w>
ing ual</w>
F em
Reco very</w>
under mining</w>
phy si
Trans portation</w>
win d
Dat ab
L akes</w>
Govern ance</w>
it er</w>
o kie</w>
ir ri
m ari
Cour se</w>
Bet ter</w>
Sem in
ste ering</w>
gh ua</w>
dam n</w>
manife stations</w>
Liber ation</w>
evi d
Turkmen istan</w>
sum mits</w>
in admissible</w>
Le ave</w>
im posing</w>
V arious</w>
Xi ao</w>
soci alism</w>
Over seas</w>
athle te</w>
de structive</w>
pul ling</w>
Vir gin</w>
st amp</w>
Fac tory</w>
re ci
so oner</w>
Char lie</w>
Ed iting</w>
x ia</w>
key board</w>
f ati
15 40</w>
M T</w>
li vestock</w>
y u</w>
ch in
war t</w>
Luxemb ourg</w>
inter fere</w>
qu ad
em power</w>
industri alized</w>
Xi amen</w>
Mil an</w>
ed a</w>
tak e
mu tilation</w>
stipul ates</w>
manu ally</w>
l ation</w>
Incre ase</w>
persist ence</w>
A z
co ding</w>
deliber ate</w>
qu eries</w>
rev olutionary</w>
Multil ateral</w>
eleg ant</w>
Stud ent</w>
H ainan</w>
tail ored</w>
prof itable</w>
nar row
consum ing</w>
in hi
im partiality</w>
re jection</w>
Dou ble</w>
Tri bunals</w>
expe dite</w>
Bris bane</w>
t an</w>
co st
occa sionally</w>
identi fies</w>
har vest</w>
Bra d
15 5</w>
di ving</w>
ad ver
ang ular</w>
Work shop</w>
es ity</w>
teen agers</w>
conv ince</w>
Po or</w>
ad versely</w>
H ence</w>
mur dered</w>
Sh or
inter actions</w>
haz ards</w>
bat teries</w>
be am</w>
ra inf
U ber</w>
ick y</w>
t z</w>
aud its</w>
li tigation</w>
bure auc
as leep</w>
war n</w>
e ag
w ounds</w>
acc essing</w>
c iliation</w>
in sight</w>
A V
r ul
D ur
under going</w>
att an</w>
inv iting</w>
19 .
clean er</w>
E specially</w>
seg reg
compl ain</w>
Dji b
CON F.
aggreg ate</w>
Relation ship</w>
hy draulic</w>
access ories</w>
qui etly</w>
Pri ze</w>
Kow loon</w>
pre diction</w>
Contribu tions</w>
ac tment</w>
ag an</w>
ser ial</w>
d are</w>
prin ts</w>
Cl assi
Bal i</w>
m ud
Belgi an</w>
dispar ities</w>
F T
Av ail
he igh
R ab
M R
co tics</w>
ambi gu
virtu e</w>
teen ager</w>
ne es</w>
i g</w>
no des</w>
T am
j ailed</w>
cep tions</w>
a j
vac ant</w>
Ath ens</w>
ID B.
Sou th
S IL</w>
fossi l</w>
explan ations</w>
gl ory</w>
exten ds</w>
D an
row ave</w>
observ ance</w>
Mon t
e iro</w>
b ones</w>
re signed</w>
che str
Le ic
4. 3</w>
accus ations</w>
a si
remain der</w>
dr illing</w>
Dis pu
ber ry</w>
Coordin ating</w>
sc our
lingu istic</w>
politici an</w>
enjo ys</w>
Yugosla v</w>
appro aching</w>
p neum
multil ater
gener ic</w>
Har vard</w>
Conserv ation</w>
U h</w>
con dol
volun tarily</w>
flo ors</w>
sch e</w>
surve yed</w>
Bl air</w>
ch ess</w>
selec tive</w>
11 th</w>
ge table</w>
C ancer</w>
sha me</w>
hol istic</w>
Gol an</w>
cor ner
net t</w>
ir regular</w>
fruit ful</w>
Up date</w>
promul gated</w>
sin cerely</w>
expl aining</w>
y i</w>
educ ate</w>
gr ace</w>
cr us
sc ul
cle arer</w>
vi an</w>
30 0,000</w>
ag on</w>
al y</w>
sacri fice</w>
M A
Mater ial</w>
l end</w>
Deleg ations</w>
dec olonization</w>
cy lin
resi dual</w>
ish u</w>
cou pled</w>
cau tion</w>
IC RC</w>
Ori gin
O AU</w>
Aut onom
Direc t</w>
univers ally</w>
pres ti
st ole</w>
e up</w>
categ or
im balance</w>
pati ence</w>
in correct</w>
dispu ted</w>
S W
S av
m ail
E ric</w>
teen age</w>
assi sts</w>
le tin</w>
acc ru
allow ances</w>
loc ating</w>
symp athy</w>
C old</w>
travel ers</w>
Moun t</w>
D O
ari al</w>
Prosecu tion</w>
rainf all</w>
hor ses</w>
B hut
prohib its</w>
pol is</w>
op ted</w>
Yea h</w>
Down load</w>
Ber n
ver dict</w>
N .
mobil ized</w>
diagno stic</w>
Ti bet
duc ing</w>
R angers</w>
diag ram</w>
cogn itive</w>
O scar</w>
NAS A</w>
t ours</w>
pen insula</w>
Pl us</w>
B ai
Go od
gh o
ing ent</w>
over time</w>
S olutions</w>
resp ir
rel ying</w>
18 th</w>
Con tent</w>
sec rets</w>
mid night</w>
shi fted</w>
contrac ted</w>
out i</w>
No .
encoura gement</w>
di x</w>
senti ment</w>
M AN</w>
G il
acce ded</w>
trans boundary</w>
ra de</w>
qual itative</w>
fri gh
concep tual</w>
rhetor ic</w>
op her</w>
centr alized</w>
Distribu tion</w>
H .</w>
consi st</w>
ri ya</w>
No bel</w>
sing les</w>
m ay
lor d</w>
G on
A del
re vol
Coun sel</w>
ful fill</w>
expec tancy</w>
ak en</w>
1 26</w>
serv ant</w>
ev al</w>
dis ruption</w>
Ma xim
th al</w>
utili ze</w>
gra ding</w>
boar ding</w>
ro gen</w>
Dyn asty</w>
ec hes</w>
e try</w>
acknowle dges</w>
UN IT
D ynam
un happy</w>
un authorized</w>
C ateg
C ar</w>
lob by</w>
co inci
bas eball</w>
pic king</w>
Opportun ities</w>
mo ist
tum or</w>
correc tions</w>
in j
conf ront</w>
Tra ding</w>
fin ances</w>
cent red</w>
Inst agram</w>
er ated</w>
bl ank</w>
defici ency</w>
bor row</w>
MI S</w>
pa ths</w>
y ana</w>
Kenne dy</w>
tex tile</w>
t .</w>
moun ted</w>
vie w
extr act</w>
questi oning</w>
Condi tions</w>
v aries</w>
p it</w>
bles ho
enc umbered</w>
par aly
cr ashed</w>
abst en
mem orial</w>
pain ted</w>
ate way</w>
al istic</w>
absor b</w>
no ble</w>
US B</w>
3. 4</w>
intermedi ate</w>
dis bur
No body</w>
v ative</w>
comp ounds</w>
Je ws</w>
is hable</w>
d d</w>
b ited</w>
to y</w>
ap ple</w>
ag a</w>
1 23</w>
tri bunals</w>
seem ingly</w>
cor rupt</w>
T E</w>
T E
trans ported</w>
labor atories</w>
fluctu ations</w>
res olu
trou bled</w>
C lose</w>
IS O</w>
my stery</w>
respec ting</w>
B ron
es si
contam inated</w>
sh i</w>
PR K</w>
yi elds</w>
Di ego</w>
perman ently</w>
Per th</w>
A FP</w>
Jan eiro</w>
vi ous</w>
di ary</w>
impro ves</w>
guid es</w>
K am
p an</w>
mon u
broad band</w>
model ing</w>
O wing</w>
wh oles
U. N.</w>
9 0
qu o</w>
leng thy</w>
Wel sh</w>
Ni k
ing ham</w>
ci vic</w>
ade mia</w>
Thir dly</w>
read ily</w>
Tur n
re new</w>
restra int</w>
Mo gad
gre y</w>
J IU</w>
fo ref
emplo y</w>
N or</w>
harmon ized</w>
ben e
sub ordin
ali ans</w>
g ating</w>
de vote</w>
C arri
archi ves</w>
h il
da o</w>
syn thetic</w>
other apy</w>
Char lot
N either</w>
&apos; I</w>
D. C.</w>
assi onate</w>
seiz ures</w>
marri ages</w>
rup t
s on
Stor age</w>
F M
b ular</w>
Te achers</w>
regret ted</w>
F CCC</w>
Sh a</w>
Mogad ishu</w>
OR D</w>
es el
6. 5</w>
be ef</w>
Mal awi</w>
seis mic</w>
acti c</w>
p assive</w>
Pub lis
commun icated</w>
he ated</w>
t ops</w>
sp ell</w>
e h</w>
ko v</w>
cir cled</w>
W .</w>
sor ts</w>
wan a</w>
down turn</w>
Re sident</w>
hierarch y</w>
en su
sp ouses</w>
forest ation</w>
Certific ate</w>
al locations</w>
Op tions</w>
Cap tain</w>
revit alization</w>
E state</w>
dist ress</w>
P re</w>
speci fication</w>
condi tioned</w>
m ask</w>
jac ket</w>
Guang xi</w>
sear ched</w>
IO C</w>
amoun ting</w>
Leic ester</w>
correc tion</w>
fol ders</w>
0. 7</w>
en za</w>
imag ination</w>
fi elder</w>
coun sel
IC C</w>
ast ed</w>
Mal dives</w>
bi om
id ate</w>
form ats</w>
inval id</w>
parlia ments</w>
Manufac turing</w>
f ence</w>
balcon y</w>
Scho ols</w>
L ev
Organ isation</w>
De ath</w>
Har b
br ush</w>
Liber ian</w>
K no
nes burg</w>
Bret ton</w>
EM C</w>
Po s
de pic
polic ing</w>
et ting</w>
P rison</w>
ver n</w>
c olo
measu rements</w>
port able</w>
sh a</w>
J eff</w>
air y</w>
Z hao</w>
Lat via</w>
equ ation</w>
b ols</w>
197 5</w>
D PRK</w>
ter n</w>
ag as
Gener ally</w>
Bu ff
im aging</w>
ub ric
o is</w>
T ai</w>
c umul
A venue</w>
stre aming</w>
Anton io</w>
Ve hic
Johan nesburg</w>
inspec tors</w>
dest inations</w>
affili ated</w>
ri gi
wrong ful</w>
fore most</w>
clou ds</w>
k shire</w>
ten se</w>
P ope</w>
tu ition</w>
abol ished</w>
com ment
Djib outi</w>
De c</w>
che ese</w>
Any one</w>
stri ker</w>
r ings</w>
17 0</w>
hun t</w>
assa ul
seiz ure</w>
new s
Xi ao
k ong</w>
com edy</w>
spac ious</w>
dissemin ated</w>
af ore
tow n
exacerb ated</w>
We ather</w>
prison er</w>
veter ans</w>
K an
off ense</w>
IC OM</w>
ju ice</w>
medic ation</w>
Reg ul
oc ity</w>
Campai gn</w>
at orium</w>
vari ation</w>
funda mentally</w>
tu berculosis</w>
gro ws</w>
form erly</w>
th um
Fe atures</w>
A reas</w>
fru stration</w>
Ge ts</w>
Man h
Consi dering</w>
we ird</w>
wan ting</w>
recur rent</w>
bl an
C M</w>
g au
Gir ls</w>
Col or
rest oring</w>
liber ation</w>
P el
Th ous
TA RY</w>
Haw ai
Y uan</w>
beli eving</w>
adju sting</w>
el essness</w>
cor d</w>
pac king</w>
D S</w>
B ad
197 2</w>
inten tions</w>
Kab ul</w>
bub ble</w>
enrol led</w>
mo il</w>
P il
design ate</w>
counter ing</w>
ad ata</w>
2. 7</w>
min i</w>
X I</w>
v ag
co aches</w>
as suming</w>
Smar t</w>
In no
SQ L</w>
ti ously</w>
ver sus</w>
2 40</w>
Con tract</w>
in ches</w>
ali ens</w>
afore mentioned</w>
mer ch
H ope</w>
g ade</w>
Cer tain</w>
Pro tec
u i</w>
at orial</w>
persecu tion</w>
Polic ies</w>
F el
plan tation</w>
deterior ating</w>
ist ing</w>
dest abil
197 7</w>
bit ter</w>
re fined</w>
Fac ilities</w>
shi fting</w>
convers ations</w>
real ise</w>
vigor ously</w>
der gar
Mo de</w>
C IS</w>
umb rella</w>
cont ex
jeop ardi
De pending</w>
T N
Est onia</w>
pol ar</w>
Ab dul
a to</w>
de portation</w>
fres h
ti ary</w>
17 th</w>
H az
d oping</w>
fra mes</w>
ain ment</w>
vol can
univers ality</w>
Dis ease</w>
incredi bly</w>
quarter back</w>
S AR
g t</w>
Colom bian</w>
down ward</w>
po lar
4 0,000</w>
don ation</w>
verb ale</w>
ur anium</w>
R ice</w>
Dis ney</w>
co ating</w>
n ish</w>
pre cip
un fortunate</w>
Analy sts</w>
tane ous</w>
rigor ous</w>
cy cling</w>
NS W</w>
. org</w>
Jon athan</w>
travel lers</w>
Ad ap
pro xy</w>
feder ation</w>
Techn i
wel ding</w>
pe p
lac ks</w>
rhy th
pu ties</w>
H D</w>
develop mental</w>
an xious</w>
di fication</w>
tri bal</w>
instruc ted</w>
foref ront</w>
w ings</w>
gradu ated</w>
1 24</w>
cau tious</w>
Paragu ay</w>
ac o</w>
vel and</w>
You Tube</w>
go al
correc ted</w>
over see</w>
arre ars</w>
tur moil</w>
li fel
Argent ine</w>
at o
pens ation</w>
Datab ase</w>
accred itation</w>
land mark</w>
short ages</w>
eu tic</w>
arti ll
per tin
ten stein</w>
W ei
mon ies</w>
ge ments</w>
Charlot te</w>
1 21</w>
dis rup
ac ademia</w>
min d
stabil ize</w>
mari juana</w>
tari ffs</w>
bi as</w>
Star ting</w>
p ink</w>
13 5</w>
dest iny</w>
s word</w>
Ser ge
Di plom
E ve</w>
our se</w>
Ev ans</w>
Str ong</w>
claim ants</w>
indic ations</w>
termin ated</w>
Appro ach</w>
legisl ature</w>
wor ries</w>
safe guarding</w>
in er</w>
petro leum</w>
gh ty</w>
work plan</w>
op posing</w>
19 60s</w>
grand mother</w>
ac es</w>
s lower</w>
pl ur
li ps</w>
istr ates</w>
W is
5. 5</w>
W ay</w>
s ke
dis appear</w>
Fis her
inc itement</w>
ven tures</w>
un comfortable</w>
broad c
explo it</w>
artill ery</w>
there after</w>
m ice</w>
lea f</w>
ann ers</w>
Every body</w>
al ter</w>
a f</w>
CO 2</w>
accompan ying</w>
Gi br
Budd h
In come</w>
ge ological</w>
pl um
gar bage</w>
emo tion</w>
T ow
pe ts</w>
wor sen
sam pling</w>
el le</w>
CAR ICOM</w>
restric tive</w>
condol ences</w>
Ex press</w>
convic tions</w>
influ ences</w>
econom ist</w>
guid eline</w>
don ated</w>
n aked</w>
Manh attan</w>
ain less</w>
Liber al</w>
deser ved</w>
prob ability</w>
peri ph
c ular</w>
Ki v
Bo wl</w>
I ES</w>
business man</w>
UN DA
moun ting</w>
12 th</w>
Hu bei</w>
Ya hoo</w>
mathematic al</w>
Tur ning</w>
Ph ase</w>
sear ches</w>
Philipp ine</w>
Car di
benef iting</w>
c and
g ently</w>
K is
vari eties</w>
recei ver</w>
de fl
cu is
ad venture</w>
real ised</w>
bun ch</w>
UNC CD</w>
cu t
reser voir</w>
For tun
ple aded</w>
be ar
down town</w>
author ize</w>
1. 7</w>
financi ally</w>
Fore sts</w>
Accoun ts</w>
reli es</w>
je wel
Cor rec
Angel a</w>
in son</w>
in ho</w>
s its</w>
nam ese</w>
del icious</w>
Cle veland</w>
Car ter</w>
demonstr ating</w>
hu ang</w>
f i</w>
G B
Di versity</w>
on ey</w>
f le</w>
preser ving</w>
a x</w>
part mental</w>
in su
el iness</w>
bot tles</w>
pro tot
optimis m</w>
Y P</w>
Li ech
se aled</w>
ori de</w>
UN AIDS</w>
suppor ter</w>
swit ching</w>
bomb ings</w>
C en
eli gibility</w>
S ure</w>
Shen yang</w>
Em plo
il st</w>
Sam oa</w>
o od</w>
occup y</w>
communi qué</w>
po le</w>
Reg ular</w>
M I</w>
B anks</w>
fe t
ag e
se di
wei gh</w>
priv atization</w>
s ang</w>
P ul
inf lic
Proper ties</w>
or ly</w>
Del hi</w>
C ot
Hou ston</w>
Liech tenstein</w>
ac res</w>
hand ful</w>
s wana</w>
oun ge</w>
knoc k</w>
Jama hi
Counter measures</w>
tor tured</w>
scul p
T ong
hel or</w>
war m
sha pes</w>
met abol
ric h
ven ge</w>
Pro hibition</w>
w ol
IV E</w>
Fac il
tack ling</w>
conc essions</w>
rupt cy</w>
liter ally</w>
Viet namese</w>
M ass</w>
Autom atic</w>
acce de</w>
rac ed</w>
it ations</w>
mill ennium</w>
ter race</w>
SEC RE
Jamahi riya</w>
An hui</w>
mono poly</w>
al be
accred ited</w>
br a</w>
hop efully</w>
High way</w>
gra b</w>
a ero
evac uated</w>
L ay
all as</w>
re pos
li t</w>
liqu idation</w>
cred ited</w>
Exp o</w>
privil ege</w>
un rest</w>
E ffici
under scored</w>
vol leyball</w>
2 20</w>
S che
l amp</w>
ad mi
9 ,000</w>
lo yal</w>
to s</w>
I an</w>
Clar k</w>
To go</w>
Bro ok
condem n</w>
Proc essing</w>
OR E</w>
dili gence</w>
To ols</w>
voc al</w>
Alex ander</w>
leg ality</w>
it orial</w>
D R</w>
IT Y</w>
exce eds</w>
empha sizing</w>
ab undant</w>
out lines</w>
im a</w>
19 49</w>
Gu ar
upgra ded</w>
confir ms</w>
p son</w>
sof a</w>
de ferred</w>
illustr ated</w>
she ep</w>
L ess
super visory</w>
ge ome
Ne goti
CE B</w>
ide ology</w>
comple mented</w>
te t</w>
defici encies</w>
deb tor</w>
ti um</w>
fit ted</w>
t ale</w>
ob esity</w>
h ran</w>
rel s</w>
mar ch</w>
E uro</w>
p .</w>
endor se</w>
clu sters</w>
Paralymp ic</w>
An derson</w>
man s</w>
N ight</w>
p c</w>
ero sion</w>
c ache</w>
def ender</w>
far mer</w>
cot t</w>
Voc ational</w>
14 th</w>
ai red</w>
p ist
15 ,000</w>
Autonom ous</w>
design ation</w>
e ter</w>
Oc t</w>
W ho
Simil ar</w>
a erial</w>
Au g</w>
m ill</w>
consolid ating</w>
Rwand an</w>
In ner</w>
organiz ers</w>
even tual</w>
st ays</w>
7. 5</w>
An k
att ainment</w>
ambi tion</w>
10 ,
preven ts</w>
c ation</w>
de m</w>
Lia ison</w>
sur gical</w>
thro at</w>
tur b
clim bed</w>
Me tro</w>
at us</w>
perform s</w>
ru gby</w>
AN G</w>
now ned</w>
compar ing</w>
Pat rick</w>
pe ers</w>
g ates</w>
conspir acy</w>
vit amin</w>
cle ver</w>
Bot swana</w>
F ab
re nowned</w>
o we</w>
ar ch</w>
C B</w>
P ho
apolo gy</w>
Th em
B earing</w>
pi ano</w>
im men
T C</w>
Re ading</w>
reci proc
Deleg ation</w>
euro zone</w>
dark ness</w>
197 6</w>
clim bing</w>
t es
dent ally</w>
so m</w>
rever sed</w>
Confi g
P ing</w>
h em
Add is</w>
ne arest</w>
l ens</w>
simpli fied</w>
fi x
bloc king</w>
Soci alist</w>
pro xim
d ale</w>
re vel
Ab k
in sec
encryp tion</w>
cy ber</w>
bre ast
comple ment
G ro
un ting</w>
n asty</w>
was hed</w>
e rec
AC T</w>
sign atures</w>
ham pered</w>
me tal
T ou
illustr ates</w>
in quiries</w>
bic ycle</w>
ab stract</w>
celebr ity</w>
in cl
di version</w>
accor ded</w>
insi sts</w>
back grounds</w>
5. 2</w>
pre cur
A O</w>
tem ple</w>
mar ital</w>
deli ghted</w>
Jo sh</w>
res emb
fif tieth</w>
sym bols</w>
Er do
sci ences</w>
de stri
rang es</w>
pil ots</w>
trac ted</w>
sk a</w>
parti te</w>
mic rowave</w>
colli sion</w>
G N
Austri an</w>
buil ds</w>
Georgi an</w>
b ite</w>
ad el
P E</w>
for give</w>
Spe aker</w>
carri ers</w>
G IS</w>
numer ical</w>
car to
dec om
Moham med</w>
Gibr altar</w>
sacri fic
st unning</w>
inf ants</w>
P as
pl ight</w>
are t</w>
Ter ms</w>
spe eches</w>
fing er
Veg as</w>
en actment</w>
Mo ore</w>
margin s</w>
Rus sians</w>
up ward</w>
Boli varian</w>
No tice</w>
propos ing</w>
par ad
in timate</w>
IG H
Chair s</w>
Ab aba</w>
con fined</w>
Infra structure</w>
ho stage</w>
f a</w>
u sive</w>
att ain</w>
tor n</w>
fati gue</w>
ref using</w>
comp elling</w>
wor ship</w>
F S</w>
in tr
SECRE TARY</w>
Ban king</w>
vis itor</w>
magaz ines</w>
N ine</w>
M our
scour ge</w>
So on</w>
mass age</w>
mo squ
cataly st</w>
br ation</w>
bal ancing</w>
deleg ate</w>
Recon ciliation</w>
EC LAC</w>
Bar bad
A verage</w>
Com pensation</w>
pron ounced</w>
ris t</w>
mathematic s</w>
vi e</w>
re sts</w>
19 69</w>
Li ving</w>
corpor al</w>
D ong</w>
13 2</w>
N ur
inst alling</w>
Mat ters</w>
be sides</w>
nom inations</w>
incorpor ating</w>
rec alling</w>
hol y</w>
J ose</w>
Rem ove</w>
ferti liz
recogn ised</w>
ar do</w>
Barbad os</w>
ax is</w>
Pr o</w>
jud ged</w>
exc itement</w>
wat ch
Go ods</w>
ener y</w>
ca uc
retur nees</w>
molec ular</w>
P ent
St ay</w>
prece dent</w>
in alienable</w>
Bre ak
war fare</w>
cu e</w>
13 4</w>
p el
air ing</w>
Vir tual</w>
hydro gen</w>
in age</w>
U.S. -
St one</w>
L abor
in er
Th ings</w>
13 8</w>
UN MIS
Fortun ately</w>
f lies</w>
mor ph
br al</w>
as i</w>
To o</w>
cumul ative</w>
pol lutants</w>
critic ised</w>
regret table</w>
contam ination</w>
In dependence</w>
Back ground</w>
es sively</w>
defend ants</w>
resear cher</w>
at ings</w>
per or</w>
atom ic</w>
appli ances</w>
s ses</w>
confisc ation</w>
P K
5 0s</w>
Im prove</w>
pro g
pe as
under go</w>
sp in</w>
20 .
yi el
tri um
14 2</w>
un even</w>
mer it</w>
P ence</w>
G ary</w>
n ic</w>
reli ed</w>
confron ted</w>
ign or
weak ened</w>
R un</w>
altern ate</w>
loy alty</w>
sla ve</w>
indic ative</w>
i fied</w>
ho b
organ isms</w>
Thous ands</w>
Inspec tor</w>
x in</w>
i us</w>
ret ali
po orly</w>
in take</w>
se wage</w>
manag es</w>
scar ce</w>
am ong
cl oth</w>
cin ema</w>
wh ist
Multi ple</w>
C ore</w>
Gu yana</w>
Part ners</w>
recru iting</w>
Cli ent</w>
Oper ational</w>
Im port</w>
pain tings</w>
l ing
al uminum</w>
13 th</w>
use ums</w>
Ma o</w>
collabor ate</w>
R ud
S atell
o ve
J ur
hi st
waste water</w>
anti bio
Au to</w>
ad dic
Ph illi
1 27</w>
um a</w>
treas ure</w>
grand father</w>
f ric
decentr alized</w>
Ke y
aes thetic</w>
ec tive</w>
UP I</w>
conv inc
at traction</w>
R an
bi ology</w>
f lowing</w>
c attle</w>
p hosp
communic able</w>
preser ved</w>
throu gh
bus tion</w>
Te hran</w>
Th ank
Pl enary</w>
irri gation</w>
olog ically</w>
lic ences</w>
but tons</w>
de en</w>
G .
Pub lic
be aches</w>
M om
w izard</w>
ret reat</w>
illiter acy</w>
fl our
Q U
N BC</w>
Gr ant</w>
G R
mor atorium</w>
bul let</w>
sp a</w>
lan e</w>
dr one</w>
vie wer</w>
qui to</w>
pre mature</w>
Michel le</w>
E igh
spectac ular</w>
Ma p</w>
ot t</w>
ec raft</w>
UNF IC
Ne ar</w>
f u</w>
ra ys</w>
Del ta</w>
UNFIC YP</w>
Pri v
Contrac ting</w>
phot o
Ca stro</w>
i ff</w>
conver gence</w>
presid ents</w>
in sur
s olu
dec k</w>
G un
archit ectural</w>
absor bed</w>
Mo hamed</w>
ge ous</w>
de preci
li a</w>
bass ad
there to</w>
ad diction</w>
Some thing</w>
it ch</w>
E V
diversi fied</w>
197 1</w>
mani f
i fy</w>
18 2</w>
k n
ti te</w>
Ed ward</w>
spar ked</w>
Sus an</w>
in tru
Emplo ye
l ubric
R y
P .</w>
M B
un sustainable</w>
inform ing</w>
explo ited</w>
S ti
con tested</w>
swe ar</w>
consu me</w>
ater ing</w>
esel f</w>
00 0
p ray</w>
shi fts</w>
dro ps</w>
Ser bian</w>
termin ate</w>
ffic acy</w>
on ian</w>
la dies</w>
ve getable</w>
me teorological</w>
fit ting</w>
Nar cotic</w>
vari ance</w>
ou tra
Bab y</w>
o sis</w>
Sen .</w>
pal ace</w>
li ed</w>
young est</w>
inser ted</w>
pai red</w>
b la
Li kewise</w>
D allas</w>
al together</w>
Met ro
Wat son</w>
among st</w>
shi pped</w>
s au
champi ons</w>
reas ing</w>
fun dra
ul tras
quot as</w>
Tibet an</w>
protec ts</w>
photograph y</w>
da wn</w>
Iv orian</w>
respir atory</w>
d ressing</w>
m ative</w>
Se attle</w>
refu ge</w>
Color ado</w>
2 5,000</w>
harmon ize</w>
5 .1</w>
succ esses</w>
twel ve</w>
ful ness</w>
fo ol</w>
inter val</w>
alli ed</w>
plan ting</w>
anonym ous</w>
photogra pher</w>
mat urity</w>
adoles cent</w>
Get ting</w>
do or
extra judicial</w>
Comp act</w>
bene ath</w>
in tra
G PS</w>
ed ited</w>
cul min
weak er</w>
l ings</w>
cous in</w>
mil d</w>
sol em
tri ple</w>
li f
De termin
acknowle dging</w>
In stru
Y ong
contrac ep
W IPO</w>
accompl ishment</w>
fa ults</w>
UN ITA
pertin ent</w>
Rev olution</w>
F ar</w>
inc t</w>
An tar
jud gements</w>
tot alling</w>
absor ption</w>
inde xes</w>
consult ancy</w>
ch un</w>
agg age</w>
Recom men
C ities</w>
Tem ple</w>
Di ag
Con ferences</w>
alle viation</w>
exten sively</w>
compris ed</w>
Th inking</w>
recogn ise</w>
rem n
neighb or</w>
care ers</w>
ab sent</w>
unve iled</w>
co s</w>
re an</w>
j er
sou p</w>
IM O</w>
trans form
Observ atory</w>
Doc tor</w>
Program mes</w>
W ant</w>
rel ay</w>
Gab on</w>
Ah med</w>
nor theast</w>
the ater</w>
kin dergar
moun t</w>
acc essed</w>
ly n</w>
Ste ven</w>
proble matic</w>
mu d</w>
Pe ter
Sh are</w>
b ou
Wo od</w>
Mar x
ul tra</w>
cigaret tes</w>
mo tive</w>
v ector</w>
child care</w>
Mar shall</w>
il and</w>
14 5</w>
ther ine</w>
15 7</w>
A h</w>
pp y</w>
V ari
Turn bull</w>
Mac au</w>
Ad ju
2, 500</w>
v in</w>
appe aling</w>
15 3</w>
lap top</w>
in mates</w>
4. 4</w>
ri an</w>
recre ational</w>
al um
Atl anta</w>
alleg ation</w>
met adata</w>
ab outs</w>
U T</w>
ex porting</w>
att acker</w>
persi st</w>
ir ical</w>
reco vering</w>
repl ication</w>
ec o</w>
H S
periodic ally</w>
nine teenth</w>
comman ders</w>
b iting</w>
bas in</w>
Semin ar</w>
B ak
remit tances</w>
appreci ates</w>
m all</w>
i bid</w>
unde res
l ecture</w>
wrap ped</w>
Supple ment</w>
techn ically</w>
Ro s
smart phone</w>
E li
f esti
ed ly</w>
Ar chi
ome ter</w>
accep ts</w>
cooper ated</w>
E radic
ter ly</w>
p ha
sk y
com prise</w>
Comp on
optim ized</w>
no sis</w>
prescri ption</w>
academ ics</w>
Pun ishment</w>
al titude</w>
la g</w>
elecommun ication</w>
sett lers</w>
col or
3. 6</w>
Re porter</w>
ste pping</w>
vel ocity</w>
scre ens</w>
sched uling</w>
sit uated</w>
tri gg
Har mon
Mon itor</w>
Lo wer</w>
Of ten</w>
pri est</w>
subscri ption</w>
re fe
insi ghts</w>
Ham as</w>
Cam bridge</w>
gr ass
stream lining</w>
Re fl
gh ting</w>
hom a</w>
over due</w>
ob s
de partmental</w>
lin s</w>
insp ire</w>
clo sures</w>
Sol om
simil arly</w>
ab ed</w>
ac quiring</w>
on eself</w>
T ech</w>
il ization</w>
G reg
E ag
t elec
M EN
acti vate</w>
Tok el
Chris tie</w>
ic it</w>
Bon n</w>
ag en</w>
Pro te
Cle arly</w>
J ing
ph ar
19 60</w>
Ok la
She i
Pre ven
fu zzy</w>
continu ally</w>
pan el
ei l</w>
discipl ines</w>
Secret ary
cu red</w>
c ats</w>
Xia oping</w>
fin alize</w>
al t</w>
ION AL</w>
L ORD</w>
Man aging</w>
Sche dule</w>
re no
ES A</w>
trade mark</w>
over coming</w>
er ings</w>
ff ed</w>
T op
b oring</w>
min erals</w>
A ar
B ed
posi tioned</w>
h ou</w>
po ols</w>
E vent</w>
phi a</w>
3 60</w>
fra ud
deple ting</w>
Lead er</w>
Ter minal</w>
vir uses</w>
Rel ev
he dge</w>
H U
pro ves</w>
chur ches</w>
ter ior</w>
cr ack
pat ch</w>
Maur it
re es</w>
Import ant</w>
un stable</w>
multilater alism</w>
no where</w>
Zh u</w>
Streng then</w>
Hy dro
calcul ations</w>
Chem icals</w>
Ro d
00 m</w>
Nev ada</w>
adequ acy</w>
calcul ating</w>
F u</w>
instal ment</w>
doctr ine</w>
belong ed</w>
NE W</w>
16 9</w>
sexu ality</w>
Op ini
qu akes</w>
p ick
lab els</w>
ci des</w>
up held</w>
hol dings</w>
a sis</w>
f ty</w>
di ameter</w>
FAR DC</w>
on able</w>
frac ture</w>
dis appearances</w>
apo log
gener ator</w>
L as</w>
dis advantages</w>
Me etings</w>
cri pt</w>
Okla homa</w>
ph er
bank ruptcy</w>
indic tment</w>
E vi
commen ce</w>
destro ying</w>
Func tion</w>
ug ly</w>
tho do
mal icious</w>
re l</w>
econom ical</w>
hop eful</w>
gu s</w>
proce eded</w>
express ly</w>
E L</w>
mos quito</w>
dis advantage</w>
cuis ine</w>
Jim my</w>
gra y</w>
utili ties</w>
vacc ines</w>
str ang
cri ed</w>
Sub ject</w>
Mc Donald</w>
A A</w>
16 th</w>
weak en</w>
15 6</w>
end less</w>
Ank ara</w>
avi er</w>
Mot or</w>
2 70</w>
absten tions</w>
myster ious</w>
im balances</w>
p our</w>
de z</w>
ser t</w>
for ci
F ail
deli vers</w>
Ho t</w>
Chall eng
Pl ay</w>
Pa rents</w>
is er</w>
As k</w>
S L
consu med</w>
threat ens</w>
ore r</w>
Wal ker</w>
3 3
lugg age</w>
prev ail</w>
Test ing</w>
distinc tive</w>
ol ine</w>
t wi
UNITA R</w>
slow ed</w>
fav oured</w>
em powered</w>
therap eutic</w>
milit ant</w>
ad er</w>
li p</w>
commen ds</w>
S cre
K il
T ory</w>
E U
14 7</w>
dec reasing</w>
H it
t ants</w>
sup pression</w>
a er
6. 2</w>
s oring</w>
surpris ingly</w>
qu et</w>
O reg
M AR
16 5</w>
loc king</w>
13 3</w>
shut tle</w>
ha w
contra dic
F OR
Sett ings</w>
1 29</w>
skir ts</w>
sen s
Al len</w>
shoul ders</w>
dispat ched</w>
multi media</w>
Exam ples</w>
dismis sal</w>
MINUR SO</w>
L L
pow ering</w>
bloo dy</w>
L akers</w>
ch eng</w>
han dic
Compli ance</w>
simultane ous</w>
interpre t</w>
cha e
J in</w>
ung le</w>
Non etheless</w>
lec tures</w>
C ases</w>
celebr ations</w>
den ies</w>
tra p</w>
allo y</w>
Investig ations</w>
cat astro
Mar t
ele ph
pre domin
administr ations</w>
adel phia</w>
Character istics</w>
tim ber</w>
scho oling</w>
fac tions</w>
fil med</w>
ball istic</w>
Even ts</w>
y ro
Go v.</w>
d é
M ob
sor tium</w>
nu ts</w>
pra yer</w>
algorith ms</w>
Colon el</w>
Fu k
se am
plain ti
sl ope</w>
o ved</w>
with drew</w>
un ite</w>
consequ ently</w>
Pres ent</w>
ic on
val ley</w>
Con solid
CC TV</w>
S l
laun dry</w>
ay ne</w>
Y ears</w>
6 0,000</w>
3 0s</w>
14 1</w>
Rob erts</w>
In i
a z</w>
He at</w>
g m</w>
Qu ick</w>
P R</w>
h all
G C</w>
hum ane</w>
en velop
vit ality</w>
repe ti
th ur</w>
Provi des</w>
s cap
sid y</w>
mon t</w>
hal f
Ch eng</w>
Cha mbers</w>
Rec ei
W r
Tr in
sc anning</w>
revi sions</w>
con sole</w>
ast es</w>
ID ENT</w>
rep airs</w>
2 12</w>
taxpay ers</w>
ir respective</w>
spe eds</w>
leg end</w>
gall ery</w>
traffic kers</w>
U mo
Pr incess</w>
Phil adelphia</w>
Minim um</w>
y ce</w>
A qu
tion ist</w>
po l</w>
m are</w>
ex porters</w>
O R</w>
pre trial</w>
lion aire</w>
Techn ologies</w>
S hop
defic its</w>
batt ali
om ed</w>
activis t</w>
Cle an</w>
figu red</w>
influ encing</w>
Ren e
att achment</w>
ir rever
sha ping</w>
IC E</w>
frustr ated</w>
S S
Fri end
fil ters</w>
explo sions</w>
Umo ja</w>
vis ing</w>
inter faces</w>
assign ments</w>
lin ess</w>
H A</w>
id al</w>
Gra du
O C</w>
J ustin</w>
Happ y</w>
heal ing</w>
G S</w>
ob struc
exp elled</w>
premis e</w>
referr al</w>
sac red</w>
Secretary General</w>
margin alization</w>
1, 4
us s</w>
M AN
Ca uc
spec t
fo ol
Vill a</w>
L ess</w>
2 10</w>
proxim ity</w>
in ding</w>
P an</w>
wh o
o ven</w>
im ply</w>
CP R</w>
forec asting</w>
P I</w>
non governmental</w>
ide als</w>
seas onal</w>
In quiry</w>
d end</w>
ess ly</w>
Y an</w>
strate g
ari ats</w>
thr ust</w>
correspon dence</w>
thi er</w>
sur render</w>
nutri tional</w>
vulner abilities</w>
K on
fin itely</w>
di g</w>
metr e</w>
Dis cipl
pun ishable</w>
Ma c</w>
ex pose</w>
al ise</w>
R ay</w>
im porting</w>
acceler ation</w>
the astern</w>
e u</w>
UNDA F</w>
PRES IDENT</w>
be ans</w>
quali fying</w>
Ro oms</w>
m our
inter dependence</w>
cro wn</w>
Organ ic</w>
where abouts</w>
confir ming</w>
ce ased</w>
Sup pli
f ame</w>
re forming</w>
Wor d</w>
M W</w>
rou s</w>
O ff</w>
twel fth</w>
symbol ic</w>
meth yl</w>
blo wn</w>
Christi ans</w>
Im proved</w>
1 31</w>
li kewise</w>
spon soring</w>
parti san</w>
con ception</w>
ver t</w>
con gress</w>
e fficacy</w>
ad mits</w>
dra in</w>
thou se</w>
righ tly</w>
dis e</w>
coun tless</w>
ar sen
construc ting</w>
atic s</w>
vari ations</w>
po etry</w>
compl ied</w>
boo ked</w>
a ments</w>
16 2</w>
hur ry</w>
be tra
Kim ber
ch asing</w>
ca sts</w>
b uc
Mor ning</w>
Descri ption</w>
Hal f</w>
pe destri
exc av
prosecu tions</w>
benefici ary</w>
Mad agas
L .</w>
lo go</w>
de mining</w>
senten cing</w>
et al</w>
comb ines</w>
neg atively</w>
co sme
Pro pos
annex ed</w>
optim um</w>
Nic hol
fic tion</w>
Rest aur
se in</w>
J ab
collec tions</w>
T el
Be yond</w>
p aste</w>
To y
2. 8</w>
Oreg on</w>
Spi rit</w>
Citiz ens</w>
parti tion</w>
tho od</w>
R U
UN S
Ini tial</w>
Web site</w>
CD M</w>
histor ically</w>
An na</w>
UN U</w>
S mo
H as
conduc ts</w>
Qing dao</w>
Dis play</w>
B ren
dead lock</w>
UNAM A</w>
D alian</w>
Pic ture</w>
wid ening</w>
sil k</w>
exemp tions</w>
J eff
com pression</w>
cohe sion</w>
A be</w>
bureauc r
T RA
a .
go vern</w>
O man</w>
illustr ate</w>
albe it</w>
cre ws</w>
Hon ourable</w>
rati fying</w>
est e
cooper atives</w>
ex agg
Min nes
practic ally</w>
5. 3</w>
Gold man</w>
par ity</w>
apologi ze</w>
in justice</w>
par atus</w>
Madagas car</w>
Col labor
mp h</w>
impe di
ji ha
An ne</w>
block ade</w>
H ass
f eng</w>
ridic ulous</w>
Cl oud</w>
ta res</w>
que en</w>
Tur n</w>
inte st
ate ur</w>
op i
tro it</w>
Tokel au</w>
Lead ers</w>
gar age</w>
o b</w>
hor ror</w>
ar ose</w>
mid fielder</w>
se af
contra diction</w>
R af
anim ation</w>
Yang t
gent le</w>
guil t</w>
stab bed</w>
doub les</w>
substanti ated</w>
ex hibitions</w>
On t
Bi o
Refuge e</w>
B y
vigor ous</w>
hospit ality</w>
deal ers</w>
Lin col
te am
Lu ke</w>
ma ster
tac tical</w>
ul ent</w>
F ast</w>
happ ily</w>
E p
F eng</w>
Presid ency</w>
kidn apping</w>
exp ired</w>
sc ales</w>
fl ame</w>
broad en</w>
program matic</w>
ci um</w>
k ar
13 9</w>
ham as</w>
J ilin</w>
sh y</w>
rec ourse</w>
h ments</w>
reti re</w>
bassad ors</w>
as cus</w>
Solom on</w>
Me di
Gir l</w>
Electr onics</w>
ten ants</w>
re pris
Super vision</w>
ath on</w>
bu g</w>
En ti
corro sion</w>
Sh ort</w>
ye i</w>
Se par
mus cles</w>
co aching</w>
Mach inery</w>
er i</w>
back log</w>
20 s</w>
popul ated</w>
po t
Fe b</w>
sched ules</w>
Minnes ota</w>
m ire</w>
trou blesho
negl ected</w>
com pos
De troit</w>
ta wa</w>
L CD</w>
inven tories</w>
vibr ant</w>
ron es</w>
men s</w>
id ad</w>
k ingdom</w>
in nings</w>
fle e</w>
ban ning</w>
al ter
2 35</w>
th ickness</w>
ble eding</w>
ele mentary</w>
bo xing</w>
hel pl
Prepar ation</w>
in effective</w>
Pro posed</w>
g us
AC C</w>
Direc tors</w>
th ou</w>
wor l
laugh ing</w>
Al ways</w>
an eous</w>
annex es</w>
Bi ble</w>
re actor</w>
cl ash</w>
sp ray</w>
out sourcing</w>
J ava</w>
res on
or able</w>
lo gs</w>
trans ferring</w>
p airs</w>
CO P.
lo vers</w>
celebr ating</w>
s wa
pris oned</w>
F ish</w>
&apos; The</w>
fle eing</w>
Fun ds</w>
le ak</w>
P N
Be ir
Gl en
Experi mental</w>
b ag
constra ined</w>
Tru ste
gar dens</w>
l t</w>
im minent</w>
bus h</w>
R ail</w>
ming ham</w>
1. 9</w>
J ia</w>
al o</w>
Y o
municip ality</w>
bri de</w>
Ab yei</w>
ab duction</w>
N ation</w>
B all
s atur
Hear t</w>
J en
si de
Satell ite</w>
stret ched</w>
hard est</w>
De tec
F ine</w>
res cent</w>
UNC DF</w>
Cra ig</w>
Tal k</w>
in sured</w>
en act</w>
Mar g
de pressed</w>
UN IS
Fir stly</w>
Re ferring</w>
Mour inho</w>
Mun ich</w>
plas ma</w>
contex ts</w>
con form</w>
Exc use</w>
cab in</w>
Ot tawa</w>
K har
re sign</w>
ris ky</w>
Wo od
Ba hamas</w>
heigh tened</w>
depen ded</w>
St resses</w>
S ay</w>
home town</w>
democr atization</w>
at ting</w>
C amp</w>
commen sur
Dam ascus</w>
astr onom
co existence</w>
acti vation</w>
Pati ents</w>
ass ing</w>
Qing hai</w>
pan demic</w>
Tru th</w>
rele asing</w>
cigaret te</w>
ro pe</w>
out going</w>
pi g</w>
instru mental</w>
wi e</w>
down loaded</w>
de an</w>
Ter ry</w>
Ji an
13 6</w>
quot e</w>
Fo cus</w>
C IS
at t</w>
oper ation
Kiv u</w>
ac ious</w>
En joy</w>
Impro vement</w>
se ating</w>
Hawai i</w>
man ned</w>
over lap</w>
micro finance</w>
F actors</w>
Uni versities</w>
col ours</w>
remin ds</w>
m ai
F lin
Avail able</w>
IT C</w>
d g
UN G</w>
al k
twe et</w>
tran si
Saf e</w>
loc als</w>
fac eted</w>
def er</w>
S ources</w>
ro m
re habil
pois oning</w>
ac company</w>
McC ain</w>
spac ecraft</w>
clic king</w>
ph ere</w>
inher ited</w>
Prom ote</w>
pu p
a qui
tem plates</w>
Challeng es</w>
Beir ut</w>
hec tares</w>
el o
B eg
un predictable</w>
sp y</w>
i ously</w>
str anger</w>
execu ting</w>
im prisoned</w>
K it
el son</w>
D od
l est</w>
decor ated</w>
Du ke</w>
meas urable</w>
J un
multi pl
X u
re building</w>
Ethiop ian</w>
kid ney</w>
hi d</w>
band width</w>
IB M</w>
fl ags</w>
cri tically</w>
it ude</w>
aud iting</w>
Mar co</w>
Relev ant</w>
Croati an</w>
p ants</w>
le an</w>
it y
Strate gies</w>
spe edy</w>
iz ar
amm ates</w>
adverti sement</w>
R S</w>
guar di
ur ations</w>
20 30</w>
rap porteurs</w>
K ansas</w>
pre clu
PR ST</w>
fac ial</w>
custom ized</w>
Int ellectual</w>
or chestr
N ag
&apos; We</w>
Israel is</w>
Ad vice</w>
Vin cent</w>
extrem ists</w>
Per f
a sive</w>
St ore</w>
s lowing</w>
Di am
the e</w>
incorpor ation</w>
standardi zation</w>
Ser ious</w>
N y
v ise</w>
n ail</w>
chi ps</w>
appe tite</w>
Ar thur</w>
Al ab
eni x</w>
Pear l</w>
yl an</w>
secret ariats</w>
Yangt ze</w>
es ome</w>
comp ile</w>
G ren
Electr ical</w>
utili zing</w>
U D
Labor atory</w>
Ju an</w>
Hel en</w>
C DC</w>
cur ious</w>
d well
G ao</w>
Il licit</w>
str ingent</w>
tak ings</w>
ang el</w>
ini um</w>
un reasonable</w>
3. 7</w>
ab normal</w>
bi otechnology</w>
B id
prioriti ze</w>
13 7</w>
e aten</w>
depend ency</w>
Im ag
erad icating</w>
the dr
et c.</w>
Y ellow</w>
Quar tet</w>
roc kets</w>
res in</w>
influ x</w>
pend able</w>
K ash
exha ust</w>
convinc ing</w>
Wh enever</w>
scen ic</w>
me tro
Bir mingham</w>
F res
14 4</w>
ater ally</w>
scop ic</w>
inde red</w>
Offic es</w>
petro l</w>
US CO</w>
Aber deen</w>
brea the</w>
certain ties</w>
bar gaining</w>
Gr and
alli ances</w>
declar ing</w>
repos itory</w>
n ut</w>
T su
ac ul
divi dend</w>
b aggage</w>
blu e
under way</w>
pream bular</w>
Ci v
sc attered</w>
Cre ating</w>
traffic ked</w>
announ cing</w>
detri mental</w>
HK SAR</w>
20 8</w>
real m</w>
h indered</w>
bra ins</w>
H o</w>
o va</w>
cla uses</w>
Com rade</w>
ex ert</w>
an ity</w>
al tered</w>
V it
P DF</w>
19 61</w>
SA DC</w>
Res ort</w>
cat ching</w>
Individu al</w>
MON USCO</w>
u re
pa res</w>
an no
Requi rements</w>
6 .1</w>
sel ls</w>
ed itorial</w>
Rom ney</w>
Stan ley</w>
ste aling</w>
remn ants</w>
fi ers</w>
Tele graph</w>
Ag ent</w>
pi x
fr action</w>
ca ve</w>
wor th
or dering</w>
Guar an
Naz i</w>
sli pped</w>
re venge</w>
dissemin ating</w>
det on
Par ts</w>
Oper ating</w>
Fisher ies</w>
Ont ario</w>
Des er
gu it
v owed</w>
te ammates</w>
m i</w>
n our
L ad
mer ged</w>
Bhut an</w>
k ou</w>
commensur ate</w>
ant ine</w>
4 9
un equal</w>
fr ank</w>
scre w</w>
atro cities</w>
add en
iz za</w>
shoc king</w>
modi fications</w>
d in</w>
less er</w>
introduc tory</w>
M O</w>
war mly</w>
Pre liminary</w>
chair manship</w>
moun tain
tur ally</w>
text books</w>
sle pt</w>
Dri ve</w>
Gra ham</w>
De ar</w>
travel ed</w>
dec eased</w>
U B</w>
Rac ism</w>
ev able</w>
Bo x</w>
or ate</w>
Dev ice</w>
in stantly</w>
summar izes</w>
A bo
Pap ua</w>
om er
estim ation</w>
Jo s
char ts</w>
c ables</w>
W ars</w>
ID F</w>
i ons</w>
complement arity</w>
at ri
Re habilitation</w>
bul l
ex em
crow ds</w>
ap est</w>
SO A</w>
aw ful</w>
The at
w rec
Co oper</w>
pro spective</w>
deplo ying</w>
yl ene</w>
check points</w>
bre aches</w>
un limited</w>
Hi m</w>
En forcement</w>
Docu ments</w>
simpli fy</w>
aud itors</w>
U su
Me dium</w>
H. E.</w>
bid den</w>
op ium</w>
e asing</w>
smil ing</w>
whe el
UR L</w>
D id
mass acre</w>
funda ment
I ron</w>
d ys
ble w</w>
W right</w>
as ka</w>
De an</w>
ret aining</w>
inj uring</w>
d le
re consider</w>
Ste wart</w>
rem ot
le ak
Writ ing</w>
campaign ing</w>
con voy</w>
but ter</w>
Glob alization</w>
Coll ection</w>
Ad voc
O L
r ors</w>
stic ks</w>
in ely</w>
sur faces</w>
re conn
t ally</w>
promo tional</w>
Jo b</w>
shi eld</w>
inter related</w>
trac ing</w>
forese eable</w>
fif teenth</w>
ans w
am ine</w>
shir ts</w>
ong yang</w>
Gu am</w>
dr ill</w>
Out look</w>
be st
re fund</w>
se a
en zy
franch ise</w>
swit ched</w>
AC E</w>
sust aining</w>
over head</w>
confisc ated</w>
S olution</w>
Kas ich</w>
Categ ory</w>
si ding</w>
Co ach</w>
C I
d ge
ethn icity</w>
counter part</w>
ra ins</w>
def ect</w>
ten ts</w>
fl esh</w>
pr iced</w>
neighbour hood</w>
ren dering</w>
&apos; S</w>
ne ural</w>
in cu
Vi sion</w>
di re</w>
amen ding</w>
Gi b
adden dum</w>
j am
Cri sis</w>
ter tiary</w>
s son</w>
Ham p
retri eve</w>
B us</w>
sever ity</w>
predic tability</w>
ren n
s ink</w>
y og
Xin jiang</w>
co in</w>
Shei kh</w>
R um
d row
w ells</w>
Pop ular</w>
D ay
s by</w>
s giving</w>
wast ed</w>
bel oved</w>
Wh ole</w>
sho e</w>
g i</w>
sign atories</w>
de rer</w>
Influ ence</w>
dic tionary</w>
dis coura
Mu ham
CR IC</w>
reconn aissance</w>
poin ter</w>
congrat ulations</w>
sc enery</w>
Comple te</w>
Col lec
An dro
4 50</w>
mess aging</w>
Ch an</w>
ot rop
vis u
T ian</w>
cre atures</w>
deal er</w>
wh olly</w>
lo gged</w>
co w</w>
F F</w>
am pli
Bel grade</w>
ill er</w>
U sed</w>
s ab
contra dictions</w>
Tra vel
H T
O L</w>
all er
Ac tive</w>
Val ent
Evi dence</w>
W an
nas tics</w>
an ce
2 25</w>
ex pendable</w>
1, 3
influ enza</w>
sc ram
li vely</w>
c atering</w>
Ar rang
subur bs</w>
an ed</w>
Z hi
speci fies</w>
segreg ation</w>
endang ered</w>
m useums</w>
car pet</w>
su preme</w>
6. 3</w>
19 68</w>
Cal cul
vi vi
Custom ers</w>
Austr alians</w>
Indi ans</w>
ensu ing</w>
M ak
mer chan
Ch ang</w>
P ay</w>
uc le
t ness</w>
contribu tors</w>
bul letin</w>
14 3</w>
P hi
lo ses</w>
D ele
UNO MI
16 3</w>
Requ est</w>
U ti
T ext</w>
chin ese</w>
est ly</w>
un ci
embo died</w>
N A
Maurit ania</w>
affir mative</w>
Fail ure</w>
5. 4</w>
fu ci
evol ve</w>
li ar</w>
H is
b ay</w>
Re ally</w>
tou ching</w>
bri bery</w>
sub jective</w>
el e</w>
conting ents</w>
astr onau
Alab ama</w>
condem nation</w>
cell aneous</w>
renn ial</w>
inten tional</w>
Sh an</w>
Marg aret</w>
L um
endeav ours</w>
arri ves</w>
Organiz ational</w>
synchron ization</w>
Tem per
P OR
ir rit
icon duc
moist ure</w>
st ore
Appro ximately</w>
mer ge</w>
congres sional</w>
g ateway</w>
B ail
ration ale</w>
S election</w>
re per
W ong</w>
coer cive</w>
direc tives</w>
as certain</w>
W arren</w>
to po
ter o
Sp ec
pre text</w>
Maxim um</w>
Se an</w>
ang el
Re views</w>
19 0</w>
ic y</w>
j o</w>
m old</w>
thodo x</w>
horri ble</w>
Comb ating</w>
in duction</w>
hor m
et ts</w>
D ub
corner stone</w>
Inst all
mercen aries</w>
CS T</w>
head lines</w>
sett ling</w>
im peri
Sol id
an ten
st ainless</w>
ov ascular</w>
ip ments</w>
s age</w>
em ma</w>
pip es</w>
ap paratus</w>
ol e
15 4</w>
B om
memb rane</w>
repl en
direc tive</w>
Part nerships</w>
her oes</w>
char m</w>
ach us
Alban ian</w>
Techn ological</w>
De sign
repar ation</w>
s ne
C astle</w>
ã o</w>
Py ongyang</w>
r ations</w>
UND OF</w>
Se tup</w>
trac ked</w>
fol ks</w>
J ak
C IA</w>
in c</w>
C ab
Reaffir ms</w>
unanim ous</w>
inde b
cas ual</w>
bo o</w>
stra ight
Cer tification</w>
embar ked</w>
st ack</w>
swe pt</w>
pro claimed</w>
men tia</w>
m ou
dig it</w>
1, 6
T ON</w>
T ong</w>
20 1</w>
aw k
Mar yland</w>
Control ler</w>
Pla za</w>
reg ener
B ell</w>
K w
D own</w>
il i</w>
N avi
thir teenth</w>
achus etts</w>
IA L</w>
week ends</w>
14 6</w>
ster ity</w>
tru sts</w>
Jos é</w>
az z</w>
gam bling</w>
A ge
F our
sau ce</w>
Trin idad</w>
schem a</w>
small est</w>
fric tion</w>
polic eman</w>
p ar</w>
Fif ty</w>
Ab ra
perpetr ated</w>
Li ang</w>
Dispu te</w>
Cap it
eful ness</w>
rec ti
pen al</w>
SAR S</w>
enric hed</w>
co oked</w>
eu tenant</w>
Respon sibility</w>
pat ents</w>
gri ev
po orer</w>
fai thful</w>
impl ied</w>
ag ging</w>
perpe tu
on set</w>
Re iter
gu ez</w>
be dro
v ou
Over view</w>
Mo ve</w>
B eng
vic inity</w>
sc rap
B am
Ex cept</w>
com bustion</w>
I bra
Conven tional</w>
Fun da
wo ods</w>
S anc
differenti ated</w>
Hav ana</w>
Moroc can</w>
At t
thedr al</w>
over l
C olo
config urations</w>
aud ited</w>
Sur ve
Par ker</w>
ko vic</w>
Mon aco</w>
an ism</w>
guar dian</w>
R ai
ra h</w>
ol ding</w>
r ants</w>
spir its</w>
s ar
Identi fication</w>
Erdo gan</w>
privileg ed</w>
un safe</w>
tab let</w>
fil ming</w>
Spe ed</w>
R .</w>
op es</w>
res et</w>
constra int</w>
i alism</w>
Mass achusetts</w>
wholes ale</w>
ch op
In side</w>
II .
atmo spheric</w>
enti c</w>
J enni
devast ated</w>
b other</w>
He av
H in
pl ace
clo ses</w>
adop ts</w>
whe els</w>
U I</w>
ot ted</w>
Tran spa
Lis a</w>
ter dam</w>
ric ket</w>
licen ses</w>
ic onic</w>
communic ating</w>
I MIS</w>
station ed</w>
T wel
dis c</w>
amen ities</w>
Invest ors</w>
Bru ce</w>
tic k</w>
i on
com promised</w>
impe ded</w>
Th ought</w>
Bo eing</w>
po lis
in filtr
b at</w>
ir regul
Con fuci
un certainties</w>
Pot ter</w>
behavi ors</w>
s add
magni fic
Deser tification</w>
Gu iding</w>
B P</w>
Sh in
3 5
Rot terdam</w>
E d</w>
pro ving</w>
D s</w>
Am nesty</w>
D ave</w>
De ut
S CO</w>
UNIT A</w>
M ORE</w>
ste ep</w>
l oride</w>
agre eing</w>
Den ver</w>
ear ne
far m
S ize</w>
19 45</w>
method ological</w>
ce ph
fac tion</w>
Car los</w>
E UR</w>
compli ant</w>
at i</w>
Ap p</w>
as k
Chair men</w>
Th or
K rem
it ating</w>
under gone</w>
concentr ations</w>
oper a</w>
in spect</w>
partic le</w>
le af
un wanted</w>
back ward</w>
ar ises</w>
Mo del
E ither</w>
E din
viol ates</w>
T ak
invo ke</w>
Cr yst
techn icians</w>
Thir ty</w>
tor ial</w>
neighb our</w>
UNAM I</w>
ship ments</w>
pen ed</w>
p assionate</w>
H ad</w>
Hu a</w>
Gol f</w>
Kimber ley</w>
Bor is</w>
p ine</w>
UN MO
demonstr ators</w>
Usu ally</w>
Hur ricane</w>
Up dated</w>
L R</w>
L ink</w>
Ch i</w>
ambi tions</w>
sha ft</w>
he tam
Christ opher</w>
tra des</w>
Ro dri
dupl icate</w>
ef t</w>
Sol ar</w>
G ates</w>
rigi d</w>
li zation</w>
tre m
peac efully</w>
Hu a
ap por
T ic
mi de</w>
bro ker</w>
UNAM SIL</w>
Gall ery</w>
tou m</w>
st aged</w>
boo sting</w>
vic ious</w>
traum atic</w>
clean sing</w>
T H</w>
Ch ung</w>
t len
strugg les</w>
Fem ale</w>
re wards</w>
repe al</w>
ten ham</w>
vi sions</w>
o ch
occa sional</w>
Dynam ic</w>
Aar on</w>
den ying</w>
ti que</w>
con qu
P ip
2 50,000</w>
metal lic</w>
Col or</w>
Paul o</w>
Ton ight</w>
au sterity</w>
Krem lin</w>
fo oting</w>
Speci fically</w>
hom eland</w>
Man age</w>
ar ching</w>
Expl oration</w>
tu b</w>
emp t</w>
2 11</w>
ti more</w>
Co al</w>
Thom pson</w>
I K
Meas u
y ant</w>
v ague</w>
gi o</w>
expedi tiously</w>
As set</w>
in visible</w>
P N</w>
4 5
16 6</w>
Bel i
A my</w>
UNF CCC</w>
y ar
min ster</w>
Blo om
Ex isting</w>
Me teorological</w>
pu r</w>
1, 5
pro min
H E
psychiat ric</w>
Princip al</w>
ra mp
infra red</w>
ta h</w>
scrat ch</w>
Ser b</w>
so ever</w>
13 25</w>
wo ke</w>
Os borne</w>
I van
bloo d
Man date</w>
scholar ships</w>
bre ath
tur bul
stimul ating</w>
bri ties</w>
Hu i</w>
E asy</w>
au x
abo ard</w>
W arri
gra bbed</w>
sun shine</w>
prud ent</w>
ham per</w>
recre ation</w>
medi ate</w>
am er
le ver
nom inal</w>
us able</w>
tic ism</w>
counter fe
C ash</w>
F ight</w>
2 48</w>
2 30</w>
sm en</w>
reb ounds</w>
syn the
regul ator</w>
en ligh
P in
rati os</w>
pre tend</w>
pre pares</w>
Edin burgh</w>
Mo on</w>
Q ing</w>
rol ler</w>
ab sur
inven ted</w>
S on</w>
C ell</w>
che er
champi onships</w>
tab lets</w>
b rick</w>
recur rence</w>
he al</w>
wh at
Config uration</w>
Sil ver</w>
Inspec tors</w>
17 5</w>
respon ds</w>
in fer
atten d
P A
stat ue</w>
he ed</w>
Proce dures</w>
Pho enix</w>
C av
em in
un resolved</w>
sub tle</w>
mid st</w>
Ex pan
imple ments</w>
T ab
ra des</w>
zo o</w>
Re stric
h ills</w>
Prac tices</w>
J ourn
perpetr ator</w>
depos ited</w>
earth quakes</w>
ent ail</w>
F IF
M um
Expres ses</w>
Compar ison</w>
Proble m</w>
H ills</w>
c av
Har d
par am
at ter</w>
ann ot
wat ches</w>
le thal</w>
invo ice</w>
pun c
par amount</w>
mi xing</w>
loc k
pro tracted</w>
e te</w>
dimin ished</w>
iz hou</w>
Age ing</w>
multi faceted</w>
Po si
L D</w>
reli eve</w>
clu t
H old</w>
gentle men</w>
ak h</w>
un willing</w>
profession alism</w>
W ere</w>
Theat re</w>
olo gic</w>
san itary</w>
anc ou
mort ar</w>
advoc ating</w>
co ok
C R</w>
reg ain</w>
Jiang xi</w>
dra inage</w>
par adi
M ail
Bal timore</w>
mis use</w>
conc ession</w>
[...]
