的 177677076
, 164861745
. 118030833
在 45621860
和 41614929
了 30688290
" 27454764
是 27309763
、 22951654
他 14922994
我 13660154
对 12427968
中 11873822
将 11379660
年 10989944
) 10898988
( 10860414
有 10227438
我们 10139705
一个 9743340
说 9666073
: 9631778
与 9295465
你 8846028
为 8594837
上 8291939
并 8170739
这 8078693
月 7722239
人 7526217
他们 7336994
也 7230407
不 7072704
但 6957479
到 6544657
问题 6489561
被 6338726
都 6127654
国家 6015728
就 5930555
她 5627777
· 5321952
日 5257175
以 5254222
没有 5177634
委员会 4861294
进行 4818350
- 4815183
这些 4779491
而 4726722
会 4723759
该 4714574
《 4686881
》 4686859
发展 4678655
工作 4658087
或 4654320
提供 4528419
其 4495044
还 4485980
/ 4451426
第 4374447
从 4310130
时 4269613
可以 4214925
? 4198172
它 4140034
可能 4097417
后 3798062
国际 3653022
会议 3607791
更 3545548
报告 3518223
地 3516490
美国 3500226
包括 3493208
通过 3481268
以及 3464524
政府 3423462
下 3403947
其他 3382966
; 3367029
所 3347263
向 3346182
中国 3302655
组织 3286174
新 3270228
情况 3254061
需要 3231528
经济 3198807
很 3172282
个 3162826
要 3162055
如果 3122690
关于 3079869
表示 3039643
所有 3018313
社会 3009247
已经 3002759
于 2912538
来 2895883
方面 2888068
认为 2880500
1 2829617
多 2767817
一些 2764041
这个 2749880
让 2742178
公司 2718208
联合国 2706084
— 2637246
活动 2632220
自己 2629293
特别 2613675
最 2598910
把 2564955
安全 2555594
等 2532746
因为 2500650
有关 2495551
可 2474994
3 2469545
机构 2440591
支持 2397515
必须 2380290
使用 2329409
给 2295496
影响 2245514
着 2241969
已 2240455
研究 2238940
2 2217106
使 2216140
做 2214924
开始 2199675
5 2161432
能 2146130
6 2140800
正在 2131021
要求 2130353
不是 2126609
及 2121385
项目 2116524
合作 2114099
重要 2112477
服务 2099303
前 2095368
建议 2092421
由 2092153
根据 2083555
4 2079400
里 2078498
执行 2067264
任何 2065818
10 2044936
妇女 2042559
方案 2040703
这种 2038440
作为 2032837
计划 2006845
提出 2003341
世界 1999643
现在 1991516
决定 1987682
继续 1978986
地区 1973924
好 1959330
技术 1949989
主要 1939501
行动 1930901
号 1904917
时间 1891281
内 1870781
7 1867221
目前 1843659
成为 1814248
系统 1809057
一 1797825
这一 1795309
比赛 1786861
发生 1785854
希望 1784862
应 1757152
获得 1752516
政策 1733885
岁 1712511
目标 1711129
管理 1707713
知道 1685809
区域 1684928
这是 1671374
信息 1671218
努力 1659785
想 1653758
因此 1651803
儿童 1651674
当 1643580
代表 1637079
其中 1635048
得到 1634852
什么 1629682
12 1622256
这样 1611607
去 1608920
市场 1607350
您 1607115
之间 1598834
举行 1598293
法律 1596129
决议 1592170
人权 1587722
大 1557096
们 1548302
加强 1543291
能力 1540834
增加 1532652
保护 1531877
许多 1528545
先生 1522010
8 1507789
由于 1503723
规定 1485588
者 1481187
人员 1476918
9 1475752
建立 1470699
实现 1464654
确保 1457400
就是 1455047
名 1442653
采取 1437043
企业 1421480
一种 1421385
促进 1419014
11 1408527
本 1400692
生活 1395704
调查 1391597
能够 1389751
全球 1381063
比 1368442
但是 1365540
措施 1360096
用 1359405
方式 1358436
非常 1354086
英国 1351838
政治 1345501
应该 1345277
同时 1344664
和平 1338832
发现 1338684
环境 1314173
期间 1311622
大会 1310874
总统 1306803
理事会 1305154
教育 1304326
权利 1300611
最后 1295827
主席 1283205
参加 1282995
地方 1279399
领域 1270506
帮助 1268138
中心 1267446
行为 1266149
各 1257635
不同 1241109
解决 1240535
吗 1240054
出现 1233895
过 1230715
成员 1230275
又 1228058
考虑 1227330
时候 1226951
一直 1226738
为了 1216430
不会 1213879
那 1206842
至 1204361
指出 1203470
一项 1202580
一次 1200998
接受 1199773
得 1191760
公约 1190152
数据 1188297
选择 1187515
方法 1185529
关系 1178054
请 1171364
资源 1169566
! 1169060
看到 1168733
两个 1165462
持续 1164700
投资 1161473
注意 1157993
如何 1153436
提高 1153329
据 1152606
人们 1150050
参与 1146169
它们 1143659
20 1130033
作用 1129315
机会 1129297
处理 1124494
讨论 1121902
相关 1117845
记者 1110166
提交 1108192
不能 1107658
文件 1103276
进一步 1097630
队 1097234
而且 1093387
今年 1092059
对于 1090281
部门 1089871
之一 1086721
出 1078759
是否 1076138
尽管 1071762
文化 1069528
建设 1066177
结果 1064335
取得 1061630
实施 1054347
部分 1050781
像 1047398
来自 1045365
产品 1045108
有效 1040128
造成 1039816
大@@ 1037267
存在 1030514
过去 1024016
性 1020618
人民 1019622
然而 1014298
基金 1012762
确定 1011397
一名 1010336
以来 1010195
之前 1010111
虽然 1007894
受到 1004714
显示 1001648
孩子 997867
条 996004
称 994506
战略 994156
开展 989959
30 989676
城市 988667
分析 984985
审查 982088
一@@ 980399
过程 979062
之后 976826
作出 974188
结束 968634
任务 968232
增长 962098
减少 961825
具有 957641
告诉 955421
一起 949882
进入 948769
完成 944976
援助 934375
事件 929974
则 928634
原因 926971
高 924802
了解 923514
欧洲 922476
15 921760
最大 919390
仍然 917502
小组 913293
报道 909931
家庭 908546
很多 904652
产生 901593
利用 901457
程序 900812
基础 897888
今天 893591
然后 887809
严重 884794
点 881077
控制 879536
制定 879348
a 873749
来说 873282
还是 870953
那些 870366
一样 868449
无法 867767
仍 866979
此外 864158
及其 860066
还有 854386
强调 854035
只 853047
未来 851750
专家 850043
最近 849381
草案 847749
段 847053
各国 846582
另 843224
秘书长 841137
这里 839504
工作人员 839459
缔约国 836961
不过 836025
资金 835221
目的 832172
标准 830278
国 827263
不@@ 825792
只是 821367
成功 819699
全国 815333
美元 814284
导致 814110
代表团 813380
拥有 813104
协调 809394
自 806696
设计 805866
生产 805265
改革 799780
分 797922
进程 794222
意见 793841
B@@ 791367
制度 790718
非洲 788393
约 785922
范围 782842
各种 782711
只有 782113
看 781887
区 781829
人口 781729
选举 781599
次 781439
所以 780806
培训 777890
机制 775903
挑战 774536
中@@ 773982
学生 766786
表明 766526
官员 766070
特朗普 765556
评估 763478
准备 760245
这项 759026
关注 758359
小 754634
学校 753938
审议 753486
每个 753004
因 750566
介绍 750278
事情 749874
即 749649
健康 746018
整个 745438
再 745060
承诺 744380
用于 744020
共同 740721
2008 738799
完全 738560
银行 735105
个人 733906
负责 733853
起 732908
说明 732441
网络 730209
一份 728719
家 728129
条件 726811
全面 725279
感到 725270
资料 723029
日本 722268
费用 721396
社区 720541
法院 719241
S@@ 718435
大学 717029
面临 716874
责任 713707
稳定 712792
法 712023
直接 710120
风险 708245
保持 704160
一位 701467
历史 700499
却 700230
间 697736
小@@ 697255
北京 694422
受 693846
一切 692339
走 691966
俄罗斯 691860
业务 691019
国内 690805
带来 690756
如 690715
必要 688573
C@@ 688246
媒体 688058
14 687962
才 685529
18 685087
例如 684291
死亡 683715
当地 682852
市 682216
曾 676960
改变 676927
原则 676691
超过 676476
积极 676283
喜欢 673684
贸易 672891
办公室 672692
去年 670817
运动 670165
预算 669993
16 669653
那么 669476
以便 669030
内容 667799
e 663987
随着 663575
集团 663445
13 662332
警察 662165
或者 661682
协议 661241
似乎 660023
具体 659787
基本 656404
较 655826
联系 654921
并且 653042
达到 652464
此 651215
不断 650597
东西 650547
宣布 649992
支助 649162
事 647087
涉及 645581
伊拉克 644387
外 644176
M@@ 644064
认识 642554
水平 641712
进展 641143
那里 640165
需求 640032
设备 638583
最终 637937
2010 636043
' 635569
访问 635125
同样 632806
重新 631462
适当 631183
案件 631082
甚至 629264
2012 628152
同 626697
变化 626052
欧盟 625833
利益 624500
平等 622865
改善 622651
2009 621119
s 620389
2007 619491
冲突 619165
当局 619077
价格 616794
小时 615381
2011 614198
需 612476
一点 611984
警方 611311
这次 608905
起来 608024
自由 606964
我国 606953
A 605777
领导 605723
应用 603003
发展中国家 602835
25 601094
G@@ 600911
21 599753
更加 599501
广泛 598806
事务 598506
承认 597765
真正 593427
2006 593274
框架 591105
办法 590573
形式 589497
每 588957
17 588289
条约 588114
部队 587788
按照 587749
T@@ 586860
水 586715
做法 586426
吧 586019
车 585805
2005 585372
一部分 584342
威胁 583383
表现 583219
特派团 583023
之 582434
因素 582127
P@@ 580533
欢迎 578433
开发 577372
相信 576953
正 576250
用户 574678
这方面 574075
网站 573039
离开 571911
推动 570088
发挥 569674
维持 569349
朋友 568701
多@@ 568188
设立 567817
结构 566859
鼓励 565726
一定 565496
价值 565357
L@@ 565236
发表 563858
呼吁 563516
当时 563241
H@@ 562846
站 562670
安排 562382
新闻 562175
充分 562150
马@@ 561672
发言 561358
德 561083
D@@ 560522
几个 559245
程度 558811
允许 557826
同意 557434
24 557419
19 556846
独立 556416
2000 556391
法国 555272
交易 554943
司法 553676
最好 551161
犯罪 551119
非 550488
秘书处 548883
你们 548480
收入 547496
几乎 547071
长期 546863
重点 546754
扩大 546746
以下 546450
预计 545658
限制 543772
恢复 541668
部 541506
找到 541066
斯 540901
加入 540824
香港 539821
汽车 538101
经验 537609
三@@ 535071
谈判 533666
暴力 532718
未 531177
做出 530429
至少 529821
打击 528928
亿美元 528434
如此 528404
袭击 528382
针对 528154
一年 527756
客户 526679
声明 526282
女士 523642
带 522798
拉@@ 522762
学习 522104
阿@@ 521885
以色列 521875
酒店 521010
监测 518810
50 518719
2004 518233
尤其 517426
传统 516550
大多数 516052
更好 515822
德国 513985
e@@ 513378
达 512357
试图 512040
行政 511371
联合 511305
空间 511162
子 510756
双方 510553
批准 510062
R@@ 509358
N@@ 509345
越来越 508464
采用 508340
22 507887
记录 507304
大量 506841
解释 506668
工作组 504390
协助 503868
不仅 503787
关切 503290
支付 503024
武器 502741
球员 502565
应当 501288
咨询 500808
再次 500614
占 499881
治疗 499485
行业 499426
A@@ 499073
该国 498731
期 498650
关键 498151
男子 496736
保证 496567
正式 494978
专业 493384
F@@ 492840
消除 491614
战争 489678
人类 489063
医院 488815
打 486553
危机 485643
指控 485504
23 485015
钱 484610
两年 484071
电影 483750
重大 483066
一般 482806
高@@ 480663
三个 480367
州 480269
很大 480180
呢 480103
性别 479757
无@@ 479150
觉得 479078
领导人 478822
反对 478670
路 478531
现有 478393
质量 478122
K@@ 477380
成 477011
实际 476654
场 476323
米 476177
以上 476043
某些 475858
适用 475669
人数 475054
奥运会 474550
立法 474056
下降 472113
见 471459
新@@ 471282
成立 471282
意味着 471240
西@@ 470283
创造 470276
为什么 470089
出来 469952
谁 469885
义务 469624
补充 469170
地位 468406
规则 468341
人士 467453
天 467339
上@@ 466757
科学 466566
除了 464634
球队 464534
明确 464486
当然 464250
唯一 462291
有人 461955
经常 461672
世纪 457982
拒绝 457068
证明 456947
伦敦 456791
优先 456084
女性 454964
一家 454948
困难 454515
这位 454387
阶段 454080
巨大 453226
内部 453083
数量 453047
收到 452657
状况 452159
比较 451822
从而 451100
对话 450681
副 450054
31 450013
款 449851
议会 448458
成本 448340
消息 447835
监督 447049
评价 446678
住 446620
有些 446516
保障 446386
会员国 446165
化 446102
模式 445834
军事 445113
即使 444573
销售 444263
不要 444143
明显 443730
通常 443664
最高 442506
公众 441618
2013 441564
作 441359
万美元 441111
一场 441000
附近 440920
按 440413
另外 439418
议程 439244
数字 438907
联盟 438859
成果 438720
投票 438454
第一次 438332
调整 438036
发布 437853
印度 437833
缺乏 437804
规划 436986
材料 435876
防止 435829
澳大利亚 435389
综合 434851
压力 434832
办事处 434702
首先 433086
每年 432115
感觉 431009
均 430825
危险 430705
担任 430379
爱 429231
27 429113
道 427949
随后 427151
检查 426880
容易 426733
意义 426669
事项 426474
法官 426370
功能 425373
反映 425284
26 424947
特 424628
100 424276
两@@ 424052
移民 424009
的话 423419
设施 422515
基于 421869
方 421732
难民 420874
就业 420794
真的 420511
低 419956
法庭 419891
28 419836
赢得 419646
局 419625
满足 419447
受害者 419340
年代 419284
论坛 418874
类 418457
应对 418071
公民 417351
指导 416259
大约 415466
恐怖主义 414831
近 414324
卡 414213
德@@ 413965
y@@ 413946
头 413694
土地 412808
没 412327
那样 411181
迅速 410944
长 410855
工具 410718
40 410491
那个 410009
协会 409882
有助于 409775
歧视 409643
处 408396
分钟 408223
符合 407674
克 406865
最新 406680
测试 404416
禁止 403446
各项 403389
合同 402890
水@@ 402859
第一 402836
奥巴马 402350
令人 402064
经过 401270
才能 401031
农业 400776
s@@ 400748
卡@@ 400099
公布 400022
人@@ 399726
发言人 399254
位 398604
利 397931
线 397507
E@@ 397014
公共 396921
精神 396526
项 395854
引起 395709
万 395461
举办 395369
缔约方 394717
律师 394600
达成 394462
公开 394094
工业 393924
权 393238
斯@@ 393197
日至 393152
球 393020
证据 392360
寻求 392288
协定 391833
权力 390665
财政 390653
良好 390602
交流 390462
位于 390292
电话 390227
下午 390040
仅 389660
状态 389270
纽约 388942
亚洲 388650
形成 386846
组成 386569
位置 386062
理解 386055
W@@ 386012
故事 384974
居民 384803
医疗 384562
2003 384411
手 384318
俱乐部 383935
照片 383660
非政府 383288
在内 381648
经 381477
海@@ 380541
特@@ 380220
错误 379971
现场 379408
金@@ 379100
单位 378132
工程 377177
总 376102
首次 376060
60 376009
处于 375127
拉 374804
阿富汗 374326
有@@ 374225
民主 372463
商业 372313
请求 372070
训练 371658
母亲 371209
安理会 371051
旅游 370935
一系列 370553
核心 370417
元 369983
29 369969
式 369743
2014 369624
an@@ 369537
申请 369440
2015 369320
最佳 369298
团体 369280
非法 369049
变得 368852
农村 368586
资产 368386
J@@ 366656
金 366462
医生 366201
创新 366201
担心 366167
er@@ 365683
力量 365106
评论 364993
愿意 364806
议员 364278
大部分 364246
以前 364011
县 363949
金融 363696
能源 363266
之@@ 363221
一天 362925
正确 362470
a@@ 362363
上述 362336
这么 362240
死 362007
出口 361815
今后 361190
改进 360732
履行 360250
2002 360176
竞争 360038
坚持 359884
第一个 359631
大家 359581
部长 359379
知识 358946
贡献 358612
损失 357844
也许 357840
旨在 357654
而是 357526
罗@@ 357020
优势 356571
避免 356189
加拿大 355950
女孩 355808
类似 355567
相当 354690
吃 354464
全部 353812
组 353508
条款 353440
纳入 352809
购买 351693
主任 350738
普遍 350708
反应 350572
太 350257
设置 350248
2001 349905
马 349578
预防 349470
宣传 349330
i 349140
多年 348801
父亲 348635
主题 348192
确认 348150
山 348082
经历 348071
违反 347559
人道主义 347164
提到 346877
当前 346686
采访 346559
群体 345853
1999 345281
宪法 344428
飞机 344095
道路 343867
尊重 343276
花 343268
意识 342415
行 341995
事实 341749
生命 341269
临时 340818
al@@ 340687
运行 340055
率 340026
理由 339944
破坏 339902
第二 339563
现象 339384
总理 339000
机 338816
维护 338610
成员国 338492
t@@ 338320
伊朗 337710
上海 337621
冠军 337610
分别 337431
b 337156
叙利亚 336783
o@@ 336249
报告员 335918
地点 335839
年度 335433
型 334885
失去 334824
跟 334207
上升 334084
下@@ 333968
南@@ 333668
报 333487
给予 333338
网 332294
工人 331987
开放 331844
尼 331797
发出 331676
创建 331635
候选人 331186
降低 331132
类型 330695
王@@ 330400
观点 330311
门 330285
国@@ 329857
制造 329608
自@@ 329553
通知 328908
重申 328715
er 328439
万@@ 328377
伙伴关系 328267
确实 328137
足够 328065
审计 327709
简单 327657
问 327461
速度 327279
科 326486
身份 326403
厅 325582
显然 325500
加@@ 325282
疾病 325206
部署 324898
n@@ 324536
听 324488
4@@ 324299
年轻 323802
语言 323702
清楚 323469
视频 323273
儿子 323058
多个 322998
规模 322697
高级 322608
签署 322606
巴@@ 322485
西 321936
伙伴 321797
而言 320807
辩论 320547
外国 320496
格 320490
机场 320114
立即 319068
父母 318932
开@@ 318787
意大利 318522
手段 318194
肯定 318123
一致 317565
协商 317048
往往 316864
预期 316746
受伤 316712
保留 316618
李@@ 316096
in@@ 315827
无 315376
每天 315249
晚上 315160
o 315030
en@@ 315003
科@@ 315003
联邦 314985
遵守 314954
拘留 314887
总是 314810
游戏 314411
张@@ 313934
步骤 313596
成绩 313007
省 312924
i@@ 312696
f@@ 312464
宗教 312279
启动 312186
青年 311496
k@@ 311266
哈@@ 311056
巴勒斯坦 310940
属于 310808
估计 310787
英语 310721
基础设施 310311
时代 310087
统计 310082
侵犯 309628
台湾 309539
对@@ 309247
回到 309003
怎么 308915
长@@ 308561
事实上 308560
预测 308400
收集 308076
安@@ 308030
接触 307718
消费者 307664
el@@ 306598
停止 305748
y 305480
民间 305068
背景 305064
之外 304894
定期 304046
表 303928
这场 303787
b@@ 303564
投资者 303558
天@@ 302705
特殊 302661
前往 302593
理论 302096
老@@ 301717
建筑 301687
放在 301347
竞选 300426
她们 300068
趋势 299938
局势 299657
公平 299105
进 298873
g@@ 298872
纳 298477
p@@ 298114
本身 298063
5@@ 297979
th@@ 296959
d 296919
实际上 296638
量 296609
C 296180
团队 295754
打@@ 295746
V@@ 295573
角色 295523
身体 293983
经营 293830
利@@ 293631
奥@@ 293532
职业 293458
即将 293442
左右 293413
召开 293338
首席 293234
四@@ 293111
城 292796
直到 292029
员工 291817
级 291760
课程 291455
面对 291229
反 291140
发达国家 291055
选手 290190
想要 290180
为此 289976
吸引 289728
攻击 289526
军队 289526
构成 289518
分@@ 289286
西班牙 289113
正常 288889
时期 288271
尚未 287965
私人 287905
计算 287781
体系 287728
指定 287670
操作 287659
药物 287507
比例 287447
on@@ 287443
十分 287412
倡议 287399
上午 287340
对此 287175
基金会 286933
平均 286881
运作 286861
贷款 286378
方向 286375
是因为 286140
O@@ 285695
石油 285633
态度 285582
领土 285191
地@@ 284565
伊@@ 284386
负责人 284145
心@@ 284081
连接 283696
除 283460
增强 283295
克林顿 283067
某 282971
免费 282767
音乐 282714
力 282628
透露 282597
称为 281834
统一 281794
写 281743
寻找 281665
一条 281604
附件 281494
家人 281357
感谢 281156
正如 281025
月份 280768
保健 280757
效果 280741
截至 280740
土耳其 280583
结论 280451
本@@ 280371
安装 280322
复杂 280189
集中 279614
生 278849
出@@ 278760
不到 278585
m@@ 278003
立场 277851
派 277736
指标 277662
心 277660
后来 277651
警告 277395
专门 277330
关闭 277242
从事 277122
d@@ 277056
胜利 276946
平衡 276912
发@@ 276902
平台 276774
议定书 276490
拿 276259
快 276238
定义 276139
学院 275940
党 275846
自然 275790
只要 274997
监管 274799
千年 274707
器 274631
想法 274627
应用程序 274604
永远 274294
支出 274286
c@@ 274043
生物 273971
苏格兰 273776
1998 273757
科技 273750
快速 273724
食品 273673
共和党 273664
贫穷 273494
台 273434
重要性 273406
基地 273330
7@@ 272991
敦促 272925
毒品 272909
图 272575
萨@@ 272495
一下 272395
塔 272039
品牌 271931
视为 271772
住房 271606
可@@ 271147
实行 270952
概念 270849
团 270809
妻子 270768
森 270265
文 270247
分享 269510
债务 269489
找 269218
授权 268922
尔 268841
二 268757
详细 268578
通信 268559
更新 268525
欧洲联盟 268478
高兴 268086
承担 268015
艺术 267934
分配 267610
c 267600
文@@ 267581
运动员 267367
2016 267047
总部 266900
享受 266294
韩国 265930
至关重要 265660
落实 265478
邀请 265325
大规模 265252
鉴于 265134
土著 264743
体育 264732
「 264594
发 264558
节 264517
股 264500
南 264498
6@@ 264363
度 263939
产业 263594
修改 263208
刑事 263177
全@@ 262798
亚@@ 262797
取消 262771
岛 262542
移动 262451
林 262420
及时 262390
卫生 262149
来源 262011
h@@ 261621
女 261473
武装 261263
两 261189
员额 260177
w@@ 259952
各方 259863
食物 259858
批评 259816
白@@ 259792
相对 259716
现实 259488
很快 259464
描述 259445
名字 259091
买 259066
奇 258893
值 258892
三 258489
日期 258391
二@@ 257967
审判 257670
患者 257436
啊 256952
法案 256832
前@@ 256569
编写 256200
包含 256070
数 256013
美@@ 255718
所述 255270
经费 255159
曾经 255079
转移 254899
其它 254680
跑 254650
巴西 254572
投入 254503
听到 254459
运输 254443
未能 254205
致力于 254161
内@@ 254116
车辆 254055
年龄 253974
失败 253716
雷@@ 253551
200 253542
特定 253530
加 253371
旅行 253351
现代 253319
电视 253299
传播 253144
不再 253007
障碍 252988
相比 252915
节目 252839
可能性 252785
8@@ 252529
回答 252518
B 252447
消费 252026
声称 251725
t 251720
重@@ 251594
任命 251250
35 250784
官方 250711
提议 250078
信 249965
遭受 249105
法@@ 249053
动物 248977
民主党 248690
证实 248643
学 248636
出席 248610
强 248578
外@@ 248522
公园 248520
两名 248478
几年 248328
实体 248066
80 247978
面 247858
纳@@ 247790
克@@ 247790
下来 247653
制作 247263
华盛顿 246806
遇到 246634
书 246303
与此同时 246267
电子 246210
只能 245904
条例 245776
对象 245537
办 245368
姆 245097
员 244863
巴基斯坦 244602
展示 244190
推进 244165
ar@@ 243678
观众 243414
贩运 243392
开 243304
叫 243150
l@@ 243149
赛季 242748
名单 242691
声音 242517
女儿 242300
日@@ 241962
夫 241846
以后 241757
无论 241681
推出 241353
女人 240989
此前 240899
返回 240874
一旦 240732
村 240677
登记 240347
足球 240128
商品 239346
不可 239312
维@@ 239128
令 238659
70 238650
最初 238550
期待 238362
阻止 238261
五@@ 238207
监狱 237807
领先 237659
打算 237482
探讨 237474
性质 237367
> 237058
享有 236941
遭到 236878
选民 236595
职位 236557
效率 236425
放弃 236320
民族 236297
案 236149
顾问 235916
职能 235761
有时 235635
各地 235551
赛 235426
损害 235411
看起来 235255
接近 234939
业 234938
伊斯兰 234907
既 234750
at@@ 234650
重视 234646
软件 234411
连续 234224
森林 234104
不得不 233629
墨西哥 233557
0 233395
将会 233279
布 233278
境内 233248
资本 233061
一级 233045
平民 232684
特点 232655
000 232621
博@@ 232475
适应 232385
财务 232339
re@@ 232328
手机 232306
罪行 232230
资格 232169
同@@ 231877
我会 231711
计算机 231621
展开 231565
财产 231414
< 231334
两人 231314
且 231081
上诉 231046
提升 230592
ri@@ 230391
指 230274
潜在 230142
90 229953
约翰 229742
多少 229484
列入 229380
值得 229313
宣言 228997
美 228978
准则 228608
信任 228492
起诉 228457
来到 228117
本国 228093
结合 228089
陈@@ 228067
UNK 227858
梅@@ 227728
事故 227699
东@@ 227624
45 227589
思想 227549
生@@ 227364
u@@ 227288
举措 227280
房子 227147
广告 226683
进步 226544
罗 226367
费 226266
体 226144
不足 226106
气候变化 226098
中央 226089
看看 226054
群众 225966
S 225906
顿 225792
风@@ 225610
山@@ 225605
后@@ 225581
教授 225313
or@@ 225184
来看 225102
怀疑 225037
迪 224861
检察官 224722
共 224269
相同 223791
回应 223786
9@@ 223659
解决方案 223509
相反 223460
供应 223438
打开 223334
沙@@ 223245
这@@ 222803
额外 222427
伤害 222372
尼@@ 222371
I@@ 222189
红@@ 222142
配置 221907
成@@ 221710
500 221663
达@@ 221576
32 221510
管制 221339
十年 221237
逮捕 221116
模型 220998
决策 220947
信心 220791
it@@ 220681
此次 220549
对手 220386
入 220372
紧急 220311
答复 219921
林@@ 219792
公里 219664
贫困 219620
表达 219412
首都 219204
日益 219171
艾滋病 219076
花@@ 218910
身上 218704
恩 218685
诉讼 218393
距离 218158
苏丹 218114
著名 217917
军 217893
普@@ 217819
伊 217671
指数 217353
亚 217196
北@@ 217132
有限 217097
修订 216976
布@@ 216755
刘@@ 216486
残疾人 216165
服务器 216164
当天 215821
房间 215633
基@@ 215519
研究所 215473
大型 215228
光 214878
此类 214840
男人 214790
比@@ 214553
有所 214517
全 214471
十@@ 214446
制订 214121
少数 214042
回顾 213843
安 213824
时@@ 213725
观察 213629
驻 213608
黄@@ 213509
有限公司 213361
基 213261
公正 213217
数据库 213072
互联网 213027
气 212907
E 212787
采取行动 212285
河 212104
资助 212098
不少 212052
强大 211924
回来 211769
万元 211703
在于 211607
中国@@ 211397
门@@ 211388
ad@@ 211283
交通 211033
es@@ 210919
作品 210792
战斗 210648
赔偿 210465
主@@ 210447
便 210276
第三 210273
朝鲜 210258
强烈 210252
两次 210141
采购 209798
尔@@ 209748
紧张 209651
近年来 209619
昨天 209472
上涨 209355
比如 209095
游客 208957
热@@ 208824
伟大 208615
里@@ 208610
r@@ 207713
讲话 207440
抗议 207433
引发 207324
尝试 207084
周围 206882
各级 206873
埃及 206815
回 206784
an 206649
教师 206584
is@@ 206339
国会 206102
本文 206095
更大 205967
z@@ 205864
高度 205676
罪 205641
as@@ 205595
我要 205541
系列 205504
有权 205457
争议 205080
看法 205071
市民 205039
事业 205028
n 204987
货币 204909
话 204892
命令 204865
博士 204807
年底 204739
时刻 204643
海洋 204569
和@@ 204490
账户 204477
ch@@ 204366
文章 204275
车@@ 204201
提案 204037
1997 203681
而@@ 203659
诺 203564
相@@ 203483
种 203457
等待 203387
le@@ 203354
莫@@ 203318
自动 203310
欧元 203252
释放 203164
规范 203159
决赛 203141
过@@ 203111
若干 203107
老 203069
制裁 203053
适合 203049
技能 203007
严格 202776
es 202745
D 202330
全世界 202321
主管 202181
整体 202121
口 201987
供 201943
四个 201895
拟议 201828
am@@ 201769
南部 201674
华@@ 201592
下列 201581
使得 201527
差距 201493
曼 201461
丰富 201416
如@@ 201043
扩散 200995
前景 200910
加快 200834
少 200530
治理 200390
依然 200379
苏@@ 200283
司机 200247
行动计划 200204
这名 200013
反@@ 199951
] 199843
p 199838
以@@ 199785
掉 199670
店 199477
检测 199334
几天 199256
合理 199069
物质 199036
北部 198903
[ 198743
居住 198675
核 198495
片 198470
天气 198465
痛苦 198370
变成 198206
后果 198151
几@@ 198107
地球 198072
兰 197983
平 197605
民众 197416
一张 197369
病 197267
留下 197139
重建 197109
西方 196984
关心 196914
价 196892
瓦@@ 196844
票 196811
国际法 196598
正是 196062
帕@@ 195897
一半 195874
其实 195720
突出 195598
吉@@ 195562
英镑 195538
不想 195495
根本 195460
巴黎 195376
地震 195364
男性 195312
皮@@ 195165
总体 195122
古@@ 195040
署 194975
出生 194908
男孩 194614
士兵 194612
首@@ 194138
后续 193950
实践 193866
格@@ 193745
版本 193625
al 193619
谈到 193614
核武器 193569
穿 193510
拍摄 193451
出售 193164
St@@ 193008
商定 192864
流 192767
艾滋病毒 192701
转@@ 192605
获取 192462
热 192441
正@@ 192254
1995 192235
34 192227
塔@@ 192085
电脑 192020
写道 191614
f 191483
难 191455
巴 191439
延长 191258
亿元 191239
首脑会议 191174
当@@ 191095
一件 190993
手@@ 190926
总@@ 190797
36 190747
下跌 190611
头@@ 190492
双@@ 190328
物 190312
洛@@ 190027
福利 190008
其他人 189966
斗争 189964
策略 189786
v@@ 189781
家@@ 189743
性能 189609
女子 189606
联赛 189406
有着 189385
单@@ 189383
迪@@ 189277
指责 189265
感 189108
3@@ 189079
保险 189063
粮食 188911
镇 188905
现金 188844
初步 188554
领袖 188494
六@@ 188476
中东 188168
妈妈 188075
百@@ 188066
33 187856
很少 187804
多边 187754
上周 187385
到达 187219
远 187155
得@@ 187138
爆炸 187092
周一 187053
成就 186884
制 186771
庆祝 186733
绝对 186314
试验 186255
回@@ 186083
兴趣 186051
完善 186033
别人 185990
越 185901
球迷 185845
政党 185758
黑@@ 185742
大陆 185584
讲 185323
埃@@ 184917
工资 184694
室 184610
火@@ 184402
组合 184401
非@@ 184305
阿 184242
角度 184216
图片 184169
光@@ 184166
我@@ 184157
从@@ 183922
利率 183737
语 183502
300 183371
贝@@ 183369
st@@ 183077
细节 182597
所谓 182523
会谈 182406
以外 182290
张 181782
48 181586
人物 181535
有点 181477
界 181437
占领 181378
争取 181308
说法 181275
最低 181246
网上 181163
1996 181092
取决于 181001
面前 180701
删除 180510
突然 180410
65 180292
il@@ 180282
ed@@ 180280
第二次 180196
奥运 180069
战 180058
板 180025
丈夫 179853
明@@ 179766
阿拉伯 179652
主义 179594
18@@ 179550
平@@ 179461
依据 179447
年轻人 179344
1.@@ 179210
名称 179135
执法 179117
日电 178980
添加 178957
坐在 178906
还要 178793
好处 178562
编辑 178561
波@@ 178500
科学家 178487
本周 178172
形象 178001
提醒 177991
鲁@@ 177906
周日 177897
两国 177868
古巴 177826
华 177650
电@@ 177290
磋商 177288
每@@ 177077
流动 177010
做好 176804
削减 176694
分子 176538
皮 176284
经理 176237
表演 176127
早 176102
大幅 176069
裁决 175923
明年 175833
房 175603
心理 175595
风 175591
西部 175553
建造 175542
那@@ 175453
版 175309
莱@@ 175212
on 175107
ro@@ 175105
勒 175059
体现 175023
ab@@ 174934
当选 174816
先 174738
编制 174704
与会者 174700
体制 174644
亿 174604
龙 174565
股票 174466
感染 174453
白宫 174420
55 174222
船 174177
in 174170
周末 174130
索赔 174116
干预 174111
司 174027
为期 174009
件 173952
声 173858
有利于 173847
杯 173772
工厂 173660
早期 173550
普通 173455
本届 173444
1@@ 173353
送 173259
如今 173195
做到 172892
列 172699
之中 172586
业绩 172438
2@@ 172428
港 172285
标志 172204
库 172100
青少年 171832
波 171779
自身 171751
P 171545
清@@ 171475
留在 171467
周@@ 171463
时说 171400
年@@ 171224
海 171210
边界 171126
这份 171094
托 171053
失踪 171049
ic@@ 171023
周三 170901
一辆 170889
其@@ 170873
外部 170797
捐款 170741
认真 170641
奖 170613
集体 170604
38 170481
进口 170312
文书 170249
起@@ 170135
电子邮件 170009
英格兰 169850
塞@@ 169804
酷刑 169780
并非 169767
入@@ 169760
多次 169669
en 169664
U@@ 169545
来@@ 169001
如下 168945
相互 168789
糟糕 168764
蒂 168666
虐待 168628
提名 168535
委会 168507
杂志 168471
过渡 168464
黎巴嫩 168275
用来 168187
动力 168128
污染 168021
不得 167895
非正式 167698
加上 167636
空@@ 167628
周二 167625
荷兰 167544
万人 167240
普 167160
边 167155
雷 167137
兹 167105
瑞士 166800
仅仅 166703
予以 166663
相应 166653
八@@ 166640
ou@@ 166583
连@@ 166513
病人 166312
期望 166290
连 166266
质疑 166242
特征 166182
为@@ 166066
共和国 166048
教练 165899
逐渐 165820
主 165791
管 165703
奥 165701
深入 165694
差异 165646
加以 165608
东部 165520
升级 165494
保@@ 165277
37 165110
盘 165050
转变 164815
若 164778
所有人 164775
老师 164571
绿色 164538
会@@ 164437
移徙 164181
共识 164163
流离失所 164096
公@@ 163920
包 163804
密切 163784
各个 163515
58 163455
私营部门 163451
否认 163257
乌克兰 163164
星期 163080
哪里 163046
名@@ 162987
j@@ 162950
低@@ 162893
om@@ 162865
哪些 162712
一只 162658
秒 162647
杀 162635
明 162632
1000 162583
泰国 162490
一周 162069
情绪 162060
实力 162048
杜@@ 161856
否则 161769
狗 161761
例子 161682
病毒 161672
难以 161662
三年 161649
中说 161646
流@@ 161418
62 161318
街 161290
搜索 161271
届 161246
支持者 161223
霍@@ 161111
充满 161110
国民 161003
索马里 160967
希腊 160924
判决 160792
本次 160689
Ch@@ 160686
客人 160642
米@@ 160621
合@@ 160608
圣@@ 160601
装置 160541
询问 160504
击败 160419
研讨会 160369
2017 160354
实质性 160300
刚刚 160279
抵达 160221
人才 159969
57 159903
多样性 159789
飞行 159773
铁路 159683
中有 159668
形势 159653
油 159497
清单 159463
梅 159393
变@@ 159243
边境 159240
一步 159209
艾@@ 159174
婴儿 159035
作者 158986
早些时候 158954
收益 158949
好@@ 158870
层 158831
刺激 158709
军@@ 158650
担忧 158588
39 158541
注册 158527
et@@ 158505
干 158448
气候 158350
63 158235
显著 158194
激烈 158177
42 158168
托@@ 158133
品 158132
工会 158081
色 158045
下面 158025
乘客 157897
队伍 157816
老板 157733
ur@@ 157732
超@@ 157682
明白 157547
队员 157488
人群 157313
兄弟 157303
不错 157256
交@@ 157234
多数 157208
索@@ 157126
逐步 157050
强@@ 157014
瑞典 156906
掌握 156874
先进 156837
合作伙伴 156801
照顾 156741
决心 156707
党@@ 156684
看来 156640
53 156633
新加坡 156538
建@@ 156231
行@@ 156192
生效 156140
原@@ 155969
不管 155848
周六 155722
途径 155707
帮 155675
专员 155670
谴责 155320
不利 155136
从来 154939
商店 154936
明星 154919
融资 154904
南非 154879
实验 154769
独特 154721
腐败 154702
合法 154630
满意 154363
自愿 154260
低于 154235
推广 154170
半@@ 154168
指示 154003
代理 153839
或许 153839
所作 153834
源 153741
L 153423
地址 153314
裁军 153260
体验 153200
单独 153089
神@@ 152988
退出 152955
49 152918
这家 152740
娜 152655
在线 152577
ol@@ 152541
份 152424
回家 152367
更改 152335
已有 152295
海外 152251
根 152158
64 152052
通@@ 152016
世界各地 151938
利润 151931
混合 151926
题为 151924
大卫 151916
终于 151892
手术 151871
机关 151826
动 151727
方便 151710
金牌 151690
收@@ 151514
k 151459
41 151431
信号 151355
从未 151246
44 151156
干部 151026
同事 150893
专题 150843
重 150831
第五 150800
完美 150726
54 150683
房地产 150624
进@@ 150594
不久 150580
52 150565
推迟 150211
m 150198
出版 150186
演出 150145
思考 150032
1994 149952
em@@ 149940
除非 149566
l 149507
T 149487
外交 149484
集 149403
供应商 149376
离 149345
任 149284
太@@ 149225
培养 149194
公寓 149098
眼睛 148982
执行官 148963
专家组 148873
主持 148815
排除 148706
座 148582
以为 148576
un@@ 148518
F 148322
五年 148289
46 148279
准确 148207
税 148139
英里 148138
院 148096
潜力 148079
沟通 148077
场所 147997
M 147985
告知 147937
那种 147932
组成部分 147928
同一 147922
观察员 147873
助理 147830
农民 147767
10@@ 147742
受@@ 147679
班 147659
卫星 147618
真实 147523
爱@@ 147475
众多 147451
总额 147423
装 147374
细胞 147292
很难 147201
感受 147165
种族 147077
楼 147071
东 147034
以往 147012
更为 146906
51 146748
探索 146724
胡@@ 146722
公路 146713
查看 146700
im@@ 146661
不仅仅 146615
日前 146560
夫妇 146544
洛 146527
尽快 146448
图像 146365
共有 146358
大使 146332
货物 146310
退休 146260
理想 146250
信托 146216
报纸 146148
第二个 145962
sh@@ 145886
赞扬 145815
核准 145688
市长 145639
仪式 145616
合并 145546
兰@@ 145292
阅读 145285
刚 145262
id@@ 145127
风格 145082
拟订 145008
护理 144754
47 144668
温@@ 144654
诺@@ 144539
自我 144478
周四 144467
一支 144400
提及 144263
图@@ 144252
婚姻 144205
教 144109
赞赏 144041
不够 143968
希@@ 143848
参议员 143820
新华社 143761
里面 143734
繁荣 143725
股市 143557
奇@@ 143400
轮 143396
ac@@ 143271
所@@ 143264
us@@ 143174
排名 143156
演员 142998
两性 142991
期限 142980
可怕 142776
国外 142762
完整 142680
道德 142637
便利 142612
67 142590
快乐 142576
66 142341
61 142207
衣服 142184
别 142144
尽可能 142131
加州 142040
and@@ 141972
唐纳德 141961
董事会 141955
通 141944
发行 141935
英@@ 141850
防@@ 141843
愤怒 141839
布朗 141827
深刻 141813
行使 141809
可靠 141765
有趣 141705
靠 141674
萨 141628
各自 141548
x@@ 141504
泰@@ 141503
会见 141486
意外 141479
情 141457
外地 141453
各@@ 141361
指南 141345
页 141313
玩 141263
讲习班 141163
输入 141099
女@@ 141072
工@@ 141063
作@@ 140878
用@@ 140833
博物馆 140817
1990 140812
侵害 140788
家里 140737
鱼 140671
台@@ 140631
＂ 140591
所说 140517
千@@ 140447
出去 140400
发起 140335
记得 140205
排@@ 140200
R 140099
房屋 140071
观看 140016
谈 139991
立@@ 139954
43 139817
共享 139756
穆斯林 139684
颜色 139583
・ 139572
400 139438
恐怖 139381
真 139379
保存 139332
直@@ 139284
co@@ 139272
讯 139234
成长 139107
发射 139047
I 139042
完 138856
说话 138793
失望 138759
主流 138640
认可 138626
铁@@ 138521
胜 138492
取代 138397
放@@ 138350
效力 138239
g 138231
家长 138155
两种 138149
菲律宾 138136
哥伦比亚 137996
飞@@ 137895
攸关 137850
调@@ 137749
59 137676
燃料 137594
周 137504
神 137397
爱尔兰 137396
大小 137385
系 137370
爆发 137330
情报 137287
任何人 137224
ay@@ 137199
透明 137143
年前 137104
待遇 137074
加大 137056
这件 137017
气@@ 136989
工 136927
库@@ 136757
恶化 136685
替代 136665
运营 136657
中国队 136594
阻碍 136583
到来 136544
红 136541
夫人 136364
迹象 136207
56 136141
民@@ 136094
惩罚 136093
G 136024
习惯 135885
双边 135857
宪章 135825
始终 135557
火 135499
石@@ 135421
老人 135281
存储 135180
儿 135167
超级 135126
真@@ 135123
多名 135117
税收 134912
任期 134888
不幸 134682
贸发 134675
灾害 134649
结婚 134621
航班 134620
於 134555
身 134529
日子 134501
沃@@ 134500
提@@ 134384
应@@ 134337
学@@ 134318
秘密 134181
N 134136
倒 134047
自行车 134019
特色 133983
去世 133878
合适 133873
马克 133869
` 133778
据称 133767
伤 133748
月底 133669
跟踪 133657
进球 133592
云 133554
通报 133494
想象 133459
雇员 133450
00 133400
后者 133393
法治 133289
追求 133176
变 133105
航空公司 133052
现代化 133044
li@@ 133032
印象 132980
意愿 132929
深@@ 132901
团结 132859
枪 132834
菲@@ 132798
主权 132794
重复 132725
报@@ 132725
太平洋 132685
高级别 132662
互动 132534
落@@ 132505
商 132444
先@@ 132422
ag@@ 132377
炸弹 132265
2.@@ 132158
物品 132119
餐厅 132114
流行 132107
乌@@ 132100
陷入 132091
词 131986
依赖 131950
利比亚 131908
厂 131847
提前 131807
桥 131799
被捕 131762
ra@@ 131758
接@@ 131692
科威特 131576
多种 131564
职责 131552
层面 131524
意思 131496
未@@ 131476
加工 131461
言论 131459
开发署 131428
油@@ 131306
对方 131268
ing 131166
起草 131126
联@@ 130922
透明度 130872
获悉 130789
答案 130754
参议院 130748
尽 130684
0.@@ 130613
查明 130477
数额 130371
赋予 130356
块 130326
ir@@ 130305
龙@@ 130294
早上 130197
载 130122
持 130109
相 130095
克斯 130092
革命 129928
安保 129898
纪念 129872
昨日 129838
阿根廷 129679
差 129657
生存 129601
打破 129549
动@@ 129535
詹姆斯 129514
该@@ 129443
树 129392
ak@@ 129353
高级专员 129340
福@@ 129234
日内瓦 129223
牌 129149
社交 129082
周期 129072
休息 129068
美丽 129041
艺术家 128991
救援 128851
ap@@ 128829
力@@ 128797
数@@ 128778
工作队 128726
r 128695
联 128674
教堂 128645
接下来 128471
促使 128441
卢@@ 128425
导弹 128314
五个 128153
拍 128115
剂 128082
发布会 128056
七@@ 128026
北约 128021
另一方面 127986
上面 127941
信贷 127857
斯特 127837
1993 127768
1992 127685
围绕 127551
梦想 127523
画 127494
联合王国 127485
收购 127481
彻底 127440
披露 127432
管理局 127422
第一@@ 127414
星期五 127254
之下 127221
劳动力 127167
财富 127108
伯@@ 126970
空 126954
维 126915
恩@@ 126871
什 126860
Y@@ 126765
洛杉矶 126718
转 126716
全球化 126666
杨@@ 126597
有利 126590
空气 126533
持有 126506
赫@@ 126446
委员 126421
政权 126403
具备 126357
迈克尔 125965
子女 125780
渠道 125659
整@@ 125625
架 125568
中期 125553
测量 125462
申诉 125246
被迫 125232
四 125118
受益 125070
表面 125012
瓦 124941
航空 124919
覆盖 124902
凯@@ 124852
师 124797
环保 124772
网@@ 124704
体@@ 124662
h 124657
苹果 124615
户 124611
机@@ 124600
欧@@ 124579
塞 124546
主动 124525
参观 124481
ah@@ 124408
学会 124366
科索沃 124315
有力 124160
考试 124137
近日 124093
教学 124003
得以 123953
药 123859
众议院 123841
所在 123840
近期 123755
消失 123728
五 123556
原 123538
筹资 123506
地面 123464
优秀 123460
在@@ 123429
文明 123406
脸 123400
九@@ 123390
筹备 123383
选项 123359
秘书 123309
标签 123265
失@@ 123242
涵盖 123232
解决办法 123230
制造商 123228
是从 123223
配合 123213
监禁 123170
底 123154
用途 123097
亦 123086
伦 122896
扩展 122879
主张 122869
较大 122823
达尔富尔 122758
一座 122755
社会主义 122724
穆@@ 122712
优化 122710
出于 122600
北 122416
这部 122381
图书馆 122336
代码 122264
错 122208
子@@ 122193
打电话 122123
每次 122114
杀害 122107
协作 122036
诊断 122012
剥夺 121872
干@@ 121859
分类 121786
谋杀 121700
应急 121649
周五 121612
公务员 121382
脚 121325
属性 121316
装备 121286
轻松 121260
受欢迎 121228
职务 121095
证书 121063
石 121036
看@@ 120870
言 120858
采取措施 120785
于是 120557
兵 120551
人权委员会 120469
演讲 120449
远@@ 120389
衡量 120386
纲领 120368
残疾 120259
卖 120253
汉@@ 120229
劳动 120171
尸体 120148
热情 120135
补贴 120135
麦@@ 120127
本地 120047
费@@ 119958
点@@ 119916
类别 119896
后面 119890
湖 119882
天然气 119822
一套 119806
第四 119786
救济 119670
曼@@ 119510
清洁 119471
武装冲突 119469
假 119443
江@@ 119319
is 119274
面@@ 119252
社 119190
最@@ 119171
突破 119163
酒吧 119141
灾难 119136
捐助 119135
看着 119117
癌症 119084
其余 119072
布什 118995
查@@ 118984
包@@ 118947
证 118913
修正案 118879
元素 118853
77 118690
动作 118641
自从 118640
冲@@ 118610
须 118587
出色 118542
电 118473
官 118395
冲击 118350
案例 118322
人力资源 118294
被告 118267
委 118225
参数 118222
余@@ 118124
设有 118123
对待 118063
罗马 118015
son 117885
顺利 117844
上帝 117827
现状 117825
本人 117787
第六 117764
工党 117744
佩@@ 117695
拉丁美洲 117640
竞争力 117611
化@@ 117607
国务院 117594
增进 117593
减轻 117530
枚 117502
希拉里 117335
运用 117326
球@@ 117270
养 117260
ig@@ 117252
边缘 117226
实验室 117150
口@@ 117051
注重 116954
将来 116916
一边 116898
路线 116894
法规 116701
获胜 116668
转让 116651
中间 116621
书@@ 116571
暂停 116568
下去 116563
一段时间 116553
经济体 116497
敏感 116422
挪威 116395
理念 116373
la@@ 116364
晚 116325
分歧 116318
可是 116236
此后 116223
皇家 116200
ul@@ 116192
15@@ 116171
ev@@ 116051
这笔 116011
国际@@ 115921
推@@ 115919
艰难 115809
选 115779
菜 115738
人民币 115598
干事 115546
男女 115545
一般性 115471
某种 115462
保罗 115454
审理 115424
广场 115324
海滩 115307
列表 115301
战@@ 115251
负担 115225
幸福 115190
加速 115114
极大 115075
飞 115027
坚定 115000
特性 114939
越南 114885
明天 114847
角 114822
本赛季 114811
植物 114785
排放 114781
克服 114779
驾驶 114709
设在 114709
担保 114615
街道 114535
倾向 114420
最高法院 114376
付款 114237
赛事 114209
13@@ 114194
短期 114160
无论是 114157
固定 114138
争端 114105
大选 114006
依靠 113836
数目 113811
0@@ 113797
5% 113767
嫌疑人 113756
夏天 113746
友好 113721
黑人 113634
万英镑 113583
威@@ 113502
轻@@ 113472
王 113416
u 113373
单一 113354
债券 113318
处罚 113298
O 113246
缓解 113226
齐@@ 113209
民 113055
乐@@ 113053
性@@ 113027
贾@@ 112972
劳工 112916
茨 112887
市@@ 112863
怎样 112819
熟悉 112792
大楼 112656
族 112636
温度 112521
阐述 112486
海岸 112376
选@@ 112348
史密斯 112346
哦 112344
背后 112300
危害 112273
地雷 112221
证券 112166
旧 112135
缺陷 112092
南方 111905
谈论 111898
单 111824
这座 111818
手中 111775
宁 111759
信@@ 111730
身@@ 111588
试@@ 111450
娱乐 111438
农@@ 111369
混乱 111367
独@@ 111358
10% 111357
定 111351
投@@ 111339
成熟 111147
表决 111126
笑 111107
因@@ 111031
四年 110958
老年人 110944
强化 110889
圈 110884
江 110853
判断 110838
半 110802
提请 110781
投 110772
影响力 110752
反对派 110750
至今 110746
哪 110743
恐惧 110693
议题 110649
土@@ 110612
星 110477
死@@ 110392
路@@ 110313
听取 110282
优惠 110264
开支 110261
随时 110246
建 110225
支 110173
复苏 110163
属 110161
加剧 110121
血@@ 110094
害怕 110042
澄清 110031
吉 110022
坐 109915
舞台 109896
愿望 109857
变革 109820
美国@@ 109786
广州 109777
赛@@ 109754
要@@ 109674
作业 109584
两岸 109528
方@@ 109502
到@@ 109364
索 109329
ut@@ 109320
68 109315
木@@ 109312
谢@@ 109262
住宅 109257
此事 109255
Z@@ 109194
血 109194
矛盾 109120
专@@ 109098
酒 109092
供资 109037
扮演 109020
满 109015
ing@@ 109000
字 108994
秩序 108994
暂时 108978
修正 108970
中国政府 108959
原来 108950
灯 108927
云@@ 108775
转向 108751
一部 108724
额 108719
经@@ 108631
时尚 108606
阿尔@@ 108527
两天 108491
蒂@@ 108439
每日 108426
登 108421
尔斯 108400
国王 108276
庇护 108257
蒙@@ 108252
抓住 108243
空中 108213
军方 108203
总结 108150
协调员 108058
上市 108033
太阳 107972
倍 107954
脆弱 107915
短@@ 107881
乐观 107739
识别 107737
150 107703
动态 107638
交换 107604
世界银行 107596
600 107577
每周 107571
青@@ 107428
过度 107426
Al@@ 107412
联合会 107369
观念 107342
摆脱 107331
现年 107257
两位 107248
麦克 107210
麻烦 107192
意 107178
某个 107137
主办 107134
派遣 107110
常常 107071
& 107050
反恐 107046
实@@ 107024
高于 107018
俄 107008
um@@ 106987
认证 106897
生态 106853
力度 106786
载有 106785
营销 106652
纪录 106588
埃 106575
家中 106541
查 106510
例 106506
兼 106499
ard@@ 106466
看见 106453
电力 106445
防守 106441
考@@ 106438
ot@@ 106362
换@@ 106325
切实 106303
维和 106234
波兰 106211
新西兰 106199
邮件 106152
迫使 106108
永@@ 106091
4.@@ 106042
结@@ 106037
文本 105954
对抗 105866
客房 105833
os@@ 105828
一道 105752
屏幕 105723
些 105518
莱 105514
管@@ 105498
修复 105422
星期四 105403
峰会 105200
维也纳 105196
爸爸 105192
广大 105126
通讯 105067
有用 105062
发动 105028
收费 105020
乔治 105015
见到 104909
赞成 104909
精@@ 104819
大脑 104801
此@@ 104795
会上 104764
发放 104736
没@@ 104699
集会 104669
身边 104629
白 104609
清理 104582
和谐 104567
巩固 104553
中新网 104540
各类 104450
并未 104438
穿着 104425
转型 104356
湾 104342
概述 104325
杰@@ 104270
威 104270
情@@ 104262
刀 104083
企图 104067
切@@ 104006
本来 103962
吴@@ 103809
限度 103802
制@@ 103775
带@@ 103655
海军 103639
出发 103623
总数 103619
星期一 103595
传递 103593
于@@ 103513
强迫 103505
带到 103489
发送 103423
极端 103418
球场 103334
海地 103280
群 103270
加勒比 103127
显得 103103
康@@ 103077
展览 103053
许可 102983
72 102862
com 102848
级别 102847
5000 102835
莫斯科 102832
菲 102827
雨 102825
皮肤 102757
传@@ 102734
信仰 102645
国家一级 102637
盖 102631
姓名 102584
19@@ 102551
常驻 102536
至于 102476
展 102429
作家 102396
落 102343
的确 102329
异@@ 102317
75 102253
路上 102182
待 102157
要素 102143
遗憾 102112
更@@ 102105
进攻 102099
冰@@ 102093
赢 102085
尼日利亚 102082
金额 102062
代价 101984
3.@@ 101938
20% 101920
游泳 101864
列出 101835
郡 101830
读 101817
超越 101790
城@@ 101732
设 101684
聚集 101667
兴@@ 101659
列@@ 101612
领@@ 101605
顾客 101588
眼 101569
负 101565
获 101525
放松 101504
章 101477
短 101439
代@@ 101432
ow@@ 101422
能否 101379
河@@ 101369
席位 101301
俄罗斯联邦 101284
和解 101282
年来 101274
窗口 101245
金融危机 101217
富@@ 101199
依照 101142
X@@ 101127
美军 101120
常见 101109
据悉 101105
化学 101102
轨道 101050
红色 101016
常@@ 101004
得分 101003
长时间 100956
今日 100918
od@@ 100846
效益 100844
著 100822
外交部 100740
亲@@ 100696
50% 100695
交给 100688
接到 100642
定@@ 100638
论 100627
套 100610
赞同 100608
普京 100564
跳@@ 100522
剥削 100448
第三次 100424
种族主义 100351
服装 100344
el 100331
停 100296
17@@ 100241
颁布 100221
会晤 100207
副@@ 100160
无疑 100159
机器 100131
调动 100077
帐户 100039
格式 100035
雇主 100005
一段 99989
区别 99909
想到 99875
他人 99861
与其 99858
黑 99809
现行 99773
ec@@ 99752
卢旺达 99727
谈话 99663
每月 99655
金融机构 99632
周年 99622
14@@ 99588
故障 99585
排 99560
转换 99534
犯 99506
肯尼亚 99501
不好 99487
尽管如此 99480
走@@ 99347
高效 99298
能@@ 99206
参考 99196
驱逐 99195
旅客 99167
药品 99163
男@@ 99031
跳 98993
遭遇 98992
黑色 98982
已@@ 98968
重返 98917
流程 98892
装@@ 98841
金属 98821
面积 98806
广播 98797
讲述 98762
储存 98718
多人 98702
融入 98691
医学 98634
威尔士 98512
监控 98493
因而 98492
环@@ 98484
16@@ 98473
几十年 98377
勒@@ 98366
投诉 98336
地图 98307
国家@@ 98285
韦@@ 98272
记忆 98250
开发计划署 98244
度过 98221
省@@ 98192
第二天 98163
辆 98127
今晚 98123
年初 98104
小型 98079
腿 98058
州长 98016
不愿 98012
翻@@ 97992
杰 97977
深 97965
可用 97956
分发 97919
后勤 97879
哈 97871
星期二 97821
基因 97808
基本上 97805
外面 97788
伦@@ 97781
名为 97778
研发 97763
感兴趣 97752
一个月 97738
构建 97706
远远 97681
设想 97629
本书 97598
入侵 97594
课 97592
怀孕 97544
但@@ 97503
疯狂 97498
奇怪 97488
阳 97447
由@@ 97432
本月 97398
调 97386
乔@@ 97338
地说 97334
民警 97297
引导 97257
ob@@ 97254
许可证 97217
杆 97210
街头 97183
然 97179
强奸 97159
典型 97143
1% 97141
工艺 97125
5.@@ 97080
锦标赛 97036
链接 97031
肉 97021
活跃 97013
效应 97008
劳@@ 96954
压@@ 96908
那时 96807
戈@@ 96735
忽视 96660
剩下 96656
维尔 96642
坚决 96637
小姐 96624
营养 96616
验证 96611
融合 96603
翻译 96590
超 96528
分布 96486
关联 96459
占据 96428
指挥 96344
大多 96270
能量 96269
未经 96236
自杀 96234
冷@@ 96193
丹麦 96177
坏 96146
恐怖分子 96114
朝 96020
认定 96008
囚犯 95964
约翰逊 95941
到底 95938
化学品 95932
再@@ 95915
人力 95915
质 95887
受害人 95834
政@@ 95806
港口 95799
保守党 95769
辞职 95706
通道 95704
合 95698
目前为止 95668
命运 95643
毛@@ 95614
事务部 95588
av@@ 95588
季度 95561
文档 95532
视 95498
回报 95473
解@@ 95460
影片 95415
of@@ 95384
放 95368
乐 95198
ar 95165
分析师 95114
盖@@ 95079
x 95061
76 95043
谨慎 95023
所涉 94998
雅@@ 94991
客 94964
工发 94941
博 94897
页面 94754
英尺 94754
家庭暴力 94754
施@@ 94732
居 94730
垃圾 94652
气体 94650
教@@ 94644
800 94477
证人 94476
价值观 94474
3% 94369
查询 94352
眼@@ 94337
共@@ 94325
建设性 94290
制止 94233
援引 94131
像是 94110
附属 94036
小学 94014
比利时 94012
安置 93923
12@@ 93902
一方面 93894
改造 93854
警官 93821
志愿者 93816
第二@@ 93815
单击 93802
日常 93802
非洲联盟 93755
电视台 93709
导演 93689
往 93644
失业 93428
咨 93411
别@@ 93407
共同体 93287
幸运 93278
死刑 93259
近@@ 93216
出台 93191
初 93170
过来 93146
商@@ 93130
为主 93127
提 93035
一体化 93023
核查 93004
破@@ 92985
黄金 92893
形 92816
最多 92752
气氛 92720
施工 92709
激励 92656
吨 92627
交付 92602
武装部队 92535
ia 92533
移交 92519
比分 92518
拿到 92512
下载 92501
致命 92466
ent@@ 92439
微@@ 92406
海关 92405
武@@ 92389
标题 92371
临床 92357
3000 92293
呆 92269
松@@ 92265
假设 92220
要么 92204
多么 92152
沙 92146
忘记 92116
声@@ 92109
马来西亚 92082
谢谢 92068
辩护 91834
该项 91818
加沙 91806
持久 91798
花费 91785
该市 91780
航 91766
上半年 91737
开幕 91733
69 91700
洞 91676
退@@ 91659
鲁 91528
货 91515
崩溃 91508
好像 91454
英雄 91340
蓝@@ 91329
火车 91312
渴望 91299
仲裁 91252
管道 91239
名义 91195
支@@ 91110
灵活 91098
主场 91092
来文 91061
园 91008
Mar@@ 91006
弗@@ 90970
配@@ 90955
诸如 90937
英 90930
错过 90912
包装 90827
1991 90795
具 90793
码 90770
惊人 90749
白色 90665
刚果民主共和国 90615
朱@@ 90604
增@@ 90567
ed 90526
奖励 90426
op@@ 90381
症状 90340
登@@ 90309
撞 90308
120 90297
补救 90273
离@@ 90216
向@@ 90142
案文 90111
夏@@ 90105
一批 90089
可行 90085
绿@@ 90074
春@@ 90065
女童 90064
用品 89978
起到 89924
惊讶 89893
分裂 89697
当中 89679
乡 89631
全体会议 89549
兴奋 89513
保 89481
墙 89475
喝 89424
难@@ 89418
邦 89415
eb@@ 89390
取 89354
难民署 89309
等等 89273
ik@@ 89237
Sh@@ 89221
不满 89216
创作 89203
付出 89199
走向 89180
剧 89148
响应 89127
其次 89117
牛 89096
家属 89065
馆 89056
理@@ 89047
活力 89044
中部 89028
暴力行为 88959
史 88900
舒适 88900
发动机 88895
核@@ 88893
示范 88821
富有 88781
海上 88773
引入 88763
利比里亚 88743
桑@@ 88734
内阁 88615
容忍 88579
维修 88566
复@@ 88526
职业生涯 88516
组@@ 88489
抗@@ 88464
高达 88441
船只 88315
落后 88281
代 88252
点击 88244
战胜 88224
会计 88199
就要 88156
愿 88131
戈 88129
给出 88127
比尔 88055
抱怨 88030
推荐 88006
机械 87966
生成 87923
瑞@@ 87919
凌晨 87892
外国人 87861
防治 87859
以期 87836
一群 87835
美联储 87806
津贴 87775
档案 87746
夏季 87724
新兴 87696
抢@@ 87678
丹 87664
指@@ 87622
对策 87533
救 87526
他@@ 87399
花园 87380
补偿 87373
紧@@ 87368
莫 87364
正义 87320
对外 87310
学者 87274
汤姆 87273
事@@ 87260
相当于 87257
状 87135
迄今 87132
此种 87128
前面 87124
ers 87087
真是 87074
说@@ 87072
定位 87036
种植 87033
整合 87024
风暴 87016
行预 86975
小说 86927
推行 86912
症 86861
顶 86825
游 86757
缓慢 86726
聪明 86711
废物 86692
原子能 86652
央行 86635
共同努力 86621
活 86592
参与者 86588
亿英镑 86583
争论 86497
董事 86494
扎 86491
家伙 86355
实地 86326
工程师 86320
参赛 86210
试点 86198
追@@ 86190
族裔 86174
缅甸 86137
野@@ 86097
一人 86055
日起 85995
取@@ 85923
修@@ 85919
股东 85908
产量 85889
信息技术 85879
教会 85857
不用 85857
罚款 85808
全体 85728
高层 85687
塔利班 85621
• 85568
越@@ 85566
是不是 85544
循环 85467
马上 85459
游@@ 85443
玛@@ 85443
丁@@ 85437
莉 85396
作战 85246
标@@ 85241
疫苗 85224
吸引力 85216
lo@@ 85214
z 85213
国际公约 85206
暗示 85170
表@@ 85101
假@@ 85082
法令 85066
遵循 85065
送到 85048
一块 85038
检验 85000
贝 84995
漂亮 84970
密切合作 84923
超出 84920
旁边 84896
世界杯 84864
经济@@ 84861
卡车 84803
委内瑞拉 84795
滥用 84784
ma@@ 84777
个别 84765
更是 84694
论文 84678
节@@ 84671
密码 84629
话题 84624
空调 84595
穷人 84559
清 84463
月初 84463
料 84460
as 84448
戴 84410
8% 84346
地铁 84283
出版物 84280
设法 84259
镜头 84232
夺得 84219
足 84187
下滑 84185
捐助者 84135
签订 84124
几周 84099
异常 84038
前进 84016
相似 84005
终止 83960
驱动 83956
K 83939
乐队 83913
接 83912
约旦 83909
困境 83899
惊@@ 83877
缩小 83874
交谈 83839
乔 83739
丽 83725
前提 83705
以此 83703
印度尼西亚 83694
备忘录 83620
预订 83607
象 83598
ov@@ 83554
美利坚合众国 83513
反弹 83496
房@@ 83431
味 83412
带领 83401
20@@ 83391
道歉 83343
尚 83334
妨碍 83303
标记 83301
思@@ 83294
购物 83294
树@@ 83243
拯救 83182
听说 83181
罗斯 83130
洪水 83129
遗产 83120
拨款 83085
福 83084
芝加哥 82997
何@@ 82943
真相 82920
2% 82850
场地 82804
火灾 82775
美好 82760
事态 82749
考察 82723
姆@@ 82720
黑暗 82706
款项 82705
易@@ 82624
国籍 82623
eg@@ 82622
志@@ 82618
星期三 82600
种族歧视 82586
村庄 82578
进来 82572
电池 82548
士 82516
伯 82446
解除 82372
回归 82368
任择 82339
共和党人 82321
韩@@ 82287
深圳 82286
统治 82260
纸 82259
le 82210
道@@ 82159
季 82140
停@@ 82131
执行局 82107
奥地利 82097
BBC 82090
谷歌 82067
品质 82043
权限 82011
83 82008
强劲 82000
餐馆 81899
送@@ 81897
4% 81877
充足 81867
隆 81858
震惊 81846
焦点 81831
藏 81824
引渡 81823
班@@ 81772
宝 81743
科尔 81735
头发 81696
三分之一 81664
家族 81664
运@@ 81637
场景 81633
男 81595
选票 81569
雇用 81531
界定 81521
彼得 81479
接着 81458
定罪 81355
6.@@ 81305
箱 81290
回忆 81290
V 81288
尤@@ 81230
办理 81223
产@@ 81190
最为 81179
签证 81165
食 81154
得出 81141
废除 81127
床 81085
想@@ 81083
自然资源 81065
忙 81044
满@@ 81008
禁令 80998
大众 80996
罪犯 80991
主教练 80970
工程处 80963
三名 80945
线路 80923
局面 80897
记住 80895
端 80881
车型 80855
居@@ 80746
敌人 80718
城镇 80683
复制 80620
银@@ 80606
世@@ 80599
节日 80598
快@@ 80597
村@@ 80592
丽@@ 80559
田 80547
有望 80515
丧生 80490
荣誉 80445
全新 80428
少年 80426
确立 80421
压 80362
丝 80301
波动 80221
qu@@ 80219
毕竟 80214
时间表 80200
绑架 80138
产 80109
广@@ 79983
岛屿 79937
or 79925
清除 79914
见@@ 79906
极 79840
命名 79818
被@@ 79800
方针 79777
85 79711
汇率 79703
旅游业 79700
跨国 79694
de@@ 79656
脱@@ 79539
蓝色 79520
丁 79510
向前 79505
救助 79488
提起 79472
读者 79463
预@@ 79420
一所 79409
亿@@ 79385
双 79379
创业 79379
J 79359
破 79358
授予 79350
7% 79298
塞拉利昂 79298
股份 79286
统计数据 79235
松 79183
回收 79155
一生 79152
极为 79137
上个月 79134
玻璃 79076
听证会 79062
国防 79009
失业率 78989
素 78922
笔 78919
环 78903
库存 78877
沃 78848
帕 78831
ne@@ 78798
地带 78780
世 78776
质@@ 78771
阳光 78763
定于 78753
饮食 78699
歌 78694
星@@ 78659
病@@ 78573
大厦 78520
极@@ 78515
分离 78480
势 78477
动机 78462
陈述 78458
手册 78416
净 78382
东京 78325
含量 78303
还会 78280
厨房 78254
算法 78251
玩家 78251
据说 78211
土 78162
沙特阿拉伯 78134
克里斯 78094
唐@@ 78041
市中心 78034
礼物 77999
关@@ 77993
iv@@ 77967
雪@@ 77952
常设 77925
歌手 77921
man 77909
营地 77905
af@@ 77861
警@@ 77843
他会 77818
语文 77818
7.@@ 77795
81 77784
卷 77759
An@@ 77741
夺冠 77736
主席团 77725
马丁 77720
顶级 77681
猫 77676
模拟 77670
目的地 77662
高专 77657
乌干达 77653
X 77646
大大 77640
食@@ 77604
赫 77581
700 77571
邻国 77567
aw@@ 77565
希 77553
大赛 77539
俄@@ 77536
网页 77515
中方 77512
贴 77510
74 77482
权@@ 77440
左@@ 77409
格鲁吉亚 77374
安全部队 77338
制造业 77338
边@@ 77324
公共部门 77319
重组 77310
烟@@ 77286
接收 77285
86 77260
婚礼 77203
爵士 77150
密@@ 77125
纷纷 77098
改@@ 77094
病例 77085
不了 77061
含有 77056
警察局 77010
季节 76983
耶@@ 76981
拖延 76968
一句 76942
封锁 76911
算 76907
智能 76855
卡尔 76849
立 76828
升@@ 76823
轮@@ 76811
88 76804
毁灭性 76776
吃@@ 76765
奖金 76736
造@@ 76687
更换 76663
ib@@ 76654
目录 76641
饮料 76635
友谊 76622
零 76620
二十@@ 76603
30% 76591
企业家 76588
堡 76573
技巧 76560
随@@ 76542
招募 76534
第三方 76469
沿着 76452
意图 76441
物种 76436
早@@ 76421
走出 76404
司法部 76372
戏 76370
摧毁 76364
学术 76361
携带 76313
默@@ 76311
之际 76248
三次 76206
照 76165
为何 76151
书面 76146
削弱 76144
」 76133
康复 76121
裁定 76113
订单 76070
英文 76056
99 76046
份额 76007
可持续性 75987
补@@ 75977
ip@@ 75948
6% 75936
草 75929
糖 75894
宝贵 75888
知识产权 75849
将军 75819
挂 75794
浪费 75788
ie@@ 75771
地板 75758
广东 75707
妇女地位 75682
71 75668
聚会 75657
引用 75591
设定 75589
职 75588
卖@@ 75573
油价 75557
摩洛哥 75474
德尔 75388
不安 75388
赵@@ 75371
晓@@ 75370
招@@ 75362
或是 75358
现 75335
40% 75300
纪律 75247
远程 75238
应付 75201
当事人 75173
星期六 75172
中学 75161
汉 75158
之内 75126
两项 75126
条@@ 75124
生殖 75086
公斤 75083
过境 75053
葡萄牙 75023
高速公路 74999
产出 74964
纠正 74934
网友 74927
骨 74914
往@@ 74904
* 74854
常规 74838
或@@ 74817
关 74812
诉 74799
必要性 74792
游行 74767
死亡率 74760
朝@@ 74749
酒@@ 74673
积极参与 74659
圣 74655
经济学家 74627
会议室 74608
涉嫌 74582
沮丧 74579
足以 74568
ang@@ 74565
永久 74558
宣称 74537
运 74529
我能 74464
晚些时候 74462
Q@@ 74452
所载 74438
白人 74429
歌曲 74427
联邦政府 74412
95 74400
初级 74387
两周 74372
感情 74341
+ 74315
这起 74295
军官 74269
毕业 74246
播放 74229
什@@ 74213
就业机会 74195
参@@ 74193
甲 74186
文字 74120
储备 74107
鸟 74010
直升机 73971
环境署 73944
脑@@ 73928
破产 73923
场@@ 73916
and 73896
李 73887
解雇 73865
82 73859
六 73826
开枪 73809
治@@ 73789
集@@ 73767
见面 73739
横@@ 73734
同志 73698
村民 73676
苏联 73668
美国政府 73607
样子 73522
按钮 73514
女王 73513
很@@ 73478
瑞 73467
望 73418
域 73414
一片 73386
酌情 73383
中断 73377
剩余 73317
困扰 73315
步 73294
琼斯 73293
东盟 73271
着手 73202
活@@ 73189
情感 73175
藏@@ 73164
会员 73131
家园 73131
小区 73102
切 73055
精彩 73050
题 73031
这儿 72994
机器人 72982
约束 72977
2018 72958
ud@@ 72927
全市 72924
美联社 72918
指挥官 72899
书记 72888
实例 72857
药@@ 72758
弹药 72756
大臣 72736
爱情 72715
建成 72714
根源 72711
9% 72682
带有 72676
创始人 72650
尊严 72637
乘坐 72625
先后 72622
古 72609
就此 72578
豁免 72569
齐 72566
洗@@ 72562
杀死 72558
搞 72554
ch 72530
é 72522
期@@ 72518
睡 72516
体育@@ 72504
彼此 72478
引@@ 72457
赴 72451
有罪 72386
扬 72354
酸 72336
打造 72282
创@@ 72279
巨@@ 72272
ant@@ 72268
支撑 72246
列车 72244
脱欧 72217
森@@ 72208
个@@ 72148
任意 72142
H 72135
ann@@ 72110
有害 72067
总裁 72062
步@@ 72050
巴勒斯坦人 72031
配备 71958
实 71955
缺少 71952
买@@ 71952
生意 71925
理 71921
天空 71910
列为 71884
岗位 71880
衣 71875
渔业 71868
叶 71856
服 71834
强有力 71830
自豪 71807
动员 71785
ry@@ 71777
田@@ 71755
滑@@ 71732
动荡 71713
物理 71688
改革开放 71680
提供援助 71676
防 71653
曲 71644
地理 71632
另有 71631
脱离 71621
扩张 71594
各位 71590
简化 71588
转化 71520
戴@@ 71500
250 71499
肉@@ 71463
船@@ 71462
顺@@ 71441
呈现 71438
l.@@ 71422
前锋 71421
洋@@ 71384
送往 71373
东帝汶 71356
果 71348
不当 71340
雨@@ 71299
碳 71291
六个 71277
提示 71275
蒙 71272
欧元区 71271
膜 71261
远离 71246
内地 71216
苏 71206
受理 71200
蔬菜 71198
注意力 71190
势头 71170
度假 71116
只@@ 71107
北方 71104
梦 71104
琳 71091
少数民族 71086
仔细 71069
叶@@ 71055
se@@ 71035
心脏 71034
做@@ 71027
ep@@ 71022
四分之一 71020
苦@@ 71014
盛@@ 71011
盟友 71009
主持人 70992
专注 70968
科特迪瓦 70964
组件 70960
特设 70936
部@@ 70927
人生 70926
别的 70921
裔 70892
尼亚 70865
失误 70864
委托 70845
亮 70822
申@@ 70814
多样化 70811
任@@ 70787
扎@@ 70783
73 70777
夫@@ 70706
有益 70673
谅解 70671
表格 70656
79 70650
泰 70640
吸收 70600
ha@@ 70596
兹@@ 70584
宗旨 70572
欣赏 70557
徐@@ 70545
all@@ 70493
自主 70480
木 70478
考验 70478
邻居 70457
拟定 70453
au@@ 70447
射 70408
即@@ 70390
生产总值 70389
求@@ 70385
威尔 70378
微笑 70371
慈善 70368
同性恋 70336
北京@@ 70330
全省 70274
客户端 70258
唱 70211
小镇 70151
ru@@ 70138
传 70129
优质 70126
之所以 70122
草@@ 70099
订正 70083
靠近 70042
捐赠 70026
减@@ 70009
偏@@ 69995
大学生 69976
匹配 69961
逃离 69942
84 69940
阴@@ 69932
养@@ 69926
yn@@ 69925
博客 69900
接待 69882
管理人员 69874
弹@@ 69871
收 69835
国防部 69828
埃塞俄比亚 69807
节省 69799
农场 69784
了@@ 69754
古老 69699
原始 69686
成分 69634
同学 69611
合格 69582
人道主义法 69561
可爱 69558
装饰 69557
优@@ 69555
开车 69542
主导 69516
假期 69513
L.@@ 69497
走上 69488
奠定 69465
克罗地亚 69460
78 69427
乱 69399
种子 69394
总监 69339
继 69334
右@@ 69334
犯下 69328
一篇 69291
抓 69267
尽@@ 69245
分为 69226
信用 69220
校 69213
预防犯罪 69194
罗伯特 69170
目@@ 69136
业主 69118
et 69103
不应 69065
对阵 69030
抱 69005
攻@@ 68975
间接 68943
守@@ 68928
迄今为止 68918
不必 68917
不确定性 68912
必@@ 68909
宝@@ 68890
经典 68889
if@@ 68867
客观 68848
贾 68847
指令 68819
管理层 68807
董事长 68797
布鲁塞尔 68751
发言者 68742
丑闻 68737
患有 68717
王子 68630
泽@@ 68572
感@@ 68533
摘要 68529
主体 68525
保安 68488
圣诞节 68451
刑法 68443
应有 68421
8.@@ 68388
联络 68384
护@@ 68382
左 68373
治安 68342
撤销 68310
区@@ 68290
生长 68289
at 68275
sp@@ 68268
音 68248
刚果 68237
抗议者 68219
减贫 68217
玛 68215
该州 68211
英超 68204
调查结果 68200
卫@@ 68175
ey 68165
物流 68147
麦 68136
零售 68132
淘汰 68123
小心 68095
末 68089
京@@ 68047
专门知识 68031
推翻 68030
销 68006
品种 67921
电子@@ 67853
事先 67839
换 67817
过于 67809
言@@ 67775
弗 67759
便宜 67748
新型 67745
初@@ 67744
高中 67732
成年人 67726
北爱尔兰 67700
紧密 67692
辛@@ 67691
调解 67597
画面 67583
机遇 67578
大门 67558
放缓 67534
上文 67514
先前 67508
咖啡 67468
好莱坞 67453
当代 67441
电信 67422
被控 67406
只会 67390
估计数 67364
成效 67356
报价 67333
严峻 67332
果@@ 67310
港@@ 67305
面向 67301
公投 67289
圆@@ 67247
练习 67245
杰克 67235
乡村 67232
硬件 67225
主人 67222
ion 67194
离婚 67184
商务 67154
竞争对手 67140
空缺 67110
断 67102
亲 67102
泽 67090
– 67070
由此 67065
处置 67054
史@@ 67034
供@@ 67033
ia@@ 67028
追踪 67028
98 67019
迷@@ 67016
色@@ 66982
长大 66982
干扰 66982
第一位 66980
9.@@ 66962
遭 66920
当年 66898
贝尔 66881
甘@@ 66874
西非 66848
80% 66819
辐射 66803
血液 66793
欺诈 66793
例外 66772
后卫 66750
早餐 66732
根@@ 66697
湖@@ 66677
愉快 66668
第三@@ 66640
选出 66633
签名 66612
屋 66607
英国广播公司 66570
悉尼 66562
分开 66545
考 66528
高校 66509
一架 66467
常 66458
围@@ 66455
征聘 66443
俩 66433
不论 66420
87 66365
管辖权 66350
一方 66328
ew@@ 66302
斯特@@ 66246
同行 66245
营 66240
粉丝 66237
公告 66228
拍@@ 66210
弄 66183
输出 66175
玉@@ 66172
芬兰 66148
智慧 66142
有机 66142
程 66124
崛起 66099
棒 66088
总经理 66057
痛 66050
走进 66032
专利 65996
牛@@ 65983
达成协议 65939
夜 65938
收获 65917
录像 65906
封@@ 65895
无效 65887
基准 65876
大国 65838
车队 65823
队长 65781
躺 65771
小岛屿 65761
范@@ 65722
96 65699
秀 65694
昂贵 65679
外交部长 65679
总共 65660
日晚 65612
91 65600
威廉 65552
汇报 65548
有史以来 65542
判处 65530
协商一致 65495
ie 65494
一组 65489
设计师 65479
留@@ 65474
区分 65440
强度 65425
平静 65415
尔德 65403
出租车 65398
建筑物 65393
骑 65391
牺牲 65368
沙特 65362
弱 65339
媒体报道 65312
开心 65306
听@@ 65295
得知 65279
ill@@ 65273
股价 65224
申诉人 65194
man@@ 65184
呼吸 65179
求 65177
现任 65148
任职 65132
问及 65104
影@@ 65064
马里 65057
基督教 65056
丹@@ 65054
隐藏 65044
紧急情况 65036
数百万 65014
In@@ 65001
智利 64998
旧@@ 64998
季@@ 64992
贵 64975
临@@ 64973
Th@@ 64970
严厉 64954
并@@ 64940
关押 64895
肯 64890
武力 64852
两家 64843
殴打 64829
一台 64805
形容 64797
首 64793
损坏 64793
实质 64786
上次 64757
战术 64693
深度 64687
孙@@ 64644
开幕式 64639
存款 64635
首要 64581
局长 64565
火箭 64547
也门 64532
何种 64525
赶到 64514
踢 64500
枪支 64496
罢工 64478
细@@ 64430
社会保障 64400
底@@ 64367
深化 64366
引进 64331
队友 64327
ell@@ 64326
弹 64324
逻辑 64305
流量 64302
彩@@ 64290
赛场 64288
说服 64280
恤金 64265
严@@ 64241
he@@ 64226
锁 64200
情形 64180
降 64148
策划 64122
促成 64112
频道 64109
暴露 64098
增长率 64065
菜单 64032
交往 63995
成人 63980
形状 63974
孔 63934
患 63926
文学 63918
巡逻 63915
魅力 63891
峰 63864
高速 63863
罕见 63857
交通@@ 63832
毫无疑问 63820
大使馆 63796
祝贺 63767
惯例 63760
较为 63731
所有权 63726
生态系统 63726
大西洋 63714
派出 63711
短缺 63683
万名 63674
天津 63631
附加 63628
钻石 63588
备选 63572
付 63562
拖@@ 63558
部长级 63543
电台 63541
抵押 63530
倒@@ 63527
监视 63526
波斯尼亚 63510
成千上万 63482
最早 63467
浴室 63433
犯有 63420
私营 63419
坐@@ 63398
高等教育 63396
搬 63381
玛丽 63367
气温 63363
希尔 63356
液 63347
烟 63336
飞行员 63313
国际贸易 63295
盈利 63276
89 63249
az@@ 63216
一再 63215
思 63207
管辖 63204
嗯 63192
锻炼 63165
那天 63154
人体 63143
2020 63124
久 63115
互相 63102
戏剧 63096
比率 63095
两者 63092
改为 63077
通胀 63072
夏 63069
衰退 63052
ion@@ 62994
实在 62982
租赁 62975
薪酬 62930
康 62917
神经 62894
积累 62869
温暖 62858
争@@ 62811
延伸 62788
首相 62762
瓶 62761
跨 62712
自信 62712
部落 62707
单元 62683
启用 62668
继承 62652
线@@ 62641
尺寸 62630
灵活性 62601
却是 62600
届时 62595
存@@ 62586
同步 62577
路径 62576
令人@@ 62573
Mc@@ 62543
茶 62538
悲剧 62513
名额 62500
硬@@ 62494
冬季 62452
聚@@ 62448
入住 62442
脚@@ 62440
样 62427
执政 62420
客@@ 62382
山区 62381
形@@ 62359
收取 62347
John@@ 62347
开设 62337
销毁 62336
消@@ 62319
钱@@ 62309
本质 62308
么 62302
有效性 62268
权威 62268
上空 62259
一轮 62236
首发 62228
保险公司 62216
多项 62197
凡 62135
短暂 62080
零@@ 62047
议事规则 62014
民兵 62007
意@@ 61988
主帅 61941
座位 61917
ley 61916
中午 61890
防御 61880
纸@@ 61848
北京市 61838
冒险 61774
鱼@@ 61758
州市 61742
步伐 61715
中场 61710
问责制 61680
无关 61678
美洲 61669
骄傲 61659
第四@@ 61656
办@@ 61607
消息人士 61597
反馈 61596
上学 61589
自然灾害 61585
元@@ 61556
冷 61555
舒@@ 61554
教训 61553
频率 61544
救@@ 61527
象征 61516
多达 61516
哥 61515
确切 61513
致@@ 61507
不变 61503
恶@@ 61503
end@@ 61498
降@@ 61492
填补 61486
种类 61476
生日 61473
使@@ 61472
对付 61471
art@@ 61458
国务卿 61454
民调 61398
选定 61370
est@@ 61368
昨晚 61367
干净 61364
得不到 61340
包容性 61337
体育场 61318
惠@@ 61288
沉@@ 61275
曼联 61266
理查德 61237
微 61224
抽@@ 61219
背@@ 61205
前所未有 61203
侧重于 61192
阿尔及利亚 61141
三天 61117
清晰 61113
变动 61107
绝大多数 61106
几次 61101
次数 61098
散@@ 61095
香@@ 61078
协同 61078
玩具 61077
命 61057
示威 61046
极其 61043
偿还 61030
月@@ 61011
下半年 61001
记 60997
蔓延 60995
沿海 60988
监察 60987
啤酒 60981
庞大 60950
拆除 60945
住宿 60930
号码 60914
绝@@ 60891
尼克 60881
助@@ 60844
处境 60830
第三个 60817
原本 60781
传感器 60777
弥补 60747
豪华 60741
地下 60738
ind@@ 60734
阵容 60713
孟加拉国 60694
包容 60684
年度报告 60675
群岛 60675
此举 60654
耶 60639
次@@ 60633
剧院 60608
拍卖 60604
推 60572
骨@@ 60555
险 60548
驳回 60542
此时 60529
结果表明 60516
中央@@ 60515
有没有 60489
母@@ 60486
内政部 60398
政治家 60377
袋 60364
承受 60347
商人 60341
芬@@ 60338
看上去 60335
U 60291
划@@ 60277
托马斯 60271
编@@ 60268
香 60264
夜@@ 60228
东道国 60221
新闻@@ 60215
检察长 60191
燃烧 60176
最小 60173
W 60167
西亚 60159
长度 60156
登上 60130
分散 60117
交 60111
同一个 60110
发挥作用 60109
麽 60102
os 60089
依法 60074
桑德斯 60057
遏制 60036
ash@@ 60029
超市 60004
饥饿 59994
辅助 59982
自治 59965
布隆迪 59952
妮 59949
福克斯 59943
权益 59937
外界 59917
法定 59909
消耗 59905
人人 59893
迎来 59874
击中 59870
据介绍 59869
问@@ 59856
季后赛 59850
斯科特 59838
太多 59730
塑料 59703
现已 59695
籍 59690
金钱 59689
信中 59674
时机 59658
拿出 59650
外长 59648
反腐败 59648
写@@ 59585
一本 59571
温 59564
重庆 59562
哈萨克斯坦 59532
安静 59509
最快 59492
思维 59485
92 59448
抱歉 59442
窗户 59432
发表声明 59427
色彩 59423
领取 59383
英寸 59372
文件夹 59370
团伙 59367
创意 59325
同期 59322
资源管理 59315
毒@@ 59313
毫米 59290
抵制 59287
模块 59281
扫描 59273
义@@ 59266
倡导 59244
谨 59224
网球 59219
政 59216
用作 59185
农 59182
养老金 59181
妥协 59175
ub@@ 59172
一间 59162
去@@ 59151
大概 59146
寿命 59136
亲爱 59128
隧道 59111
行政当局 59093
致 59087
升 59064
多家 59052
塞浦路斯 59034
长达 59034
最具 59031
磨@@ 59026
法语 59023
外层空间 59021
太空 58945
110 58942
迎接 58937
阵 58917
耐@@ 58901
长期以来 58901
物体 58898
物@@ 58883
隆@@ 58880
潮 58879
1980 58854
一面 58826
enn@@ 58811
赤字 58796
视@@ 58788
怎么样 58788
股权 58786
环节 58747
次级 58719
健全 58714
发达 58710
市政府 58698
速 58684
学科 58683
挑选 58661
基层 58656
地上 58655
虚拟 58650
进去 58622
处决 58609
郊区 58607
即可 58591
图为 58567
塞尔维亚 58561
15% 58548
此案 58526
保守 58520
精确 58515
少@@ 58509
随 58464
无核武器 58451
家具 58447
影 58437
购 58434
杰克逊 58394
民事 58389
新闻部 58360
浮@@ 58343
~ 58342
素质 58331
体重 58303
4000 58297
97 58296
90% 58295
幸存者 58295
约会 58288
学家 58286
新鲜 58272
看待 58264
通用 58261
哪个 58243
镜 58239
县@@ 58232
亮相 58215
宽 58211
毁 58210
制约 58209
行驶 58191
努@@ 58164
神秘 58159
慢慢 58150
使命 58133
安全性 58104
打死 58095
展现 58091
ian@@ 58090
毛 58082
争夺 58072
触@@ 58060
纠纷 58023
雪 58023
同比 57993
被判 57969
数学 57949
大火 57948
利物浦 57916
93 57914
ack@@ 57906
作出贡献 57893
丧失 57885
莎 57783
凭借 57780
灵魂 57780
w 57770
Ar@@ 57752
高度重视 57715
必需 57694
运送 57677
威廉姆斯 57670
大麻 57638
解决问题 57616
默 57614
一度 57607
揭示 57591
增多 57585
斯坦 57576
漫长 57537
鸡 57512
宫 57510
喜@@ 57507
猪 57476
无需 57472
延@@ 57465
扬@@ 57461
干涉 57461
激进 57460
1500 57456
前来 57456
60% 57452
注 57434
哭 57432
号@@ 57417
ter@@ 57410
飓风 57409
旁 57408
组建 57407
英国@@ 57396
og@@ 57392
佛罗里达 57370
一笔 57365
交易所 57340
性暴力 57325
伤@@ 57320
利亚 57314
信念 57312
暗@@ 57294
副本 57282
频繁 57252
呈 57252
报名 57231
坦@@ 57223
全年 57208
支援 57196
船舶 57186
所示 57175
隐私 57148
延续 57138
温和 57127
侧 57104
旅馆 57104
模糊 57102
伴随 57100
观@@ 57088
创 57087
军人 57062
祈祷 57050
举 57033
高峰 57026
余额 57020
招聘 56995
尴尬 56980
iz@@ 56980
现@@ 56964
ay 56962
计@@ 56952
口头 56948
顶@@ 56935
共计 56930
高质量 56914
抢 56910
违法 56899
代表性 56871
战士 56871
强制 56864
禁@@ 56863
外勤 56844
除@@ 56805
校长 56798
配有 56791
核裁军 56790
财政部 56784
幅度 56777
ton 56745
保险@@ 56737
穿过 56651
备份 56644
乌 56643
ok@@ 56640
一大 56626
击 56611
端@@ 56606
暴雨 56596
葡萄酒 56588
市场@@ 56559
佛罗里达州 56557
高管 56535
人为 56525
豪@@ 56516
打印 56515
一词 56496
联邦调查局 56494
知名 56486
吹@@ 56466
地中海 56449
中小企业 56444
志愿 56384
鞋 56380
平方米 56374
考生 56366
爬 56366
自动化 56365
防范 56351
早就 56335
两国关系 56333
架构 56300
解 56292
宾 56284
英国人 56281
免受 56278
不但 56275
储蓄 56258
简要 56246
柬埔寨 56215
卫生部 56208
25% 56191
高温 56175
专辑 56169
延迟 56154
南斯拉夫 56108
关税 56078
镇@@ 56064
陪审团 56058
仇恨 56053
薪金 56040
片@@ 56039
糖尿病 56029
某@@ 56021
世贸组织 56014
头部 56008
名人 55996
资 55994
土壤 55993
水果 55955
为止 55950
Car@@ 55940
味道 55927
对不起 55914
心里 55910
以南 55895
洪@@ 55894
政客 55891
白俄罗斯 55886
突尼斯 55883
抓@@ 55854
之上 55845
软@@ 55834
屋顶 55831
技术@@ 55782
采@@ 55765
均衡 55759
呼@@ 55758
涨幅 55755
sa@@ 55745
虫 55739
mar@@ 55735
问责 55730
探@@ 55726
急@@ 55717
堂 55709
灰@@ 55672
GDP 55669
景 55629
扔 55595
销量 55583
第四次 55577
特权 55572
卡特 55557
不妨 55549
冻结 55538
违背 55492
铁 55486
缩短 55486
步行 55475
迫切需要 55474
义 55464
护士 55438
约束力 55404
q@@ 55369
故意 55367
称@@ 55355
彭@@ 55338
碗 55336
置于 55306
人均 55298
桥梁 55295
卡塔尔 55292
900 55269
入境 55267
迈克 55264
尼斯 55261
一对 55253
阁下 55197
曲@@ 55193
默认 55182
尽量 55180
一把 55177
站点 55172
击@@ 55166
吁请 55153
群@@ 55129
告@@ 55099
介入 55096
高级官员 55078
海盗 55067
亏损 55054
福特 55049
这张 55030
该党 55027
妹妹 55019
抑制 55015
改 55010
oo@@ 54997
伊朗伊斯兰共和国 54994
右 54921
CN@@ 54904
拉斯 54872
con@@ 54865
何时 54863
政治@@ 54849
雷斯 54844
堕胎 54818
报警 54797
摆@@ 54789
艰苦 54786
氏 54781
筹集 54762
泰勒 54762
牧师 54761
西岸 54752
钢 54738
批 54730
找出 54726
ff@@ 54704
切尔西 54681
亲自 54670
柏林 54645
事物 54635
裁判 54612
视觉 54603
善@@ 54576
导@@ 54563
仪 54560
调节 54541
服用 54533
下令 54519
军事行动 54507
宇宙 54487
穿越 54486
舒服 54474
犹太人 54468
管理员 54444
到期 54443
嘉@@ 54443
生产力 54437
70% 54416
行事 54401
宁@@ 54372
杂@@ 54371
差别 54344
陆@@ 54337
有时候 54319
对比 54315
川 54298
am 54295
败@@ 54293
人居 54272
赶@@ 54253
反而 54252
认同 54243
桌子 54241
路透社 54228
套@@ 54218
登录 54202
ek@@ 54195
含 54179
130 54158
it 54137
撤离 54104
实时 54103
地域 54094
伴侣 54079
延误 54076
一致性 54055
陈 54053
决策者 54049
预警 54043
for@@ 54036
警 54035
ell 54032
柯@@ 54003
94 53997
搜查 53975
ach@@ 53973
弱势 53971
分摊 53963
负债 53951
公认 53930
ey@@ 53922
排斥 53911
顺序 53900
将@@ 53891
带动 53886
下次 53884
物资 53874
四川 53871
院长 53863
朗@@ 53862
国内外 53847
骚扰 53821
之旅 53817
若@@ 53801
文化@@ 53800
时限 53797
合法性 53790
太阳能 53758
周边 53756
赛后 53723
Web 53713
未成年人 53699
ass@@ 53685
热门 53683
巨头 53680
引人注目 53675
gh@@ 53667
定为 53667
抢劫 53654
教科文组织 53652
志 53623
信用卡 53567
空军 53566
存 53565
阴谋 53557
国际标准 53552
难题 53537
停车场 53532
年间 53506
一贯 53500
娃 53466
修建 53457
折@@ 53438
支柱 53438
绩效 53437
秘鲁 53427
势@@ 53416
记@@ 53404
忘 53388
不可避免 53382
舞蹈 53308
拟 53306
旋转 53302
讲@@ 53288
举动 53284
汇@@ 53282
怀@@ 53279
购@@ 53256
还应 53255
无线 53254
阿塞拜疆 53213
to 53209
单方面 53194
节能 53193
匈牙利 53191
维多利亚 53185
便@@ 53163
盐 53151
车上 53141
发明 53115
射@@ 53107
到位 53105
函数 53089
一届 53086
再生能源 53069
伤亡 53066
较@@ 53043
诊所 53037
碎片 53017
恐怖袭击 53010
休@@ 53007
消防 52999
佛@@ 52992
焦虑 52982
公民权利 52973
制品 52939
约@@ 52937
层次 52933
1989 52884
语@@ 52865
大道 52839
伯格 52810
环境保护 52803
肌肉 52773
传输 52760
团@@ 52746
中文 52732
亲属 52731
标 52723
干旱 52716
江泽民 52689
目 52682
公共卫生 52668
枪击 52662
社会@@ 52652
吸烟 52651
戴维斯 52635
党派 52631
克尔 52625
热爱 52616
公共服务 52606
特区 52598
个人@@ 52593
ick@@ 52589
精英 52588
易 52577
日报 52569
厄立特里亚 52565
内陆 52554
灵@@ 52553
报酬 52545
浏览 52535
到处 52535
楼@@ 52507
迁移 52504
挖掘 52502
严肃 52483
大力 52447
减 52440
电子商务 52415
IT 52382
菲尔德 52381
试 52374
人选 52359
七 52348
奖牌 52346
射门 52337
必然 52331
友 52330
卫 52308
节奏 52308
码头 52289
新增 52288
上周五 52266
上海@@ 52263
还@@ 52215
线索 52213
手续 52209
j 52168
卧室 52150
州@@ 52138
保密 52113
申报 52113
把握 52108
想起 52095
评@@ 52076
地产 52074
百分比 52036
借鉴 52035
输给 52027
私@@ 52002
立刻 51999
进度 51994
八 51991
篇 51985
经委会 51975
通往 51959
格林 51948
主义者 51947
罗马尼亚 51916
猜测 51914
提取 51899
ation@@ 51892
东南亚 51891
书籍 51850
宗 51844
仅@@ 51806
网络@@ 51791
外观 51788
算@@ 51781
吸@@ 51767
零售商 51764
卢 51729
邮报 51712
罪名 51707
归@@ 51697
摩托车 51694
一款 51688
阳@@ 51688
冰 51685
成都 51683
NBA 51683
死者 51673
软 51648
疼痛 51631
几分钟 51616
一流 51616
自定义 51612
部件 51607
梁@@ 51566
即便 51536
00@@ 51527
盘@@ 51524
职等 51509
分列 51508
竞赛 51506
检 51493
直至 51468
南京 51462
德斯 51446
转会 51431
休闲 51420
稳 51399
邓@@ 51398
跌 51395
更具 51383
毒 51379
酒精 51360
差@@ 51347
画@@ 51338
活着 51328
v 51325
遣返 51296
刺@@ 51267
拿下 51252
耳@@ 51239
字@@ 51211
推特 51205
灾区 51188
封 51174
下周 51170
很小 51168
滚@@ 51147
响 51134
栏 51128
通货膨胀 51121
克里 51118
帝国 51116
讨论会 51115
观测 51105
预定 51103
该法 51103
普及 51092
荒漠化 51085
管理系统 51085
赞助 51077
门口 51063
纳税人 51044
格局 51033
缔结 51029
民主党人 51028
克里@@ 51015
里斯 50974
及@@ 50971
日志 50965
勇敢 50963
拉姆 50959
详细信息 50955
us 50946
士@@ 50933
久@@ 50921
将近 50919
本着 50911
读@@ 50909
安全@@ 50908
所属 50905
鲍@@ 50904
难民营 50903
印刷 50902
麦克@@ 50900
ic 50886
断@@ 50874
跌@@ 50859
科技@@ 50850
总量 50844
受损 50840
大厅 50836
坎@@ 50800
丝@@ 50792
捍卫 50765
照料 50760
印@@ 50751
菜@@ 50745
欧 50736
偏见 50735
福祉 50727
50@@ 50705
健身 50691
清洗 50684
品@@ 50650
吊@@ 50637
敌 50636
老年 50623
承@@ 50595
细菌 50593
粮食安全 50591
震@@ 50587
知情 50585
上半场 50568
诸多 50558
爆@@ 50558
资深 50550
ard 50497
刚才 50493
含@@ 50488
隔离 50477
限于 50467
恶劣 50464
抓获 50456
秀@@ 50446
门票 50444
创伤 50442
裁军谈判 50440
工业化 50438
波士顿 50434
街@@ 50427
尼泊尔 50423
透过 50420
狂@@ 50393
舞 50386
业@@ 50290
兴 50280
报复 50274
墨尔本 50272
事宜 50257
ex@@ 50250
个性 50243
虚@@ 50227
发给 50219
足@@ 50190
取得成功 50185
朗 50183
守则 50182
下半场 50176
温室 50159
勇气 50157
回去 50153
车站 50136
帮@@ 50125
电源 50107
完@@ 50101
oc@@ 50099
ad 50084
检@@ 50065
卡梅伦 50047
耐心 50045
术语 50036
冲 49986
粉 49985
传球 49978
种@@ 49972
胜@@ 49970
府 49967
护照 49957
残酷 49895
歌@@ 49891
三大 49886
规约 49879
缺席 49879
散 49876
曾@@ 49844
无人 49815
等级 49807
政治权利 49800
针对性 49788
郑@@ 49785
工作者 49780
结 49773
归 49772
撰写 49772
乐趣 49754
运动会 49736
划分 49734
证词 49706
卖淫 49677
ber@@ 49666
职权范围 49650
反复 49641
肯@@ 49629
再也 49629
按@@ 49625
收藏 49609
评级 49581
究竟 49575
校园 49555
模板 49535
刚@@ 49533
签约 49518
商业@@ 49502
船员 49497
黄 49476
降雨 49467
计 49437
祖@@ 49418
限 49399
要是 49384
细则 49371
柱 49366
安德鲁 49361
筛选 49348
促请 49344
射击 49340
自治区 49337
没收 49326
陆军 49317
点评 49293
幅 49273
接口 49240
作物 49232
国家元首 49194
强制性 49193
谷 49192
银 49190
阴影 49172
推特上 49164
旧金山 49161
布局 49157
出场 49148
恰当 49148
性格 49140
停车 49117
演 49099
脸上 49097
大胆 49084
驻@@ 49082
脱 49069
相机 49064
肖@@ 49063
经济危机 49050
借口 49035
可靠性 49029
什么样 49022
负面影响 49015
ation 49013
公报 49011
毕业生 49011
众@@ 49000
房产 48990
痛@@ 48983
此项 48974
两倍 48960
演习 48952
艾伦 48927
再度 48923
欢@@ 48886
三分之二 48885
欧洲议会 48848
相结合 48846
驻地 48827
大韩民国 48818
论点 48798
亲密 48792
该部 48783
句 48773
定制 48771
最长 48758
另一名 48754
粮农组织 48734
助手 48696
孤立 48680
疫情 48677
颁发 48659
克拉克 48651
阵@@ 48650
主意 48642
外交官 48640
摄影 48631
积分 48626
一国 48612
言论自由 48605
重量 48587
分庭 48587
充分利用 48587
ra 48584
ast@@ 48584
核实 48575
跨@@ 48568
板块 48567
监察员 48562
买家 48556
睡眠 48555
链 48543
服务业 48514
原理 48508
平时 48450
布尔 48444
控 48424
定居点 48393
职工 48392
性虐待 48387
巴格达 48339
视察 48337
室内 48336
初期 48324
景@@ 48321
世界卫生组织 48321
这类 48317
空袭 48300
淡@@ 48299
贴@@ 48267
核定 48257
中旬 48243
12.@@ 48242
承包商 48235
领 48221
既然 48207
孔@@ 48206
东方 48201
ah 48195
社@@ 48169
等@@ 48144
累计 48138
贵@@ 48104
局@@ 48104
查尔斯 48082
激动 48081
申请人 48077
水资源 48046
麦凯恩 48045
审批 48041
180 48018
福德 48008
肿瘤 47984
看出 47984
走势 47962
上网 47955
流动性 47944
收回 47929
无论如何 47928
依@@ 47928
09 47920
确信 47918
照@@ 47914
职@@ 47912
协 47910
计划生育 47909
真诚 47903
可疑 47899
菲尔 47888
标准化 47874
某种程度 47869
广阔 47865
暴@@ 47838
尾 47832
喜爱 47827
节点 47824
汗 47804
保加利亚 47753
忽略 47749
夜晚 47748
半决赛 47745
低收入 47733
本土 47732
运营商 47724
雅 47718
瑟 47711
优点 47693
锁定 47688
专门机构 47688
6000 47674
兴奋剂 47671
底部 47670
斯里兰卡 47664
激情 47652
乳@@ 47643
配套 47619
05 47615
议长 47611
船上 47607
民进党 47595
免疫 47579
长远 47575
挣扎 47570
愿景 47569
茶@@ 47567
很长 47551
微博 47544
史蒂夫 47542
欧洲杯 47539
插入 47515
治 47500
务@@ 47494
富裕 47492
行程 47478
当晚 47475
杨 47458
尊敬 47452
北美 47447
拿@@ 47439
毫无 47438
哥哥 47432
28@@ 47425
城区 47418
这会 47412
住所 47408
两场 47359
演变 47351
因特网 47351
集成 47347
岩 47345
静@@ 47336
近东 47336
流入 47332
名叫 47319
纽@@ 47304
监@@ 47299
加盟 47299
池 47292
境外 47281
供水 47274
引擎 47272
ph@@ 47269
内罗毕 47260
互@@ 47259
注入 47252
这时 47230
微软 47190
笔@@ 47185
涨 47143
率先 47125
讨厌 47124
回国 47108
着@@ 47075
穆罕默德 47065
不足以 47061
人格 47054
协调一致 47050
留 47045
飞往 47040
100% 47035
夫妻 47034
经济学 47010
决@@ 46988
愚蠢 46983
操作系统 46967
租金 46957
封闭 46941
美食 46926
当作 46926
队@@ 46922
Bar@@ 46916
导航 46910
礼 46902
容 46901
难度 46901
量@@ 46892
医疗保健 46859
前任 46858
武汉 46857
首长 46847
从中 46841
紧迫 46810
有个 46809
纯@@ 46809
顿@@ 46806
丢失 46800
剑 46798
六个月 46784
朝着 46762
开办 46739
衣@@ 46731
曼谷 46725
吃饭 46721
BC 46720
详情 46707
专用 46704
赚 46697
教育部 46693
宏观经济 46690
报表 46680
复兴 46675
大气 46671
离职 46657
乱@@ 46656
话@@ 46641
写作 46592
1988 46560
冬@@ 46552
宾@@ 46543
黄色 46517
九 46504
广 46490
里程碑 46481
同情 46475
营@@ 46468
迈阿密 46456
富 46453
11.@@ 46452
解放 46421
杰夫 46420
损伤 46415
春 46403
审 46396
位@@ 46391
妈 46383
债 46380
观 46379
修 46350
党员 46345
160 46335
刺 46326
捷克 46319
.1 46318
心情 46295
com@@ 46294
钟 46285
混@@ 46267
素@@ 46244
侵略 46242
鼓舞 46238
尚@@ 46214
跨越 46211
论述 46203
规划署 46193
规律 46192
音@@ 46182
据@@ 46174
法律援助 46165
街区 46120
目击者 46118
不让 46113
板@@ 46111
经贸 46099
筹措 46095
的@@ 46091
会计准则 46085
耶稣 46069
杜 46016
至@@ 46016
度@@ 46006
犹太 46006
杀人 46002
道理 45989
无辜 45978
然@@ 45977
指称 45976
简报 45967
慈善机构 45954
就@@ 45939
大批 45929
特使 45915
浏览器 45908
级@@ 45907
财务报表 45898
偶尔 45894
06 45889
也就是说 45889
播出 45866
第二届 45857
合成 45849
彩 45849
认@@ 45840
偷@@ 45827
待@@ 45818
尔特 45811
施加 45809
钢@@ 45798
桥@@ 45787
08 45776
财@@ 45773
多哈 45772
炎 45750
当日 45732
矿 45730
纤维 45728
前后 45728
印 45688
杭州 45681
占@@ 45656
拥抱 45653
上演 45653
诗 45650
汇编 45639
27@@ 45634
牵@@ 45628
一代 45613
01 45608
审核 45604
薄 45597
co 45591
il 45584
弟弟 45579
弱势群体 45574
all 45558
并于 45543
办公 45532
西藏 45529
午餐 45528
贩卖 45505
振@@ 45484
春天 45483
诗@@ 45481
脂肪 45472
Facebook 45471
生涯 45460
种种 45431
睡觉 45424
per@@ 45423
隐@@ 45418
景点 45411
金融市场 45405
呀 45373
心脏病 45364
追究 45362
掩盖 45361
晚餐 45343
面包 45331
简@@ 45329
第一届 45317
游泳池 45313
消灭 45311
国旗 45289
ce 45280
浪漫 45253
备@@ 45249
终@@ 45247
井 45241
点球 45235
氛围 45233
提问 45209
案@@ 45209
玩@@ 45197
稳定性 45164
马尔@@ 45157
智@@ 45141
终身 45131
今@@ 45131
岩石 45124
振兴 45117
恐吓 45107
迈出 45084
懂 45075
诚实 45068
开会 45068
内外 45058
商标 45055
噪音 45035
为例 45031
气象 45026
lu@@ 45020
房价 45014
艘 45001
扭转 44994
秋@@ 44989
轰炸 44982
关键作用 44939
oh@@ 44937
各州 44928
eh@@ 44912
CA@@ 44909
警报 44879
att@@ 44876
谈谈 44874
不知 44869
抨击 44852
蛋白 44843
电视@@ 44832
ist@@ 44829
容@@ 44824
双重 44804
河流 44788
货@@ 44781
志愿人员 44774
负面 44747
作证 44737
乘 44734
研究员 44729
教皇 44723
操纵 44709
餐 44697
很棒 44685
有所增加 44662
第一步 44654
磅 44650
虎 44645
营业 44633
区域合作 44608
展@@ 44568
一颗 44564
山东 44550
智能手机 44549
诞生 44530
阿拉伯叙利亚共和国 44521
下调 44507
举报 44501
伊斯兰教 44464
发现自己 44448
均@@ 44446
穿@@ 44446
绝望 44424
三种 44418
俄亥俄州 44407
开启 44400
息 44394
矿@@ 44394
初选 44394
Sp@@ 44385
阵营 44380
公开赛 44376
小孩 44371
水域 44367
蛋 44364
当今 44362
钥匙 44360
医@@ 44352
慢 44351
轻 44349
色情 44349
耶路撒冷 44343
国际货币基金组织 44334
牛奶 44333
嘴 44294
仓库 44290
开发商 44287
示例 44282
韦 44271
ce@@ 44268
饭店 44267
汞 44260
上来 44250
全力 44239
系列赛 44228
黑塞哥维那 44201
ver@@ 44160
坛 44142
明智 44125
晚间 44123
视图 44119
中非 44117
销售额 44106
税务 44101
处在 44088
后期 44086
家乡 44044
加纳 44038
几位 44033
短信 44031
上限 44023
放心 44012
利息 43997
经验教训 43982
里奇 43944
林业 43937
着重 43935
哲学 43927
特遣队 43927
流通 43906
负有 43906
定价 43895
历史性 43890
井@@ 43887
中等 43870
ham@@ 43854
自由@@ 43839
百分点 43814
我谨 43814
伍德 43812
客场 43810
针 43809
三人 43806
集合 43796
含义 43787
英国政府 43771
厄瓜多尔 43761
车道 43753
失 43750
中共 43748
商场 43743
召集 43740
某人 43724
主角 43719
特里 43701
挂@@ 43700
稿 43691
安全部门 43678
好事 43671
安哥拉 43663
一路 43647
造型 43646
印尼 43632
危及 43624
上班 43622
查阅 43622
排放量 43619
泰晤士报 43609
败 43584
婚@@ 43578
天然 43568
场合 43562
略 43550
脆弱性 43547
股@@ 43533
角@@ 43519
奖项 43507
圈@@ 43503
占有 43490
欧洲人 43479
经销商 43477
榜 43443
不敢 43432
枪@@ 43420
保守派 43394
走私 43388
甲@@ 43364
显@@ 43344
对应 43337
疟疾 43335
百万 43333
协@@ 43332
外交政策 43325
日历 43322
员@@ 43317
○ 43301
农产品 43291
轴 43283
丰@@ 43282
那儿 43280
杀@@ 43272
动议 43264
征@@ 43263
盗窃 43234
洗 43233
术 43233
停火 43224
对面 43216
信誉 43213
将要 43212
禁区 43212
佩 43211
家庭成员 43207
激发 43203
人会 43202
本报 43200
帽 43174
und@@ 43174
芬 43168
全场 43138
放置 43130
露@@ 43129
马德里 43121
竞选活动 43115
武 43114
ge 43113
危地马拉 43096
塞尔 43082
限@@ 43078
备受 43076
亚太 43037
称赞 43030
秋季 43019
更多地 43012
ran@@ 43012
辉煌 43007
国家队 43002
独立性 43002
精力 42996
宠物 42993
该剧 42990
起飞 42953
司长 42948
凯尔特人 42943
好好 42943
维奇 42941
麻@@ 42936
世界@@ 42933
截止 42926
档 42913
岸 42910
理性 42910
一体 42909
经济社会 42903
煽动 42899
仪器 42885
无视 42874
26@@ 42865
组织者 42865
世卫 42849
猛@@ 42846
获@@ 42842
执@@ 42835
印发 42832
虚假 42821
国有 42799
所有者 42788
缴纳 42787
塑造 42785
结构性 42759
裁谈会 42749
水中 42735
全球性 42732
诉诸 42715
海域 42704
阿里 42703
索赔人 42699
官@@ 42689
心态 42678
类@@ 42674
容量 42658
目光 42658
mer@@ 42652
ald@@ 42649
插@@ 42645
不停 42631
经纪人 42621
广西 42621
东亚 42596
一枚 42591
景观 42590
样本 42577
启@@ 42573
汽车@@ 42569
尾@@ 42563
荣@@ 42560
泡沫 42556
观察团 42550
无数 42546
佳@@ 42545
国际法院 42524
紧 42522
移@@ 42519
烧@@ 42511
演@@ 42509
疗法 42499
控制@@ 42495
街上 42486
上赛季 42486
混凝土 42481
消极 42470
白天 42466
洋 42465
喷@@ 42462
市区 42448
强硬 42445
配 42432
逃 42416
继@@ 42395
段时间 42375
公共汽车 42373
一艘 42361
喜剧 42357
ine 42356
年内 42328
床上 42328
怕 42324
顶部 42322
大幅度 42270
德拉 42263
尽早 42235
豆@@ 42224
调用 42215
雄@@ 42204
摄影师 42197
硬 42181
席 42180
正面 42167
勇@@ 42114
总干事 42110
撤出 42085
所得 42084
学位 42073
省份 42063
艺术@@ 42048
背 42043
统@@ 42023
曼彻斯特 42013
信息系统 42013
讽刺 42010
审讯 42010
风景 41990
大桥 41979
复杂性 41979
台北 41959
kh@@ 41940
查找 41916
石头 41913
胶@@ 41910
2.5 41904
持@@ 41897
民意调查 41883
戏@@ 41879
航线 41879
培训班 41878
兵@@ 41875
旅 41858
需@@ 41846
ort@@ 41840
在场 41838
势力 41819
阐明 41812
距 41810
巧克力 41779
球星 41753
同胞 41709
撤回 41708
稳@@ 41700
惊喜 41684
生计 41676
03 41671
措辞 41669
耶和华 41660
鸡蛋 41658
市委 41652
开玩笑 41650
内存 41649
提高认识 41636
早已 41619
战场 41616
半岛 41614
ern@@ 41612
har@@ 41607
增速 41606
僵局 41603
原料 41595
斯基 41589
不如 41583
起点 41579
国际法庭 41577
卓越 41569
日元 41566
our@@ 41564
负@@ 41560
等于 41557
征求 41540
市场经济 41531
欲@@ 41523
各种各样 41520
代替 41520
旅程 41513
Cor@@ 41498
时光 41491
增至 41472
昆@@ 41470
早晨 41458
孕妇 41455
aj@@ 41450
看好 41444
轿车 41436
高端 41436
团长 41434
体内 41429
行列 41416
业界 41397
抗 41392
接管 41367
王国 41357
此间 41355
El@@ 41343
反叛 41341
配偶 41337
.@@ 41336
开采 41334
复员 41324
嘿 41312
慷慨 41301
政府首脑 41291
服务@@ 41283
动物园 41282
赠款 41271
收益率 41269
1.5 41268
模特 41258
南南合作 41258
敬@@ 41252
Un@@ 41234
宝宝 41230
认知 41224
第一季度 41219
id 41217
ov 41201
体面 41186
紧缩 41182
纪@@ 41181
抵消 41180
可见 41174
oy@@ 41160
高等法院 41149
恐怕 41144
紧张局势 41143
独自 41137
娅 41137
聊天 41130
排雷 41126
制片人 41126
霍尔 41122
bar@@ 41122
29@@ 41116
哥斯达黎加 41107
突@@ 41106
多地 41093
输 41083
良@@ 41083
创下 41074
Ad@@ 41064
冒 41054
沙漠 41046
化学武器 41034
凯 41022
债权人 41021
一行 41007
薄@@ 41006
预见 41000
夺取 40983
保养 40967
整理 40963
功@@ 40951
上任 40950
行政@@ 40939
朝鲜民主主义人民共和国 40938
直 40923
堆 40911
银行业 40909
帅 40888
破裂 40881
叙述 40877
供应链 40873
夜间 40873
工程@@ 40870
闪@@ 40863
跳舞 40863
扭曲 40858
免遭 40849
纯粹 40847
泥@@ 40822
不可思议 40788
发电 40788
沉默 40781
野生动物 40762
En@@ 40747
热点 40736
依 40732
国际奥委会 40718
行李 40701
折扣 40677
蓝 40676
维斯 40673
ef@@ 40652
已知 40647
圣诞 40644
中止 40638
新政府 40627
稍@@ 40622
内战 40605
注射 40602
不必要 40590
碰撞 40581
院校 40579
乡@@ 40577
Le@@ 40574
手指 40573
不太可能 40567
涉@@ 40567
tr@@ 40566
自由化 40558
低迷 40548
宋@@ 40546
逃@@ 40529
蛋糕 40525
等到 40512
传达 40491
瓦尔 40488
营造 40488
标识 40484
京 40480
大屠杀 40462
荣 40461
托尼 40458
自行 40457
罚 40450
行政部门 40415
事务所 40408
爱丁堡 40408
举@@ 40407
续 40402
般的 40397
宽@@ 40396
梦@@ 40395
六年 40383
停留 40372
内心 40367
Wil@@ 40360
本案 40338
发育 40329
日常生活 40328
不太 40325
浓@@ 40324
翼 40302
走廊 40290
输@@ 40276
乍得 40276
展望 40262
父 40258
参照 40255
舍@@ 40250
经济衰退 40239
庆 40222
be@@ 40215
钟@@ 40199
米勒 40185
净@@ 40181
大城市 40179
熊 40179
套房 40166
万吨 40165
阶层 40150
1970 40145
第二轮 40141
帽子 40139
啦 40133
早日 40119
华尔街 40112
ct@@ 40105
登记册 40103
归咎于 40071
难以@@ 40070
多元 40058
四名 40052
一百@@ 40047
冰箱 40042
命@@ 40038
汤 40033
征收 40030
汁 40028
生于 40027
尖@@ 40018
会面 40016
car@@ 40001
带走 39999
急剧 39998
挡 39993
140 39980
脑 39979
在家 39969
市政 39953
信通 39952
奇迹 39949
值得注意 39949
挺 39948
郭@@ 39939
声誉 39937
场上 39934
生育 39933
特工 39933
吉姆 39924
tt@@ 39919
合约 39916
韩 39912
And@@ 39904
里德 39885
够 39876
高科技 39872
描绘 39871
宜@@ 39864
派@@ 39849
Sch@@ 39846
岛上 39844
开通 39836
音乐会 39817
腾 39815
树木 39797
多万 39796
07 39793
米兰 39778
证件 39768
精神@@ 39758
卡拉 39755
支配 39749
金融服务 39749
论@@ 39748
冬天 39743
碎 39736
轻武器 39696
科研 39681
二是 39678
伤势 39669
执法人员 39668
亨利 39659
ord@@ 39654
饭 39641
进而 39625
内在 39623
器官 39622
uk@@ 39618
店@@ 39612
煤炭 39611
不佳 39610
su@@ 39602
时报 39600
测@@ 39598
领导层 39594
城堡 39586
津巴布韦 39585
准 39565
格尔 39562
票@@ 39558
变更 39551
感激 39550
委@@ 39545
载@@ 39543
转交 39541
生气 39538
证@@ 39536
往来 39523
抵抗 39517
谢 39516
极端主义 39509
铭记 39509
纽约市 39508
桶 39505
千 39503
天使 39473
撒哈拉 39460
潘@@ 39456
回复 39456
看作 39455
陪同 39446
编 39441
枪击案 39432
冷静 39427
否决 39426
坦 39425
难以置信 39425
浓度 39416
图形 39412
露 39403
亚美尼亚 39399
捐助国 39393
借助 39389
汽@@ 39385
10.@@ 39378
迈@@ 39376
主演 39372
兑现 39371
坚称 39352
东北 39332
请@@ 39327
没想到 39320
资@@ 39306
一事 39299
The@@ 39295
荣幸 39272
当事方 39267
许@@ 39262
毫不 39247
户@@ 39247
研制 39246
条文 39243
拖 39241
铜@@ 39237
粗@@ 39228
萨拉 39226
回避 39218
04 39212
变量 39210
加密 39205
事发 39188
凯特 39184
冷战 39182
唱@@ 39182
说道 39180
纽约时报 39177
坑 39169
西北 39163
援助团 39163
David@@ 39161
纲要 39153
23@@ 39152
与会 39145
物业 39142
羊 39141
互利 39141
墙上 39137
休 39135
www 39123
第五@@ 39118
酶 39087
电网 39087
访@@ 39086
西班牙语 39078
航行 39069
信件 39059
甜@@ 39059
盒 39049
警察部队 39046
虽 39045
必不可少 39003
要点 38983
舱 38983
钢铁 38971
ir 38955
ess@@ 38953
简直 38951
曝光 38951
打出 38948
枪手 38943
蛋白质 38932
佐@@ 38924
遗传 38918
lin@@ 38908
所在地 38891
咨询服务 38885
国别 38875
排队 38870
搭档 38866
廷 38865
以至于 38864
同等 38860
装修 38860
货车 38860
杰出 38858
止@@ 38828
跟随 38825
播 38820
职员 38816
联刚 38815
院@@ 38813
伟 38801
亮点 38800
务实 38794
规格 38789
― 38778
据信 38776
出行 38771
巡@@ 38770
公 38764
℃ 38748
阿森纳 38746
镇压 38731
木材 38725
默克尔 38721
帖子 38698
知@@ 38672
减缓 38663
险@@ 38659
02 38648
哈里 38639
录取 38639
美国队 38637
24@@ 38626
框 38608
贩毒 38602
奥斯卡 38600
ine@@ 38599
专项 38593
酸@@ 38590
25@@ 38576
莱斯 38572
烧 38568
安娜 38561
田径 38561
舆论 38556
而已 38556
不罚 38555
蛇 38554
树立 38550
液体 38546
灯光 38539
首位 38532
拓展 38530
相关性 38529
肯尼迪 38524
亚马逊 38514
贯彻 38513
风险管理 38494
跌幅 38493
鹰 38489
天主教 38485
30@@ 38480
中亚 38467
纪录片 38457
这支 38448
facebook 38446
京都 38433
展出 38412
海湾 38409
切割 38395
饮用水 38394
包裹 38375
校@@ 38369
蒙特利尔 38363
破坏性 38361
今天上午 38358
退役 38353
舞@@ 38353
这条 38343
最有 38340
帮忙 38330
谋@@ 38327
正好 38315
姐姐 38310
摩@@ 38309
广播公司 38298
表示感谢 38298
残忍 38274
洗钱 38273
拜@@ 38272
界限 38270
人事 38269
献@@ 38269
oun@@ 38259
喊 38256
事后 38251
欺骗 38237
恰@@ 38211
反思 38211
东北部 38202
力求 38201
晋级 38196
漏洞 38180
键 38169
寒冷 38168
柳@@ 38164
魔@@ 38157
契约 38148
拼@@ 38137
湿 38137
别墅 38135
扶持 38128
厘米 38124
缺@@ 38117
测 38109
科学@@ 38102
开辟 38101
res@@ 38100
玉米 38093
灵感 38089
错@@ 38085
多岁 38073
分支 38063
正规 38062
爱好者 38046
尔顿 38045
打印机 38042
姿态 38024
疑问 38022
优雅 38008
录音 38008
Inc 38001
退化 37999
吸毒 37986
主管部门 37985
宽松 37971
跨界 37955
扣押 37951
实用 37937
降落 37933
所列 37923
gu@@ 37920
心中 37917
助长 37914
斯顿 37911
高尔夫 37892
中非共和国 37887
分数 37884
可信 37883
翻 37871
瓜 37864
二氧化碳 37859
卷@@ 37838
期货 37832
使用者 37830
跟着 37829
称之为 37826
瞬间 37816
庆@@ 37805
订立 37803
请参阅 37797
决定性 37779
ner 37762
终了 37757
ath@@ 37754
寄@@ 37743
百 37741
篮球 37741
关键问题 37731
习俗 37715
叫@@ 37713
派对 37713
煤@@ 37704
宣传@@ 37702
买卖 37693
猜 37689
曲线 37682
跃@@ 37677
不良 37674
梁 37645
有待 37639
ers@@ 37638
分担 37634
不明 37625
有意 37623
中将 37619
神奇 37617
忠诚 37616
国民经济 37616
pro@@ 37615
菲利普 37597
干燥 37586
萨尔 37581
十一届 37567
东欧 37564
生病 37557
灰色 37547
务 37535
不受 37524
美国有线电视新闻网 37521
这使 37507
七个 37501
必要措施 37482
数千 37478
SA@@ 37475
密集 37464
沉重 37448
弗吉尼亚 37448
陆续 37443
习近平 37429
出庭 37413
头上 37406
摄像机 37391
闻 37368
一揽子 37349
空白 37337
半个 37320
养护 37314
贸易法 37307
曼城 37288
女生 37285
心灵 37280
涨@@ 37262
进行谈判 37260
穆雷 37252
鱼类 37249
rist@@ 37246
加深 37236
喝@@ 37223
灵 37209
舍 37197
量化 37196
擦@@ 37191
癌 37186
如同 37178
入口 37177
图表 37173
回合 37170
领空 37152
廉价 37143
怪 37135
健@@ 37134
.2 37131
繁忙 37129
鉴定 37120
一员 37114
一会儿 37107
路边 37102
配额 37100
足协 37098
留给 37092
薪 37091
幻想 37089
柜 37083
恐慌 37080
售价 37074
两大 37074
外资 37060
模@@ 37054
雷达 37054
汽油 37053
看不到 37053
南北 37052
敏 37034
厚@@ 37022
7000 37021
好转 37016
没什么 36975
不大 36974
安东尼 36962
人工 36959
移植 36955
不适 36951
个体 36945
罐 36944
代理人 36940
昌 36934
辉 36932
残@@ 36924
被困 36922
波特 36918
说出 36918
分区 36917
椅子 36910
胸@@ 36903
一处 36903
差不多 36879
总局 36874
斯塔 36872
河南 36872
卫生@@ 36865
ez 36863
勘探 36858
难道 36842
爱心 36816
青 36809
判定 36797
生产商 36792
复原 36790
Ma@@ 36786
容器 36779
350 36778
污染物 36757
余 36752
演示 36725
老鼠 36723
传染病 36721
澳门 36718
伍@@ 36701
高水平 36694
疏散 36690
炉 36683
布雷 36680
不可@@ 36672
寻@@ 36664
祖国 36657
政府部门 36643
亩 36640
困惑 36632
时至 36630
冒@@ 36627
低估 36624
奈@@ 36616
国防部长 36607
一同 36600
熊@@ 36594
符号 36593
征 36591
战斗人员 36589
烟草 36582
神圣 36563
铜 36560
子弹 36548
看过 36548
众所周知 36538
政变 36537
蒙古 36529
会费 36523
粉@@ 36518
隔@@ 36510
游说 36505
奎@@ 36496
静 36491
基本权利 36473
宝贝 36460
哥@@ 36454
鼓@@ 36452
技术转让 36438
态 36435
内政 36431
减免 36425
健康状况 36408
匿名 36405
青年人 36405
副总裁 36404
叛乱 36400
处@@ 36380
收养 36372
激增 36368
一类 36365
始于 36357
特许 36355
冰岛 36353
胆@@ 36352
节约 36344
推移 36343
而来 36339
老将 36329
简短 36317
幼@@ 36316
库尔德 36316
补助 36312
大师 36301
激活 36280
币 36251
$ 36244
扣 36230
弄@@ 36218
填@@ 36217
货币政策 36215
概算 36205
站@@ 36201
意识形态 36201
礼@@ 36197
冠 36185
生物@@ 36184
浙江 36184
工作量 36181
宾馆 36164
寻常 36157
相比之下 36157
成年 36151
眼镜 36148
面试 36135
之处 36125
散步 36124
增幅 36122
过后 36117
答应 36106
边缘化 36093
哪儿 36080
受灾 36077
乙@@ 36071
付费 36059
交叉 36050
血管 36033
第一天 36031
本报@@ 36013
各个方面 36005
孤独 36004
经合组织 36001
文化遗产 35997
滑 35980
潜@@ 35977
芯片 35966
# 35942
上市公司 35937
审评 35933
指导方针 35920
公交车 35911
无限 35907
顺 35906
版@@ 35905
荷@@ 35905
邮政 35903
悲伤 35900
权能 35899
牙@@ 35890
学员 35887
师@@ 35879
越过 35855
命中 35845
误@@ 35844
卷入 35842
拦截 35840
贝克 35818
创办 35814
形态 35812
传媒 35809
橄榄球 35807
处理器 35806
轮胎 35801
ank@@ 35801
核可 35798
靠@@ 35794
盛 35789
星期日 35756
非正规 35749
范畴 35742
int@@ 35733
无人机 35699
接纳 35698
丹尼尔 35692
多元化 35689
Har@@ 35686
局部 35679
容纳 35678
海啸 35676
坚@@ 35668
电缆 35665
置@@ 35664
庭 35660
可行性 35658
共同@@ 35632
争吵 35629
Com@@ 35613
临近 35609
扣@@ 35609
二战 35591
十 35585
济@@ 35584
鲜@@ 35575
控制系统 35571
车主 35567
略@@ 35567
救护车 35560
13.@@ 35544
思路 35532
控@@ 35526
工作@@ 35520
七年 35516
南海 35511
竞@@ 35506
保护区 35502
得出结论 35496
窗 35486
好消息 35484
哪@@ 35480
人民@@ 35477
显而易见 35472
缺口 35472
母 35460
公主 35455
传奇 35452
入学 35451
姑娘 35448
完整性 35446
雅典 35440
悬@@ 35426
违规 35401
陆地 35393
客车 35392
退 35391
农村妇女 35390
解除武装 35384
发了 35382
从不 35374
少女 35362
尼尔 35339
结算 35339
艰巨 35338
统筹 35335
名列 35333
财务@@ 35328
受过 35323
迪拜 35320
码@@ 35319
黑客 35298
路线图 35291
赚钱 35268
赖@@ 35257
赛前 35242
核能 35239
ett@@ 35231
众议员 35227
合作社 35224
篮@@ 35223
瑟@@ 35211
厕所 35209
水泥 35201
一线 35200
PC 35198
想想 35188
载于 35179
简介 35166
服@@ 35161
随机 35153
涅@@ 35148
霍华德 35143
期内 35140
滑雪 35132
除此之外 35131
激@@ 35122
向上 35116
折 35114
三项 35097
仇外 35093
赛车 35092
世界贸易组织 35083
榜样 35067
奥林匹克 35053
图书 35043
回升 35042
包围 35041
招生 35039
波多黎各 35037
误解 35037
ish@@ 35035
文献 35029
行星 35013
筹备工作 35004
1986 35000
解读 34991
税@@ 34987
迷人 34979
录 34978
40@@ 34975
计量 34974
工业@@ 34973
扫@@ 34969
业内人士 34963
程@@ 34945
手里 34933
层@@ 34926
骗 34918
演奏 34903
坎 34900
禁运 34899
火车站 34896
服务中心 34883
假如 34878
供电 34877
太太 34875
膝盖 34873
救灾 34866
右翼 34860
替换 34857
给@@ 34855
劳 34843
牙买加 34841
与@@ 34835
海洋法 34832
字母 34830
深感 34829
生产能力 34815
态势 34812
各大 34809
第十@@ 34809
人权法 34807
焦@@ 34803
cor@@ 34796
光明 34793
瘤 34791
亚利桑那州 34788
激光 34785
厨师 34784
月球 34777
肥胖 34771
尽力 34767
签字 34766
登陆 34761
怀特 34760
付@@ 34760
令人震惊 34757
感动 34756
无线电 34755
垄断 34755
工商@@ 34749
乌拉圭 34732
价@@ 34729
金融@@ 34723
南亚 34715
维生素 34713
用水 34708
编号 34698
几内亚比绍 34686
坚信 34683
用以 34681
布莱尔 34675
歧视性 34671
欧洲委员会 34668
厚 34663
巨额 34653
ies 34647
招 34646
异 34628
流感 34628
幕后 34623
幼儿 34621
里克 34619
姐妹 34612
身份证 34611
剧@@ 34599
New@@ 34593
天赋 34592
心理健康 34588
管理@@ 34586
功率 34581
云南 34577
锡@@ 34576
语音 34567
丘@@ 34564
版权 34552
裁员 34549
多久 34547
据此 34545
劲 34541
首轮 34535
技术支持 34514
结构调整 34511
IS@@ 34507
ge@@ 34503
整治 34503
归还 34493
布兰@@ 34485
座@@ 34484
众 34480
old@@ 34475
塞内加尔 34473
讲座 34470
阿勒颇 34470
送给 34451
途中 34448
多方面 34445
幼儿园 34444
航@@ 34441
国债 34435
睡@@ 34431
飘@@ 34430
有毒 34429
沟 34428
电梯 34421
弗兰克 34418
感到遗憾 34414
怎么办 34400
平板 34397
指向 34391
肇事者 34389
签 34387
正当 34386
外出 34366
跨国公司 34364
累 34349
驾车 34332
Re@@ 34331
石油@@ 34322
意志 34315
努 34315
ear@@ 34308
高潮 34303
做些 34303
反对党 34302
发展权 34301
上方 34286
海南 34280
SP@@ 34276
bu@@ 34272
上年 34266
预报 34266
门槛 34261
课题 34261
国内法 34259
部位 34256
幕 34238
sch@@ 34237
忍受 34228
天堂 34216
两级 34215
沿@@ 34210
热带 34209
当场 34201
清真寺 34184
第一阶段 34146
DNA 34124
醒 34106
视野 34105
下旬 34095
伊丽莎白 34089
坚强 34065
行人 34063
样品 34058
车祸 34058
第一批 34053
谈@@ 34050
雅虎 34047
捷克共和国 34030
原油 34023
雄 34023
枪杀 34022
分手 34018
总决赛 34008
告 34003
否定 33997
性感 33990
尿@@ 33987
玻利维亚 33986
司@@ 33981
ust@@ 33973
伟@@ 33971
急 33970
恒@@ 33961
当地人 33961
国会议员 33955
案情 33950
置 33938
仿真 33926
头脑 33907
新疆 33903
开工 33895
赞@@ 33882
没事 33874
费城 33866
开关 33862
模 33858
守 33857
弹性 33852
三星 33840
速@@ 33828
填写 33826
变暖 33825
教室 33818
野生 33809
巨人 33803
岩@@ 33800
斗@@ 33784
控制权 33765
直播 33762
散发 33746
一次性 33740
中美洲 33739
第三季度 33737
浅@@ 33734
骚乱 33730
诚信 33719
拥挤 33716
型@@ 33707
强调指出 33705
摩 33704
连胜 33684
灾难性 33684
饼 33683
采矿 33674
漫@@ 33673
违法行为 33665
转递 33660
审视 33640
派出所 33626
聘请 33621
锅 33608
间谍 33606
侨@@ 33601
来访 33590
课@@ 33589
鼻子 33581
A股 33581
搬迁 33581
嘲笑 33575
法新社 33573
犯罪行为 33571
摊款 33561
海峡 33552
高考 33552
不人道 33546
珠@@ 33528
阿萨德 33520
沪 33516
ong@@ 33514
实物 33513
安慰 33510
单个 33496
胃@@ 33494
Jam@@ 33488
io 33485
主教 33483
大街 33473
莉@@ 33472
历@@ 33467
琴 33452
福建 33438
伯特 33434
吉尔 33425
遥远 33423
这辆 33417
剂量 33415
剧本 33400
租@@ 33395
缺点 33384
烹饪 33382
绝 33379
城乡 33375
糖@@ 33375
除外 33371
必 33367
IC@@ 33367
宇 33366
曼哈顿 33355
制服 33354
摩根 33350
奔@@ 33344
模仿 33332
采纳 33331
般 33324
主机 33318
十二@@ 33318
一是 33315
泄漏 33313
卫报 33311
io@@ 33300
一根 33295
令人满意 33293
米歇尔 33289
盒子 33280
医疗保险 33277
口袋 33271
数值 33266
刀@@ 33261
热量 33258
奥尔@@ 33258
服役 33249
猎@@ 33246
拉德 33242
邪恶 33236
老虎 33231
营养不良 33220
祝福 33220
搜@@ 33211
年级 33201
蒂姆 33196
运转 33191
名册 33186
父@@ 33182
进化 33179
联合国大会 33177
一分钟 33166
电路 33151
召回 33151
1987 33148
事实证明 33144
巴林 33143
纵@@ 33137
凯文 33132
壳 33121
摆 33111
厦门 33111
近来 33111
四分 33107
男女平等 33102
斐济 33100
Michael@@ 33086
鹏 33081
古代 33080
旗@@ 33080
携手 33079
画廊 33078
源于 33059
新闻界 33058
凯利 33055
获益 33048
危@@ 33043
警卫 33041
密度 33040
柏@@ 33040
俗@@ 33038
大于 33034
倾@@ 33024
轻微 32996
怀 32991
原告 32987
马特 32985
1960 32981
银牌 32978
汤@@ 32976
冯@@ 32961
菌 32945
刘易斯 32942
共产党 32938
st 32916
弱点 32916
食品@@ 32912
第二条 32902
奖学金 32896
侮辱 32892
联系人 32886
高出 32875
克拉 32861
叫做 32856
判例 32855
午@@ 32847
返@@ 32840
圆桌会议 32834
附@@ 32825
贬值 32825
评 32821
原定 32818
便于 32815
ss@@ 32813
所用 32802
账 32797
纳粹 32785
策 32780
飙升 32770
Y 32768
艇 32762
粘@@ 32761
葬礼 32756
新建 32755
供给 32750
雾 32740
手臂 32739
大声 32738
资讯 32728
借 32718
可怜 32709
欠 32705
pe@@ 32703
巴拿马 32703
和平解决 32701
免@@ 32698
针@@ 32696
遮@@ 32688
脚本 32676
你@@ 32646
率领 32640
.3 32634
奋斗 32633
偷 32623
拆@@ 32619
清醒 32615
已故 32612
示@@ 32599
勋爵 32596
第七 32584
萨尔瓦多 32580
101 32572
八个 32561
潮流 32560
CD 32555
叛军 32551
教育@@ 32543
丢 32542
一刻 32538
定居 32536
微型 32534
都市 32524
几种 32519
鲍勃 32501
第六@@ 32495
Q 32487
第三届 32481
狼 32470
慢性 32468
范 32463
公共政策 32462
铺@@ 32462
相处 32462
病情 32454
尼加拉瓜 32452
巴士 32450
民主@@ 32442
绿 32438
体操 32430
目睹 32426
敲@@ 32422
煤 32421
复出 32418
维护者 32415
羊@@ 32413
影子 32412
8000 32411
赤@@ 32410
视角 32406
索引 32397
零件 32397
答 32386
海底 32385
垫 32378
前夕 32374
控件 32366
依赖于 32366
采集 32364
更高 32361
圣经 32357
欧盟委员会 32354
ID 32346
难过 32343
克莱@@ 32330
脖子 32323
1985 32312
降息 32311
无害 32304
屠杀 32296
残奥会 32277
新闻稿 32277
人中 32267
精简 32265
区内 32264
系统@@ 32263
阵线 32254
易于 32247
双边关系 32246
非洲大陆 32229
终结 32228
格拉斯哥 32227
预防措施 32227
促销 32220
热线 32211
压缩 32210
顾@@ 32209
西安 32205
必将 32205
1967 32203
克鲁兹 32174
西蒙 32170
侧@@ 32159
违约 32158
境 32156
检索 32147
移 32142
餐饮 32135
凡@@ 32126
进出口 32124
邮@@ 32123
im 32116
怪@@ 32109
培育 32084
示威者 32084
ent 32081
联合国开发计划署 32079
企 32079
一个@@ 32076
香港@@ 32075
预算外 32069
宣@@ 32066
谱 32064
经济效益 32060
既定 32056
本场 32055
子公司 32053
急救 32050
撞@@ 32049
照明 32048
小额 32040
泄露 32035
一期 32035
多伦多 32029
亚当 32014
皇马 32012
捕获 32003
ne 31994
折磨 31991
不可或缺 31978
预防性 31975
财政年度 31971
微博上 31959
烤@@ 31957
特纳 31951
壁 31934
疲软 31929
湖南 31921
水面 31918
创纪录 31905
借@@ 31896
东南部 31885
初次 31864
单身 31863
耳 31854
格斯 31851
手动 31849
汉语 31849
下车 31848
涛 31846
陶@@ 31843
终端 31842
Je@@ 31841
组委会 31835
通行 31827
首选 31816
ton@@ 31811
先决条件 31808
桑 31794
斯德哥尔摩 31791
全国性 31791
ate 31788
布拉 31785
应由 31784
攻 31776
首场 31772
每人 31771
技@@ 31767
贯穿 31765
每股 31757
沙发 31748
数百@@ 31745
工作室 31743
海事 31734
充@@ 31732
第二季度 31729
尖叫 31728
恨 31728
亚军 31725
省委 31721
委书记 31715
阿尔巴尼亚 31712
女演员 31687
小麦 31684
那次 31682
指望 31682
逼 31669
爆炸事件 31669
1984 31656
栋 31648
内斯 31646
积@@ 31643
多重 31640
规章 31639
篇文章 31625
蔡@@ 31619
税率 31617
侦查 31614
法国人 31611
致使 31601
百分之@@ 31599
标志性 31593
争辩 31592
迷 31587
惨@@ 31571
迪克 31571
ry 31569
章程 31568
胡锦涛 31565
商家 31565
官兵 31563
聘用 31556
挽救 31545
前者 31541
盯 31539
五角大楼 31534
笑话 31528
粒 31519
基本@@ 31516
天内 31516
五名 31506
阵地 31484
笔者 31483
点燃 31472
斯塔@@ 31470
垂@@ 31468
旗下 31462
租 31459
一封 31452
结局 31452
腰 31451
凸显 31447
嫌犯 31430
几十@@ 31428
探测 31417
棒球 31409
切断 31409
核试验 31407
霍 31403
迫害 31403
序列 31401
编列 31399
谎言 31395
女友 31392
医师 31381
ani 31379
摩尔 31368
三十@@ 31367
挂钩 31367
过分 31364
涌入 31361
庄 31357
这句 31355
结果显示 31352
在外 31350
勤 31349
全民投票 31347
艾 31338
它会 31320
词@@ 31316
gen@@ 31307
编码 31296
攀升 31291
接种 31280
噢 31278
砸 31275
受访者 31271
撒@@ 31267
泵 31258
屈@@ 31257
岭 31253
反击 31253
文物 31245
户外 31242
铜牌 31240
角落 31238
略有 31236
城市化 31236
牵头 31232
续@@ 31229
ity 31227
经贸合作 31220
下属 31214
联黎 31210
扩@@ 31196
时许 31194
估值 31192
暂@@ 31188
述 31188
过多 31188
反抗 31187
投标 31184
─ 31182
欢呼 31179
托管 31176
海报 31172
ina 31168
效 31165
女士们 31165
什叶派 31155
更长 31152
iel@@ 31136
Pro@@ 31136
劲@@ 31131
仁@@ 31125
军备 31123
随意 31122
纯 31120
遗址 31118
珠宝 31112
执教 31086
欧洲央行 31086
创立 31083
望@@ 31078
上场 31076
评为 31075
稳步 31071
不行 31070
仅为 31069
秋 31061
伊斯坦布尔 31056
导向 31053
假日 31053
125 31046
学到 31046
发生变化 31046
中国共产党 31027
坏@@ 31019
练 31019
原则上 31011
普尔 31005
乘@@ 30995
操@@ 30993
格雷 30991
传说 30989
拳击 30985
财政@@ 30980
半年 30975
值@@ 30963
两队 30961
失利 30958
开出 30958
恋 30957
属@@ 30956
总会 30950
密切相关 30946
戈登 30933
14.@@ 30928
@ 30922
重新启动 30920
减弱 30919
二级 30914
亚历山大 30911
吹 30897
成交 30889
公司@@ 30888
害 30887
赛道 30887
川@@ 30884
富人 30870
传统@@ 30868
重叠 30865
儿@@ 30863
苏丹政府 30863
跑@@ 30862
秋天 30860
搭配 30846
第二阶段 30844
知 30838
性骚扰 30836
省政府 30825
基尔 30818
钻@@ 30812
朴@@ 30808
老百姓 30804
严 30800
浩@@ 30800
社会福利 30789
过时 30786
跑步 30784
导 30784
原先 30777
大雨 30770
驱动器 30764
Ab@@ 30755
埃尔@@ 30755
狼@@ 30745
对话框 30737
绘制 30727
CP@@ 30725
该司 30713
巡回赛 30702
替 30700
倾听 30697
见证 30696
1200 30695
斗 30680
赞比亚 30676
获释 30675
桃@@ 30671
gar@@ 30671
王室 30665
圆 30664
佛 30664
mon@@ 30661
新年 30658
唱歌 30654
春季 30647
战斗机 30644
紫@@ 30642
入狱 30637
新生 30633
青岛 30633
斯蒂@@ 30632
一层 30628
列举 30626
备战 30624
嘉宾 30609
今天下午 30603
构想 30602
布拉@@ 30602
系统地 30601
牙齿 30600
打进 30595
亚特兰大 30591
笑@@ 30573
勇 30568
衬衫 30568
米尔 30567
数据@@ 30555
常用 30551
之类 30547
帐篷 30542
地质 30541
国民议会 30539
兰德 30534
强行 30528
禁 30525
比较@@ 30524
创造性 30514
ez@@ 30510
上海市 30508
截@@ 30505
尊重人权 30505
诱惑 30497
75% 30496
land 30493
动画 30486
支票 30482
105 30477
个案 30470
繁@@ 30467
扶@@ 30465
亚太经社会 30464
苦难 30455
终点 30454
汉密尔顿 30445
宽容 30438
后代 30436
坦克 30434
国土 30428
系数 30427
配件 30410
化合物 30409
耳朵 30407
音频 30398
具@@ 30397
急性 30395
磁@@ 30394
战略性 30392
漫画 30390
伊尔 30389
厂商 30385
浆 30376
腰@@ 30373
启发 30362
订购 30359
天才 30349
制药 30342
臂 30339
流行病 30329
象@@ 30323
善 30313
录制 30311
假定 30308
杀伤 30306
col@@ 30304
劳动@@ 30303
16.@@ 30298
骨折 30297
系@@ 30293
微小 30290
热烈 30283
非营利 30281
乃至 30281
中日 30268
内部监督 30264
受害 30253
刻@@ 30251
夹@@ 30247
戒@@ 30239
动摇 30232
搜寻 30231
火星 30209
摇@@ 30205
场面 30205
爆炸物 30199
狮子 30198
IN@@ 30196
可卡因 30183
自然@@ 30182
订@@ 30179
军团 30174
商会 30173
无家可归 30170
哈马斯 30169
平稳 30165
纪念碑 30162
底特律 30161
反过来 30160
预先 30157
放下 30156
库克 30156
非国家 30154
渔@@ 30148
加热 30143
传出 30135
玫瑰 30135
安妮 30133
养殖 30128
批@@ 30127
哥本哈根 30121
1982 30117
BS 30115
坡 30108
明亮 30097
忠实 30092
访 30089
万个 30082
挥@@ 30076
隔 30073
追加 30059
控制器 30054
身后 30047
2500 30043
名将 30015
爆 30012
备 30008
每当 30003
煮 29994
坐下 29993
科斯 29987
重大进展 29987
磁盘 29986
医药 29979
公安@@ 29979
狂热 29978
薄弱 29971
盐@@ 29959
104 29954
喀麦隆 29954
寒@@ 29948
被盗 29947
Con@@ 29946
立法会 29945
位居 29929
仙@@ 29928
等国 29928
犬 29926
乌兹别克斯坦 29922
测定 29919
利斯 29915
通话 29913
所知 29906
du@@ 29899
探 29897
豪 29890
烤 29885
伤者 29884
万人次 29874
开局 29865
侦探 29857
购置 29847
联合@@ 29847
孤@@ 29842
bo@@ 29836
育@@ 29832
暖 29830
沈阳 29829
童工 29826
左翼 29824
蜂@@ 29819
达尔 29817
亚运会 29815
金斯 29813
胶 29804
批评者 29804
一封信 29804
艺术品 29796
星球 29791
上去 29778
薪水 29770
air@@ 29769
沈@@ 29765
Ge@@ 29750
法律顾问 29749
eph@@ 29746
尔多 29744
上下 29737
信息@@ 29736
洪 29735
依旧 29731
联网 29725
微妙 29718
冬 29717
警惕 29717
草坪 29714
找@@ 29711
伤口 29708
率@@ 29702
化工 29702
精神病 29685
真理 29677
买方 29675
闹 29672
益@@ 29665
巴塞罗那 29662
伍 29661
割@@ 29658
借贷 29657
增添 29654
分娩 29646
案子 29640
密 29639
雕像 29636
防护 29634
戏剧性 29631
汇集 29615
北极 29604
口号 29601
the@@ 29601
环球 29599
路段 29597
访谈 29596
欣@@ 29595
te@@ 29584
核电站 29583
骑@@ 29582
费率 29575
平面 29566
存放 29564
轨 29554
淹没 29544
绝不 29541
加紧 29533
穆 29527
SE@@ 29525
售 29523
战役 29522
专业知识 29520
刊 29518
sk@@ 29506
伏 29499
神话 29492
选秀 29489
册 29485
汇 29483
年里 29483
无可@@ 29481
不止 29479
充分发挥 29476
导入 29475
酷@@ 29474
尼克斯 29473
封信 29471
稀@@ 29463
阳台 29460
仍@@ 29457
调控 29449
Mark@@ 29445
彼@@ 29443
竟然 29443
仓 29440
发作 29437
斯洛伐克 29433
替代品 29426
丰田 29423
激素 29421
公式 29419
估算 29414
评委 29412
摊@@ 29403
加重 29394
生产率 29394
按摩 29390
前期 29389
常规武器 29382
圣地亚哥 29380
泛@@ 29378
优 29375
挫折 29362
沿 29351
巴里 29348
外联 29348
商业银行 29342
鲨鱼 29340
深信 29338
筹@@ 29337
神经@@ 29327
大赦 29327
面板 29326
1979 29326
辛 29326
理财 29325
15.@@ 29325
第五次 29322
运气 29321
谋 29299
德国队 29294
邻近 29279
普遍认为 29264
总之 29243
中央政府 29227
制成 29224
佐 29223
充当 29217
降至 29216
dd@@ 29210
lan@@ 29202
友@@ 29196
废墟 29187
澳@@ 29181
款@@ 29177
迎@@ 29176
下文 29164
干什么 29163
食品安全 29161
江苏 29154
签发 29144
豆 29136
价格@@ 29136
坚实 29134
涂@@ 29126
眼前 29126
私有化 29122
动用 29121
警务 29116
研@@ 29107
哈利 29100
喝酒 29096
112 29094
双手 29094
智力 29088
景区 29088
灯@@ 29087
塞族 29077
征税 29076
借此机会 29069
刻 29068
埋 29068
三角 29061
议案 29056
谷@@ 29054
违@@ 29054
中西部 29053
度假村 29050
善良 29042
卫生组织 29039
孙 29034
界面 29031
俗 29013
机票 29012
宏@@ 28995
绘画 28989
图标 28985
一幅 28983
悲惨 28975
首尔 28973
篮板 28972
两份 28965
课堂 28953
生活@@ 28943
吻 28941
机械@@ 28937
开罗 28937
作出反应 28930
美分 28917
晚@@ 28914
研究生 28908
牙 28907
见解 28905
身高 28901
换句话说 28900
行情 28881
第四季度 28879
公安局 28875
本港 28869
剪@@ 28867
空运 28863
字符 28851
坊 28835
rad@@ 28830
调研 28824
请愿 28814
销@@ 28811
逢 28805
凶手 28787
刷 28785
选中 28781
解散 28780
西雅图 28771
电视节目 28769
既有 28769
Fran@@ 28758
魏@@ 28748
中所 28742
筹款 28735
遗@@ 28730
ier@@ 28724
缘 28721
铺 28720
烈@@ 28718
科维奇 28713
追逐 28712
阻@@ 28707
Rich@@ 28706
文中 28702
偶然 28694
加油 28688
one 28681
瑞恩 28675
抵@@ 28667
累积 28665
触发 28664
切换 28663
生物学 28660
前一天 28660
此基础 28660
槽 28651
原谅 28648
时段 28647
首批 28644
种族灭绝 28640
鸟类 28630
外汇 28627
ci@@ 28627
浸@@ 28624
选区 28622
牛肉 28611
疲劳 28610
刊登 28609
停下来 28605
洛克 28599
台阶 28598
益处 28598
例行 28597
长江 28597
拔@@ 28597
伦理 28588
山谷 28583
非凡 28574
情景 28572
食用 28571
男友 28565
一杯 28564
瘫痪 28564
产物 28561
发票 28559
开场 28556
大致 28553
AS@@ 28543
寨 28530
111 28529
ler 28517
卡扎菲 28515
Inst@@ 28502
日本@@ 28500
疏@@ 28496
兑 28494
中毒 28493
有序 28491
游览 28483
奴隶 28481
末@@ 28480
邦@@ 28476
航运 28474
旗 28469
IMF 28465
佳 28463
竞技 28460
杰里米 28460
瓜@@ 28459
驱动程序 28458
检讨 28450
国家统计局 28450
在此期间 28449
row@@ 28445
骑士 28437
被占领土 28435
ck@@ 28435
斑@@ 28429
抛弃 28422
塞人 28399
数百名 28393
捕捞 28393
洞@@ 28392
鼠 28392
细 28390
巴尔 28388
唱片 28386
已于 28384
罪@@ 28379
斯洛文尼亚 28378
ren@@ 28377
湿@@ 28374
美味 28368
撒 28367
训 28366
汉堡 28360
弯@@ 28358
首个 28357
无力 28357
梅尔 28352
化石 28346
电压 28343
具体措施 28338
几内亚 28329
高地 28326
洲 28319
爬@@ 28316
联塞 28315
锐@@ 28315
效@@ 28309
华丽 28308
偶像 28307
现代@@ 28304
发誓 28304
晶@@ 28301
美妙 28301
强势 28294
大奖赛 28281
不时 28280
部委 28267
感到高兴 28267
De@@ 28261
不同于 28258
威尔逊 28253
麻 28251
研究院 28240
170 28233
令人鼓舞 28227
还给 28222
起初 28221
德国人 28206
得益于 28203
英格兰队 28198
那位 28190
构造 28180
酷 28177
衫 28171
第一年 28170
陪 28170
虎@@ 28169
表情 28166
省级 28166
性行为 28164
分组 28162
狮 28155
产能 28154
大程度 28153
个性化 28152
中央银行 28151
突袭 28137
音乐@@ 28136
工作文件 28136
透@@ 28122
只不过 28107
预料 28089
交易@@ 28083
电流 28082
回返 28072
管理机构 28068
NFL 28061
山脉 28053
野 28047
学费 28043
安迪 28038
102 28036
毅 28035
阿联酋 28031
下一代 28026
逆转 28025
船长 28022
ram@@ 28022
宗@@ 28021
筒 28015
埋@@ 28003
邓小平 27994
其后 27977
拜 27974
最少 27971
驾@@ 27957
账单 27953
日程 27953
撕@@ 27953
客厅 27950
IP 27941
首歌 27938
令人不安 27936
17.@@ 27935
礼貌 27934
宿舍 27932
漏@@ 27931
提倡 27924
ood@@ 27920
修理 27917
走过 27915
键盘 27910
org@@ 27909
尖 27905
增值 27898
署长 27890
缓和 27882
蒂斯 27877
自决 27874
ni@@ 27872
伙计 27871
挑战性 27869
住院 27865
轰@@ 27859
犯规 27859
哈特 27854
预示 27853
我省 27852
货运 27851
确@@ 27846
á 27842
某一 27841
饭@@ 27839
鸡@@ 27835
同伴 27835
鼻@@ 27832
订阅 27829
许 27829
划 27828
无意 27820
来讲 27818
罗姆尼 27811
行长 27809
党委 27802
认罪 27798
彩票 27795
抚养 27791
se 27786
son@@ 27783
民族@@ 27783
该报 27782
ian 27773
该案 27771
幸存 27764
统计数字 27764
精心 27763
炮 27762
放到 27762
袭 27760
出租 27759
里奥 27742
上校 27740
身心 27737
原籍 27737
诸@@ 27722
就算 27718
布里 27711
项@@ 27710
斯图尔特 27700
晚会 27692
忠@@ 27686
连续性 27671
出示 27661
cc@@ 27658
罗姆人 27657
夏威夷 27645
巴塞尔 27642
一遍 27642
庞@@ 27641
紧急状态 27640
世界冠军 27630
年份 27628
负荷 27628
参见 27619
史蒂芬 27619
技术人员 27618
良 27618
合伙人 27615
绕 27612
醒来 27611
欲望 27610
常会 27605
第十四条 27605
脸@@ 27601
0% 27593
医学@@ 27591
平均水平 27586
摆在 27585
马耳他 27580
欲 27575
文职人员 27571
亨特 27565
具体情况 27564
审@@ 27556
十五届 27547
勾@@ 27546
谋求 27537
排序 27533
宫@@ 27533
净额 27531
昌@@ 27530
增大 27528
饰 27522
迈进 27519
sw@@ 27515
艺@@ 27512
唐 27508
获奖 27507
自称 27500
地为 27485
肠 27484
起源 27481
比重 27481
幽默 27481
绕@@ 27475
夺@@ 27468
继续下去 27466
眼中 27464
同次 27464
招标 27463
八年 27455
纳斯 27454
绳之以法 27452
申明 27451
熔@@ 27448
一倍 27446
个人信息 27442
泉 27441
交通事故 27436
沿线 27435
org 27433
仅次于 27432
肖恩 27430
无线网络 27429
捕鱼 27427
新一轮 27421
信函 27417
CO@@ 27414
万辆 27413
摄像头 27411
科学技术 27409
暴力事件 27405
Qu@@ 27391
牌@@ 27387
影像 27383
中立 27379
台上 27379
流浪者 27375
1978 27375
塔吉克斯坦 27371
美女 27359
源@@ 27356
扣除 27356
太大 27353
维拉 27351
气味 27351
韦斯特 27351
经济委员会 27348
应为 27347
订 27346
作风 27346
电话号码 27341
草稿 27341
传送 27338
带给 27338
ace 27326
身穿 27324
急需 27310
端口 27306
整 27305
22@@ 27296
产妇 27295
你好 27294
大片 27294
银行家 27286
从根本上 27285
乒乓球 27284
围 27280
出线 27278
人质 27267
取出 27266
青睐 27265
盖茨 27259
得主 27252
龄 27249
拨打 27248
公安机关 27246
伯里 27240
达拉斯 27238
投篮 27238
专业人士 27224
冷却 27223
燃油 27222
间@@ 27220
积极@@ 27217
海滨 27215
故@@ 27214
晨@@ 27209
建筑师 27202
施 27201
等候 27199
114 27193
奶奶 27190
挑衅 27190
缺失 27189
个州 27186
… 27180
翁 27177
戈尔 27176
亮@@ 27172
遗体 27169
一时 27161
判刑 27160
马萨诸塞州 27156
兼@@ 27130
餐@@ 27130
学术界 27126
AT@@ 27110
晚报 27106
便是 27101
带回 27092
旅游@@ 27088
un 27085
闻名 27080
接替 27079
墙壁 27077
国际化 27077
签@@ 27068
以免 27057
回落 27050
慢@@ 27045
海军陆战队 27044
零部件 27034
雨水 27030
辽宁 27015
查理 27011
拍照 27010
倒闭 27006
功 27005
坦桑尼亚 27001
大队 26999
不起 26996
西南 26986
承担责任 26985
总的来说 26981
霸@@ 26981
珍贵 26978
商务@@ 26976
缴款 26975
内尔 26973
开业 26973
一新 26971
吕@@ 26970
少量 26969
约定 26962
新高 26962
非常高兴 26961
攻势 26955
步枪 26955
下议院 26955
向导 26946
肩膀 26942
原有 26941
型号 26939
泡 26934
拉斯维加斯 26930
布鲁@@ 26929
头衔 26918
门前 26912
玻璃@@ 26909
宁愿 26906
3D 26898
手工 26897
引述 26891
博览会 26886
污水 26883
行走 26882
附 26879
夹 26877
辛格 26875
di@@ 26871
补 26871
12% 26865
跳水 26863
帕特里克 26859
农业@@ 26858
改组 26857
破门 26855
拨 26850
约瑟夫 26849
活性 26848
减肥 26846
稍后 26844
领导者 26840
第四届 26831
东道主 26828
um 26827
原材料 26822
一连串 26821
两起 26812
潜艇 26811
全额 26805
企@@ 26805
运会 26805
球场上 26802
建筑@@ 26801
朱 26800
erv@@ 26795
杀手 26785
双胞胎 26784
累@@ 26784
汇款 26776
仅限于 26774
会场 26769
同盟 26768
锋 26767
禁毒 26756
研究@@ 26752
发病率 26751
刑事法庭 26741
贸易协定 26734
不像 26732
放大 26729
Ale@@ 26725
剩 26722
奉献 26714
缺 26711
稍 26711
公交 26707
弗吉尼亚州 26705
Robert@@ 26703
最高@@ 26696
ron@@ 26696
海水 26695
综合性 26694
德黑兰 26689
中产阶级 26688
103 26685
查处 26684
和平利用 26678
锦@@ 26674
电机 26673
消费@@ 26672
碰@@ 26669
安德森 26668
男篮 26659
滴 26656
辅导 26654
毕@@ 26647
浪潮 26643
不用说 26635
亨@@ 26634
前线 26634
电影@@ 26628
防卫 26626
沃尔@@ 26625
工作岗位 26621
棘手 26617
封面 26613
坦言 26610
逃跑 26610
摇滚 26609
致敬 26605
万亿美元 26600
ke 26592
普遍性 26590
果断 26585
椅 26584
工地 26584
门将 26580
埃里克 26573
要说 26572
奔 26569
死去 26569
中小型 26554
检查站 26551
泳@@ 26534
日本政府 26530
颗 26527
随即 26527
火山 26527
残疾儿童 26520
新南威尔士州 26516
宽带 26511
指明 26503
深受 26503
呼 26502
跑道 26497
占用 26491
Be@@ 26491
河北 26487
殖民地 26487
都@@ 26483
最低工资 26471
分成 26471
英联邦 26471
震荡 26469
简 26468
刑@@ 26467
走访 26465
美国国务院 26465
柴油 26464
伤病 26463
一向 26460
星期天 26457
瑞安 26451
全民 26451
凭 26445
过滤 26445
深深 26438
鬼 26434
延期 26432
指引 26431
庄园 26422
停滞 26417
过剩 26405
秦@@ 26402
片段 26401
驾 26397
莫桑比克 26385
地狱 26384
偏远 26383
协调会 26381
圣战 26378
在世界上 26371
千万 26353
布鲁克林 26347
ire@@ 26329
遇@@ 26326
德州 26326
升高 26319
暴行 26317
ina@@ 26314
挑@@ 26313
榜首 26301
休假 26299
平行 26297
婚 26296
变性 26291
一节 26287
浪@@ 26286
来临 26284
章节 26284
身为 26280
避@@ 26271
岁月 26266
有辱 26264
倾斜 26257
擅长 26252
该条 26249
me@@ 26246
辞去 26246
东耶路撒冷 26242
福音 26240
大宗 26233
加载 26228
德里 26228
获准 26226
ill 26218
角逐 26216
四周 26201
升值 26200
湖北 26199
段落 26198
喀布尔 26197
Don@@ 26194
听见 26189
电影节 26182
eth@@ 26179
CE@@ 26176
准备金 26175
科恩 26173
追随者 26173
宽敞 26169
股指 26167
联利 26161
增 26147
燃@@ 26146
法医 26145
经共体 26143
初始 26137
系统性 26134
汀 26132
人家 26127
liam@@ 26111
恶意 26109
大战 26096
战绩 26090
收缩 26081
ker 26079
肖 26078
基石 26068
侵蚀 26068
刑事诉讼 26068
旅@@ 26063
兴起 26055
.4 26048
市场准入 26047
那边 26046
致辞 26046
经营者 26046
赌博 26042
袭击者 26041
理事 26039
淡 26039
第二年 26038
流域 26032
减税 26029
奶酪 26028
便士 26026
楼梯 26022
好奇 26021
奖杯 26021
设@@ 26020
手表 26017
逃避 26017
狐 26007
360 25987
Ros@@ 25982
踢@@ 25975
西欧 25974
阿曼 25973
采取有效 25971
场馆 25968
主导地位 25968
上周末 25966
海洛因 25962
从来不 25958
berg 25955
避开 25950
放入 25940
保卫 25939
亲戚 25937
彻@@ 25935
单纯 25933
号召 25933
多余 25923
火器 25922
欧文 25913
公益 25911
禁用 25909
赖特 25907
精度 25904
集装箱 25904
伪@@ 25899
另@@ 25896
add@@ 25890
高档 25882
两条 25874
bur@@ 25867
轴@@ 25858
1981 25854
园@@ 25854
饰演 25854
IT@@ 25845
喜 25844
业务@@ 25840
陪伴 25828
隔离墙 25828
这点 25821
钢铁@@ 25820
马修 25817
斑 25814
南部非洲 25813
erg@@ 25809
鞋@@ 25808
人民法院 25806
伤心 25799
布莱克 25797
奋@@ 25796
惠 25792
辈 25792
启示 25788
吸取 25788
媒介 25785
苦 25781
滴@@ 25773
今年以来 25773
戒指 25761
摩苏尔 25758
驾驶员 25756
滚 25754
非殖民化 25753
大不列颠 25752
拉加 25744
第三国 25737
don@@ 25722
童年 25719
美方 25719
美国广播公司 25717
触及 25717
送交 25705
展会 25697
尤 25695
画家 25690
用餐 25688
测试@@ 25687
寺 25684
33@@ 25679
透 25677
出资 25674
无情 25672
评审 25667
图案 25665
迟到 25663
男生 25663
念 25653
缓 25653
下台 25652
令人遗憾 25647
司法部长 25645
异议 25644
HS 25642
新一代 25640
搁置 25640
当初 25638
珀 25630
撤@@ 25627
掉@@ 25625
流向 25620
之路 25614
野蛮 25609
立法机构 25607
1.2 25605
Col@@ 25605
广东省 25604
科学研究 25603
商品@@ 25602
IP@@ 25600
伊拉克政府 25598
铅 25597
姐 25597
基本建设 25597
中欧 25581
碳@@ 25577
深切 25575
臭氧 25573
炮@@ 25573
三场 25571
格拉 25570
暴跌 25569
完毕 25564
立陶宛 25562
升至 25555
摘@@ 25552
门户 25552
番 25547
指挥部 25541
堆@@ 25541
变为 25532
信赖 25531
莱斯特 25528
台湾@@ 25528
yd@@ 25525
凯瑟琳 25524
MA@@ 25520
毛里求斯 25520
养恤 25520
斯科@@ 25514
机密 25512
第七@@ 25508
弱@@ 25506
短短 25500
洪都拉斯 25500
痕迹 25499
鸣@@ 25499
对冲 25498
18.@@ 25495
伊利诺伊州 25490
变形 25489
进出 25485
内涵 25485
提供者 25472
放射性 25470
坐落 25468
丰 25466
诺夫 25459
搜救 25452
乔丹 25442
棚 25441
萎缩 25432
呼声 25430
误导 25429
西尔 25427
露出 25425
伸@@ 25422
捷@@ 25416
115 25415
外来 25414
妇发 25413
旺 25399
联科 25395
固有 25393
伸出 25391
红十字会 25377
伯明翰 25377
普斯 25375
诗人 25370
罗杰斯 25367
电器 25367
捕捉 25360
家庭@@ 25360
营养@@ 25358
第六条 25356
结论性 25348
性侵犯 25346
身材 25345
读书 25332
不结盟运动 25329
警员 25327
扑@@ 25326
信息化 25326
重伤 25321
性别歧视 25319
电视剧 25313
太阳@@ 25312
让步 25310
不久前 25310
困 25309
3.5 25308
即时 25307
予 25306
具体@@ 25300
抛@@ 25295
农药 25290
深远 25288
资本主义 25281
全文 25280
发球 25274
采取任何 25270
领土完整 25268
潮湿 25261
雄心勃勃 25256
板球 25248
19.@@ 25246
章@@ 25246
潮@@ 25242
普通@@ 25238
尼日尔 25238
撞击 25236
中介 25236
附上 25236
世锦赛 25234
伊恩 25223
减排 25221
奶@@ 25206
add.1 25204
抢救 25204
保护@@ 25202
公安 25197
航天 25191
乔纳森 25174
詹@@ 25174
岗 25171
溴 25163
一声 25161
敬意 25158
人员伤亡 25157
eng@@ 25157
国际原子能机构 25154
特有 25153
李鹏 25151
辞 25149
倒塌 25148
伏@@ 25146
认捐 25146
陷 25126
几名 25120
中情局 25120
浪 25118
伪造 25114
yl@@ 25109
iPhone 25100
再见 25098
任用 25097
腔 25093
爱荷华州 25091
种群 25091
适宜 25089
赶上 25083
健身房 25078
ter 25074
引爆 25073
上映 25069
浦@@ 25060
投资@@ 25057
簿 25057
巴萨 25055
全职 25052
排名第 25050
运动@@ 25047
膨胀 25046
休斯敦 25044
欧安组织 25043
大海 25038
中华人民共和国 25036
看似 25034
厄@@ 25034
生态环境 25034
侵入 25033
ee 25028
经验丰富 25026
亲切 25013
日后 25003
宣读 24998
滨@@ 24989
联检 24985
克里姆林宫 24974
Gre@@ 24969
斯克 24968
老兵 24967
里斯本 24966
未知 24962
爱国者 24956
旗帜 24951
雇佣 24949
iy@@ 24946
钉 24943
教徒 24939
幻@@ 24936
贝拉 24935
科技咨询 24921
桩 24916
1.1 24914
胸部 24908
ow 24907
赞 24907
多位 24903
充电 24900
选项卡 24899
抑郁 24899
悲@@ 24892
CA 24884
精 24883
概况 24882
地向 24882
战后 24881
人口@@ 24877
助攻 24874
气象局 24874
数年 24874
陷阱 24865
猛烈 24864
墨@@ 24860
材 24859
诈骗 24855
穷国 24839
享用 24837
按时 24832
束 24829
酮 24828
降到 24826
誓言 24824
知名度 24823
开创 24822
pc 24821
悬挂 24818
会长 24815
黑山 24815
手枪 24807
Paul@@ 24800
车间 24800
茨@@ 24798
人民政府 24798
压制 24787
利亚@@ 24786
递交 24782
育 24781
运河 24777
自主权 24774
生产者 24771
ma 24764
调度 24762
民族主义 24756
交警 24755
106 24754
空间站 24751
傍晚 24746
忧@@ 24745
张贴 24744
现时 24743
公共行政 24733
不见 24721
飞船 24717
ta@@ 24715
转而 24711
陌生人 24710
盈余 24709
精致 24700
可谓 24693
销售@@ 24692
职类 24684
本报记者 24675
电讯报 24674
平方公里 24671
寒 24670
贸易@@ 24666
复合 24664
108 24659
事务处 24659
尘 24658
Man@@ 24657
厂@@ 24655
渔船 24655
储@@ 24653
播@@ 24652
调试 24651
六月 24648
里亚 24641
我来 24640
笔记本电脑 24636
叔叔 24633
35% 24628
卫生设施 24625
固@@ 24621
两党 24616
Z 24615
240 24614
对接 24609
巴斯 24605
军事@@ 24599
楚@@ 24595
1973 24587
景象 24583
铝 24577
恐怖组织 24573
挤@@ 24571
带头 24567
反驳 24567
刮@@ 24566
财政部长 24564
所长 24562
塑@@ 24559
冠@@ 24559
行动者 24552
处以 24545
随之 24540
所致 24538
震撼 24535
第一场 24528
机动车 24523
听众 24523
总收入 24523
聚 24521
ost@@ 24520
价格上涨 24509
编程 24508
比利 24508
相继 24508
高昂 24503
john@@ 24502
les@@ 24497
专长 24497
振动 24496
侧面 24488
ot 24487
崇拜 24487
芳 24486
光线 24485
道奇 24484
路面 24475
客机 24471
1983 24470
相遇 24463
三位 24462
三月 24461
敢 24460
省长 24455
斯汀 24454
答@@ 24452
中华 24451
暑假 24449
q 24448
第二次世界大战 24446
令@@ 24446
ham 24443
舟 24441
贿赂 24437
鞋子 24437
开赛 24431
免 24430
珍@@ 24427
塔尔 24420
新娘 24420
鼓 24417
卖方 24413
吓 24409
马里兰州 24408
帕克 24406
审查会议 24403
定性 24401
服从 24400
冲动 24398
2019 24390
建制 24389
相连 24385
永恒 24385
水库 24384
新罕布什尔州 24377
嫁给 24376
合法化 24375
暖@@ 24374
实习 24369
中为 24360
前途 24358
高压 24354
ich@@ 24351
流失 24349
礼服 24349
爱德华 24348
姿势 24347
拉尔 24342
可否 24338
驶@@ 24337
他于 24337
检方 24331
爱沙尼亚 24328
eB@@ 24313
极限 24308
下届 24307
十届 24305
联合国秘书处 24305
楼盘 24302
善意 24301
较少 24296
好友 24292
赢家 24292
下方 24292
逗留 24291
适度 24289
管理者 24287
200@@ 24286
恶心 24283
动脉 24283
220 24280
换取 24279
相符 24279
数十@@ 24275
拉特 24273
扎克 24257
不合理 24255
旅行社 24253
烦恼 24252
把@@ 24249
安全局 24249
萧条 24249
代尔 24242
长沙 24238
鼠标 24235
连锁 24234
邮票 24231
郊 24228
草地 24225
快捷 24222
med@@ 24221
团聚 24218
挖@@ 24211
教学@@ 24210
法律文书 24209
向下 24202
题目 24200
尤为 24197
工作日 24190
抵御 24190
斯蒂芬 24181
布莱恩 24175
雷德 24174
ris@@ 24169
联合声明 24163
狭窄 24161
扰乱 24155
计划署 24154
AR@@ 24146
帐 24139
119 24139
抓好 24137
par@@ 24127
肺炎 24121
伴 24114
遇难者 24106
几 24102
覆@@ 24099
公务 24098
胃 24095
est 24088
当务之急 24086
作出努力 24084
据估计 24082
该死 24075
考核 24072
每场 24071
开端 24068
欢乐 24063
柔@@ 24062
= 24059
追回 24059
首脑 24056
充满活力 24052
赌场 24052
枢纽 24051
输送 24048
锡 24043
安徽 24043
仿佛 24043
ity@@ 24043
凉@@ 24042
年纪 24042
背部 24041
大连 24038
橡胶 24035
忙碌 24035
表中 24033
拉克 24031
拉脱维亚 24021
用尽 24020
1974 24019
四处 24016
肩@@ 24013
沿岸 24008
增设 24004
一股 24000
拥@@ 24000
还原 23999
传真 23994
二次 23990
咖啡馆 23990
造 23989
数据中心 23972
两岸关系 23968
出手 23967
水质 23960
艺 23959
敌对行动 23955
这两项 23955
严重性 23952
独立@@ 23952
省市 23947
闭会 23946
II 23945
签下 23944
日本队 23943
欣 23941
记者会 23939
兽 23938
一小部分 23937
相互作用 23937
碰到 23932
擦 23927
资金来源 23927
po@@ 23927
盟 23927
妇@@ 23922
视线 23920
桂@@ 23917
现阶段 23915
创造力 23906
持久和平 23906
有所改善 23906
渐渐 23905
民航 23895
敌对 23895
最差 23894
亲人 23891
爱好 23888
跟进 23884
咨商 23882
韩国队 23881
巧 23880
ale 23870
佩里 23867
遍 23867
购物中心 23867
不及 23864
裂变 23863
废@@ 23863
新生儿 23858
眼光 23856
党中央 23849
庭审 23845
闯入 23844
党内 23842
油田 23839
一带 23836
122 23836
狂 23832
引领 23829
明确规定 23828
法人 23827
余地 23823
这片 23817
产品质量 23816
36@@ 23815
不顾 23813
快速增长 23804
心理学 23800
民生 23799
伊斯 23791
垂直 23784
昨天@@ 23776
仿@@ 23775
宾夕法尼亚州 23770
半小时 23770
在我看来 23754
夫斯基 23753
无条件 23749
逃脱 23734
台商 23732
间隔 23731
网民 23730
副作用 23729
暗杀 23728
强烈@@ 23727
洁@@ 23727
酱 23724
皮特 23715
杠杆 23713
放映 23712
毫不@@ 23712
斯科 23708
假装 23699
住@@ 23698
出局 23697
楼市 23696
强国 23687
意在 23681
先例 23681
无奈 23673
产品@@ 23665
娱乐@@ 23665
世界纪录 23657
咬 23656
幻 23656
泳 23655
令人担忧 23653
雕塑 23652
显 23647
选择性 23643
观光 23640
消防@@ 23632
老龄 23631
搭@@ 23630
失控 23629
矿业 23628
裂@@ 23625
已婚 23621
重大@@ 23621
一幕 23619
指派 23610
sa 23608
架@@ 23607
珀斯 23602
连任 23602
气象@@ 23602
心理@@ 23600
107 23598
奖@@ 23597
ong 23594
座椅 23586
第二场 23586
ment@@ 23586
百姓 23586
三维 23583
限额 23573
卢森堡 23572
激怒 23565
一首 23562
疯 23560
Sal@@ 23554
陌生 23552
we@@ 23551
提振 23547
消化 23546
Am@@ 23546
by 23538
车手 23535
不利于 23535
单打 23527
为首 23515
昆明 23504
化解 23501
保持一致 23500
配方 23499
碰 23495
尔森 23492
面部 23485
刑 23480
售@@ 23474
中风 23470
叛乱分子 23469
无比 23468
Gu@@ 23464
据报 23460
并发症 23456
准确性 23452
源自 23445
喂 23444
电动 23442
凉 23438
童 23437
医学院 23435
载体 23432
埃文斯 23428
犯罪活动 23427
二十年 23423
纺织 23422
交通运输 23414
迹 23401
第六届 23401
min@@ 23392
david@@ 23391
荡 23390
屋@@ 23386
凶@@ 23385
揭露 23372
夏洛特 23366
特雷莎 23361
外围 23360
re 23360
报导 23357
葛@@ 23354
毁灭 23349
撒谎 23337
山上 23332
奶 23332
之日起 23332
连同 23330
概率 23326
下行 23324
驻扎 23314
饲料 23311
忠 23310
欣慰 23306
火焰 23306
人行道 23305
吐@@ 23305
被动 23299
不该 23292
ond@@ 23291
甚@@ 23287
招待会 23287
序言 23286
颇 23284
发生冲突 23278
联合国儿童基金会 23278
配置文件 23277
批款 23276
民用 23273
品尝 23271
无罪 23271
司法部门 23266
关怀 23265
剑桥 23264
赖 23262
住户 23258
开发人员 23256
自由派 23255
氯@@ 23253
纹 23246
景色 23246
玛丽亚 23241
附带 23234
新任 23232
汲取 23232
环境@@ 23226
往年 23224
登场 23223
治愈 23213
肠@@ 23212
免除 23210
微生物 23208
津 23207
上届 23205
蛋@@ 23203
鲜明 23201
滕 23200
里约热内卢 23198
在此之前 23197
一头 23196
映@@ 23194
全方位 23190
单词 23180
岛@@ 23176
常委 23168
近几个月 23168
ym@@ 23161
祝 23158
澳 23144
布里斯班 23135
权衡 23133
辖区 23129
券 23122
下雨 23114
Par@@ 23112
ly@@ 23094
懂得 23092
盗@@ 23087
器@@ 23085
汇总 23084
诉求 23075
以北 23071
脂 23070
羁押 23068
通讯社 23058
适@@ 23056
关键因素 23051
萨姆 23050
几家 23048
司法机关 23046
午夜 23035
棋@@ 23035
大力支持 23033
沉 23029
Windows 23028
议会选举 23028
状@@ 23026
瞩目 23021
大象 23020
内蒙古 23019
表述 23019
hu@@ 23016
赫尔 23015
躲 23014
开火 23013
耻辱 23012
频@@ 23007
马拉 23002
出价 22999
像@@ 22996
滩 22992
替补 22992
底线 22985
一分 22983
注定 22981
Tim@@ 22979
th 22979
三方 22974
当成 22973
避难所 22962
亭 22952
评论家 22952
裤子 22952
发展趋势 22951
第七条 22950
钱包 22950
样式 22947
警卫队 22947
锋@@ 22946
四次 22940
勤@@ 22919
复 22915
施行 22914
粒子 22911
淘@@ 22910
分割 22905
拉美 22902
卓@@ 22901
卫队 22900
参加者 22898
坦桑尼亚联合共和国 22894
室外 22891
分解 22889
词汇 22882
四大 22881
TV 22881
暂行 22879
桌面 22874
详尽 22874
金融体系 22872
一侧 22870
解放军 22870
德利 22869
骨头 22869
关爱 22868
旅费 22866
不上 22865
票价 22862
del@@ 22851
更衣室 22848
村里 22844
演说 22842
判 22841
搞@@ 22840
普查 22831
人文 22824
情节 22822
光荣 22820
肥@@ 22819
取胜 22818
财务状况 22810
操守 22807
古怪 22803
马尔 22802
ts 22802
董@@ 22801
核算 22801
一案 22801
凝@@ 22799
大盘 22799
比额 22798
亚历克斯 22795
商界 22792
童@@ 22787
孤儿 22782
溪 22779
缩减 22768
冲刺 22764
屏 22763
兼顾 22754
止 22754
更糟 22752
AM@@ 22751
甄选 22751
地理位置 22743
指挥@@ 22742
祝愿 22741
泳池 22739
锁@@ 22722
上将 22720
司法制度 22720
索尼 22716
大自然 22714
深夜 22707
这块 22706
狗@@ 22699
鸣 22698
有过 22695
无障碍 22691
ech@@ 22686
尽头 22682
肝@@ 22681
逾 22673
业余 22672
第二十@@ 22672
补助金 22665
出入 22664
体会 22663
没错 22656
两只 22656
职业培训 22654
推向 22653
姆斯 22646
更快 22645
巧妙 22642
源头 22639
令人兴奋 22628
大满贯 22626
四十@@ 22626
十足 22624
受益者 22622
该局 22621
不住 22617
掌@@ 22611
扭@@ 22606
恩斯 22604
尽量减少 22603
打交道 22603
最受 22598
丛林 22596
四月 22596
俊@@ 22596
荒@@ 22594
生命周期 22589
轻易 22587
国民党 22586
37@@ 22585
求助 22583
社会各界 22583
开来 22580
平壤 22578
遗忘 22577
镜子 22573
七月 22571
获利 22570
不清 22560
统计局 22552
合影 22547
议 22546
ai 22544
一般来说 22543
次序 22536
氢 22535
新区 22535
阀 22533
渗透 22532
进一步提高 22530
哀@@ 22528
挤 22527
脸谱 22525
样@@ 22524
滚动 22520
吉尔吉斯斯坦 22520
小小的 22519
克里斯蒂 22517
有所不同 22506
汽 22503
城市@@ 22501
造福 22498
几项 22497
平局 22496
苏珊 22496
施政 22496
13% 22494
加里 22491
出门 22490
降级 22489
积分榜 22486
区间 22483
妥善 22477
疗效 22476
玲 22475
mc@@ 22474
会计师 22474
郎 22472
大事 22470
顾 22469
西北部 22469
1972 22468
辩护律师 22468
让@@ 22463
资源@@ 22458
荒谬 22458
师傅 22452
压迫 22450
组织@@ 22447
凝聚力 22439
积 22419
桌 22419
闲@@ 22419
联队 22413
国际劳工组织 22413
网址 22407
壁@@ 22406
历史@@ 22404
是否是 22404
主力 22403
权力下放 22403
燕@@ 22400
发改委 22397
113 22397
腾@@ 22397
玉 22394
匹兹堡 22393
误差 22392
抹@@ 22391
暑 22391
钢琴 22383
世界排名 22381
科学院 22374
字符串 22373
标准@@ 22371
葬 22369
身份验证 22366
拔 22364
姓 22362
经社理事会 22361
诉@@ 22361
氧 22359
很强 22358
例@@ 22356
孟@@ 22352
第七届 22348
法律@@ 22345
庄@@ 22344
跟上 22341
克制 22341
负载 22332
壮@@ 22331
倡导者 22330
数月 22326
逐@@ 22320
隐瞒 22312
盘旋 22308
牌照 22307
消息来源 22307
小女孩 22305
刹车 22304
卧@@ 22301
硬盘 22296
国际足联 22288
奈 22287
哭泣 22287
真空 22284
行政长官 22283
igh@@ 22281
辛苦 22274
贫@@ 22272
多方 22271
地毯 22263
新秀 22260
总冠军 22252
人口普查 22251
旋@@ 22248
得克萨斯州 22241
Ed@@ 22240
一号 22235
江西 22227
葡萄 22223
赶 22223
正常化 22223
乳腺癌 22216
空气污染 22216
文职 22212
是@@ 22209
五月 22199
华人 22192
田纳西州 22188
老婆 22187
并购 22185
活动家 22185
役 22183
OS 22174
准@@ 22172
济 22171
电视机 22171
根除 22169
料@@ 22165
医 22165
额@@ 22164
检察院 22162
个股 22161
渔民 22159
发言权 22159
外表 22158
小组赛 22154
ro 22154
诚@@ 22152
迷你 22151
夺回 22143
力争 22139
悲痛 22137
遍布 22134
磨 22132
更正 22132
工商 22126
牧@@ 22125
东南 22113
此处 22112
SA 22112
浦 22107
从此 22107
恒星 22097
垫@@ 22096
集群 22088
意味 22081
普遍存在 22079
珠 22078
表彰 22077
关节 22075
彩色 22074
纽约州 22073
蒙特 22072
诽谤 22070
一大@@ 22067
排列 22061
魔鬼 22055
社团 22054
堪培拉 22053
预赛 22053
简易 22052
十三届 22052
九个 22051
职业@@ 22050
沃克 22047
ford 22044
饮酒 22044
oz@@ 22043
著称 22042
怒 22037
科夫 22030
再生 22027
利好 22024
AP@@ 22023
免于 22016
马路 22016
极度 22012
中华@@ 22012
稳健 22009
遇 22009
上课 22004
朝鲜半岛 22004
Jo@@ 22002
函 21998
情报@@ 21998
不予 21994
枝 21993
综述 21991
Char@@ 21990
之夜 21983
分段 21975
各省 21972
仰@@ 21968
孕产妇 21966
商务部 21964
手上 21960
预约 21959
搬@@ 21957
助 21955
ana 21953
美国宇航局 21951
脉 21950
收容 21949
监护 21948
持有人 21948
搭建 21946
刘 21945
当下 21944
阿拉伯语 21944
德比 21942
运输@@ 21939
格雷厄姆 21934
水准 21934
湖人 21931
开拓 21931
宁波 21926
澳大利亚人 21921
1975 21917
映射 21914
姜@@ 21913
怪物 21908
闹@@ 21906
牢固 21904
垃圾@@ 21902
济南 21899
途 21898
斡旋 21895
反对者 21895
第一轮 21881
1977 21878
极具 21876
忍@@ 21873
外科 21866
劳动者 21864
忧虑 21861
相一致 21860
兑换 21846
na@@ 21843
促 21841
克利夫兰 21830
声援 21828
矿物 21827
预选赛 21822
掌控 21813
污@@ 21812
128 21809
ba 21809
ck 21809
灭绝 21806
逆@@ 21805
押 21800
坠机 21800
pp@@ 21796
不已 21796
纪念日 21794
掀起 21793
焦 21791
注销 21789
rav@@ 21788
届会 21785
囊 21785
接入 21782
迁@@ 21781
贝宁 21779
布鲁斯 21778
加利福尼亚州 21775
基督 21773
中以 21773
ith@@ 21772
内特 21766
打入 21763
分工 21762
五分之一 21760
原子 21756
领事 21752
一月 21748
面孔 21748
牛津 21741
另一边 21740
货币基金 21735
摩擦 21733
儿童@@ 21731
施压 21730
宪法法院 21729
居留 21728
自动@@ 21718
大家庭 21716
总书记 21716
胡 21716
法律法规 21715
反应堆 21713
尺 21707
史上 21706
后悔 21706
面包车 21704
hil@@ 21700
称号 21696
莱特 21696
习 21695
棉@@ 21693
金属@@ 21693
上台 21689
澳洲 21681
打球 21680
执照 21677
办事 21677
舰 21672
了不起 21669
华盛顿邮报 21668
票房 21665
Su@@ 21663
高尔夫球 21662
腹@@ 21660
北非 21660
布基纳法索 21654
LED 21648
外电报道 21648
菌@@ 21647
109 21645
大马士革 21645
十二届 21642
偏离 21641
铝@@ 21638
骗子 21633
习@@ 21631
RA@@ 21629
胎 21627
泡@@ 21626
蓄@@ 21623
非索 21620
周刊 21618
产业@@ 21606
一记 21605
狩猎 21603
116 21602
汤普森 21596
山东省 21594
承办 21593
下述 21593
坝 21592
宝马 21590
一日 21590
190 21589
自卫 21586
新车 21582
迫切 21579
际 21571
制备 21568
公爵 21565
格伦 21564
数十名 21562
新闻报道 21559
精品 21559
IS 21559
口味 21558
泥 21557
电气 21555
热闹 21555
发电机 21552
兼容 21552
地形 21547
纳米比亚 21547
项下 21535
所指 21532
DVD 21531
罗姆 21528
努力实现 21528
外债 21524
沙滩 21522
硬币 21521
历 21521
退伍军人 21520
sal@@ 21511
克鲁@@ 21511
缴 21511
俄国 21509
去过 21507
味@@ 21505
信徒 21503
去除 21500
报案 21498
数字化 21494
整整 21492
左边 21491
不便 21490
进口@@ 21490
210 21489
火炬 21487
贫民窟 21484
德曼 21482
les 21481
建模 21481
投掷 21478
实务 21478
之地 21478
碧@@ 21476
从前 21475
1976 21474
博拉 21471
wor@@ 21458
密封 21453
van@@ 21452
分校 21452
女足 21450
戴尔 21449
悲观 21448
总督 21448
第八@@ 21447
CEO 21444
良心 21442
深入@@ 21442
斌 21442
晒 21439
1950 21439
ij@@ 21438
祖 21435
围栏 21435
见下文 21435
南美洲 21434
救治 21433
迎战 21428
留言 21424
二十一 21423
各界 21422
阿什 21420
鼓掌 21419
杀戮 21414
福建省 21414
纷@@ 21413
况 21409
拉动 21408
会期 21408
录@@ 21402
快点 21401
斯托 21398
院子 21395
集结 21395
选拔 21392
派驻 21391
杰森 21389
议@@ 21387
厌倦 21384
La@@ 21378
39@@ 21378
宿@@ 21377
熟练 21373
挺@@ 21372
对称 21370
项目管理 21368
比奥 21368
臭名昭著 21364
搭载 21361
Add.1 21359
席@@ 21358
塞特 21358
繁殖 21354
键入 21349
厌恶 21349
闭@@ 21344
女朋友 21344
监护人 21343
肥 21341
药物滥用 21341
电话@@ 21331
汪@@ 21329
海牙 21327
ys@@ 21327
好评 21326
并非如此 21322
人心 21317
刑事犯罪 21314
雷诺 21313
仁 21311
莎@@ 21304
下游 21304
常任理事 21304
邮箱 21300
ly 21296
完工 21292
落下 21283
告别 21283
17% 21277
诚 21275
打败 21272
征服 21269
手套 21268
弃权 21267
教派 21262
应力 21259
车轮 21258
炎热 21258
服务质量 21253
下个月 21253
拨@@ 21252
旁@@ 21246
养老 21245
智 21239
阁 21234
崇@@ 21229
那场 21228
培@@ 21227
拖欠 21227
自助 21227
出国 21227
恢复正常 21226
捷 21223
CS@@ 21220
小企业 21220
生理 21219
殖民 21218
土库曼斯坦 21218
永久性 21212
网络安全 21211
洁 21209
乐意 21209
生动 21205
分局 21204
夸大 21203
20.@@ 21200
死因 21197
保护措施 21197
氏@@ 21193
瞄准 21187
灌@@ 21186
出身 21184
喜悦 21184
拳 21183
高风险 21182
防汛 21180
争执 21178
温泉 21176
Inter@@ 21176
园区 21170
太好了 21170
两届 21170
电脑@@ 21169
摸@@ 21167
市场份额 21165
适足 21162
问卷 21161
历史学家 21153
my@@ 21151
难得 21150
桌上 21148
pr@@ 21148
11% 21137
br@@ 21127
费德勒 21126
急于 21123
ore 21122
mm 21121
这款 21120
搭 21118
前沿 21115
润 21114
身亡 21114
骂 21114
35@@ 21113
而定 21113
ack 21106
抗生素 21106
117 21097
车身 21094
墓地 21090
哀悼 21086
通告 21083
九月 21082
第一份 21076
ich 21072
晋升 21071
总体而言 21070
mark@@ 21068
管理器 21067
灭 21061
持久性 21057
不小 21054
壮观 21050
皇 21049
从小 21047
诚意 21045
光学 21044
译文 21043
显示器 21040
露台 21040
砖@@ 21040
夸@@ 21037
烂 21037
拿走 21037
斯特拉 21034
竹@@ 21030
布什总统 21026
亚太地区 21026
118 21022
深圳市 21022
车厢 21021
ont@@ 21017
2.1 21014
该股 21010
实效 21009
磁带 21001
各个领域 21000
下落 20998
孙子 20997
卖出 20991
贯彻落实 20986
对照 20985
镜@@ 20985
生产@@ 20983
趣 20978
甲板 20977
交货 20973
纳税 20970
国有企业 20969
呼叫 20967
第二节 20962
pl@@ 20956
城里 20955
逊尼派 20955
客运 20953
Kh@@ 20951
度假胜地 20950
优良 20948
鹿 20946
一夜 20941
宇航员 20940
怒@@ 20939
人气 20935
导师 20933
收盘 20929
鬼@@ 20928
牛仔 20922
450 20922
传染性 20920
区域性 20918
阅@@ 20910
厉害 20910
阿拉伯联合酋长国 20907
负担得起 20907
合金 20904
起步 20902
奥委会 20899
1969 20895
温家宝 20895
段@@ 20891
开发区 20887
贝利 20886
礼拜 20883
不然 20878
绵@@ 20876
第六次 20875
解放@@ 20874
借款 20873
熟 20867
模具 20861
劫@@ 20859
淡化 20856
这艘 20855
新人 20852
短时间 20852
连贯 20850
跨境 20849
悬而未决 20849
管理工作 20844
Mac@@ 20835
摄@@ 20830
篮 20827
ros@@ 20825
科比 20824
升起 20822
美容 20820
处理@@ 20817
海豚 20816
出血 20815
95% 20814
盆 20811
茂@@ 20803
路口 20798
沟@@ 20797
age 20796
青春 20796
RE@@ 20787
天花板 20781
低调 20778
胁迫 20775
湖区 20774
耶夫 20774
前瞻性 20773
感冒 20769
争夺战 20768
西装 20764
祥 20757
au 20756
浅 20755
坠毁 20751
赤贫 20748
俄勒冈州 20744
星星 20739
语法 20737
期刊 20731
民族和解 20729
赛区 20724
毛泽东 20722
尔曼 20712
咱们 20711
把手 20709
哈尔 20709
才@@ 20705
第九@@ 20704
上传 20703
插 20698
德克萨斯州 20698
送回 20692
氟 20692
填充 20691
弯曲 20691
ug@@ 20691
全力支持 20691
路易斯 20688
ley@@ 20687
我爱你 20686
牢@@ 20686
敏感性 20684
第九届 20680
灭@@ 20677
Sam@@ 20676
追溯到 20672
人性 20669
均匀 20666
财务报告 20654
暑期 20652
胳膊 20652
饱受 20643
自我@@ 20642
亿万富翁 20641
ol 20640
21.@@ 20634
释@@ 20633
非盟 20633
武术 20629
敏@@ 20628
18% 20619
世界人权宣言 20616
愿@@ 20615
如果说 20613
卡西 20612
ens@@ 20612
顺便 20611
著作 20609
刑事责任 20605
头痛 20604
内政部长 20603
卢比 20598
催化剂 20597
伍兹 20595
去年同期 20585
14% 20583
公共交通 20579
并称 20576
游艇 20576
第十届 20576
归因于 20573
极端分子 20573
军火 20571
过高 20567
月亮 20566
行径 20561
前列 20561
低成本 20559
om 20559
亿人 20557
欧冠 20554
38@@ 20553
小将 20549
饮水 20541
典@@ 20540
流血 20539
马尔代夫 20539
克雷格 20537
灰 20536
因子 20535
香烟 20534
视力 20531
忘@@ 20531
侯赛因 20529
整体@@ 20528
言语 20528
特尔 20527
转型期 20527
克里斯托弗 20527
成像 20522
入学率 20522
独家 20521
SO@@ 20520
烈 20520
座谈会 20516
ans@@ 20515
肮脏 20513
打法 20507
her@@ 20506
宏 20500
tim@@ 20499
密钥 20496
敬 20493
阳市 20493
重新考虑 20487
家电 20486
望远镜 20486
布置 20486
梯@@ 20483
所称 20479
四方 20478
雷尔 20477
肌肤 20471
迟@@ 20471
责任感 20468
数码 20457
洛夫 20456
暗 20455
便捷 20454
联军 20450
准许 20449
Kar@@ 20447
双向 20445
酋长 20443
焊接 20439
公然 20438
安全部 20435
苗 20433
烟雾 20433
牢房 20430
不去 20429
顾及 20428
丹尼 20423
树林 20421
十个 20418
导游 20412
剧中 20412
稍微 20410
头号 20407
昂 20406
溪@@ 20401
老挝 20399
武装力量 20398
产权 20397
伤员 20397
潜水 20396
总务 20390
厄 20387
祖父 20387
时钟 20384
充分考虑 20382
专题讨论 20377
滑稽 20376
融@@ 20373
生产线 20369
扳@@ 20368
45% 20367
瘦@@ 20366
橙色 20364
环境影响 20363
医护人员 20361
入选 20361
学历 20361
奥迪 20357
蓄意 20356
遥感 20355
皆 20355
密歇根 20341
废弃 20339
起义 20339
里根 20331
契机 20330
融 20328
í 20327
故 20325
出版商 20323
奉@@ 20313
各部 20313
不远 20312
126 20309
诗歌 20309
铀 20307
洞穴 20306
冻@@ 20303
穷 20300
快递 20299
小男孩 20299
响@@ 20297
驱@@ 20296
客户服务 20295
四天 20291
新闻网 20289
碎@@ 20288
经济损失 20281
野心 20280
惩处 20279
裤 20277
技 20276
织@@ 20274
齐全 20271
厂家 20269
第五届 20264
高盛 20263
计算机@@ 20262
威斯敏斯特 20261
吴 20252
蒙特雷 20252
用地 20248
刷@@ 20247
经营@@ 20245
介质 20242
责 20241
纪 20236
mu@@ 20231
书店 20228
利兹 20227
隐患 20227
遗留 20227
刺伤 20226
几点 20226
理智 20222
追 20221
淡水 20219
皮球 20219
第四个 20214
80@@ 20211
督@@ 20211
利益冲突 20210
数字@@ 20207
尔克 20207
外套 20201
公用事业 20200
9000 20196
卡片 20196
临 20192
约克郡 20185
ste@@ 20184
联海 20183
醇 20181
赶紧 20181
化学物质 20177
乡镇 20175
球衣 20173
裸@@ 20172
严重威胁 20172
瀑布 20169
遇难 20166
股票@@ 20166
ii 20166
尼奥 20159
丹佛 20157
人民网 20154
成交量 20149
one@@ 20149
34@@ 20147
阿伦 20147
示 20146
BI 20138
英特尔 20134
兼职 20134
马拉松 20133
蚊子 20133
ary@@ 20132
共产主义 20132
1800 20128
裂缝 20124
两侧 20121
弗朗西斯 20116
掌声 20113
是非 20112
欠@@ 20110
学年 20109
为本 20108
敌意 20104
踢球 20104
合法权益 20102
270 20100
四项 20095
候@@ 20092
平安 20092
使馆 20091
内置 20086
竞争者 20081
辣 20073
旋 20069
静态 20066
非洲人 20064
名誉 20064
根本性 20064
式@@ 20063
凯恩 20062
IP地址 20062
领事馆 20062
mit@@ 20062
侦@@ 20062
传承 20057
哇 20052
特拉 20051
评注 20051
巴拉圭 20050
注@@ 20049
蒸汽 20049
航空@@ 20049
令人信服 20048
演唱 20046
西撒哈拉 20041
° 20037
箱@@ 20035
满意度 20035
历程 20034
比特 20034
小幅 20031
捐@@ 20029
可惜 20025
凯尔 20023
斜@@ 20020
今 20019
疑 20018
新泽西州 20017
办案 20008
布赖恩 20006
远处 20003
卡斯特罗 20002
外交@@ 20002
拜访 19999
情人 19989
鸟@@ 19987
写入 19979
巴拉克 19979
多媒体 19979
格里@@ 19979
jo@@ 19978
高血压 19972
震动 19971
Ben@@ 19969
大风 19967
宁静 19965
23.@@ 19963
盛大 19962
公私 19962
传来 19960
凌@@ 19959
烧毁 19956
巡回 19952
0000 19951
捕@@ 19950
昆虫 19946
韦德 19945
躲@@ 19945
鸿沟 19944
试着 19942
族@@ 19934
排行榜 19934
昏@@ 19933
慕尼黑 19929
这套 19925
民政 19915
德克萨斯 19910
123 19909
宝石 19903
队列 19902
一年一度 19901
近乎 19893
中是 19892
85% 19891
日记 19884
扶贫 19884
辩称 19883
24.@@ 19880
覆盖面 19876
结核病 19873
年会 19870
诊 19862
ps 19861
开列 19860
拼 19859
Tr@@ 19853
广告@@ 19853
肺 19847
炸药 19846
ts@@ 19845
手机@@ 19842
跟@@ 19839
北卡罗来纳州 19839
布斯 19838
商品价格 19837
德班 19835
奉 19834
人身 19832
我家 19829
不法行为 19826
粮 19825
伯尼 19825
3.2 19820
Sa@@ 19820
扶 19820
温柔 19815
第三十@@ 19815
三级 19812
研究成果 19809
公职人员 19809
字体 19808
个人资料 19807
评分 19806
礼品 19805
改编 19802
忧 19802
用电 19802
盲目 19802
就读 19801
貌 19793
未决 19792
卫生保健 19789
唯@@ 19786
平息 19786
第三节 19785
表态 19782
数千名 19779
第二章 19778
零售@@ 19777
随之而来 19776
苗@@ 19776
滞留 19775
弹道导弹 19773
马拉维 19772
耳机 19771
对立 19770
身着 19769
一季度 19761
办公厅 19761
大奖 19761
ST@@ 19760
猪@@ 19760
喊@@ 19760
女星 19759
小规模 19757
扯 19756
60@@ 19751
混合物 19751
玩耍 19751
罗伯茨 19751
缓@@ 19748
分公司 19746
出席会议 19746
阻力 19737
技术性 19731
概括 19730
水位 19730
好玩 19727
输掉 19727
支队 19724
科目 19724
有线电视 19723
小伙子 19722
巴尔的摩 19716
贵族 19715
干细胞 19710
红十字 19710
半数 19709
而成 19707
规 19703
结余 19695
ski 19692
公顷 19689
熟@@ 19685
缩@@ 19684
金融时报 19683
全国@@ 19683
脏 19683
耗@@ 19679
农田 19679
航天员 19674
头球 19672
买入 19672
ice 19669
不堪 19669
祖母 19668
克隆 19664
盟国 19662
半场 19661
眼泪 19661
长春 19660
陶瓷 19659
筹 19659
可用性 19652
无聊 19650
2.2 19643
自由贸易 19643
ak 19640
侵权行为 19640
一致意见 19639
阿拉斯加 19639
归功于 19637
消防队员 19631
bl@@ 19630
本条 19630
纽带 19629
审慎 19616
以供 19615
算是 19615
像素 19611
两国政府 19611
预案 19606
关门 19604
英亩 19602
恒大 19602
一如既往 19601
爱尔兰@@ 19599
布鲁克 19598
只好 19595
改动 19589
丧@@ 19588
授@@ 19585
MS 19583
踏@@ 19582
十月 19581
裙 19578
缓存 19576
私下 19576
名声 19575
奴役 19575
着力 19574
欧洲共同体 19573
乳房 19569
路程 19568
耗资 19565
蓬勃发展 19563
联合行动 19561
EM@@ 19558
中锋 19556
聚焦 19556
珍惜 19555
处方 19554
柜台 19550
八月 19549
分析家 19548
着重指出 19546
同年 19542
根深蒂固 19542
订约 19540
乐团 19540
参展 19539
与否 19539
梵蒂冈 19538
ca@@ 19538
联委会 19538
争 19537
新闻媒体 19535
美国国会 19534
主办方 19534
剧组 19531
修补 19526
谈及 19525
第一夫人 19525
里昂 19522
掌 19519
充实 19513
绍@@ 19512
旅行者 19511
光盘 19509
致电 19508
构成威胁 19508
无缘 19507
二手@@ 19507
近距离 19504
布拉德 19502
宣告 19491
谋杀案 19490
长城 19488
lar@@ 19483
胎儿 19481
rat@@ 19479
宽度 19475
挖 19475
大豆 19471
克莱 19471
ure@@ 19468
穆里尼奥 19463
学期 19462
读取 19455
恰恰 19455
悠久 19454
sam@@ 19451
悬崖 19447
着陆 19446
基线 19445
左侧 19444
该片 19442
苏格兰人 19441
河南省 19437
安全措施 19437
带上 19436
阻挠 19436
这段 19435
自由民主党 19433
感知 19432
庭@@ 19431
温哥华 19429
划界 19427
高性能 19424
致意 19422
法律事务 19417
叙事 19416
老化 19415
州政府 19413
股本 19412
热火 19410
被害人 19401
损 19400
监督机构 19398
持续增长 19398
左派 19397
硫@@ 19396
tor@@ 19390
摸 19389
夹克 19386
可取 19384
民主化 19384
缝@@ 19383
联合国环境规划署 19383
威斯康星州 19383
对本 19377
脱颖而出 19376
角度看 19376
林肯 19375
露面 19375
花钱 19375
址 19373
拉里 19371
溜@@ 19369
民营 19368
崔@@ 19366
优越 19366
火爆 19364
可达 19361
搅拌 19361
偶@@ 19361
霜 19356
交互 19356
衔 19353
合资 19351
歌剧 19346
叛@@ 19346
积极性 19344
防线 19343
每位 19341
皇@@ 19339
高品质 19338
饼干 19338
攻击性 19330
租用 19324
爷 19324
1971 19323
以色列政府 19322
宣判 19321
宏观 19318
本应 19314
MP@@ 19312
纽卡斯尔 19312
_ 19311
ica 19310
崇高 19310
医保 19310
几百@@ 19309
土著人 19309
水分 19308
155 19307
畅@@ 19305
宜 19303
1968 19287
话语 19283
10000 19280
弗兰@@ 19277
详细资料 19276
独一无二 19272
盟约 19270
oci@@ 19270
贷 19267
保护环境 19266
触 19263
往返 19263
既@@ 19263
维权 19260
Wal@@ 19256
重新@@ 19252
管理制度 19252
诱@@ 19252
体检 19248
血腥 19247
涉案 19246
软件@@ 19244
放宽 19240
疼 19239
影院 19236
抑郁症 19236
下达 19233
分辨率 19231
土豆 19230
最强 19226
踩 19226
砖 19215
徒 19214
ang 19211
生命权 19206
融化 19199
卖掉 19196
132 19195
负有责任 19192
肝 19190
高涨 19190
在职 19190
极为重要 19189
通车 19188
五十@@ 19187
与众不同 19186
炒作 19185
嘛 19183
箱子 19179
营运 19175
欧洲理事会 19174
阿拉@@ 19173
教材 19173
峡谷 19172
发病 19163
网格 19156
没能 19155
毒性 19154
钦@@ 19154
卡罗 19153
小时候 19152
外空 19150
线程 19140
Cent@@ 19127
AC@@ 19126
ini 19125
罗德 19123
窝 19120
屁股 19120
颗粒 19115
Per@@ 19113
议定 19113
债@@ 19111
动乱 19106
右侧 19103
关系@@ 19099
棉花 19099
两会 19098
偏好 19089
弗格森 19087
小于 19086
Ro@@ 19086
罗杰 19083
渡 19083
小屋 19081
巴赫 19079
输球 19078
机理 19078
ick 19071
阿拉 19071
水上 19069
ment 19069
Windows@@ 19067
mat@@ 19062
受益人 19060
受众 19059
风力 19057
笑容 19055
笔记 19054
金色 19051
留下来 19050
举起 19050
裁 19049
迫@@ 19045
链@@ 19044
联合国安理会 19043
灭绝种族 19040
第九 19039
面貌 19037
介@@ 19036
全局 19033
过渡时期 19028
第二位 19023
祭@@ 19021
裁减 19018
ric@@ 19014
自觉 19012
伞 19008
地下室 19007
淋浴 19004
莲 18999
支持率 18996
萍 18988
uc@@ 18987
16% 18987
派别 18985
准入 18982
流传 18982
备用 18981
联合国总部 18981
扳平 18979
传染 18977
电量 18973
谣言 18973
写信 18973
电影院 18973
西奥 18972
保育 18966
丙@@ 18964
试验@@ 18963
降水 18959
右边 18954
煤矿 18954
一阵 18954
境地 18953
作法 18949
之友 18948
混淆 18948
vi@@ 18947
何 18946
第四条 18946
英语@@ 18942
渡@@ 18939
嗨 18939
黛@@ 18938
面对面 18938
君 18934
凤@@ 18931
依法@@ 18925
绿化 18922
过量 18920
地段 18920
失衡 18920
人来 18914
淋@@ 18913
边防 18912
德森 18908
135 18907
较量 18906
纳达尔 18905
宣誓 18905
钦佩 18905
相互依存 18905
一切都是 18905
有意思 18905
抛 18903
承 18898
好人 18896
US@@ 18892
格外 18892
分支机构 18891
简称 18880
UV 18879
ST 18877
Peter@@ 18877
底层 18875
今年年底 18874
保护主义 18870
ney 18866
当今世界 18866
池@@ 18863
草原 18857
ess 18856
无所@@ 18855
Dav@@ 18854
避孕 18849
化妆品 18848
鞭@@ 18847
毒素 18847
吓@@ 18846
甜蜜 18845
闻@@ 18844
1949 18843
不可分割 18843
生产性 18842
民粹主义 18836
可观 18834
青年@@ 18834
国情 18834
银河 18827
福州 18827
开除 18824
一共 18822
重型 18821
验@@ 18819
夸张 18819
气球 18816
高原 18813
传言 18813
程序@@ 18812
化学@@ 18810
出版社 18804
该行 18803
Mat@@ 18800
典范 18798
For@@ 18797
墙@@ 18796
盆地 18793
飞越 18789
性关系 18788
人队 18786
忽@@ 18785
音乐家 18784
热衷于 18775
概要 18772
230 18768
息@@ 18758
BA 18757
延 18757
小鸟 18757
奥斯本 18754
中所载 18754
做过 18752
会议议程 18752
第一章 18749
丝毫 18748
妇 18745
研 18742
十大 18741
走路 18741
重启 18736
触摸 18735
一代人 18735
奥斯@@ 18733
体积 18731
追捕 18727
减至 18726
看望 18720
Mor@@ 18719
奴隶制 18711
保释 18710
子宫 18709
米切尔 18703
聘 18700
水下 18698
控股 18698
血统 18692
一家人 18691
约翰内斯堡 18687
勃@@ 18683
调查团 18680
购房者 18679
口译 18675
Pat@@ 18675
烦@@ 18674
提高效率 18669
kar@@ 18667
干嘛 18663
一球 18659
转身 18658
剧烈 18657
mor@@ 18656
强壮 18656
麻醉药品 18655
AD@@ 18652
甜 18650
致力 18649
之战 18648
他妈的 18647
幕@@ 18645
巨星 18644
真主党 18640
124 18639
百年 18636
XML 18635
倒退 18634
land@@ 18632
加息 18629
组装 18628
ca 18628
堂@@ 18626
择@@ 18620
元件 18619
上级 18615
定居者 18612
全身 18611
桌@@ 18611
ab 18603
平等权利 18603
萨摩亚 18594
噪声 18588
今年夏天 18588
氧气 18587
穆尔 18586
不准 18582
娃娃 18580
护送 18580
首要任务 18579
陷入困境 18576
高点 18575
堵 18573
扫盲 18573
不高 18567
揭开 18566
可笑 18564
IM@@ 18561
收于 18560
一页 18557
1100 18557
猪肉 18557
尖锐 18557
津@@ 18555
何处 18553
阵雨 18552
CR@@ 18551
通知书 18548
兽医 18548
共用 18547
第三条 18545
凭@@ 18543
罩 18542
消防员 18530
辞@@ 18529
奏 18527
机组人员 18526
登记@@ 18525
各不相同 18525
斯托克 18521
业内 18521
钻 18517
所得税 18517
晚宴 18514
疾@@ 18512
祖先 18508
尺度 18506
蒋@@ 18503
德里克 18502
堵塞 18502
印度洋 18500
cl@@ 18499
拟@@ 18497
日向 18493
点头 18492
记载 18492
哈里斯 18490
起床 18488
局限于 18487
同类 18487
前方 18487
鸿@@ 18486
试试 18485
受到限制 18484
吉米 18480
友好合作 18478
垮 18477
所处 18472
ba@@ 18471
河北省 18471
佩戴 18469
跑动 18469
反射 18467
拒 18467
专业化 18465
上调 18463
心目 18463
弦 18460
责任人 18460
加紧努力 18459
和平谈判 18453
请问 18452
十多年 18450
绳 18448
敲定 18448
优美 18447
健 18446
羞辱 18445
晒@@ 18442
竞技场 18437
胺 18434
儿基会 18432
手法 18431
三国 18431
开门 18429
内塔尼亚胡 18429
有效率 18427
相匹配 18427
後 18427
TA 18426
执政党 18426
汗@@ 18425
腐蚀 18425
密歇根州 18422
ire 18422
无限期 18420
多样 18420
文化交流 18416
妇女组织 18410
海洋环境 18405
经受 18399
低下 18399
逊 18397
薪@@ 18396
弯 18395
漏 18389
Mart@@ 18384
bri@@ 18378
普里 18378
赴@@ 18377
pri@@ 18375
CC 18373
和平@@ 18370
交出 18369
虚构 18368
阳性 18366
第一条 18365
斯坦@@ 18362
皇帝 18362
发展部 18361
灾 18361
中华民族 18360
总计 18359
焚烧 18357
弃 18356
CD@@ 18350
树脂 18349
发光 18349
着眼于 18349
舰队 18347
收拾 18343
第四节 18343
溢@@ 18342
特恩 18339
废 18337
不动 18335
la 18329
每晚 18325
全都 18324
背叛 18322
高新技术 18321
后台 18320
有形 18318
马英九 18317
DA@@ 18316
避难 18313
噩梦 18310
哪怕 18308
前天 18308
粽@@ 18305
拳@@ 18302
征求意见 18294
奎 18291
舱@@ 18291
无权 18291
梅西 18288
山顶 18279
缝 18278
特别法庭 18278
燃 18276
乐园 18275
党组织 18266
盈@@ 18265
海峡两岸 18265
每隔 18264
袋子 18264
ri 18253
多边贸易 18251
域名 18247
冯 18243
十分@@ 18242
赖斯 18238
竞争性 18237
hal@@ 18229
额度 18229
留学 18228
始@@ 18227
第五条 18227
侠 18225
非常重视 18224
1300 18222
高效率 18222
一门 18218
市政厅 18218
弥@@ 18216
台风 18215
甲基 18212
该队 18210
艾哈迈德 18209
眉@@ 18209
羽毛球 18208
公立学校 18206
颠覆 18205
两支 18203
琪 18201
雇佣军 18199
彻 18196
本能 18194
赚取 18189
ama 18189
这部分 18188
奶油 18187
日产 18187
麦当劳 18185
手持 18182
抽象 18181
ó 18180
两市 18180
独立国家 18178
继续加强 18176
奥克兰 18167
摩加迪沙 18167
眼下 18166
病房 18166
气质 18163
东方@@ 18163
威尼斯 18158
260 18157
小组讨论 18154
规@@ 18153
中心@@ 18150
特曼 18143
安卡拉 18143
不断扩大 18142
肤色 18142
双人 18141
ih@@ 18141
刑罚 18141
公安部 18140
发表意见 18140
女排 18135
篮子 18135
竭尽全力 18133
特别强调 18133
wh@@ 18132
柱@@ 18124
中间@@ 18119
倍@@ 18112
原型 18112
小册子 18110
差点 18108
少于 18107
不在乎 18106
居然 18105
湿地 18105
格雷@@ 18104
论证 18101
划拨 18099
han@@ 18097
斤 18097
小偷 18097
前行 18097
认真@@ 18096
常态 18094
以内 18088
赛程 18086
雷霆 18086
碱 18083
专栏 18083
兴建 18081
基本法 18081
ex 18079
稳固 18074
多哥 18072
宠@@ 18071
蜜蜂 18070
艳@@ 18067
热心 18066
君@@ 18065
深处 18063
罗夫 18058
窄 18058
自决权 18058
胖 18057
票据 18054
第三名 18054
Med@@ 18054
47@@ 18050
轮椅 18047
蒂尔 18045
蒙德 18039
判@@ 18037
朴 18037
阶级 18036
AC 18035
奥组委 18032
车库 18029
时所 18027
数千@@ 18026
天津@@ 18023
医务人员 18023
调查员 18021
惠益 18019
耗 18016
心理学家 18014
好多 18010
121 18008
查韦斯 18006
ier 18006
休斯 18002
钓鱼 17999
三周 17997
一番 17996
哈德 17995
1.4 17991
交会 17991
周边地区 17989
霞 17989
十字架 17988
家住 17988
祥@@ 17985
前不久 17983
毁坏 17981
新泽西 17980
增值税 17979
符 17979
反响 17978
沃德 17977
被忽视 17972
首届 17971
编纂 17960
频频 17959
闭幕 17955
惊奇 17954
奢侈 17954
两院 17954
央视 17952
上游 17952
海运 17951
曹@@ 17951
据统计 17951
地下水 17950
更少 17949
豪宅 17949
巴哈马 17949
用车 17948
最大化 17948
贸@@ 17947
失效 17947
国人 17946
陵 17945
想象力 17944
申花 17944
出任 17944
庭长 17944
巴拉 17940
兄弟姐妹 17938
下表 17937
该镇 17935
装载 17934
访问期间 17933
诺基亚 17921
圣地 17913
布希 17913
数据源 17906
该区 17906
署@@ 17905
LA@@ 17904
保住 17899
季节性 17897
by@@ 17896
毫无@@ 17886
不算 17885
氢@@ 17881
中外 17880
看电视 17877
拐@@ 17873
被告人 17873
护 17871
sc@@ 17870
收容所 17869
似 17868
所需 17862
爆炸案 17861
探测器 17860
俯@@ 17860
认出 17857
安德@@ 17855
温格 17855
强加 17855
贵州 17849
神父 17847
茅斯 17847
red@@ 17840
株 17836
推销 17832
誉 17830
闭 17829
四强 17828
分销 17828
荷 17826
犯罪者 17824
基督徒 17822
犯@@ 17820
一个多 17817
徘徊 17817
怎么回事 17816
长官 17815
躁 17811
情报局 17809
27.@@ 17806
积压 17806
酝酿 17805
杰米 17804
一双 17802
窗@@ 17801
每一 17800
持续时间 17789
油漆 17787
ev 17785
轴承 17783
Sim@@ 17783
索尔 17782
白皮书 17781
te 17780
皇后 17778
相互尊重 17774
战机 17770
继任者 17770
氧@@ 17766
产假 17764
科研@@ 17760
坟墓 17760
局限性 17758
绑 17756
mil@@ 17754
互补 17753
横向 17752
mad@@ 17751
人大代表 17750
热身赛 17745
箭 17744
攻击者 17743
巧合 17742
开盘 17741
罗德里格斯 17738
贺@@ 17737
ER@@ 17737
赏@@ 17735
生境 17734
两地 17734
建国 17731
能源@@ 17722
推定 17721
还好 17716
普雷@@ 17716
荣耀 17715
1600 17714
拉开 17713
扎实 17712
斯说 17712
轻轻 17707
亚当斯 17707
政协 17707
集中@@ 17706
春节 17703
一并 17700
车子 17699
第八 17698
克雷@@ 17696
换言之 17695
过敏 17695
市镇 17692
开发者 17690
申办 17690
多米尼加共和国 17684
旺@@ 17684
不景气 17683
卫生部门 17681
涨价 17679
航天局 17679
妹 17678
全面禁止 17676
积水 17675
必要条件 17674
庄严 17672
附录 17669
ens 17667
会话 17665
体育馆 17664
轮廓 17663
炒@@ 17660
通用汽车 17659
互信 17657
指着 17656
守门员 17656
条目 17655
gl@@ 17654
线条 17653
佛教 17653
核证 17651
重大贡献 17650
资讯科技 17648
西南部 17647
无国籍 17645
德语 17640
外籍 17640
int 17638
晋@@ 17635
吉他 17631
拉尼 17626
提供商 17625
困@@ 17625
猴子 17621
开发@@ 17618
破碎 17618
二人 17617
有名 17613
糖果 17609
辛普森 17608
第九条 17608
矿工 17607
离子 17605
盘子 17603
.9 17599
公共安全 17595
禽流感 17594
刷新 17594
数周 17594
车程 17592
维特 17590
海姆 17585
帆 17583
善于 17582
ino 17581
觉 17581
取缔 17580
打工 17579
天津市 17577
普罗@@ 17573
埃德 17573
丸 17572
勉强 17571
全队 17570
PS 17570
余名 17568
架飞机 17568
自由主义 17565
三倍 17564
再说 17564
缸 17563
不负责任 17563
Bu@@ 17562
法例 17562
否决权 17560
基础教育 17559
在实践中 17558
肝脏 17557
瓶@@ 17554
恶 17552
mith 17551
狂欢 17551
该县 17549
学习@@ 17549
浙江省 17548
硝@@ 17547
十几@@ 17544
扩建 17541
IC 17536
赞成票 17535
Mon@@ 17535
万多 17534
核不扩散 17533
氮 17529
海伦 17526
外科医生 17523
wal@@ 17522
ou 17522
战线 17522
同性 17521
顶尖 17521
妓女 17520
拢 17517
ide 17513
琼 17510
补救措施 17508
方程 17508
塘 17508
商讨 17499
魔 17497
敲 17497
赞助商 17495
渐@@ 17488
uk 17487
专电 17487
帆@@ 17482
操 17480
涌 17476
闪烁 17475
企业@@ 17470
全权 17466
兆 17465
预算编制 17465
定向 17462
租户 17458
侵权 17455
3.1 17455
措词 17455
当地政府 17453
利用率 17452
材@@ 17449
掩护 17440
追查 17437
效能 17434
拦@@ 17432
冬奥会 17431
发展前景 17430
轨迹 17429
多于 17415
jam@@ 17413
礼仪 17413
责任@@ 17411
不败 17408
era 17405
平原 17402
PC@@ 17401
潜能 17400
刑法典 17400
典礼 17398
局局长 17398
Nor@@ 17398
解密 17387
窗体 17383
应是 17383
注册@@ 17382
钙 17379
michael@@ 17374
躲避 17374
22.@@ 17373
直布罗陀 17373
布雷顿 17371
行者 17369
ivers@@ 17367
肯塔基州 17367
中文@@ 17366
廷@@ 17365
脚步 17364
绩 17362
伊斯兰会议组织 17362
外汇储备 17359
呈现出 17359
转达 17356
iPad 17349
拜登 17343
互助 17342
塌@@ 17339
交战 17336
吞@@ 17335
混 17335
伊斯@@ 17331
肉类 17331
分部 17329
联邦@@ 17328
收紧 17323
电动车 17322
斯皮@@ 17322
精密 17321
藉 17319
Al 17319
伙 17314
伊万 17313
出演 17312
哈尔滨 17312
欧美 17311
烧伤 17310
统一@@ 17307
上下文 17306
far@@ 17305
硕士 17304
裁@@ 17303
鲜花 17301
ta 17292
年期 17291
漆 17290
宿 17288
瘦 17286
郑州 17285
沃伦 17282
咬@@ 17281
兔子 17281
几率 17280
顶端 17274
发行@@ 17271
26.@@ 17270
接连 17270
华纳 17266
� 17262
ite 17260
谋杀罪 17259
哈维 17258
套餐 17257
伴@@ 17257
意向 17254
甚 17254
格里 17250
退还 17248
坤 17243
无法@@ 17243
随便 17243
旅游局 17242
液@@ 17239
代谢 17238
耶斯 17235
ld@@ 17233
医疗@@ 17233
罗伊 17232
互相@@ 17232
问候 17231
圣保罗 17230
小狗 17228
﹔ 17227
转发 17225
电线 17223
投票权 17221
地缘 17220
美景 17220
近年 17220
机动 17217
成本@@ 17216
孟买 17214
uli@@ 17213
商机 17212
牲畜 17210
徒刑 17209
马尼拉 17208
戴维 17205
判处死刑 17204
检查组 17202
127 17202
55@@ 17200
Jos@@ 17197
吉布提 17197
涌@@ 17196
交换意见 17196
罐@@ 17194
浓缩 17189
体育运动 17186
电话会议 17184
Res@@ 17182
圭亚那 17180
简历 17179
Group 17178
戴着 17177
吸 17176
45@@ 17174
强制执行 17172
马刺 17170
体罚 17168
睡着 17162
觉@@ 17161
界@@ 17159
务必 17159
1.3 17157
一眼 17153
卢克 17152
脏@@ 17146
农民工 17146
特拉@@ 17145
后裔 17144
滤@@ 17143
瓶子 17143
至上 17142
清晨 17142
教导 17138
催@@ 17137
气息 17136
细分 17133
战略目标 17132
本田 17130
科林 17130
五岁 17129
星级 17128
细致 17128
专 17125
pa 17124
博格 17122
十几岁 17122
司法程序 17121
实惠 17120
Tw@@ 17119
Ex@@ 17118
思想@@ 17118
外形 17117
四分之三 17116
巷 17114
三明治 17112
朝鲜@@ 17111
南极 17111
操作@@ 17111
小学生 17109
每桶 17106
握手 17106
答辩 17104
布拉格 17104
第十一届 17103
酯 17102
物价 17102
沃尔玛 17101
有钱 17100
bal@@ 17098
微弱 17098
估价 17098
数百人 17097
2.3 17095
问道 17094
非常感谢 17092
搜索引擎 17089
决不能 17089
动力学 17081
地步 17080
审计员 17077
da 17074
ara 17074
奢侈品 17073
藤@@ 17072
管局 17071
1373 17070
战略规划 17069
ect@@ 17066
表示遗憾 17063
中向 17059
oo 17055
之二 17055
店铺 17055
娘 17054
全程 17051
管理体系 17048
服装@@ 17045
通货膨胀率 17045
脚下 17041
共鸣 17038
接手 17037
生命@@ 17037
评选 17036
水源 17036
水利@@ 17035
柴@@ 17034
ach 17028
CB@@ 17026
一栋 17021
叹 17020
卡斯 17020
埋葬 17016
消费品 17014
拥 17012
句@@ 17010
一点点 17010
分化 17009
兵力 17005
五次 17004
剪辑 17002
警察局长 17002
翅膀 17001
最坏 17001
刑事诉讼法 16999
踏上 16997
物料 16995
通讯员 16995
共同利益 16992
ony@@ 16988
督察 16978
134 16976
对峙 16974
大米 16973
马车 16971
三分 16963
塑料@@ 16962
osh@@ 16962
想念 16962
离不开 16959
分阶段 16959
小国 16958
纺织品 16956
白痴 16956
资本@@ 16953
失事 16949
施工@@ 16946
涂 16946
从没 16945
新能源 16944
财力 16940
厚度 16939
迪斯 16939
房东 16938
库珀 16935
沃森 16935
撤军 16934
水管 16932
召@@ 16930
内华达州 16928
马达加斯加 16926
精美 16926
佩林 16923
天生 16922
查获 16921
银行@@ 16918
号线 16916
胜任 16914
限定 16914
臭@@ 16912
加油站 16910
法制 16909
士队 16908
阿拉巴马州 16907
询 16904
从业人员 16904
伦斯 16901
鲁尼 16901
戴夫 16900
援@@ 16899
奥斯汀 16897
免疫系统 16896
48@@ 16894
关键时刻 16891
时装 16889
受审 16886
减灾 16886
本科 16885
床@@ 16884
莎拉 16882
恋爱 16873
笔记本 16873
音乐节 16872
脉冲 16871
留住 16865
缉获 16864
穆勒 16862
译 16853
海岸线 16853
Mal@@ 16848
进军 16845
一千@@ 16845
发生率 16845
胸 16844
独联体 16843
重庆市 16842
夫斯 16840
降温 16840
堤 16837
那一刻 16836
牧场 16829
ins 16828
毛额 16825
嫩 16824
技术创新 16824
事务司 16824
1945 16821
合资企业 16820
两国之间 16818
浇@@ 16817
宪@@ 16813
革命@@ 16811
境况 16808
世俗 16807
盲@@ 16806
经常性 16806
承载 16803
到场 16803
抬头 16802
丽莎 16801
经纪 16799
就让 16799
看不见 16797
握 16795
贪@@ 16792
伯恩 16791
裂 16790
援 16789
日渐 16789
句子 16786
斯利 16784
普拉 16784
限制性 16784
注释 16783
分红 16780
ger@@ 16773
杰拉德 16772
司法@@ 16770
职权 16770
编剧 16767
数次 16764
窝@@ 16761
回头 16756
此人 16754
1540 16752
好看 16750
ink@@ 16747
奥兰多 16747
直径 16744
合作项目 16742
业已 16740
服刑 16734
our 16734
黄油 16733
屋里 16732
串 16729
听证 16724
为数不多 16724
放开 16723
纹身 16722
性健康 16719
骗@@ 16716
骗局 16716
尊@@ 16708
are 16707
挤压 16707
体制改革 16705
宗教信仰 16705
阿姆斯特丹 16704
夺走 16703
法兰克福 16701
颁奖 16698
服务员 16692
每种 16691
喜剧演员 16685
出战 16684
多万元 16682
da@@ 16681
25.@@ 16680
连锁店 16676
农业部 16672
该处 16669
棍 16668
生态@@ 16667
排水 16666
举行会谈 16664
致函 16663
联想 16661
断裂 16660
常规赛 16659
赌@@ 16655
使人 16655
回购 16654
新奥尔良 16654
债务人 16653
灌溉 16651
拱@@ 16647
装有 16645
腹部 16645
回事 16645
背面 16639
下班 16638
之初 16637
英国首相 16637
65% 16636
增编 16636
听力 16634
结成 16633
面谈 16632
频 16630
投产 16630
激起 16629
bert@@ 16629
绝大部分 16628
石化 16628
趋@@ 16625
赔@@ 16625
wil@@ 16622
农业部门 16622
iri@@ 16620
帕特 16619
分至 16616
巢 16616
基因@@ 16615
2.4 16614
坡@@ 16609
切除 16608
Gar@@ 16608
齿轮 16607
香蕉 16607
22% 16606
又@@ 16606
有效期 16603
灾@@ 16603
起诉书 16599
市值 16597
游击队 16596
羽@@ 16595
主队 16592
一章 16587
无知 16586
迪斯尼 16583
时应 16583
山市 16583
臭 16582
尼亚@@ 16582
柄 16579
博茨瓦纳 16575
anc@@ 16573
ke@@ 16571
规避 16567
穆巴拉克 16565
山姆 16562
总和 16560
绑定 16557
138 16557
安南 16555
选拔赛 16554
绿党 16553
辆车 16552
补编 16552
定量 16551
鸡尾酒 16550
抱@@ 16550
罗巴 16549
冒犯 16546
Bur@@ 16543
速率 16543
监 16543
巨型 16539
敞@@ 16538
夺 16537
勒姆 16533
ka 16533
玻利瓦尔 16532
庇护所 16529
培训中心 16527
痕 16525
漫步 16521
官僚 16521
不敢相信 16521
日益增长 16518
罗布 16516
变换 16513
创造条件 16513
温州 16511
奔驰 16510
研训 16509
地被 16508
ane 16507
列支敦士登 16507
AN@@ 16506
遇见 16501
教科书 16501
粗糙 16501
加蓬 16501
阻挡 16500
Ham@@ 16498
民选 16498
性取向 16496
偶 16495
耸@@ 16495
空前 16493
欧佩克 16492
穷@@ 16491
老实 16490
屑 16488
代会 16488
吃惊 16486
邓肯 16485
肚子 16484
野外 16480
指纹 16475
国务院@@ 16475
ek 16474
棕色 16473
以东 16472
哭@@ 16472
充斥 16469
雷曼 16467
离去 16464
纳米 16462
串@@ 16461
该校 16460
玛格丽特 16453
2.0 16451
肩 16449
中世纪 16448
爽 16448
烧烤 16447
ett 16446
多夫 16445
4.5 16442
增效 16441
真实性 16440
马其顿共和国 16437
官长 16434
广州市 16433
不论是 16432
豹 16430
断言 16429
出动 16428
肺@@ 16425
调查表 16423
抢险 16417
门店 16414
大纲 16412
应予 16410
奇妙 16408
都柏林 16406
贪婪 16405
乐于 16402
非统组织 16400
恐龙 16400
处分 16397
天体 16393
丰厚 16387
二月 16387
预言 16386
直线 16383
西班牙人 16382
天线 16377
法学院 16375
家务 16375
pol@@ 16371
格雷格 16370
环保@@ 16370
做成 16368
复审 16366
挤满 16366
实况 16363
非裔 16361
保管 16357
采 16357
讯息 16357
der@@ 16352
主观 16352
犯人 16349
阿拉伯人 16349
血压 16349
enc@@ 16348
募集 16348
不锈钢 16347
防空 16346
亡 16345
Wor@@ 16344
揭@@ 16341
负债表 16340
首府 16339
净化 16338
遭@@ 16336
cn@@ 16335
五大 16335
表演者 16331
现实生活 16331
意大利@@ 16331
蓬@@ 16329
惊艳 16329
面具 16328
抹 16328
可悲 16327
移动电话 16325
马克思主义 16324
昆士兰 16324
转为 16322
犹他州 16321
劳伦斯 16321
Or@@ 16320
自由党 16319
稳定@@ 16318
足球@@ 16317
潘 16316
ive 16314
和谐社会 16314
享 16311
佐治@@ 16311
扑灭 16310
晴@@ 16306
瓶颈 16306
谜 16303
宁夏 16303
炸@@ 16301
元首 16301
时髦 16301
误 16299
咸@@ 16298
义务教育 16295
× 16289
并列 16289
希族 16289
wood 16288
赋权 16288
金伯利 16283
投机 16281
范例 16278
维亚 16278
扼杀 16277
贸易额 16277
相称 16277
出人意料 16275
滑坡 16274
骨骼 16274
东风 16274
解答 16273
惩戒 16273
赫尔@@ 16273
总裁兼 16271
西斯 16268
总公司 16266
好运 16264
体能 16264
诅咒 16262
EC 16261
环保局 16261
劫持 16259
投降 16258
利害关系 16251
该次 16250
灾后 16248
黄金@@ 16245
严密 16245
百老汇 16244
贝鲁特 16239
liv@@ 16239
联手 16237
性价比 16237
服务提供商 16237
所提 16237
索取 16236
懒@@ 16235
林斯 16229
1.6 16226
巴巴多斯 16225
摩纳哥 16224
雀 16224
族群 16223
尾声 16219
洒 16219
姚明 16217
交手 16216
添 16214
agram 16214
普通照会 16212
阿卜杜拉 16212
便利化 16209
耗尽 16205
升温 16200
联合国安全理事会 16198
齿 16195
制度化 16195
挥舞 16195
纪委 16194
剧场 16191
议院 16184
尿 16183
馆@@ 16178
投资银行 16172
落入 16172
肿 16167
移除 16165
Se@@ 16163
1961 16162
表示满意 16160
偷走 16158
联苏 16156
严格遵守 16154
多月 16154
145 16153
棋 16152
福斯特 16150
赞美 16150
伊拉克人 16150
匠 16143
退款 16137
225 16129
双打 16128
足球队 16125
之声 16124
高度评价 16124
昂@@ 16115
郁@@ 16114
邻@@ 16111
Sar@@ 16111
一顿 16111
ics 16110
卡罗尔 16109
猫@@ 16109
冈 16101
润@@ 16098
做饭 16094
结盟 16094
巴勒斯坦国 16094
劫 16094
教区 16093
短语 16089
广播电台 16084
老龄化 16082
似@@ 16080
联席会议 16079
ock@@ 16077
国家主权 16076
上议院 16075
希德 16075
担@@ 16073
交火 16072
印度@@ 16071
ID@@ 16069
贝尔法斯特 16069
凯蒂 16067
道德@@ 16059
蕾 16057
长久 16055
薪资 16055
徒步 16055
悟 16055
山西 16053
财务管理 16050
投了 16049
椭圆形 16048
CC@@ 16047
下放 16046
爱德华兹 16045
解体 16040
数十年 16032
转基因 16030
魔术 16028
五分钟 16028
不定 16027
值班 16024
奢华 16023
● 16022
另据 16022
147 16017
肠道 16015
羡慕 16015
毗邻 16014
冰淇淋 16014
光纤 16010
早早 16009
添@@ 16009
预 16007
筋 16006
inc@@ 16006
就职 16003
不丹 16003
整天 16003
残骸 16001
情侣 16000
逃走 16000
肯特 15999
全县 15997
湖泊 15995
自杀式 15995
多大 15993
加泰罗尼亚 15993
坚固 15992
大地 15989
傲慢 15989
患上 15984
战略伙伴 15983
cnn 15981
Net@@ 15978
涅 15978
黑客攻击 15978
同性恋者 15976
盆@@ 15975
保障@@ 15972
大熊猫 15971
毯 15969
142 15965
war@@ 15964
开放式 15961
概览 15961
考古 15959
钓鱼@@ 15955
前台 15953
顶峰 15949
公关 15946
推测 15944
投放 15942
通风 15941
三十年 15941
165 15940
挂牌 15940
ve 15939
存档 15937
欧洲@@ 15936
开庭 15935
中共中央 15933
押@@ 15931
刘翔 15928
抚@@ 15928
ć 15926
显现 15925
中途 15920
弃@@ 15920
接壤 15919
流出 15918
46@@ 15914
科院 15913
咨询@@ 15913
翻新 15912
击毙 15910
重塑 15909
如图 15906
波黑 15906
枝@@ 15905
国产 15904
业务流程 15903
国家级 15902
植入 15901
数十万 15901
阿斯 15899
洛斯 15899
新世纪 15898
映 15896
回报率 15895
歌词 15895
罗伯@@ 15895
综合症 15894
训练@@ 15894
终 15891
中超 15891
字段 15889
俄罗斯队 15889
磨损 15886
来回 15884
吸入 15882
海里 15881
rev@@ 15880
欺@@ 15879
承包 15878
大力@@ 15878
莱德 15878
涂料 15878
闪电 15878
第八届 15878
退休金 15877
肌@@ 15876
阿卜杜勒 15873
出路 15869
舞会 15869
啥 15866
有线 15864
晶 15863
iP@@ 15863
萨达姆 15861
耀@@ 15859
边境地区 15859
联络小组 15859
冰川 15858
锅@@ 15858
第二名 15857
废水 15857
选取 15857
演绎 15857
格兰特 15854
环境卫生 15853
会为 15852
教育权 15851
爱国 15849
宴 15848
巴尔干 15848
卡洛斯 15848
纪念活动 15846
理所当然 15845
合规 15843
韦尔 15842
bbc 15842
资源分配 15840
克莱尔 15838
参谋长 15835
拒绝接受 15834
束缚 15834
布莱@@ 15831
阿布哈兹 15827
特斯 15822
以使 15821
情愿 15820
馆长 15817
铁道部 15817
to@@ 15816
xx@@ 15816
组成员 15815
候 15814
mo@@ 15814
曲棍球 15813
感恩节 15806
暴 15802
两国人民 15801
军用 15798
混合@@ 15797
事务局 15797
ail@@ 15797
降价 15796
纸张 15795
轮流 15794
大气层 15790
这篇 15787
虾 15783
递 15783
尼尔森 15782
有何 15780
砍 15779
综@@ 15777
天后 15776
以防 15776
多功能 15774
士气 15774
初中 15773
建设项目 15772
自由泳 15771
十四届 15769
交锋 15768
粉碎 15767
矩阵 15766
奉行 15765
天下 15765
肖像 15763
SP 15763
未遂 15761
外交关系 15757
科罗拉多州 15755
书写 15752
过期 15750
其间 15750
me 15747
维度 15745
保证金 15742
计划@@ 15742
奥尼尔 15739
太空@@ 15738
功夫 15736
赠送 15735
处长 15734
紫色 15733
想着 15733
ben@@ 15732
紧紧 15732
坎贝尔 15732
执行机构 15731
圆形 15731
军备竞赛 15731
% 15727
足联 15724
蜡烛 15723
库尔德人 15723
巡逻队 15721
打断 15720
巴特 15720
rick@@ 15717
菲利普斯 15716
音乐剧 15714
坦率地 15713
注视 15711
内饰 15710
共同点 15702
用户界面 15697
泉@@ 15695
氧化 15695
值得一提的是 15693
瓦斯 15690
等奖 15690
莱纳 15687
清算 15686
起因 15685
贝尔格莱德 15684
坚定不移 15683
该车 15683
证监会 15682
手下 15680
基调 15676
演练 15676
激进分子 15675
低点 15674
port@@ 15669
两分钟 15669
健康权 15668
这边 15668
立法者 15667
热潮 15665
创收 15665
磊 15664
提出异议 15662
免税 15662
康涅狄格州 15661
实际@@ 15659
足迹 15657
不良@@ 15657
主管机构 15654
生命危险 15651
翔 15649
人大 15648
湿度 15647
房舍 15646
辽宁省 15645
衡@@ 15644
赦免 15644
道琼斯 15643
落地 15637
劳拉 15634
农户 15632
俄语 15631
解释性 15630
蒂诺 15630
刑期 15626
十八 15626
做事 15623
电子产品 15623
骑行 15621
砂@@ 15618
缩 15616
遗迹 15611
一口 15609
up@@ 15608
133 15608
一看 15607
外壳 15606
保费 15605
服务体系 15605
不同寻常 15602
胆 15600
沃斯 15599
宴会 15598
根本原因 15598
贩卖人口 15595
疏忽 15594
tt 15592
骑手 15592
相撞 15590
贩 15590
摊 15587
古典 15585
小丑 15583
减速 15582
男朋友 15582
0.7% 15580
害@@ 15576
竟 15575
偏远地区 15572
获奖者 15572
工资@@ 15571
暴风雨 15570
广泛应用 15569
谭@@ 15569
156 15568
畅通 15568
盛行 15566
精神文明 15565
CT 15564
衍生 15564
内向 15563
未必 15563
凸@@ 15561
亏 15560
uz@@ 15560
每间 15558
复活节 15557
科普 15555
理财产品 15551
者@@ 15550
看守 15549
气象台 15549
茅@@ 15548
风光 15547
社会保险 15546
加勒比海 15544
占领国 15544
这才 15538
ju@@ 15536
漂@@ 15536
不出 15536
罪恶 15534
罗宾逊 15532
剑@@ 15532
129 15529
UR@@ 15528
锌 15526
过滤器 15526
道格拉斯 15526
立足 15526
递@@ 15525
垮@@ 15524
群众@@ 15523
牛仔裤 15522
.. 15521
监测@@ 15517
电力@@ 15516
波恩 15514
蓝图 15512
虚拟机 15512
序 15510
残 15508
拆 15508
恳求 15506
续会 15505
相辅相成 15504
墨 15503
钱其琛 15501
奏效 15501
女队 15499
律 15493
2030 15491
弗朗@@ 15491
凯西 15491
itt@@ 15490
解析 15490
忆及 15488
而战 15487
陪审员 15486
感叹 15484
偷运 15484
3500 15482
毛巾 15481
匮乏 15480
ip 15479
勇士 15474
引来 15474
螺@@ 15473
珍 15471
不容@@ 15471
抽烟 15470
1400 15469
球门 15469
抬@@ 15467
苦苦 15465
空气质量 15465
心血管 15464
华尔街日报 15464
阿拉伯国家联盟 15462
做生意 15460
当事 15456
几何 15455
49@@ 15453
基本面 15451
4.2 15450
320 15447
液压 15447
ix 15446
比如说 15443
红利 15442
ate@@ 15440
合计 15438
防务 15438
自发 15438
邮局 15437
财 15432
ith 15432
德约 15431
阿兰 15431
亚斯 15430
购房 15429
幽灵 15428
封电子邮件 15427
燕 15427
正值 15426
惩治 15425
山东@@ 15422
amb@@ 15421
收视率 15421
法律依据 15420
UN@@ 15419
屠@@ 15417
转入 15416
北欧 15416
泪 15415
ark@@ 15413
呃 15413
检察 15412
革新 15409
浴缸 15405
投入使用 15403
堪称 15403
书记官 15399
商学院 15397
历来 15394
收音机 15393
合理化 15393
野兽 15391
My@@ 15390
捆绑 15387
壮大 15387
油气 15386
斯通 15385
遇害 15384
更强 15383
五天 15382
衰落 15382
0.5% 15379
出境 15379
医务 15379
颁奖典礼 15378
蝴蝶 15378
效仿 15375
涩 15375
射手 15375
cn.4 15374
数十亿美元 15373
施加压力 15372
inn@@ 15371
缴付 15367
两边 15366
母语 15365
一任 15365
克萨斯 15363
转到 15362
特意 15358
似的 15358
be 15355
学业 15354
水产 15353
数以千计 15352
词语 15351
评定 15348
渥太华 15343
犯罪分子 15336
区域间 15330
刑事案件 15329
仆人 15329
大学@@ 15328
写下 15326
利特 15326
inter@@ 15324
AP 15323
歌声 15323
部长会议 15320
皇冠 15318
西海岸 15317
lay@@ 15316
滕@@ 15316
世界级 15315
名词 15313
房地 15313
乎 15312
江苏省 15311
诚然 15310
调集 15308
堵@@ 15304
魔法 15302
减小 15301
该省 15301
科罗拉多 15301
力学 15300
一辈子 15300
东区 15299
米特 15299
并行 15298
日趋 15298
以色列国防军 15298
侧重 15295
153 15293
再现 15292
甘 15291
柯林斯 15287
传闻 15285
极其重要 15282
点名 15281
忙@@ 15281
爷爷 15280
fa@@ 15279
len 15279
品牌@@ 15278
炮弹 15277
立方米 15277
纳姆 15275
交流信息 15275
毫无意义 15273
ence 15273
131 15272
医疗卫生 15269
28.@@ 15269
拘押 15268
911 15266
硅@@ 15265
李娜 15265
伊特 15262
办公@@ 15260
詹妮弗 15258
雕刻 15258
21% 15257
感染者 15256
己 15255
大主教 15254
育儿 15253
附有 15251
挨@@ 15249
核计划 15247
种族隔离 15245
以西 15243
全区 15242
妙@@ 15238
结尾 15234
23% 15229
社会工作者 15229
转动 15228
珊 15228
约合 15225
渣 15221
td 15220
欺凌 15219
邻 15219
136 15218
先锋 15216
万一 15216
最终用户 15215
红外 15212
或者说 15211
混蛋 15211
支架 15210
特利 15209
研究进展 15208
na 15205
逼@@ 15204
法国@@ 15204
贷@@ 15201
彭斯 15200
尼克松 15199
水池 15195
这为 15194
次要 15194
近几年 15194
冲浪 15194
率为 15189
国际性 15189
157 15189
核对 15188
基伍 15188
众人 15187
帕尔@@ 15186
撤消 15185
薇 15182
线性 15181
参选 15181
难忘 15180
起伏 15177
离任 15175
水电 15175
银幕 15171
国家计划 15171
溶@@ 15170
法国队 15169
两类 15169
地铁站 15166
纳斯达克 15165
观察家 15164
温馨 15161
说实话 15160
佩尔 15159
鲸鱼 15158
rian@@ 15156
自制 15154
op 15152
法文 15151
加特 15150
出口国 15148
先是 15148
嘴@@ 15143
仔 15140
第一项 15131
希特勒 15131
艺人 15130
亚的斯亚贝巴 15130
打扮 15130
喀@@ 15129
Ver@@ 15128
阿巴斯 15122
Mu@@ 15121
鲍里斯 15121
上车 15120
理应 15115
280 15113
濒危 15112
持平 15111
协商会议 15108
政策措施 15108
高大 15106
出差 15105
霸 15103
lor@@ 15103
完全符合 15101
疑@@ 15100
攀@@ 15099
迟迟 15099
加斯 15098
件@@ 15096
执行@@ 15096
iss@@ 15094
过夜 15094
常识 15092
演唱会 15091
转折点 15087
人称 15085
崭新 15084
厂房 15083
法外 15083
两点 15083
净利润 15082
公共场所 15081
存量 15081
露天 15080
普顿 15079
公爵夫人 15074
须@@ 15074
公职 15074
在讲话中 15074
那条 15073
税款 15071
遵照 15067
182 15065
c.1 15064
巴尔@@ 15062
半导体 15061
扑救 15060
妊娠 15060
承付 15060
750 15057
服务提供者 15056
哈佛 15055
运往 15048
明尼苏达州 15046
核电 15046
铃 15044
第十九条 15042
嘴唇 15040
疑似 15039
研究者 15038
殿 15037
国际金融 15033
高等 15032
标语 15029
企鹅 15028
保持沉默 15027
桑切斯 15025
畅销 15023
C.5 15023
南美 15023
外贸 15019
万平方米 15014
固体 15009
镇上 15009
中小 15009
长长的 15009
脑袋 15007
数万 15005
情报机构 15002
幻灯片 15001
四人 15001
更能 15001
GB 14999
友善 14999
天天 14999
晃@@ 14999
俊 14997
理事国 14995
班级 14993
Moham@@ 14993
炎@@ 14993
沙龙 14992
灿烂 14990
窒息 14989
ash 14987
莱恩 14987
mal@@ 14983
330 14983
刑警 14981
截然不同 14980
券商 14980
固定@@ 14977
表单 14976
径 14973
海内外 14973
两张 14972
调侃 14971
这本 14969
维基 14967
中东地区 14966
不动产 14966
洗澡 14966
往常 14966
调查报告 14965
新英格兰 14964
欣见 14964
冷冻 14962
拒@@ 14961
哈瓦那 14960
绳子 14959
告诫 14959
预审 14958
军事演习 14957
期权 14954
亚尔 14953
ain@@ 14953
這@@ 14953
在短期内 14951
膏 14947
慰问 14947
畅 14947
外援 14944
实习生 14942
field 14940
ya 14938
辣@@ 14934
1964 14932
微不足道 14932
一堆 14929
品味 14925
lin 14919
意想不到 14919
ger 14917
禁赛 14917
通向 14916
德勒 14916
同一天 14914
PA 14914
危急 14913
克罗@@ 14912
阅 14911
克拉@@ 14910
岳@@ 14907
tur@@ 14904
蔡 14903
交流@@ 14901
过渡政府 14901
正试图 14900
加州大学 14898
跳跃 14898
意大利人 14897
悠@@ 14896
bro@@ 14893
act@@ 14891
内线 14889
帝 14887
国歌 14886
诠释 14886
总产值 14885
水晶 14885
阿利 14884
莎士比亚 14883
桃 14883
大都会 14882
妙 14881
裁撤 14881
sn@@ 14880
175 14880
开展业务 14880
增长速度 14877
朱利安 14877
尼说 14877
车展 14873
国际事务 14873
云南省 14872
停职 14870
犹豫 14869
1948 14867
交通工具 14867
委任 14867
腹泻 14867
扑 14866
卡恩 14864
绕过 14864
CF@@ 14862
金融部门 14860
用语 14857
款额 14855
履行职责 14855
市场化 14854
利润率 14854
按计划 14853
一瓶 14853
弗斯 14852
直观 14851
选用 14851
人才@@ 14848
乌斯 14846
开头 14844
韦伯 14839
吐 14838
优异 14838
大大提高 14836
竹 14835
阶 14833
十二 14833
消费量 14833
砍@@ 14833
谷物 14830
分行 14829
硅 14829
厅@@ 14828
海尔 14825
赢球 14825
氧化@@ 14818
pa@@ 14817
24% 14811
za 14810
141 14808
潘基文 14807
一整天 14806
利用@@ 14804
投手 14804
器材 14802
后备 14800
发掘 14800
芯 14798
党团 14796
板凳 14793
家门口 14791
历届 14790
c.5 14790
ix@@ 14790
关岛 14790
c.3 14787
Google 14786
柔软 14784
浮动 14784
警车 14783
aM@@ 14783
对决 14779
舌 14777
皮革 14777
赶来 14777
腿部 14775
新德里 14774
功效 14774
历时 14772
脚踝 14772
防火墙 14770
评论员 14768
另一@@ 14768
ur 14766
统治者 14764
28% 14763
所作所为 14763
强力 14759
丹尼斯 14758
文盲 14755
红军 14754
土族 14753
生殖器 14752
惠及 14751
卡斯特 14750
青海 14750
布里@@ 14747
炼 14746
克说 14746
顾虑 14745
Pol@@ 14743
莫里斯 14740
水量 14739
执导 14731
所能 14729
外国投资 14729
剧情 14727
售后服务 14727
波罗的海 14723
芝 14722
贷款人 14721
题@@ 14719
打架 14717
东莞 14716
锦赛 14714
流产 14713
亲王 14712
Pet@@ 14712
达斯 14711
留学生 14706
训研 14702
政治化 14701
ons@@ 14696
滨 14696
地名 14694
勒斯 14694
三条 14693
语句 14689
时会 14688
胚胎 14687
gre@@ 14687
享年 14686
人民党 14685
杆@@ 14679
墓 14676
消毒 14671
光谱 14669
137 14668
褐色 14667
开口 14667
少数@@ 14666
裸 14664
能为 14661
乔恩 14659
血糖 14659
掩@@ 14659
144 14658
皇室 14658
洛特 14657
劝 14655
象征性 14654
停滞不前 14653
长期存在 14649
杜绝 14648
C.3 14647
先行 14644
56@@ 14643
不懈 14642
巴德 14641
极好 14641
楚 14641
停电 14638
楼宇 14636
念@@ 14635
搜集 14635
ova 14633
蒸@@ 14631
除名 14630
阿布 14629
迈 14628
账号 14624
pet@@ 14623
复杂化 14623
没法 14623
跑车 14621
九龙 14620
土地利用 14619
珀@@ 14617
平凡 14617
蓬 14615
聆听 14614
划定 14613
tri@@ 14611
挑 14611
绞@@ 14611
趋于 14608
英伦 14606
夏日 14605
威力 14603
认 14601
因涉嫌 14601
断定 14598
脂@@ 14597
乐器 14597
毛里塔尼亚 14593
虽@@ 14592
缴获 14592
恶魔 14590
随函 14587
西区 14583
杯子 14583
一波 14582
田野 14582
裙子 14581
培 14577
重创 14575
植@@ 14575
别无选择 14574
聊 14571
染 14569
腐@@ 14569
保健@@ 14568
有机@@ 14568
决策@@ 14566
政府军 14565
铭 14565
雀@@ 14565
太阳报 14562
齿@@ 14559
被誉为 14559
学术@@ 14559
年龄组 14558
俄方 14558
横跨 14558
高调 14558
弗雷德 14556
蝙蝠 14556
菜肴 14555
摄入 14553
好几个 14546
构@@ 14544
降低成本 14544
纪念馆 14543
忌 14542
昔日 14539
恩说 14539
vis@@ 14538
筹集资金 14538
塔拉 14536
oma@@ 14534
店里 14534
沙斯 14533
眼里 14530
增长@@ 14525
Ne@@ 14524
鸭 14523
城管 14518
相似之处 14516
努力提高 14514
斯卡 14514
私募 14513
隔壁 14511
肾@@ 14509
贪污 14509
继续执行 14508
建立联系 14508
﹐ 14507
参与性 14506
各有 14505
装配 14505
存活 14504
深厚 14503
光滑 14501
使用寿命 14496
裸体 14495
坦率 14495
用户名 14493
招待 14493
中小学 14492
57@@ 14491
苏州 14490
大通 14489
胡子 14488
简洁 14487
滞后 14482
俯瞰 14479
插曲 14479
访客 14477
投资人 14474
积极支持 14473
各项规定 14472
患病 14471
公共秩序 14471
衰老 14471
地质@@ 14470
Far@@ 14469
打扰 14469
弗拉 14469
不符 14468
弧@@ 14466
弗里 14466
浅谈 14464
169 14463
夜总会 14463
阿德莱德 14461
破解 14460
事例 14460
ock 14459
宅 14458
计数 14457
突发 14457
大院 14457
寄 14456
几秒钟 14456
蕴@@ 14455
卫冕冠军 14454
钦 14454
139 14453
凹@@ 14453
总人口 14451
疑虑 14451
逮捕令 14450
重量级 14449
差额 14448
贝里 14446
县城 14446
镀@@ 14445
一局 14442
偏 14438
展览会 14436
深表 14434
传单 14433
楼上 14432
臀部 14432
esh@@ 14429
席卷 14426
分会 14425
1966 14423
身影 14423
贝格 14422
肌 14421
布兰 14417
非线性 14416
物理学 14416
日落 14416
揽 14413
之星 14411
写信给 14409
证券市场 14409
安倍 14409
击球 14407
舰@@ 14407
缘@@ 14405
4.1 14405
压倒性 14403
大得多 14398
讨@@ 14397
AL@@ 14394
拓宽 14394
代言人 14387
堡垒 14387
珊瑚 14386
承运人 14386
午饭 14385
通行证 14385
辣椒 14384
衰@@ 14383
邮寄 14383
干脆 14381
差旅 14380
哈克 14380
化疗 14379
雾@@ 14378
稽@@ 14377
\ 14376
维克 14376
致死 14375
年龄段 14374
批发 14370
降幅 14366
炸死 14366
廊 14364
成瘾 14363
吉林省 14359
IF@@ 14358
资金@@ 14358
述及 14358
浦东 14355
相关联 14353
休息室 14353
ant 14353
脉@@ 14352
平常 14351
时才 14349
eu@@ 14345
法典 14343
成品油 14340
吉利 14338
宾夕法@@ 14338
烂@@ 14338
162 14336
瑜伽 14334
颈部 14334
RC 14331
租房 14331
胞 14329
ander@@ 14327
光芒 14327
酱@@ 14325
投票率 14324
载人 14320
浮 14320
公交@@ 14319
掠夺 14317
领队 14316
棒@@ 14314
莫斯 14311
请愿书 14306
缓刑 14305
国立 14304
独裁者 14298
导出 14296
海平面 14296
现身 14291
流浪 14291
疯@@ 14287
施瓦@@ 14287
归属 14285
大鼠 14284
番茄 14283
一副 14283
饲养 14282
万户 14282
rac@@ 14281
术后 14281
饿 14278
大跌 14276
鲍威尔 14276
敦 14274
不限 14274
拉登 14272
高级@@ 14268
ins@@ 14268
氯化 14268
门外 14268
居民@@ 14265
艾奥瓦州 14264
反对票 14263
老牌 14262
201@@ 14260
匆忙 14260
智库 14258
它@@ 14256
卡尔@@ 14255
礁 14255
太高 14253
交易日 14253
巴克 14252
雄厚 14252
Hu@@ 14252
侦察 14250
身体健康 14248
运载 14248
促@@ 14248
基督教徒 14246
麦克风 14246
岛内 14245
拉夫 14243
恐怖活动 14243
细胞@@ 14240
问问 14240
EMC 14238
头条 14237
客队 14236
保持稳定 14235
dar@@ 14233
ung@@ 14232
测验 14231
翻修 14231
DP 14229
加班 14228
塞斯 14227
洛克@@ 14226
orge@@ 14226
辉@@ 14225
任意球 14225
讲解 14223
民意 14222
清新 14222
弥合 14218
奇特 14217
束@@ 14216
俄罗斯@@ 14216
C.1 14214
傅@@ 14213
阿伯丁 14212
ook@@ 14210
流亡 14210
密切联系 14210
ö 14209
ook 14208
技术咨询 14206
小朋友 14205
ty 14205
实证 14203
鲜 14202
岗@@ 14201
宗教自由 14201
宣扬 14200
酸盐 14199
off@@ 14199
反正 14197
焊@@ 14196
19% 14194
tar@@ 14193
湖南省 14192
27% 14191
爸 14191
帧 14190
围困 14189
ings 14187
前场 14185
氯 14182
跨部门 14181
合作@@ 14180
相邻 14179
才华 14178
国脚 14175
女工 14175
巴沙尔 14175
一口气 14174
归类 14173
及早 14172
any@@ 14172
订婚 14171
出院 14166
cal@@ 14165
丛@@ 14163
生产国 14161
AF@@ 14158
推断 14158
1963 14155
庙 14154
发酵 14154
警示 14153
管理处 14153
右手 14152
uck@@ 14152
高位 14151
堤@@ 14149
制定者 14149
醒@@ 14147
恒 14146
我們 14145
扩充 14142
商贸 14141
犹@@ 14139
显示屏 14137
痒 14137
慰@@ 14134
市议会 14133
植物@@ 14132
灾情 14130
四场 14129
坑@@ 14128
美洲@@ 14126
寡@@ 14126
谁@@ 14124
安徽省 14124
Mich@@ 14124
ther@@ 14122
rid@@ 14121
中共@@ 14119
留意 14118
人能 14117
迁 14116
无须 14116
哲 14111
恰好 14109
敢于 14109
切实可行 14105
轮换 14104
罚@@ 14102
邱@@ 14101
ik 14100
旋律 14099
经由 14098
帮派 14097
号法 14097
果汁 14096
更进一步 14093
余下 14093
友好关系 14093
oph@@ 14091
家居 14089
将球 14088
十二月 14087
傻 14087
舞弊 14085
电车 14085
四种 14084
救出 14082
炎症 14082
豪斯 14081
CN.4 14081
侯@@ 14080
世界粮食计划署 14077
之家 14076
橘@@ 14072
注明 14071
先知 14071
机组 14070
债券市场 14069
麻醉品 14069
洋葱 14068
人力资本 14068
抽签 14066
吉林 14066
追赶 14065
中国女排 14063
发展观 14061
挽回 14060
引 14059
1.8 14053
波特兰 14051
黎@@ 14051
盾 14047
九年 14042
寺庙 14039
所起 14037
先驱 14036
患@@ 14034
借款人 14034
嘴里 14031
尾巴 14030
姚@@ 14030
帝@@ 14027
校方 14026
55% 14025
在政治上 14025
救生@@ 14024
坐标 14022
插件 14022
潭 14021
妥 14020
立案 14019
艾米 14018
时任 14013
精细 14013
安德烈 14012
大人 14009
科米 14009
服饰 14005
Mer@@ 14005
陕西 14001
叶子 14000
第三轮 14000
火势 14000
小岛 13996
ott@@ 13994
迷失 13993
审美 13992
ood 13990
可追溯 13989
长途@@ 13988
尘@@ 13985
ty@@ 13984
赠@@ 13984
33% 13983
副手 13983
海洋生物 13982
佩斯 13982
肯尼 13981
博弈 13980
指针 13979
26% 13979
检查和 13977
11@@ 13976
萨科齐 13976
以人为本 13976
公开@@ 13976
最低水平 13973
筛查 13972
幸@@ 13972
载列 13970
海拔 13970
网点 13968
第五十九 13967
降雨量 13967
墨西哥城 13965
上线 13963
午 13962
尼科@@ 13960
3.3 13959
不多 13959
表达式 13957
诊@@ 13954
贬低 13952
捡 13950
发射@@ 13949
眼球 13948
匪 13946
面上 13946
排查 13943
印度人 13939
安抚 13938
成品 13937
208 13935
不懈努力 13933
陈水扁 13933
比作 13932
新股 13932
中美 13932
在意 13931
就任 13930
老朋友 13930
敏捷 13925
全面@@ 13924
砸@@ 13924
凉爽 13923
共存 13919
弗莱 13918
局限 13917
日益严重 13915
235 13914
.7 13914
早先 13908
手榴弹 13905
国安@@ 13901
垒@@ 13901
炒 13898
亚州 13898
传到 13897
殖民主义 13897
550 13896
elle@@ 13895
布拉德利 13894
38% 13893
综合体 13890
无缝 13890
手势 13888
红十字国际委员会 13888
糟 13888
交由 13887
际@@ 13886
指导@@ 13884
体力 13884
整顿 13884
准军事 13883
口岸 13882
南斯拉夫联盟共和国 13882
矮@@ 13877
附表 13870
玩笑 13870
赛段 13870
科克 13869
领先地位 13867
西班牙@@ 13867
佩雷斯 13866
悦 13866
戈兰 13866
亲吻 13865
复活 13865
主页 13865
顽强 13863
发帖 13863
饥荒 13861
中医 13860
召唤 13856
使该 13855
数十 13854
男女@@ 13854
财政政策 13852
带宽 13851
印第安纳州 13850
非法@@ 13850
保姆 13850
ira@@ 13849
国安 13849
sb@@ 13846
pan@@ 13846
帅@@ 13846
蔑视 13844
代理商 13843
人身安全 13842
有幸 13841
2300 13840
门诊 13839
上衣 13836
公会 13836
饮@@ 13836
铲除 13835
德国总理 13834
二十世纪 13832
群集 13828
财物 13827
领带 13826
跃 13824
兰斯 13823
袁@@ 13822
昏迷 13821
工作效率 13821
未成年 13820
抽 13817
聚光灯 13817
出游 13817
享@@ 13815
并用 13815
荡@@ 13814
优先权 13811
重心 13810
皮尔斯 13809
稻@@ 13808
转运 13808
人次 13806
15000 13803
获胜者 13802
佣金 13801
财经 13801
母公司 13801
色调 13800
售出 13800
见过 13798
itter 13795
明尼苏达 13793
宫殿 13792
载入 13792
妮@@ 13792
od 13788
社会党 13788
格兰@@ 13787
十五 13787
大巴 13787
拇指 13787
劳动法 13786
典 13783
悦@@ 13782
禁产 13777
mer 13775
磷@@ 13774
行车 13771
出征 13771
哺乳动物 13769
突击 13769
全美 13768
卜@@ 13767
168 13766
覆盖率 13765
酗酒 13763
桂冠 13758
已久 13757
首领 13756
och@@ 13755
诺克 13755
化妆 13752
控制措施 13750
寿 13750
案中 13748
匹 13747
人造 13747
fre@@ 13746
不善 13744
怨 13741
奶粉 13741
char@@ 13739
万至 13739
受限制 13738
58@@ 13737
英军 13737
平均值 13737
米拉 13735
迁徙 13735
查验 13732
事务@@ 13731
380 13727
小鼠 13726
良性 13725
高尔夫球场 13723
全会 13723
两架 13720
老公 13720
伯克 13719
文件系统 13717
嫌疑 13714
100@@ 13713
想过 13713
越南@@ 13710
缓冲 13708
第五十八 13707
互访 13704
斜坡 13703
生育率 13703
克林@@ 13703
招商 13700
加利福尼亚 13699
软弱 13697
大胜 13697
详细情况 13696
横扫 13695
黎 13694
ari 13693
年长 13693
一旁 13692
地下@@ 13691
皆@@ 13689
关掉 13686
抗击 13686
改良 13685
巴顿 13685
彭 13682
三是 13682
美的 13681
较强 13680
警戒 13680
LE@@ 13679
作曲家 13679
评判 13678
尝@@ 13678
YouTube 13678
捕 13675
海浪 13675
肇事 13673
两军 13673
杯赛 13670
哮喘 13669
较长 13668
卡特尔 13668
另一方 13659
中弹 13657
化肥 13656
仲裁庭 13656
强队 13656
拼命 13655
爆料 13654
起火 13653
征得 13652
题材 13652
rand@@ 13648
牢记 13648
唤醒 13648
狭隘 13648
头盔 13643
晨 13642
中队 13641
阿尔 13640
时常 13640
相关者 13638
替@@ 13637
海口 13636
粗 13633
材质 13631
保人 13623
积极主动 13621
检察机关 13619
第一名 13617
143 13617
低温 13616
加尔@@ 13612
罗纳尔多 13612
过错 13610
劣 13609
鲸 13609
辰 13607
关键@@ 13605
T恤 13603
航空航天 13602
人有 13599
西非国家 13599
与非 13599
雷特 13599
口音 13598
东非 13597
不易 13594
平价 13594
reg@@ 13590
购物者 13590
搞笑 13587
男童 13585
猜@@ 13583
Part@@ 13583
屡@@ 13583
三家 13582
海港 13581
劳埃德 13580
bor@@ 13579
商用 13575
ile 13573
冈比亚 13568
嘉 13566
骤@@ 13566
染@@ 13563
照射 13561
新低 13561
震 13560
面粉 13559
路易斯安那州 13559
益 13559
传唤 13557
锅炉 13557
惨败 13556
态@@ 13554
娶 13554
里程 13553
发送到 13553
地处 13553
新城 13551
定型 13551
大坝 13548
砂 13548
推理 13548
夫妻@@ 13547
依托 13545
华为 13544
无法控制 13542
信息安全 13542
圣路易斯 13540
斯菲尔德 13539
我方 13538
特质 13538
163 13537
趁@@ 13537
领地 13537
审计报告 13531
联阿 13529
牛队 13528
注册表 13527
创新性 13525
追溯 13525
入手 13525
7.5 13524
废料 13524
星系 13523
弹劾 13523
城市规划 13519
营业@@ 13517
徒@@ 13516
狄@@ 13514
猎人 13514
寡妇 13510
撰文 13510
第一款 13509
饮 13509
切斯特 13509
瓦解 13507
鸦片 13507
产业化 13507
黎明 13507
克什米尔 13505
洛普 13505
雅各布 13502
中国足协 13501
uri@@ 13501
萨米 13500
秃@@ 13497
亚瑟 13497
刚好 13494
212 13494
国营 13493
视频@@ 13492
访问团 13491
马歇尔 13489
工程建设 13488
长跑 13487
档次 13484
挫败 13483
抛售 13482
发展局 13482
洪灾 13478
ort 13476
SD@@ 13475
歌迷 13474
苹果公司 13474
戴安娜 13473
说起 13472
头顶 13472
托克劳 13472
卵 13470
集束 13470
1700 13469
炸 13469
迎合 13468
缓冲区 13467
大局 13464
山羊 13463
第五十七届 13463
纪念品 13462
上报 13462
罗宾 13460
154 13460
愈@@ 13458
突发事件 13457
公共利益 13454
信息管理 13453
残暴 13452
多处 13451
说唱 13449
股票市场 13447
识 13446
负于 13442
变异 13441
资质 13440
ada 13438
获得成功 13438
炫耀 13435
紧随其后 13435
优于 13434
海鲜 13431
AI@@ 13431
足坛 13431
财产损失 13430
撤退 13429
基因组 13428
预警系统 13428
一身 13428
控制台 13426
美学 13425
复仇 13425
本期 13424
胰岛素 13424
风扇 13422
公益@@ 13421
事关 13421
一战 13421
SS 13420
博彩 13417
抵触 13417
收据 13416
这比 13414
绅士 13413
坠落 13412
深海 13408
第二项 13407
战时 13406
年头 13403
通缉 13402
史诗 13401
特鲁@@ 13400
沉没 13400
质量保证 13398
生物武器 13397
旗舰 13397
法则 13396
德尔@@ 13396
二世 13395
发售 13394
尽情 13391
薄膜 13391
ld 13389
70@@ 13388
终极 13388
捕捉到 13385
驻科 13384
line 13382
普拉@@ 13382
尼古拉 13377
登山 13377
专属 13373
疲惫 13373
大会堂 13372
疲@@ 13371
荷兰队 13370
带入 13370
ec 13370
途@@ 13369
蹦@@ 13369
逸 13366
繁重 13366
本发明 13364
定稿 13363
掩饰 13363
河水 13361
剥@@ 13357
大面积 13356
文学@@ 13354
确诊 13354
ington 13352
醉 13352
建设@@ 13351
嫉妒 13347
national 13347
试用 13346
ata 13344
获得者 13343
预览 13342
中性 13338
栏目 13338
饱和 13333
唤起 13333
盖尔 13332
东北@@ 13328
公民投票 13328
烤箱 13327
受援国 13326
国防@@ 13326
的黎波里 13325
十周年 13325
有限责任 13324
头条新闻 13324
美国银行 13322
旅途 13321
手腕 13318
覆 13317
三分球 13316
一律 13316
郎@@ 13316
诋毁 13314
报销 13313
AA 13309
需求量 13309
磷 13308
六方会谈 13308
笑声 13308
流畅 13307
全州 13306
斯诺 13305
嵌入 13304
偏低 13302
第七次 13301
扣留 13300
大师赛 13300
审前 13299
可信度 13296
146 13295
米奇 13294
圆满成功 13293
司令部 13292
解开 13291
越境 13290
漆@@ 13290
金字塔 13289
广义 13283
纠@@ 13283
凤凰 13281
仙 13280
文艺@@ 13280
市场需求 13279
MA 13279
美洲国家组织 13279
低谷 13278
神职人员 13278
调解人 13276
布伦@@ 13275
克莱斯勒 13275
两位数 13273
领导@@ 13273
联合国日内瓦办事处 13270
辩解 13268
十六届 13265
per 13265
湘@@ 13263
竞争法 13262
堪萨斯州 13261
威慑 13259
第十二届 13259
习惯法 13258
摔跤 13257
统计资料 13256
1951 13255
一站 13255
第三章 13255
棵 13253
贝克汉姆 13253
服务部 13252
一丝 13251
安全网 13249
十一 13246
扁@@ 13245
抗体 13245
十六@@ 13241
响起 13241
第一部 13241
卢卡斯 13239
讯@@ 13236
退回 13236
客流 13234
康纳 13231
热水 13231
67@@ 13230
爱人 13228
卸@@ 13228
澳元 13227
重振 13227
不下 13226
静脉 13226
筹备会议 13226
价值链 13226
不断@@ 13226
逆 13224
说服力 13222
AB@@ 13222
励@@ 13220
靴子 13219
克罗 13217
不宜 13217
梅德韦 13217
211 13215
完全@@ 13212
女孩子 13211
疏远 13207
教育领域 13206
熏@@ 13198
vest@@ 13196
len@@ 13195
巴布亚新几内亚 13195
君主 13195
比起 13194
六种 13193
虚拟@@ 13192
MS@@ 13190
沾@@ 13190
抵 13186
沙拉 13186
信用证 13185
优惠政策 13185
余留 13180
折叠 13179
雕 13179
放进 13179
呆@@ 13178
突变 13176
肺癌 13176
安定 13175
双双 13175
摄氏度 13173
常年 13171
球赛 13167
赢@@ 13167
述@@ 13167
wat@@ 13167
亡@@ 13167
棚@@ 13163
最终目标 13163
孟加拉 13161
市场营销 13160
宰@@ 13160
履@@ 13159
轮值 13158
攻入 13157
示范@@ 13156
两枚 13155
底下 13155
琳娜 13154
Sk@@ 13152
科医生 13150
登记处 13150
千人 13149
阀门 13144
桑托斯 13142
长期@@ 13141
邓 13140
征集 13139
平均@@ 13139
ano 13137
闪 13134
可比 13132
沿海地区 13131
车里 13127
可不是 13123
暨 13121
摄 13117
妖@@ 13117
喷 13115
悼念 13112
这事 13110
发展@@ 13109
库什 13106
名人堂 13105
房主 13105
SM@@ 13104
uel@@ 13104
中型 13103
DC 13103
166 13100
部族 13100
综合征 13097
德罗 13096
存储@@ 13094
哈利@@ 13093
献给 13093
树上 13092
藤 13091
新闻自由 13091
战略方针 13090
洗衣机 13087
窥@@ 13087
USB 13086
抛出 13086
低价 13083
gel@@ 13081
全天 13080
MI 13071
整洁 13070
过早 13069
会议厅 13067
城乡@@ 13066
社论 13065
海边 13064
国奥队 13061
成型 13061
览 13061
功能@@ 13060
池塘 13060
阿肯色州 13059
44@@ 13057
mail 13055
执法@@ 13055
条纹 13049
650 13049
钻探 13049
丑陋 13049
缠@@ 13047
文斯 13043
检疫 13043
jan@@ 13042
饱@@ 13040
灰尘 13039
照相机 13039
余人 13038
账目 13038
返 13036
公共@@ 13035
找回 13035
分级 13034
琴@@ 13034
观望 13032
撑@@ 13030
号称 13029
国防军 13028
肺部 13027
便携式 13027
驱 13027
关键性 13027
北京奥运 13023
专业@@ 13023
倾倒 13023
流氓 13022
坏消息 13021
器件 13021
次日 13021
塞拉 13016
撕裂 13015
逐年 13013
并不一定 13011
商谈 13010
人性化 13005
疗@@ 13005
一枪 12996
情报部门 12995
确定性 12995
忙于 12995
硬化 12994
保持联系 12994
亦@@ 12992
布里奇 12992
吉斯 12990
电讯 12989
固定资产 12988
姿 12986
1962 12986
人事@@ 12986
检查@@ 12984
不容 12982
北海 12982
贸易谈判 12980
匆匆 12979
调和 12976
称呼 12972
医改 12971
革@@ 12970
发生爆炸 12968
竣工 12966
皇家@@ 12966
律师协会 12966
不列颠 12965
步入 12962
枯@@ 12961
今夏 12961
粘 12959
盯@@ 12958
国情@@ 12958
惠普 12957
去年底 12957
波音 12956
入围 12953
巴克莱 12952
相等 12951
停下 12947
增量 12946
robert@@ 12942
164 12942
饮用 12942
寂寞 12941
基辅 12939
相差 12938
泛滥 12938
鹿特丹 12938
产科 12936
我愿 12936
胡安 12935
咽 12933
套件 12932
备案 12932
芦@@ 12932
证券交易 12932
届满 12932
肾脏 12931
脆 12927
卜 12927
高清 12926
电站 12923
雅加达 12922
遵约 12921
42% 12919
路由 12918
动力@@ 12916
鞍@@ 12914
相互@@ 12913
服务公司 12913
ster 12912
栖息地 12911
媒 12909
鹰@@ 12907
胆固醇 12907
加拿大人 12907
逾期 12907
笛 12906
在乎 12905
窃听 12903
一圈 12902
专营@@ 12901
不相@@ 12899
希腊@@ 12897
贡 12895
妻 12895
stein 12895
猛 12893
熊猫 12892
间隙 12891
1965 12889
观赏 12884
.5 12881
赞誉 12880
切尔 12879
发电厂 12879
验收 12878
埃德@@ 12878
慌@@ 12877
建交 12877
Lu@@ 12876
芭芭拉 12875
逃犯 12874
卖家 12873
该科 12873
出发点 12872
三点 12872
怀念 12871
大牌 12869
彩虹 12866
悲哀 12866
超声 12865
喀土穆 12862
捣@@ 12860
4.3 12860
不管怎样 12860
径@@ 12859
36% 12858
ish 12858
关键词 12857
控告 12853
Min@@ 12853
说到底 12851
位数 12848
克利 12848
正直 12847
rev.1 12847
后排 12846
聊@@ 12846
本市 12846
美国公司 12845
大腿 12845
症@@ 12844
横 12840
讲师 12840
半个世纪 12838
前排 12837
绝佳 12836
香料 12833
中央电视台 12831
不介意 12830
巡演 12828
获救 12827
紧迫性 12827
茂 12826
草拟 12824
背上 12824
鹿@@ 12824
愈合 12822
行为@@ 12821
担当 12820
bre@@ 12816
ein@@ 12815
零售业 12814
租借 12813
购买力 12812
全线 12810
筑@@ 12807
148 12807
台湾当局 12807
主办@@ 12805
质素 12804
听听 12804
走强 12804
重力 12802
奥斯陆 12802
艺术节 12802
赶往 12801
环绕 12801
排出 12800
eral@@ 12800
地标 12799
宏大 12799
net 12799
营业额 12798
全民公决 12797
巧@@ 12794
克里斯蒂安 12792
渠 12792
Is@@ 12789
寸 12787
59@@ 12785
冻 12781
人均收入 12781
扰 12780
围墙 12780
66@@ 12779
二者 12779
ok 12778
大酒店 12777
消化@@ 12774
出口商 12774
退欧 12774
一席之地 12773
卫星电视 12771
岸边 12769
TP 12767
F1 12767
海洋@@ 12766
没关系 12766
探访 12765
比喻 12764
IA 12761
食谱 12761
CH@@ 12759
波尔 12758
不可否认 12758
快讯 12757
母乳喂养 12754
腹 12754
铸造 12753
辍学 12753
洛伊 12752
停赛 12752
新颖 12750
西撒 12750
喉咙 12749
de 12749
弟 12748
贼 12746
细化 12746
摇摆 12745
格拉斯 12742
黏@@ 12742
责任制 12741
贸 12740
储 12739
民营企业 12738
过往 12738
适用范围 12734
溢价 12729
寓@@ 12729
发生@@ 12729
里尔 12728
中称 12728
part@@ 12728
指认 12727
班车 12726
给定 12723
卡森 12721
盎司 12720
漂浮 12718
不肯 12718
新形势下 12717
外语 12716
公民自由 12716
蜂蜜 12715
南加州 12715
信息中心 12715
149 12714
埃尔 12713
营救 12712
ank 12710
致富 12710
铺设 12709
女篮 12706
ain 12704
火花 12702
法律义务 12702
体系结构 12701
第四名 12701
商业化 12701
乘车 12700
首日 12698
硅谷 12697
人间 12697
mun@@ 12694
两部 12690
印第安人 12688
湖北省 12688
集中精力 12687
伯爵 12686
高喊 12686
周期性 12686
申科 12685
日到 12683
信封 12682
办公桌 12681
em 12680
杰里 12679
大理石 12678
人道 12677
应用@@ 12676
峰值 12676
冷漠 12675
世界杯赛 12675
继承人 12674
湖人队 12674
改装 12673
安东尼奥 12673
加倍努力 12673
性生活 12672
经济体制 12672
第一节 12670
伦特 12668
香槟 12666
哈姆 12666
盲人 12664
适应性 12664
包机 12664
疗 12663
新书 12661
翻了一番 12661
耕地 12660
睁@@ 12660
两者之间 12658
巡回@@ 12655
陆 12651
WTO 12651
go 12650
举例 12647
停顿 12644
其为 12643
投票@@ 12641
ap 12638
全能 12638
rob@@ 12636
152 12636
墨菲 12635
马其顿 12635
PO@@ 12634
刊物 12634
自私 12633
奏@@ 12633
公共财政 12632
经济合作与发展组织 12631
批判 12630
南韩 12630
告终 12629
帖 12628
应得 12628
柯 12628
廉政 12627
楼下 12627
边上 12627
29.@@ 12626
之列 12626
难怪 12626
稀土 12624
威利 12624
核设施 12622
年末 12619
书中 12618
总统大选 12617
IBM 12617
内衣 12617
错失 12616
amp@@ 12615
来源于 12614
入场 12613
下半@@ 12612
ig 12612
东海岸 12611
轰炸机 12611
盈 12611
世人 12610
登机 12609
钩 12609
编译 12607
道路交通 12607
武装人员 12606
怎 12601
沃尔特 12600
多长时间 12600
美德 12600
颜@@ 12599
姬 12597
凝聚 12597
口粮 12597
每一项 12596
确保您 12595
默多克 12595
康奈尔 12595
电动汽车 12594
加固 12593
排球 12589
理论@@ 12589
迈向 12586
花园里 12585
本轮 12585
sy@@ 12584
闭门 12581
fer@@ 12580
官方网站 12579
单元格 12578
四川省 12578
谨@@ 12577
蒂勒 12577
成名 12577
产业链 12576
加以解决 12576
语言@@ 12574
外交大臣 12574
曲折 12574
保龄球 12572
适时 12571
块@@ 12570
贯@@ 12570
以致 12568
家用 12568
司令 12568
紫外线 12567
鉴@@ 12567
千克 12566
拷贝 12565
纳尔 12564
CM@@ 12563
摩尔多瓦共和国 12563
工人阶级 12563
设计@@ 12561
加仑 12560
担负 12558
不一 12558
IPO 12556
信任@@ 12556
哥伦布 12551
电报 12550
徐 12545
侵@@ 12542
瓦拉 12539
明确指出 12539
sar@@ 12538
点钟 12537
内部@@ 12536
十几个 12531
大都 12530
仪表 12529
ky@@ 12529
ole@@ 12528
挪@@ 12526
台词 12525
考克斯 12525
吉尔@@ 12523
为准 12522
unep 12521
改革方案 12519
浓厚 12519
传授 12518
虹@@ 12518
口径 12517
神经网络 12517
船队 12516
摔@@ 12515
纪念@@ 12515
八国集团 12515
电磁@@ 12514
文凭 12513
NE@@ 12513
穴 12510
多纳 12508
App@@ 12508
珍珠 12506
电厂 12505
竟@@ 12504
安全感 12503
尼古拉斯 12500
副局长 12499
植被 12499
cop@@ 12498
捧 12497
十七 12496
365 12496
人工@@ 12495
办人 12495
茶叶 12494
充满信心 12494
十三 12493
朗德 12493
蠢@@ 12493
静止 12489
袍 12488
永 12488
剧集 12487
木头 12487
投球 12486
县长 12485
灵顿 12483
低廉 12480
小巷 12479
过渡期 12478
披@@ 12478
爷@@ 12476
牧民 12474
之久 12474
撞车 12474
富有成效 12474
30.@@ 12473
赌注 12472
威士忌 12472
首映 12472
37% 12471
传记 12470
nfl 12470
集体@@ 12470
祸害 12470
上一年 12470
自治@@ 12469
ax@@ 12468
朱莉 12467
欧共体 12467
背包 12466
建于 12466
普通人 12466
之情 12466
卡迪夫 12465
同伙 12464
敦@@ 12463
莱尔 12462
安市 12462
阿富汗人 12462
浴@@ 12461
内有 12461
这批 12461
结案 12460
富兰克林 12459
杠 12459
cher 12459
大为 12459
监督@@ 12458
军舰 12455
仓@@ 12449
就业率 12446
金融城 12439
庆典 12438
地块 12437
基思 12436
实际行动 12436
刮 12434
会计@@ 12433
驳斥 12433
如上 12433
事儿 12432
来信 12432
身处 12432
紧凑 12431
民族团结 12431
怡 12429
己@@ 12426
克森 12425
走近 12423
八强 12422
游泳@@ 12422
158 12418
饱 12418
高得 12417
华裔 12415
拥堵 12414
151 12413
恐怖@@ 12413
FDA 12412
小子 12411
惹@@ 12411
察 12410
呕吐 12410
重演 12408
原创 12404
科特 12403
晚期 12403
危险性 12403
个省 12403
微观 12403
173 12402
趟 12402
暂定 12401
寄宿 12399
32% 12397
金融业 12395
横幅 12395
航天飞机 12394
计算@@ 12390
墓@@ 12390
逐步@@ 12383
凑@@ 12381
添加剂 12380
天气@@ 12380
ny@@ 12378
弄清楚 12378
打伤 12376
粮@@ 12374
no@@ 12372
深入研究 12371
索偿 12370
拘捕 12367
dna 12365
约克 12365
之道 12364
拉丁 12363
对外开放 12363
假释 12359
职场 12358
辽@@ 12357
推动力 12356
HRC 12355
ali@@ 12353
三角洲 12353
中起 12350
好吃 12348
农作物 12341
痴迷 12339
心跳 12338
3.4 12335
性传播 12335
笼罩 12332
水手 12331
忍 12326
攻击@@ 12325
44% 12321
珊瑚礁 12321
赔偿金 12321
照亮 12320
女单 12320
驱逐出境 12318
法拉利 12317
修女 12315
勋章 12313
68@@ 12313
击落 12313
造林 12313
上尉 12312
缅因州 12307
闽@@ 12307
Ber@@ 12302
单曲 12301
巴尼 12299
来往 12299
条中 12294
罗西 12294
航天器 12293
教练@@ 12293
凡是 12292
斗牛@@ 12291
拘禁 12288
发烧 12288
林顿 12287
知识分子 12285
威克 12285
班子 12282
鳄鱼 12281
资发 12280
切实有效 12279
访华 12279
贤 12277
产值 12275
兆@@ 12274
这幅 12272
螺旋 12271
鸟儿 12269
金正恩 12268
坦诚 12266
南希 12265
淑@@ 12265
移送 12261
沃思 12260
丢弃 12260
泄@@ 12259
泄 12257
短期内 12256
衬@@ 12255
不禁 12255
平等待遇 12254
付出代价 12254
教育部门 12254
磁 12252
股息 12250
供其 12249
pres@@ 12248
囊@@ 12247
长春@@ 12245
锤 12244
制动 12243
宝座 12242
起着 12242
葡萄牙@@ 12239
勃 12236
无人驾驶 12235
熙@@ 12235
弗林特 12234
斯坦利 12234
一无所知 12233
铅@@ 12233
出炉 12233
提出申请 12229
修道院 12224
送达 12223
勒索 12221
彰显 12221
Bo@@ 12220
车门 12220
河道 12217
曼宁 12217
反感 12216
不可逆转 12216
制剂 12215
亨 12215
一则 12214
简便 12214
法定@@ 12214
几场 12212
寿@@ 12209
用户@@ 12208
服务器@@ 12207
路障 12207
呼应 12206
颇@@ 12205
右派 12204
G20 12204
基准@@ 12203
直言不讳 12203
之手 12202
重债 12202
再次发生 12201
另一家 12201
面向@@ 12201
聚合物 12199
isis 12199
建筑业 12196
龙卷风 12194
威尔@@ 12194
恭@@ 12194
sky 12194
6.5 12193
腾出 12193
特大 12190
lou@@ 12190
铸@@ 12189
没见 12189
哲@@ 12188
提法 12188
第二期 12187
共产@@ 12187
袜子 12187
证券@@ 12185
离岸 12184
异性 12183
挑战者 12182
大阪 12181
换成 12181
远景 12181
谋生 12178
替补席 12178
市场竞争 12178
ox 12176
锯@@ 12174
杭@@ 12170
假冒 12169
宏伟 12168
唐宁街 12168
闷@@ 12167
杀伤性 12166
安大略省 12166
查出 12164
节余 12163
法学 12159
印有 12159
'@@ 12159
恢复@@ 12156
太久 12154
161 12153
十一月 12153
小吃 12152
公正性 12152
走到 12151
哈桑 12151
四国 12150
尖端 12150
项目@@ 12148
很漂亮 12146
雅克 12142
小孩子 12142
传给 12142
主宰 12140
绘图 12139
昆士兰州 12139
窃@@ 12139
框中 12138
格林@@ 12137
夫特 12137
潜 12136
塑料袋 12134
联络点 12133
含水层 12132
加西亚 12131
创作者 12131
43% 12130
学徒 12130
出错 12128
第十三届 12127
way 12124
梯 12121
故乡 12120
养育 12120
纵向 12120
重新分配 12119
一九九@@ 12117
空中@@ 12116
出口@@ 12116
rey@@ 12115
我用 12115
领奖台 12113
稿@@ 12113
蜘蛛 12112
极少 12112
敞开 12112
val@@ 12111
水稻 12111
筹码 12109
字样 12108
一般而言 12108
酒厂 12107
挣@@ 12107
cbs 12106
萨克 12106
准时 12104
DA 12103
路由器 12101
里亚@@ 12097
半夜 12097
车臣 12094
水道 12093
杰伊 12093
ari@@ 12092
c.2 12091
20000 12090
巨大@@ 12090
地表 12089
效用 12088
郊外 12087
立委 12084
年满 12083
一职 12083
过得 12082
ward@@ 12080
自来水 12079
他家 12079
慧@@ 12079
交易员 12077
发型 12077
高铁 12077
185 12076
丑 12076
监管部门 12076
愁 12075
概@@ 12075
茨基 12075
纽约@@ 12074
绝不会 12074
法律效力 12073
167 12072
合肥 12071
请单击 12071
192 12068
下发 12067
广大@@ 12065
99% 12064
fl@@ 12062
占地 12060
RO@@ 12059
应收款 12055
坦帕 12054
做点 12054
斯坦福 12053
居高不下 12053
驰 12051
眼神 12051
数最多 12050
无线@@ 12048
晕@@ 12046
芙@@ 12046
选举法 12045
路过 12044
名次 12041
淮@@ 12040
附加值 12040
坍塌 12039
圣诞老人 12039
巾 12038
警长 12037
重要@@ 12037
据点 12035
移民局 12035
总能 12035
不以为然 12034
临床试验 12034
捍卫者 12034
阵列 12032
哈拉 12032
诱人 12032
外包 12031
实事 12031
东正教 12030
2050 12030
Pow@@ 12029
佩洛西 12028
副教授 12024
加共体 12024
价格指数 12024
养成 12023
亏@@ 12021
剃@@ 12021
第十条 12020
著@@ 12019
mann 12017
下一阶段 12016
雕@@ 12016
自卫队 12016
李先生 12016
上门 12013
全家 12012
富豪 12011
解脱 12011
扇 12011
闲 12007
韦恩 12007
芳@@ 12007
东欧国家 12007
对准 12006
屏@@ 12005
不解 12005
文明@@ 12005
错误@@ 12004
帆船 12004
现存 12003
户主 12001
直觉 12001
纠结 11998
莲@@ 11997
纵火 11996
迪士尼 11995
总值 11995
斯堡 11992
精子 11992
ung 11989
并不@@ 11989
ber 11986
瑞克 11984
非暴力 11982
自然人 11981
赎回 11980
ms 11980
rou@@ 11979
越野车 11979
双腿 11978
免疫@@ 11977
安盟 11977
lah@@ 11976
孝@@ 11976
有助 11976
却@@ 11976
一夜之间 11975
毕业@@ 11973
布兰登 11973
sen 11971
加时赛 11971
列报 11971
撞倒 11969
叠@@ 11967
说谎 11964
膳食 11959
受阻 11959
尊 11957
契@@ 11956
咆哮 11955
卫生系统 11955
保持@@ 11951
捧@@ 11950
tom@@ 11948
交替 11948
哈蒙德 11947
练@@ 11945
特种部队 11942
人员编制 11941
科里 11940
中国外交部 11938
收件人 11937
一整套 11937
更深 11937
5.5 11935
迫在眉睫 11932
盖伊 11931
怪异 11930
蓝军 11930
徽章 11929
律师@@ 11929
陛下 11929
eal@@ 11929
法律咨询 11927
曲目 11925
杯@@ 11924
赵 11923
超大 11921
pp 11920
流体 11920
战略@@ 11920
洽谈 11918
机身 11917
飞离 11915
亚洲@@ 11913
莱克 11909
牢 11906
1900 11904
装运 11904
90@@ 11903
陵@@ 11902
棱@@ 11900
诱导 11899
美术馆 11899
候选 11898
医疗机构 11897
道具 11897
EA 11896
ump 11895
第四十@@ 11895
沉积 11894
安全隐患 11894
大喊 11893
连接@@ 11893
弗利 11892
oth@@ 11892
炼@@ 11891
溶液 11889
自营 11887
拖车 11887
预备 11884
动手 11883
流行病学 11883
醉@@ 11883
特立尼达和多巴哥 11882
毛骨悚然 11882
石块 11882
泥土 11882
人工智能 11880
大蒜 11878
计票 11875
装满 11874
不力 11873
语气 11871
谈起 11866
第一家 11865
ti@@ 11864
袜 11863
发球局 11863
213 11861
血清 11861
pat@@ 11861
阿姨 11861
特雷 11861
舞蹈@@ 11861
中长期 11859
布赖 11857
舌头 11857
时速 11854
应从 11854
分流 11854
三年期 11851
热烈欢迎 11851
全人类 11851
苛刻 11847
凭证 11847
水流 11847
非典型 11846
高手 11845
肾 11845
程序性 11840
弗洛@@ 11840
佛罗伦萨 11839
ates 11839
铺平道路 11839
矿产 11838
盛宴 11837
牌子 11837
47% 11837
穿梭 11836
举重 11835
世行 11835
哥伦比亚特区 11833
适配器 11828
搭乘 11828
握@@ 11828
善政 11827
赠 11823
运费 11822
住处 11820
填 11819
周转 11818
天文台 11817
各政党 11817
为时过早 11815
paul@@ 11814
olog@@ 11813
长寿 11813
此刻 11811
没人 11811
揭晓 11810
On@@ 11810
炮击 11809
ct 11808
围观 11808
gt 11806
买下 11806
PR@@ 11805
金融中心 11804
醉酒 11803
军事法庭 11802
打着 11802
能效 11801
48% 11799
厦门@@ 11799
招致 11799
370 11797
贵国 11793
can@@ 11792
公营 11792
1958 11792
连日来 11791
脾气 11790
总有 11788
amp 11786
店主 11785
开放@@ 11784
阶梯 11783
黑洞 11781
同名 11781
绿灯 11779
核心@@ 11777
退休年龄 11777
ade 11772
缴费 11771
紊乱 11771
重点@@ 11771
阿卜耶伊 11766
太小 11765
轻型 11761
响亮 11760
虚弱 11760
sand@@ 11759
走开 11758
甩 11758
扬声器 11757
行动@@ 11756
永不 11755
操控 11755
迪伦 11755
想像 11755
特洛伊 11754
私有 11754
试论 11754
206 11753
王牌 11753
一下子 11753
鑫 11752
胶囊 11752
扭矩 11751
眠@@ 11750
尔姆 11750
打得 11748
偏差 11747
氟@@ 11747
民事诉讼 11747
医药@@ 11746
桌面上 11745
逃往 11744
一时期 11744
敬畏 11744
哑@@ 11741
浑@@ 11741
双语 11739
着迷 11739
避孕药 11738
仪@@ 11737
控诉 11737
一辆车 11735
留守 11734
编织 11731
深色 11730
raf@@ 11729
变迁 11729
后院 11728
宽恕 11728
问到 11727
两辆 11726
耀 11726
复发 11726
兔 11725
弘扬 11722
SR.@@ 11722
概念@@ 11721
门户网站 11719
堕落 11718
荒唐 11718
泽尔 11717
181 11717
三个代表 11717
之争 11716
组长 11713
沉浸 11713
处理程序 11712
讨价还价 11712
乌鲁@@ 11712
出名 11711
梨 11711
源代码 11709
纳什 11709
降临 11707
活泼 11705
后方 11703
羽毛 11701
持股 11699
十字路口 11698
客商 11694
批发@@ 11694
全景 11693
出自 11693
引力 11693
喂养 11692
ico@@ 11691
总署 11690
萨赫勒 11690
配送 11688
内幕 11687
图拉 11686
圆满 11686
旱@@ 11684
会后 11684
地平线 11683
斯图@@ 11682
弟@@ 11681
搬家 11678
茎 11678
击球手 11676
履约 11676
午后 11674
车内 11673
奈德 11672
创始 11672
讯问 11672
柔和 11671
逝世 11671
膝 11669
加之 11668
律@@ 11667
绝不能 11666
旺盛 11665
商业模式 11663
鼎@@ 11660
麦克唐纳 11660
总成绩 11659
找个 11658
至迟 11658
较弱 11656
4500 11655
申请者 11655
41% 11655
交流经验 11654
98% 11654
源泉 11654
王先生 11652
莉亚 11651
卡罗@@ 11650
绿色@@ 11650
师范@@ 11649
ras@@ 11647
验尸官 11646
扮 11643
纳队 11641
00000 11640
搬进 11640
壮 11640
ital@@ 11639
面纱 11639
可可 11639
转弯 11639
RT 11638
朋@@ 11638
TE@@ 11637
动植物 11637
基金组织 11637
棉 11636
博尔顿 11634
见表 11634
团结起来 11630
戒烟 11630
烦 11630
送来 11629
秒钟 11628
驾驶@@ 11628
占领军 11624
GPS 11624
接送 11623
中药 11622
183 11620
浴 11619
咳嗽 11619
自律 11618
批次 11616
五项 11616
哈佛大学 11614
稀少 11614
炉@@ 11613
天气预报 11612
胎@@ 11611
卸载 11610
叙利亚人 11610
茜 11609
癫痫 11608
控球 11608
充分@@ 11606
地理@@ 11605
篇章 11604
双性恋 11604
米德尔 11603
鲜明对比 11602
参考@@ 11601
交叉@@ 11601
健康@@ 11600
坚 11600
走低 11599
场外 11598
改建 11596
中山 11596
星球大战 11595
迟 11594
明确@@ 11593
主导作用 11589
ga 11588
科隆 11587
纲 11587
摩西 11586
2.5% 11585
31% 11585
ea 11584
ris 11583
美术 11583
仍旧 11583
瑞士@@ 11581
炭 11581
依次 11579
萨利@@ 11579
悄悄 11574
傻@@ 11572
粗暴 11572
渗@@ 11571
贡@@ 11571
坚果 11570
听从 11569
溢出 11566
实实在在 11566
Av@@ 11565
照看 11565
榜单 11564
通讯@@ 11563
入口处 11563
多米尼克 11562
地理信息系统 11562
铁轨 11562
席尔瓦 11561
福岛 11560
34% 11560
密苏里州 11559
SC 11558
竖@@ 11555
双赢 11555
天鹅 11555
政坛 11555
吹嘘 11554
迪亚@@ 11554
复制到 11553
浪费时间 11553
作案 11550
公立 11549
遗嘱 11549
受雇 11548
中等教育 11547
ü 11547
何塞 11546
肢体 11546
克里米亚 11546
四是 11546
伪 11545
规划@@ 11544
军事基地 11544
打捞 11544
客运@@ 11543
well 11541
探究 11541
一到 11541
沼泽 11540
陪@@ 11540
村子 11540
达赖喇嘛 11539
昭@@ 11539
挡@@ 11538
安装程序 11537
数百万美元 11537
双边合作 11532
日本首相 11530
露西 11529
Rod@@ 11529
违规行为 11528
199 11527
王朝 11527
彼得@@ 11527
边际 11525
中路 11523
申 11522
便会 11521
涂层 11520
祷告 11519
布罗 11518
好得多 11518
渲染 11516
钞票 11516
-@@ 11515
启程 11513
29% 11512
米尔@@ 11512
一会 11512
趣@@ 11512
心碎 11507
酿@@ 11506
中级 11505
Imag@@ 11505
摇 11504
限期 11502
符合@@ 11501
空军基地 11501
艾玛 11501
任何一方 11501
旅游景点 11500
ray 11499
第二十届 11499
倒数 11497
落户 11497
足球场 11497
泪水 11497
ville 11496
公共事务 11496
不怕 11496
而应 11496
罂粟 11496
臣 11495
口腔 11495
符合国际 11493
ox@@ 11493
ron 11493
加贝 11492
十字 11491
该书 11489
丰富多彩 11488
五十 11487
违 11486
训练营 11485
繁华 11485
总统府 11484
堡@@ 11484
旺季 11484
丢@@ 11483
签署国 11482
树枝 11481
办好 11481
CT@@ 11480
联合政府 11478
特派 11474
失调 11473
电邮 11470
夸 11469
Ali@@ 11468
档@@ 11468
塞浦路斯共和国 11468
点半 11468
ult@@ 11467
遗传@@ 11467
不间断 11466
一棵 11466
萝@@ 11465
差价 11461
可为 11461
网络连接 11460
三岁 11460
休会 11459
克罗斯 11458
老家 11458
召 11455
大堂 11452
养老保险 11452
散布 11451
澳大利亚政府 11451
个子 11449
lis@@ 11449
裂痕 11449
冈萨雷斯 11448
自首 11447
天主教徒 11447
more 11447
察@@ 11446
有利条件 11445
盗 11444
聚合 11444
公示 11444
机床 11442
加工@@ 11442
最优 11442
国庆 11440
主旨 11438
进驻 11438
休息区 11437
2200 11436
喷气式 11436
绿地 11436
民法 11436
吵@@ 11436
罗恩 11435
uf@@ 11434
衔接 11433
壶 11432
失落 11432
老挝人民民主共和国 11430
开销 11428
gor@@ 11427
车头 11427
aS@@ 11426
转账 11425
前三名 11424
相对@@ 11423
草药 11423
揭幕 11422
举止 11422
差旅费 11419
脸书 11418
ight 11418
呼吸道 11409
词典 11407
核心作用 11407
合唱 11407
送入 11404
穆沙拉夫 11404
看重 11401
看病 11397
动性 11396
雪佛@@ 11396
巴西队 11395
惹 11394
用药 11393
水利 11392
保险费 11391
主权国家 11390
精选 11389
返还 11388
遍@@ 11388
企业界 11388
50000 11387
发展势头 11387
近两年 11386
年收入 11385
瑞尔 11383
塔克 11383
钻井 11380
enz@@ 11380
休斯顿 11379
二十 11376
每届 11376
三亚 11374
编入 11374
聘@@ 11372
甲级联赛 11370
ral@@ 11367
热身 11367
乳 11365
备件 11364
内贾德 11364
感人 11364
宇@@ 11363
有点像 11363
霍姆斯 11363
投保 11361
rah@@ 11359
ES@@ 11359
数个 11359
方形 11357
猴 11356
利马 11355
las@@ 11354
寂 11354
不得@@ 11353
湾@@ 11353
数据处理 11351
后座 11350
如上所述 11349
长得 11348
羞@@ 11344
蘑菇 11344
试行 11343
危 11343
刚刚开始 11342
剥离 11342
少校 11341
宁市 11341
傻瓜 11340
打包 11340
甲烷 11338
果实 11338
渴 11338
仗 11337
海豹 11335
马里奥 11334
最深 11334
最佳@@ 11333
东海 11330
奔跑 11330
越是 11329
视听 11328
高标准 11328
小事 11327
快速反应 11327
SR@@ 11326
tw@@ 11323
中央军委 11323
每名 11322
窗帘 11322
占多数 11322
万桶 11321
枪战 11320
出入境 11319
十分钟 11319
极右翼 11318
通信@@ 11314
钠 11314
黄金周 11314
联大 11314
现实意义 11313
三季度 11311
抗拒 11310
垒 11309
僵尸 11309
james@@ 11306
特种 11305
拘@@ 11305
蒸发 11304
水泵 11303
终生 11303
敏锐 11303
tal@@ 11302
鸟巢 11301
lam@@ 11301
沃特 11299
就诊 11298
偿 11297
胜负 11295
涡轮 11294
托雷斯 11294
声望 11292
商城 11290
安心 11290
极高 11289
力图 11289
幽@@ 11288
谈判代表 11287
教程 11286
猛虎 11285
字节 11284
符合条件 11284
高空 11283
接待@@ 11282
ral 11281
开阔 11281
罗斯福 11280
精准 11280
屏障 11280
ling 11278
高峰期 11277
除去 11277
该段 11277
邮轮 11273
沃尔夫 11273
多尔 11272
短裤 11272
放慢 11271
207 11270
深层 11270
决战 11269
祝@@ 11269
屋子 11268
172 11267
5.2 11266
粉色 11266
矿山 11263
辨认 11262
药店 11259
195 11258
奥斯 11258
福克兰群岛 11257
罪魁祸首 11257
置评 11257
历史悠久 11254
改写 11252
金正日 11252
创新能力 11252
打动 11251
利奥 11251
年度预算 11250
爱上 11248
探险 11248
正当@@ 11248
刑事@@ 11247
取而代之 11247
盛会 11245
公牛 11245
社保 11243
戒 11242
餐桌 11241
微波 11236
识字 11236
早前 11235
引人入胜 11234
斜 11234
Ru@@ 11233
阿米 11233
争斗 11231
广播@@ 11231
追随 11231
诺斯 11229
舌@@ 11229
香味 11227
集团公司 11226
por@@ 11225
汉森 11224
来得 11224
无形 11223
分配@@ 11220
教员 11219
曾多次 11219
销售量 11218
elop@@ 11217
外勤人员 11216
文化产业 11216
san@@ 11215
灌输 11214
奖品 11214
生存@@ 11212
校区 11210
＇ 11210
变化@@ 11208
分布式 11207
公平竞争 11206
衷心 11205
织物 11204
矮 11199
Android 11199
159 11199
雷拉 11199
衬 11196
特罗 11195
ES 11193
居住地 11193
造就 11193
专访 11191
苑 11191
计算方法 11190
弗雷@@ 11190
经济区 11189
卡梅隆 11186
植 11182
脑海 11182
劳斯 11181
巴特勒 11179
克鲁斯 11177
队以 11176
民主联盟 11174
资格赛 11173
C.2 11172
伊斯兰堡 11172
加薪 11172
电力公司 11172
回忆录 11171
矫正 11171
进食 11171
BB@@ 11169
打赌 11167
光伏 11166
公信力 11165
寄给 11164
着火 11163
金枪鱼 11163
PM@@ 11162
251 11161
黑帮 11161
Shar@@ 11160
交易商 11159
威尔斯 11159
看成 11158
民权 11157
马克斯 11157
大亨 11157
指甲 11156
浮出 11155
牙医 11154
残余 11153
监察组 11152
臭氧层 11151
尸@@ 11150
受托人 11147
墨西哥湾 11147
诺曼 11146
一手 11145
撒切尔 11145
新界 11144
转机 11142
认真对待 11142
PS@@ 11140
追捧 11139
粉红色 11139
军营 11139
控制中心 11139
运营@@ 11139
rit@@ 11136
胃口 11136
马尔科 11133
赌 11133
某种意义 11133
房租 11132
训@@ 11131
卫生间 11131
紧急行动 11130
46% 11129
大哥 11128
洁净 11127
房贷 11127
过大 11127
决不 11126
宗教@@ 11126
优秀@@ 11125
走高 11125
第四章 11124
坚守 11124
生物学家 11124
辛辛那提 11123
SS@@ 11123
银色 11122
联署 11122
谎@@ 11122
三十 11121
Rev.1 11118
2400 11117
必然@@ 11117
黄河 11116
三通 11116
婆 11115
本法 11114
有所@@ 11113
能耗 11113
浓 11112
航母 11112
翻译成 11112
电子地图 11112
橄榄@@ 11111
弗雷 11111
消耗性 11111
abb@@ 11109
行之有效 11108
飞行器 11107
摄影@@ 11107
监察@@ 11103
第一期 11100
独裁 11100
斯特林 11099
公用 11099
冈@@ 11098
长者 11097
顽@@ 11096
纱@@ 11092
约旦@@ 11092
刀具 11091
搬到 11090
二楼 11090
邦德 11089
感恩 11089
摩尔多瓦 11089
世界遗产 11089
1325 11087
储量 11087
瘾 11086
联合国粮食及农业组织 11084
工艺品 11083
高山 11083
卡里 11083
多种多样 11082
巴厘岛 11080
互惠 11079
inson 11079
撰@@ 11079
轻伤 11078
风波 11076
南昌 11075
ouse 11072
互补性 11072
全是 11069
毫克 11068
罚球 11067
西瓜 11066
领导力 11066
年薪 11065
电极 11065
沸@@ 11063
录音@@ 11062
大大增加 11061
政治犯 11059
应收 11058
Mah@@ 11057
收缴 11057
杜兰特 11057
6.2 11056
耗费 11056
芽 11055
III 11055
aw 11055
虔诚 11054
降解 11053
小组会议 11053
可供 11051
大笑 11049
奇怪的是 11049
账@@ 11049
深层次 11049
南宁 11048
阴 11048
不仅如此 11048
2.6 11047
翠@@ 11047
物价@@ 11046
176 11045
ave 11045
州立大学 11043
铺平 11042
压抑 11042
预留 11041
衰 11041
希伯@@ 11040
首家 11040
宪政 11040
重罪 11037
上周日 11037
费舍尔 11035
精心@@ 11034
维德 11033
sd@@ 11032
如期 11032
清凉 11032
一九@@ 11031
77@@ 11030
牙科 11030
天基 11030
坏事 11028
松散 11025
劝说 11024
百万美元 11022
拉萨 11022
壁画 11021
总体目标 11020
拜托 11020
纳州 11018
自民党 11018
葡萄@@ 11017
商量 11017
连冠 11016
一路上 11016
不感兴趣 11015
哈里森 11013
姑@@ 11011
蚂蚁 11010
面料 11009
偿@@ 11007
000@@ 11005
enk@@ 11005
ac 11005
厢 11004
瞧 11004
敢@@ 11003
pe 11003
海南省 11002
例外情况 11002
这所 11002
时分 11001
光彩 11000
决 11000
深圳@@ 10999
管家 10999
inf@@ 10999
百度 10998
解救 10998
旅行@@ 10997
新华@@ 10996
选战 10995
劳尔 10995
锐 10994
递给 10994
API 10994
31.@@ 10993
坏人 10993
缩影 10992
卡路里 10991
十一五 10991
联合国人口基金 10991
娘@@ 10991
基会 10990
莱昂 10989
189 10988
跳过 10988
Ah@@ 10987
硕士学位 10986
财团 10985
负责管理 10985
泛 10985
我军 10985
布希@@ 10985
娜@@ 10984
政局 10983
高价 10981
hel@@ 10980
窗外 10980
联发援 10979
苯@@ 10978
杀虫剂 10978
容许 10977
最高级别 10974
土著居民 10974
精明 10971
嘘 10970
革 10968
一队 10968
大陆架 10967
投向 10965
甩@@ 10964
两岁 10962
桨 10962
硫 10961
山坡 10960
直接参与 10956
弗林 10954
奋力 10953
遵从 10949
航站楼 10947
iro@@ 10947
海面 10946
中请 10946
拉斯@@ 10946
绒 10945
芒 10944
顽固 10943
丘 10943
甘肃 10943
执业 10941
上路 10940
ali 10935
伊德 10935
续约 10935
叙@@ 10934
殷@@ 10934
男单 10934
酸奶 10928
铁矿石 10927
之害 10927
曼纽尔 10924
mel@@ 10921
砍伐 10921
隐蔽 10920
之行 10919
垂 10919
袋@@ 10918
Ram@@ 10916
uro@@ 10913
经社 10913
佬 10912
疆@@ 10912
俄克拉何@@ 10912
叠 10911
总体@@ 10909
心思 10908
科斯塔 10906
天主教会 10905
谢菲尔德 10905
冷却@@ 10904
自家 10904
eh 10903
气象部门 10903
目击 10902
小牛 10902
耕@@ 10901
付给 10901
做爱 10900
原油价格 10899
禁试 10899
尚待 10898
出具 10897
54@@ 10897
决出 10896
隐私权 10895
耦合 10895
中应 10893
劣势 10893
忠于 10891
各项措施 10890
快报 10889
鼻 10888
播放器 10887
武警 10887
信用@@ 10886
北方@@ 10884
四条 10883
乔布斯 10883
记录在案 10879
食堂 10878
另类 10877
英译汉 10877
残留 10876
第三场 10875
创业@@ 10874
劳工部 10873
前体 10873
特许权 10872
平方英尺 10871
不快 10871
炼油厂 10871
角落里 10871
枯竭 10870
大本营 10869
迪亚 10869
205 10868
丛 10866
刊@@ 10865
杂 10865
投注 10863
242 10861
建联 10860
特斯拉 10857
译@@ 10856
太远 10856
巅峰 10855
厨 10853
圈子 10853
出击 10852
悔@@ 10852
特维斯 10851
地球@@ 10851
出面 10851
常客 10851
有近 10850
天数 10849
勺 10848
武汉市 10846
大法官 10842
出卖 10840
联伊 10840
惠特@@ 10840
克朗 10839
一角 10839
娟 10839
拆迁 10837
港澳@@ 10836
破获 10835
保留意见 10834
阶段性 10830
打扫 10830
人因 10827
较差 10825
同情心 10825
dan@@ 10824
勤奋 10824
加尔 10824
赏 10824
老鹰 10823
梅根 10823
梳理 10822
火箭@@ 10821
186 10820
华沙 10820
电价 10820
oj@@ 10819
ance 10818
借用 10816
救人 10816
生命力 10815
人际关系 10815
來 10814
iPh@@ 10814
瑞典@@ 10813
劝@@ 10813
1.5% 10812
恶意软件 10811
六名 10811
马库斯 10811
鸡肉 10810
皮埃尔 10810
入室 10807
山地 10805
卫冕 10804
应立即 10803
拾@@ 10801
家禽 10801
监督机制 10801
25000 10801
批量 10800
神经元 10800
非常适合 10800
290 10799
新房 10799
财年 10798
法律责任 10798
合办 10798
布伦特 10794
mik@@ 10794
罗纳德 10793
克兰 10793
病变 10793
安检 10790
养活 10790
挑起 10788
江南 10788
吸毒者 10787
两度 10785
无尽 10785
前卫 10785
分辨 10785
权重 10785
古迹 10783
射线 10783
edd@@ 10783
马拉@@ 10783
贩毒@@ 10782
进取 10781
基斯 10779
桂林 10777
必需品 10777
溺水 10776
itz@@ 10776
0.2% 10775
斥 10775
过敏@@ 10774
阿拉伯@@ 10774
邀 10773
私营企业 10773
等同于 10771
防水 10769
成因 10769
中学生 10769
窃 10768
破灭 10768
伯南克 10767
增收 10766
斯曼 10766
way@@ 10765
阿德 10765
氮@@ 10763
琼@@ 10763
女主角 10763
全力以赴 10762
248 10761
妃 10761
一楼 10760
IM 10758
欣喜 10758
独有 10757
五一 10757
这台 10757
net@@ 10756
交织 10755
摊位 10754
连环 10749
切特 10749
至此 10745
摔 10745
吸血鬼 10744
左手 10743
盟军 10742
领头羊 10742
ool@@ 10741
33.@@ 10741
北大 10741
可视化 10739
37.@@ 10739
短片 10738
乏味 10738
祸 10736
私人@@ 10736
陷于 10735
月度 10735
奥利@@ 10734
纳德 10732
中日关系 10731
贝卢斯科尼 10729
避孕套 10727
XX@@ 10726
一一 10726
溢 10725
恶性 10725
动向 10725
中来 10724
商业活动 10724
蒙哥马利 10722
叶利钦 10722
太平洋地区 10721
不带 10720
mac@@ 10720
检查员 10719
切尔诺贝利 10719
股民 10719
过关 10717
aya 10716
第五十四届 10716
迭代 10715
或非 10714
玄@@ 10714
分析方法 10714
两组 10714
待命 10713
边锋 10712
yan@@ 10711
少年@@ 10710
南京@@ 10710
印度政府 10710
图片说明 10709
变压器 10709
贫 10706
和平部队 10705
卫生部长 10705
专职 10704
黯@@ 10703
取向 10702
介意 10702
∶ 10701
不遗余力 10701
其所 10700
专家学者 10699
粤@@ 10699
立体 10698
抱负 10697
一个多月 10694
西汉姆 10693
存货 10693
卡尼 10693
苯 10692
小路 10691
拼写 10690
美国国防部 10690
水坝 10690
扇@@ 10689
天地 10688
受伤害 10688
相互了解 10688
可不 10687
并入 10686
物质@@ 10686
自然环境 10686
严谨 10685
AR 10685
表扬 10684
果然 10684
麦迪逊 10683
分之一 10681
Sol@@ 10681
严重破坏 10681
渐进 10678
卡利 10678
画作 10677
世代 10675
伪装 10675
沉思 10675
供选择 10674
uber 10673
萧@@ 10673
发送给 10671
CO 10670
直航 10670
用法 10668
足球比赛 10668
世上 10668
38.@@ 10666
室@@ 10666
抄@@ 10666
训练有素 10665
环境污染 10665
怀着 10664
ET@@ 10663
螺旋@@ 10662
下落不明 10662
瓣 10661
孙女 10658
中年 10658
权威@@ 10656
军用飞机 10656
人以 10656
雷恩 10655
精灵 10655
复选框 10653
国家体育总局 10653
226 10653
鸽子 10650
交所 10649
命中率 10649
歌唱 10649
商业性 10648
希思罗 10648
人意 10646
美英 10645
悠 10645
百慕大 10644
垃圾邮件 10643
1959 10643
沥青 10643
外星人 10641
继续前进 10641
关键字 10640
布鲁克斯 10640
污 10639
ll@@ 10638
CS 10637
欠款 10635
已达 10633
不出@@ 10632
向往 10632
学士学位 10631
死于 10631
超重 10631
无与伦比 10631
香水 10630
费尔法克斯 10630
禁毒署 10629
new@@ 10627
明星@@ 10626
一书 10624
嗎 10623
哈尼 10623
星座 10623
哈珀 10622
跌至 10621
歌剧院 10620
猛增 10618
so 10618
普利 10616
讽 10614
TC 10613
很酷 10611
HT@@ 10610
开发新 10609
辙 10609
受体 10607
51% 10606
泰特 10606
振 10606
太棒了 10606
默契 10606
藏品 10605
摇摇欲坠 10604
201 10604
产品开发 10604
出事 10604
叉 10603
va 10603
拉什 10603
存入 10602
188 10601
女郎 10598
蚀 10597
图尔 10597
嬉@@ 10596
tel@@ 10594
0.5 10592
滑落 10592
合伙 10589
悬念 10589
养殖@@ 10588
授课 10587
霍乱 10585
博特 10585
中新@@ 10584
防火 10583
报刊 10582
居民区 10580
赛跑 10579
储备金 10579
53% 10576
疹 10576
公路@@ 10575
非同寻常 10574
nhs 10574
中共中央政治局 10574
MO@@ 10573
毅@@ 10570
保护法 10570
热刺 10567
邀请@@ 10564
晶体 10563
不好意思 10562
DS 10561
切实@@ 10561
小心翼翼 10558
整齐 10557
仲@@ 10556
构 10554
万台 10554
河谷 10553
57% 10547
抓捕 10546
无损 10545
网关 10544
迪奥拉 10542
ecuri@@ 10542
娇@@ 10542
投票站 10541
178 10541
杆菌 10541
阿布@@ 10541
安吉拉 10538
颂 10537
柏 10535
联合体 10535
亵渎 10534
名片 10534
As@@ 10533
cd 10531
闲置 10529
闪光 10528
滋生 10528
法郎 10528
期盼 10528
绘 10527
赛艇 10527
信奉 10527
34.@@ 10526
轩@@ 10526
靴 10524
驱散 10522
耶尔 10520
过失 10520
双重标准 10520
扎伊 10520
另一端 10518
印刷@@ 10516
圣彼得堡 10514
iphone 10514
触犯 10513
腐烂 10513
案发@@ 10511
投射 10510
万亿元 10510
引诱 10510
表现形式 10510
抽样 10510
快船 10509
明市 10508
无能 10508
马克思 10508
跪 10507
贫困线 10506
用心 10506
说来 10504
铁路@@ 10502
八一队 10501
铲@@ 10500
谈过 10500
老式 10500
觉醒 10498
货架 10496
保险箱 10496
平坦 10495
冰冰 10495
持续性 10494
Ser@@ 10494
第五个 10493
虫@@ 10493
brid@@ 10493
看台 10493
那不勒斯 10493
富含 10492
疆 10492
高职 10491
电子游戏 10490
睹 10490
岁@@ 10487
宣誓就职 10487
末端 10486
男队 10486
fri@@ 10484
yp@@ 10483
理会 10483
性爱 10483
可望 10482
弗里@@ 10481
里士满 10481
鉴别 10481
苦恼 10480
耕 10479
法制@@ 10479
壁垒 10478
PE@@ 10477
大众@@ 10476
削@@ 10476
Mac 10476
关上 10476
良好@@ 10473
肤@@ 10473
牛津大学 10473
太快 10472
恐@@ 10471
洗手间 10467
拥护 10464
预算赤字 10463
甚么 10463
动漫 10462
借给 10462
高频 10461
塞尔@@ 10461
大涨 10460
风情 10460
1940 10458
39% 10457
详@@ 10457
抬 10457
百名 10457
说明书 10456
加元 10454
阴茎 10453
胜者 10453
先驱@@ 10452
枪声 10452
胡椒 10450
修剪 10449
县级 10449
大有 10448
很差 10447
姜 10446
难受 10443
宪兵 10442
林业@@ 10440
波音公司 10439
美国市场 10438
收费@@ 10434
桑德兰 10434
春运 10434
拐 10433
口气 10432
迁往 10431
计入 10431
老爸 10431
调配 10431
劣@@ 10430
拉莫斯 10427
奸 10426
显微镜 10425
out 10424
量子 10423
迪安 10423
石家庄 10422
腺 10420
生活费 10420
agu@@ 10418
官司 10418
火力 10416
表示祝贺 10415
母婴 10415
杂货店 10414
共同市场 10414
奈特 10411
拉姆@@ 10411
青春期 10411
晓 10410
虚拟化 10410
涂鸦 10409
金沙萨 10407
格雷斯 10406
睦邻友好 10405
0.1% 10404
应计 10404
男排 10403
款式 10402
公平@@ 10402
微博@@ 10402
糊 10401
阿比 10399
自闭症 10398
巴罗 10398
青年党 10398
bel@@ 10397
高素质 10397
规矩 10395
反导 10395
泼@@ 10395
布隆 10394
纺@@ 10393
佛蒙特州 10392
安倍晋三 10392
表决权 10390
阴道 10389
热情@@ 10388
呈@@ 10388
erk@@ 10387
国事访问 10386
加利 10386
蜜@@ 10385
危险废物 10384
壮举 10382
ure 10382
麻醉 10381
鼠@@ 10381
经济运行 10381
默认值 10379
发稿 10379
无休止 10379
酿酒 10378
之大 10377
纤@@ 10376
1956 10376
哥们 10373
廖@@ 10373
地盘 10372
接球 10371
PP 10371
某项 10368
214 10368
德国政府 10368
诺维奇 10367
超标 10367
下级 10365
摸索 10365
逊@@ 10364
五星级 10363
默斯 10363
凯伦 10363
rus@@ 10362
罗拉 10360
普林@@ 10360
彼得森 10358
行业协会 10357
扔@@ 10356
39.@@ 10356
盘中 10355
不知情 10354
® 10353
科技成果 10353
酚 10352
开花 10352
犹太教 10349
策略师 10347
火山@@ 10345
陕@@ 10345
莱索托 10344
代言 10342
巴菲特 10342
二年 10341
一趟 10341
3.6 10341
清华大学 10341
树叶 10340
尝 10339
培训@@ 10338
专利@@ 10338
关系密切 10338
兼容性 10337
发性 10336
不断加强 10336
镍 10333
度量 10332
209 10332
km 10331
新加坡@@ 10329
布宜诺斯艾利斯 10329
可预测性 10329
国在 10329
柴 10329
li 10328
BO@@ 10328
各队 10328
质询 10327
遥@@ 10324
诱发 10324
奥运村 10322
哈迪 10319
伸张正义 10319
多种形式 10319
赐 10319
发短信 10316
PGA 10313
贵宾 10313
转播 10313
机型 10313
下巴 10312
亲近 10312
屈服于 10311
参 10311
木板 10311
能见度 10310
汇聚 10309
拉伸 10308
水疗 10308
当月 10306
174 10305
烷 10304
厌@@ 10304
颈@@ 10303
博士学位 10303
扎根 10302
叶片 10302
滑冰 10301
停车位 10301
时间@@ 10300
产地 10300
lor 10298
同期相比 10297
于本周 10297
遗骸 10296
战友 10295
sr.@@ 10294
斯特尔 10294
有意识 10292
辩@@ 10292
缩编 10291
很感兴趣 10291
黑海 10290
一脚 10289
牛排 10288
仲裁员 10288
火鸡 10286
athan@@ 10286
太晚 10286
海斯 10285
囚禁 10285
sh 10284
但据 10284
背心 10283
德堡 10282
法国政府 10280
周岁 10278
配对 10277
沦为 10277
毫无根据 10276
同日 10274
逼近 10274
轨道交通 10273
四位 10272
片刻 10272
买单 10272
建立健全 10271
时装@@ 10268
伊朗人 10267
缅甸政府 10266
密尔沃基 10266
垃圾桶 10265
规划系统 10265
奎尔 10265
展台 10264
宋 10264
起始 10263
物理学家 10263
过热 10262
一举 10262
功劳 10262
彻底消除 10260
用力 10259
机油 10258
清白 10258
商户 10256
车票 10255
191 10253
动画@@ 10253
ere 10253
着重于 10253
特里@@ 10252
碟 10251
脱落 10250
坛@@ 10250
醋 10249
TS@@ 10249
胡萝卜 10249
万多名 10248
私立 10248
倘若 10248
谱@@ 10247
阿尔伯特 10247
ME@@ 10243
合力 10242
格陵兰 10242
豁免权 10242
接力 10239
党政@@ 10238
女神 10238
帷幕 10237
土地@@ 10237
妆 10237
馅饼 10237
格里芬 10232
勃勃 10232
AS 10230
人文@@ 10229
粘贴 10228
227 10227
甜美 10226
外流 10225
此一 10223
腰带 10220
肥皂 10220
割 10219
减去 10218
ound@@ 10218
新闻记者 10218
实用@@ 10216
1947 10213
2025 10212
美国全国广播公司 10212
抬起 10211
拉诺 10210
校准 10209
340 10209
玩法 10208
巴拉@@ 10208
贝特 10207
守卫 10207
补给 10206
掏@@ 10205
cr@@ 10204
增加一倍 10201
逆转录 10200
猖獗 10199
字典 10198
保持良好 10198
米德 10195
泌@@ 10195
农村@@ 10195
重置 10194
包装@@ 10194
原文 10194
菊 10193
周到 10193
流利 10192
美奖 10191
iv 10191
一步@@ 10191
米斯 10189
挑剔 10188
交通管制 10188
公海 10187
沃尔沃 10186
周年纪念 10186
代表大会 10185
econ@@ 10185
挤出 10181
越大 10177
安全带 10176
草莓 10175
嫌疑犯 10175
4.4 10174
哨 10173
身心健康 10173
缉毒 10173
后备@@ 10172
循环@@ 10172
笼子 10170
魂 10169
型基金 10169
old 10168
闸 10168
龙头 10168
69@@ 10167
有期徒刑 10167
184 10167
阔@@ 10166
谦虚 10166
真菌 10165
都市@@ 10163
亲身 10163
工具包 10163
rel@@ 10162
降雪 10161
深思熟虑 10160
浙@@ 10160
隔绝 10159
可乐 10157
利克 10157
心爱 10153
分层 10153
伊朗核 10153
取得联系 10151
莫里森 10149
自尊 10149
编排 10148
博士@@ 10147
付诸 10147
310 10146
35.@@ 10145
应变 10145
模范 10145
5.1 10144
挡住 10144
辽宁队 10140
拉拉 10138
斯队 10138
警务人员 10137
esp@@ 10135
策@@ 10135
净值 10132
216 10131
情人节 10130
叉@@ 10130
脊 10130
金发 10129
军政府 10127
姓氏 10126
筑 10126
冰冷 10126
北朝鲜 10126
真人秀 10124
采样 10123
救护 10123
服务水平 10123
哈斯 10122
涵 10122
梅森 10121
衣物 10120
ena 10119
莫尔 10118
绒@@ 10118
alex@@ 10117
总线 10116
rod@@ 10116
pal@@ 10116
防洪 10116
藐视 10116
联动 10116
全长 10114
七日 10113
入主 10112
天文学家 10111
学生@@ 10111
出租@@ 10111
开拓@@ 10110
建议您 10109
171 10109
些@@ 10108
逛 10107
珍妮 10107
OS@@ 10106
普莱斯 10106
高额 10105
专案组 10105
高加索 10104
帽@@ 10103
202 10101
切尼 10101
伯恩斯 10100
加权 10100
麻疹 10099
比斯 10099
老大 10098
车窗 10097
瞬@@ 10096
富时 10096
伯利兹 10095
2.7 10094
cn.9 10094
谣 10093
无助于 10093
全胜 10092
回调 10092
法尔 10091
斋@@ 10091
就行了 10091
飞跃 10090
呼吸@@ 10089
一小 10089
蓝牙 10088
我刚 10088
管理信息系统 10088
代表权 10087
tro@@ 10086
客服 10085
结构@@ 10085
乙醇 10084
申请@@ 10084
58% 10083
所选 10082
列明 10082
交代 10082
重现 10082
尤为重要 10081
177 10080
光泽 10080
鲁莽 10080
泉水 10079
唇@@ 10078
龙虾 10077
推介 10076
洗衣 10076
标本 10075
之称 10075
公元前 10075
辩方 10075
犬@@ 10074
百分之百 10074
ather@@ 10073
华莱士 10071
犯罪集团 10071
真心 10071
狱@@ 10070
台办 10070
卡拉@@ 10069
陶 10069
过重 10068
用量 10067
违纪 10066
第纳尔 10065
汇丰 10063
租约 10063
库尔 10063
亿日元 10062
顺应 10062
孕 10062
犹太主义 10062
管理中心 10060
规范性 10060
航天@@ 10060
汉娜 10059
苍白 10055
12000 10055
发布@@ 10052
克洛@@ 10052
格洛@@ 10051
不公 10050
邹@@ 10049
耐用 10048
忍不住 10048
时效 10047
CPU 10044
沿途 10044
社区服务 10044
驰@@ 10044
跆拳道 10044
罗马@@ 10044
辅@@ 10041
咨询机构 10041
时要 10041
不难 10040
URL 10039
住房@@ 10037
ura 10037
gdp 10037
持有者 10035
198 10034
办公楼 10032
里约集团 10031
合理性 10031
肆虐 10030
科学界 10030
就业@@ 10029
脚趾 10029
接过 10028
vin@@ 10028
传播@@ 10027
史蒂文斯 10027
起源于 10025
散落 10025
工业区 10023
唇 10022
阿姆斯特朗 10022
芭@@ 10021
涵@@ 10021
社会学 10021
哲学家 10021
流逝 10019
格拉@@ 10019
理想@@ 10018
iyah 10017
灭火 10014
长老 10013
亚人 10013
驱使 10012
审问 10012
渣@@ 10011
专栏作家 10011
有利可图 10009
十分重视 10008
增加@@ 10007
大都市 10007
王后 10005
多德 10004
迈尔斯 10004
耐 10003
开机 10003
难点 10002
︰ 10001
巴厘 10001
共谋 10000
阿拉法特 10000
价钱 10000
分居 9998
少将 9997
犯罪现场 9997
伸展 9996
在经济上 9995
田径@@ 9995
模糊@@ 9995
工作站 9993
践踏 9987
楠 9987
时代@@ 9985
西南地区 9985
冲突地区 9984
现今 9982
发音 9982
框@@ 9981
ero 9980
客户机 9980
美国联邦调查局 9980
恶作剧 9978
迈尔 9977
ies@@ 9976
产后 9975
班德 9975
竭力 9974
阿里巴巴 9972
盟@@ 9972
测量@@ 9971
损害赔偿 9970
园林 9967
畔 9967
卡通 9966
安宁 9966
马达 9965
52% 9965
无偿 9965
名气 9965
正视 9965
儒@@ 9962
屈服 9961
切片 9960
视作 9959
对外贸易 9959
迪恩 9959
cel@@ 9957
真诚地 9955
上述情况 9954
玩游戏 9954
极力 9953
为民 9953
吉布森 9951
色素 9950
其管辖 9950
警力 9950
落选 9949
抽出 9949
203 9947
前妻 9947
bs 9947
衣柜 9947
喜好 9946
祭 9946
共建 9946
盗版 9946
动工 9946
瓦尔@@ 9945
粪便 9945
磁场 9943
99.@@ 9942
道夫 9942
棕榈 9942
萨尔@@ 9941
规范化 9940
花生 9940
挺身而出 9940
充分肯定 9939
ker@@ 9938
个球 9938
畸形 9937
函@@ 9936
拜仁 9935
嵌入式 9935
汤米 9934
灯泡 9933
更为重要 9933
颇为 9933
加勒比地区 9932
展厅 9932
陡峭 9931
公元 9929
身价 9929
落到 9929
大运会 9929
夺金 9927
补丁 9926
世纪末 9925
癖 9923
山体 9922
早点 9920
被遗弃 9920
零零 9920
you@@ 9919
羊毛 9919
0.0@@ 9917
管理部 9917
片中 9917
严重@@ 9916
各届 9916
莱维 9916
49% 9915
前辈 9915
联络处 9914
出版@@ 9914
这枚 9913
械 9912
火热 9910
拖累 9910
dec@@ 9910
使用权 9910
凭据 9907
实用性 9907
richard@@ 9903
谜@@ 9902
申请书 9901
十几年 9901
机上 9900
朵 9900
库区 9900
协会主席 9900
军事力量 9899
联东 9899
远距离 9898
功能性 9898
黑白 9898
来电 9898
港人 9895
5.3 9892
193 9892
精算 9892
恤 9890
铃@@ 9890
hrc 9890
里尼 9890
极致 9890
可行性研究 9889
作文 9889
德意志银行 9887
闪亮 9887
卡夫 9887
蹂躏 9886
ese 9884
帕拉 9883
监督管理 9881
还款 9880
年限 9879
只想 9878
保险业 9877
嫁@@ 9876
中尉 9876
小车 9876
德国@@ 9876
战平 9874
溶剂 9872
los@@ 9872
千名 9871
涌现 9870
充分认识 9869
实验@@ 9869
hol@@ 9868
je@@ 9867
癌@@ 9866
消极影响 9866
实业 9865
统 9865
corr.1 9862
以求 9862
最先 9862
上扬 9861
贤@@ 9861
页岩 9861
内需 9859
1946 9859
环球@@ 9858
术@@ 9857
杰弗里 9856
打下 9856
阿拉木图 9855
dev@@ 9854
上行 9854
fe@@ 9854
峰@@ 9853
化身 9853
办学 9851
全军 9851
Add@@ 9850
勾结 9849
那年 9849
英格兰银行 9849
斯特恩 9846
阿波罗 9845
康沃尔 9845
河边 9844
杰西 9844
tu@@ 9843
可选 9842
专制 9840
通勤 9838
马丁@@ 9836
沙子 9836
流派 9833
TD 9833
righ@@ 9832
64@@ 9832
Po@@ 9832
拨出 9832
皇后区 9832
拉力赛 9832
笼 9831
网络攻击 9831
冲洗 9830
类固醇 9830
见图 9829
不太好 9829
约翰@@ 9828
误会 9826
霍夫 9825
德温 9825
一经 9824
ston 9823
柠檬 9823
英勇 9821
工人党 9821
变速箱 9820
凯恩斯 9820
干活 9820
斯蒂尔 9820
富士@@ 9818
经济制裁 9818
蝶@@ 9817
连接器 9815
fran@@ 9815
滋@@ 9815
稀缺 9813
ks 9812
ira 9812
海龟 9812
前门 9811
关键技术 9811
兄@@ 9810
1955 9809
欺负 9809
老兄 9808
art 9807
公积金 9805
安德鲁斯 9805
观光@@ 9804
科摩罗 9803
团结一致 9803
捐献 9803
格林尼治 9801
之时 9801
排练 9801
汉姆 9798
无家可归者 9797
招牌 9797
颅@@ 9796
低碳 9795
速效 9795
绝对@@ 9793
可喜 9792
燃气 9789
慈@@ 9788
快餐 9788
兰开@@ 9787
联索 9786
第五十@@ 9785
按揭 9784
舟@@ 9783
顺利进行 9783
日为 9782
RA 9780
佩罗 9778
氨@@ 9776
闷热 9776
暴力犯罪 9774
不堪@@ 9771
itut@@ 9770
沙市 9770
橱 9769
香港特别行政区 9768
西班牙文 9768
摔倒 9768
辛顿 9767
大大减少 9766
第二十六条 9766
票数 9765
线上 9764
未曾 9764
伤残 9764
现况 9763
上岗 9762
南卡罗来纳 9761
饶@@ 9761
敌方 9759
男士 9758
近一半 9758
出缺 9758
求职 9757
凶 9757
215 9756
全科 9756
流媒体 9754
财政赤字 9753
ist 9753
葡萄园 9752
帐@@ 9751
白血病 9751
蓝线 9750
游乐场 9750
港元 9749
泪@@ 9749
特区政府 9749
贫困人口 9748
不成比例 9746
吉隆坡 9745
私立学校 9745
关节炎 9745
复合材料 9743
斯大林 9740
诚挚 9740
ive@@ 9739
足总杯 9739
扫 9738
更难 9738
严重后果 9737
非传统 9737
愈 9737
逝 9737
苹果@@ 9734
社会治安 9734
第四轮 9733
喉@@ 9733
揭幕战 9733
无处不在 9732
在一起 9732
德克 9731
维吉尼亚 9731
奥古@@ 9730
ray@@ 9730
gh 9730
青蛙 9729
别忘了 9729
斯卡@@ 9725
领军@@ 9725
硕@@ 9724
调查局 9724
感应 9724
cas@@ 9723
研讨 9723
秘密@@ 9723
风味 9723
富国 9722
区县 9721
并会 9720
糊涂 9720
财产权 9719
乾@@ 9716
数据分析 9716
儿女 9715
近几年来 9714
即兴 9713
tra@@ 9712
第二局 9712
淀粉 9711
上司 9711
昂山 9707
荆@@ 9706
谓 9705
四季 9705
开往 9704
经贸关系 9704
扎尔 9703
斯托@@ 9702
改革@@ 9701
日方 9700
0.3% 9699
编辑器 9699
CL@@ 9698
年仅 9696
莱文 9696
附注 9696
56% 9694
项链 9693
翼@@ 9689
序幕 9688
篷@@ 9688
备灾 9688
就医 9687
荣获 9686
历史记录 9685
UI 9685
托夫 9685
殊荣 9683
贫困地区 9683
淘汰赛 9681
ade@@ 9681
解剖 9681
维修@@ 9680
本杰明 9680
204 9679
柯克 9677
多来 9676
比亚 9675
187 9673
新兵 9673
国家标准 9672
现金@@ 9672
cri@@ 9671
金价 9671
自有 9670
自由市场 9670
纱 9669
即便如此 9669
击剑 9668
塞德 9668
吴邦国 9668
塌 9667
论据 9667
而异 9666
itz 9665
白酒 9665
分项 9663
伯顿 9663
务局 9662
普兰 9661
信号@@ 9660
搞好 9660
上层 9660
耐力 9660
mus@@ 9657
来文方 9657
求解 9656
预告片 9655
特殊性 9655
萨里 9654
波斯 9654
窗格 9653
机能 9652
54% 9652
蛇@@ 9651
入伍 9651
伯纳德 9651
到访 9650
搞定 9650
赶走 9648
mp@@ 9647
警钟 9647
一列 9647
敌@@ 9646
澜 9644
图层 9644
铬 9644
1957 9640
年幼 9640
自行@@ 9639
平均年龄 9638
ery 9636
这些年来 9636
48.@@ 9633
旭@@ 9632
高级顾问 9630
布雷克 9629
副产品 9627
皮划艇 9627
师生 9627
蒙大@@ 9626
移居 9626
年均 9626
1954 9625
万年 9624
奥马尔 9623
斯维尔 9623
ign@@ 9622
围棋 9622
222 9622
c.@@ 9621
挣 9620
生机 9620
爆破 9620
88@@ 9620
求职者 9618
统计@@ 9618
联合国贸易和发展会议 9616
牛市 9616
主力@@ 9616
界线 9614
愤@@ 9614
粗鲁 9613
小费 9612
画像 9612
胖@@ 9609
日语 9606
标的 9603
.6 9602
戚@@ 9600
惟一 9600
cm@@ 9599
闻到 9598
块钱 9596
之多 9595
新政 9595
197 9594
正以 9594
sp 9592
sel@@ 9592
瓦特 9591
猎物 9590
袖@@ 9589
255 9588
责成 9588
张家@@ 9588
灼@@ 9587
狐狸 9586
谢赫 9585
职司 9583
会以 9583
应邀 9582
发来 9582
最低标准 9582
ñ 9581
曼德拉 9579
斯宾塞 9578
质量@@ 9576
骑马 9575
核武库 9575
利亚姆 9575
海军@@ 9574
拍卖会 9573
炸毁 9573
粉末 9573
导言 9573
悍 9573
完备 9572
peter@@ 9571
光辉 9571
儿科 9571
严格@@ 9571
三峡工程 9570
杰作 9569
此行 9569
络 9568
无能为力 9567
喂@@ 9567
夜里 9566
十八@@ 9565
箭头 9565
尸检 9565
阁楼 9564
面包@@ 9563
疾控中心 9562
第二十三届 9561
维京 9561
65@@ 9560
本项 9560
宏观调控 9560
推高 9560
教育工作者 9559
桂 9559
伊希斯 9559
广东@@ 9558
承担@@ 9555
时间段 9554
赔率 9553
非但 9553
49.@@ 9551
怀旧 9551
分泌 9551
招收 9548
敬业 9547
数组 9546
179 9546
诺贝尔奖 9545
无人@@ 9545
分量 9545
2100 9544
inger 9542
留出 9542
霍克 9541
模块化 9539
ial@@ 9539
带回家 9537
好坏 9537
ital 9537
暴徒 9536
吓坏 9535
高高@@ 9533
责@@ 9533
咨文 9533
手续费 9532
窃取 9532
衍生品 9530
奥利 9527
高尚 9527
向东 9527
尼基 9526
工程项目 9526
俄罗斯政府 9525
先进@@ 9525
弥撒 9525
空间科学 9525
展望未来 9525
达尔文 9525
3G 9524
达沃斯 9524
狡猾 9521
园艺 9520
皮肤@@ 9519
不来 9518
新近 9516
断层 9516
艳 9516
迪奇 9515
借此 9515
琳@@ 9515
连夜 9514
构筑 9513
社会效益 9513
综管 9512
部份 9511
塔纳 9511
利基 9510
承接 9509
愚@@ 9509
进修 9507
外衣 9505
执勤 9505
投资额 9505
解决@@ 9505
表示同意 9504
僵硬 9504
喘 9503
社会化 9503
近代 9503
ice@@ 9502
量身 9501
多层面 9501
拳头 9500
小小 9500
马龙 9499
归结为 9498
米利@@ 9498
监视器 9497
反倾销 9496
退缩 9496
骆驼 9496
基数 9494
各阶层 9494
烫 9493
结社自由 9493
使用率 9493
在建 9493
重庆@@ 9493
锚 9491
条所 9491
巡视 9490
喉 9488
满足@@ 9488
半球 9487
中美关系 9485
本节 9484
税法 9483
快照 9482
265 9482
介绍性 9482
低利率 9482
不开 9482
供应@@ 9481
归纳 9481
高度@@ 9481
遣 9479
各区 9479
一致同意 9478
重新部署 9478
San@@ 9477
住在一起 9477
鲍尔 9477
交际 9475
纸条 9475
1.7 9473
打响 9473
sey 9473
某事 9471
甚远 9471
规例 9470
祖父母 9469
亦可 9468
战略部署 9468
疮 9467
下一场 9467
不休 9467
2600 9464
民盟 9464
第二种 9464
手铐 9464
光电 9463
纹@@ 9463
反向 9463
参赛选手 9462
fccc 9461
严格执行 9460
内核 9458
本局 9455
蔓延到 9455
痊愈 9453
携 9452
期限内 9451
方向盘 9450
锚@@ 9450
煤气 9449
上下班 9449
喔 9449
简言之 9449
莫拉 9448
谈会 9448
预算案 9447
进场 9445
真实@@ 9444
核技术 9443
饲@@ 9441
突出@@ 9440
性犯罪 9440
能源安全 9440
爆炸@@ 9440
橙@@ 9439
按键 9438
德林 9438
年报 9438
幼 9437
应于 9437
7500 9436
卡卡 9435
纹理 9434
张力 9434
受到@@ 9434
第一件 9434
毛病 9434
教养 9433
管理模式 9433
阿比让 9433
月间 9432
南市 9432
第一次世界大战 9431
事业@@ 9431
削 9431
蒙古@@ 9431
kat@@ 9429
坚持不懈 9429
赫斯特 9429
优先@@ 9428
善治 9428
南京市 9428
重症 9426
行政命令 9426
苍蝇 9426
捷运 9425
一小@@ 9425
斯旺西 9424
慎@@ 9424
大洲 9424
不振 9424
女子@@ 9423
194 9422
比亚@@ 9422
驶入 9422
两轮 9422
政府@@ 9422
打折 9422
主题公园 9421
路易 9421
戳 9420
新款 9419
学士 9419
太阳系 9417
米克 9417
早婚 9417
新手 9417
现状及 9416
市级 9415
详述 9414
重回 9414
姐@@ 9414
拉波娃 9413
卵@@ 9413
小熊 9411
加拿大政府 9409
维茨 9408
更要 9408
套装 9407
土耳其政府 9407
婷 9406
境@@ 9404
床单 9403
毯子 9403
理工大学 9403
晚饭 9402
实现目标 9402
221 9400
美好@@ 9399
世博会 9397
格勒 9397
资历 9396
衰竭 9396
所定 9395
非法活动 9395
猎鹰 9394
希尔顿 9393
反洗钱 9392
冰球 9390
责令 9390
名牌 9390
浅析 9390
壁炉 9390
阻 9389
阿克@@ 9388
抓紧 9387
广告牌 9386
分隔 9386
安全区 9386
中东问题 9385
黄金海岸 9383
荷兰人 9382
风能 9381
FO@@ 9381
文化部 9381
布拉特 9381
平等@@ 9380
技术水平 9378
萨克拉门托 9377
人大常委会 9376
可耻 9375
县市 9372
巴西人 9371
跻身 9371
兼并 9371
ase 9369
良知 9369
能源部 9368
细心 9366
主编 9365
承包者 9364
戈麦斯 9363
组中 9362
各级党委 9361
弗拉基米尔 9361
At@@ 9360
肚@@ 9360
举办@@ 9358
警觉 9357
塞舌尔 9355
托德 9355
改名 9354
卡瓦 9353
史蒂文 9352
岸@@ 9351
app@@ 9350
骨干 9347
高跟鞋 9347
底盘 9344
ald 9344
初衷 9344
或多或少 9344
归来 9341
克劳@@ 9340
個 9338
十分之一 9338
芝@@ 9337
方便@@ 9337
糊@@ 9335
财政状况 9335
这样的话 9334
付钱 9334
位列 9333
辩 9331
运到 9331
奴 9330
冕 9330
会议@@ 9329
倒下 9328
葱 9328
固然 9328
枕头 9327
县政府 9327
越来越少 9325
千瓦 9325
风采 9325
吊 9324
文艺 9324
一匹 9324
大夫 9323
把戏 9323
叙 9321
精彩@@ 9321
属实 9319
420 9318
知识@@ 9318
香肠 9318
国土@@ 9317
数学@@ 9317
36.@@ 9316
个人电脑 9316
拉开帷幕 9316
cam@@ 9315
万张 9315
低水平 9314
低位 9313
国家机关 9313
作好 9313
合法权利 9311
秘诀 9310
停放 9310
仓储 9310
人口老龄化 9310
害羞 9310
赫德 9309
诈@@ 9309
陆上 9308
福田 9305
一读 9305
族人 9305
社会民主党 9304
麦金 9303
铺天盖地 9302
夏令营 9301
埃塞克斯 9301
总面积 9300
党和政府 9299
亮度 9298
市内 9298
银行卡 9298
四岁 9297
卫星@@ 9297
滥@@ 9297
加拉 9295
退市 9295
电子设备 9294
修缮 9293
上瘾 9293
偷偷 9293
德福 9292
利文 9291
这有 9290
微波炉 9290
晃 9290
减半 9289
工序 9289
沃特@@ 9289
床位 9288
美国大使馆 9288
专卖店 9287
威斯 9287
初等教育 9286
繁琐 9285
技术培训 9284
石油价格 9283
佩奇 9282
卢卡 9281
欠缺 9280
根据上述 9278
會 9276
勋 9276
又称 9275
iller 9275
次贷 9275
着急 9274
仇 9273
督促 9273
局部@@ 9272
最美 9271
一对一 9270
买房 9270
erson 9270
遴选 9270
会员卡 9269
推倒 9268
体育赛事 9268
陈旧 9267
暗淡 9263
规模较 9262
长途 9261
vi 9261
赫尔辛基 9260
abri@@ 9258
雄性 9258
袖 9257
再有 9255
瑟斯 9255
标注 9254
具体步骤 9254
国会@@ 9253
国有资产 9253
军区 9253
梳@@ 9252
national@@ 9251
不能@@ 9249
口语 9248
站台 9247
完全相同 9247
雄心 9247
土壤@@ 9241
境界 9241
点火 9240
前身 9240
兄弟会 9239
政见 9236
广泛支持 9235
泄密 9235
马州 9234
福布斯 9233
无锡 9233
提高@@ 9232
光环 9231
DS@@ 9230
波利 9230
孔子 9229
228 9228
戈里 9227
无声 9227
维持@@ 9224
比前 9223
溶解 9221
帕德 9221
摩托@@ 9220
感官 9219
求婚 9218
截 9216
ue 9215
好象 9213
纷争 9213
戏剧@@ 9212
吉布@@ 9209
知晓 9208
标明 9208
掌权 9208
开着 9208
舞团 9208
黑手党 9206
蒙受 9204
国税局 9204
ran 9203
氨酸 9203
净收入 9203
mou@@ 9203
头巾 9201
费尔 9201
成形 9200
斯蒂 9200
情绪@@ 9199
南区 9198
站立 9196
纽 9195
产业结构 9194
按下 9193
mich@@ 9191
stev@@ 9189
仆 9189
立法机关 9188
英雄@@ 9188
死后 9186
友好@@ 9185
腿@@ 9185
美国参议院 9184
克罗伊 9183
精华 9183
漫游 9182
展品 9181
东南欧 9180
领导小组 9179
责备 9179
莱利 9179
掘@@ 9179
阈值 9178
低级 9177
灯塔 9176
樱桃 9172
保时捷 9172
普利@@ 9171
特雷@@ 9171
歪曲 9171
毫不犹豫 9170
adel@@ 9168
翠 9167
天上 9166
婴 9166
若要 9166
罗德@@ 9165
奖章 9163
铭@@ 9163
赔 9161
乌鸦 9161
心人 9160
orn@@ 9160
商业街 9160
颇具 9159
厨@@ 9159
奶牛 9158
赎金 9158
徒劳 9158
栅栏 9156
人手 9155
非典 9154
梅尔@@ 9154
[...]
