the 207647418
, 155795431
. 123274702
of 108641678
and 85359926
to 81466588
in 58646597
a 48597949
that 27282128
is 26904579
&quot; 26499299
for 25826867
@-@ 24356534
on 23720754
The 20963939
&apos;s 18187841
with 17077900
be 14409364
was 14186947
as 14082409
by 13259246
it 11994589
are 11755401
at 11055090
I 10995209
have 10544327
not 10181408
has 10139204
from 9824811
an 8692957
said 8674135
will 8670928
you 8417140
this 8395424
) 8218986
( 8148086
or 7170546
: 7150882
In 7072240
he 6807369
its 6663700
also 6425357
which 6300903
their 6284420
been 6031401
had 5867543
all 5840055
more 5720015
his 5669220
can 5627532
but 5513918
were 5483266
It 4798241
/ 4714603
we 4708784
one 4617499
they 4609649
United 4404313
other 4379734
would 4308059
time 4294959
people 4195596
who 4176314
out 4150257
up 4057965
year 3892565
? 3857180
about 3848675
two 3768367
should 3716022
development 3688993
new 3645906
than 3611557
first 3499672
; 3497207
&apos;t 3468364
A 3448425
- 3426365
there 3414872
into 3256974
He 3245514
China 3244903
States 3217197
so 3078006
work 3073965
international 3006726
countries 2996713
only 2981528
&apos; 2978180
This 2973171
her 2969584
such 2916010
do 2902296
years 2898820
some 2893413
your 2856947
Committee 2814516
after 2785012
when 2719242
our 2715708
We 2698258
Nations 2680296
no 2674853
between 2598245
made 2502791
them 2452161
over 2447512
she 2420162
But 2409826
my 2398233
if 2382813
women 2365244
most 2358005
system 2350382
world 2349482
including 2340314
could 2255716
report 2244831
like 2226531
support 2218766
information 2216171
through 2201692
country 2197149
well 2154556
rights 2150610
under 2134312
number 2113550
me 2109841
General 2098800
what 2097054
these 2089879
many 2077561
national 2059249
use 2044032
economic 2034482
any 2007257
1 1990724
very 1989799
three 1983137
may 1982827
make 1965704
just 1949802
Council 1933463
per 1917791
take 1913342
now 1896842
against 1886272
need 1880694
human 1857282
last 1846160
same 1842948
$ 1837016
him 1835983
way 1813211
good 1808728
government 1801459
those 1794594
At 1788798
public 1761887
State 1735279
right 1724033
day 1722610
before 1711035
Chinese 1709145
because 1706993
important 1699267
market 1698279
security 1685244
must 1684552
high 1680329
Government 1670164
You 1658170
As 1652005
children 1651288
team 1648301
2 1627719
end 1619415
still 1602239
law 1592985
see 1585784
being 1573120
how 1562423
If 1560910
long 1558203
level 1531077
order 1521918
10 1507956
during 1504793
process 1500176
And 1492928
part 1485821
where 1483084
get 1480547
3 1472462
activities 1470238
cooperation 1462397
did 1450324
back 1449671
On 1449253
know 1438542
Mr. 1435214
social 1432936
us 1429984
then 1428053
million 1409402
while 1398902
implementation 1396754
life 1392192
meeting 1376983
used 1371417
cent 1370884
They 1368647
Commission 1367712
financial 1366287
set 1357969
management 1356294
provide 1348991
resolution 1341248
even 1332590
party 1318949
both 1318947
There 1311130
since 1305117
second 1302462
services 1285112
man 1273432
political 1271177
&gt; 1270593
further 1269510
unk 1267179
police 1263538
&lt; 1263214
go 1261384
want 1258070
measures 1253624
For 1252136
areas 1251679
members 1245367
held 1236051
! 1234360
health 1227400
efforts 1225479
down 1224188
issues 1219926
company 1215295
s 1203265
group 1196853
help 1196714
much 1193554
President 1181912
situation 1177860
5 1176099
un@@ 1172106
each 1167568
4 1165720
next 1165193
area 1160971
based 1157525
off 1156082
think 1150092
data 1148557
local 1146404
International 1142931
&apos;re 1136178
resources 1134945
policy 1133414
business 1131970
case 1131083
However 1128892
place 1126955
ensure 1126300
city 1120913
New 1110816
home 1108965
old 1108785
own 1107938
education 1096849
state 1095939
told 1095280
continue 1092113
S@@ 1091184
period 1090788
She 1090374
family 1089730
don 1085305
water 1085210
To 1075862
Assembly 1074795
four 1071916
community 1071350
role 1069196
i 1068996
decision 1065227
future 1058037
within 1057064
taken 1055692
organizations 1055200
say 1044422
best 1040291
different 1039606
European 1038037
found 1036682
non 1036210
around 1031219
20 1026356
change 1025611
going 1025107
Secretary 1023876
Group 1017983
training 1016126
current 1015808
control 1007764
re@@ 1004649
That 1003023
30 1000415
increase 988427
become 986602
% 986191
addition 984900
working 982171
regional 981369
6 981283
staff 981129
here 977654
National 971783
called 965530
days 965397
full 965019
service 963813
When 962964
session 958717
provided 955981
able 953453
South 949855
great 947128
global 946927
issue 944380
special 942151
five 941678
&apos;m 941255
past 940659
o 938120
without 932993
view 932838
G@@ 929949
large 926558
men 925697
too 925097
small 924083
trade 923169
relevant 922012
military 920109
among 919769
Development 918626
15 918605
major 917163
come 917015
game 916580
says 914916
action 913477
following 909030
Security 908695
project 908107
better 903677
needs 899841
put 898259
related 897268
play 893650
After 893494
power 892177
technology 890217
12 887350
assistance 887103
developing 886035
does 885495
Convention 884757
legal 884562
according 883324
P@@ 880613
US 880236
another 879553
economy 873591
possible 872845
access 872845
industry 872531
protection 871571
results 869827
T@@ 866716
June 865556
particular 860465
field 859749
present 859593
every 858430
7 858082
Mr 857995
With 855038
A@@ 854586
region 852862
total 850936
D@@ 850406
plan 848063
main 846387
B@@ 845907
point 845855
programme 844106
building 840902
growth 840175
Office 839969
took 839692
Beijing 837100
week 832852
reported 831392
recent 831086
World 830775
school 830744
peace 830353
line 826837
quality 818540
today 815404
investment 813206
whether 809272
few 808272
draft 807200
general 807155
article 804260
capacity 803534
regard 803120
K@@ 802891
less 801637
11 800424
cases 797719
making 797571
term 797537
result 796791
key 795448
promote 795356
problem 793523
give 793321
July 792327
half 791368
early 786085
8 784765
effective 784053
side 783808
research 780853
in@@ 779103
progress 778155
groups 776599
production 776513
construction 774701
review 772336
M@@ 772080
Trump 770810
again 770496
parties 766727
study 765656
left 765531
third 764472
e 764220
problems 760315
money 759050
always 757510
am 756487
months 755558
show 754932
impact 753916
food 752640
What 751008
foreign 750183
2008 749035
media 747373
find 747308
May 743388
Republic 742332
car 738754
fact 735905
society 735156
C@@ 733161
age 727347
necessary 725869
free 725174
really 724319
L@@ 723732
Conference 723407
led 721253
reports 720956
products 720739
environment 720634
According 719216
won 716384
American 713313
statement 713024
established 712839
er 710042
N@@ 709856
various 709106
basis 707155
accordance 705791
top 704764
expected 704621
improve 700612
U.S. 699793
9 699717
least 699159
person 698472
open 696895
Department 696277
One 696097
attention 695753
rate 694460
December 693350
several 691940
H@@ 691889
include 691842
So 691727
&apos;ve 690495
far 689041
given 687986
institutions 687960
developed 687696
technical 687472
never 686327
together 685374
means 683483
came 682633
got 681926
14 681154
Hong 680947
Rights 680165
lot 679300
performance 679224
strong 678647
private 676989
policies 675161
F@@ 675100
violence 674958
child 674871
Special 674406
look 673547
real 672046
often 671843
risk 668445
face 667365
big 667070
might 666860
example 666690
Africa 665770
These 665658
already 664982
available 664694
experience 664620
course 663909
account 662316
member 661358
little 661198
conditions 659758
care 659618
18 659598
price 659369
particularly 659077
persons 658055
k@@ 657184
Kong 657147
month 657144
All 657062
energy 656878
companies 655229
land 654672
cost 654380
final 653062
clear 652773
address 650314
projects 650150
noted 649551
16 648649
authorities 647854
students 646744
head 646710
low 646285
nuclear 643588
yuan 642522
s@@ 642355
away 642245
officials 641134
young 640597
believe 639403
six 638872
start 637783
13 636358
programmes 636252
2010 636012
points 635950
levels 635481
reform 633859
R@@ 632918
specific 632862
shall 631853
due 631342
2012 631220
Human 631003
former 630501
2007 629466
strengthen 627761
Union 626997
value 626035
2009 624878
sector 624033
Japan 622831
&apos;ll 621786
body 621654
night 617507
March 616189
times 613092
later 612355
president 611428
2011 611256
September 609811
percent 609240
let 605964
25 605100
continued 605059
domestic 604433
meet 602757
until 602524
2006 602196
o@@ 601627
Court 600973
concerned 599613
E@@ 598579
air 598331
form 597798
using 597308
increased 597289
whole 595003
City 594985
billion 593860
fully 593686
d@@ 592849
received 591880
taking 591863
2005 591267
above 590072
paragraph 589323
love 589269
t 589259
y@@ 589221
lead 588779
war 587281
al 586123
e@@ 586123
things 585062
response 583806
forward 582556
focus 582113
position 581501
common 581290
pay 580597
hours 578295
close 577776
force 577337
application 577091
office 576992
adopted 576801
especially 576082
name 574781
hand 574200
population 573087
17 573026
W@@ 572030
capital 570724
Europe 570079
difficult 569930
space 569411
house 569313
question 569284
t@@ 568035
deal 567221
others 567141
added 566908
respect 566568
Some 566389
April 564889
agreement 563836
African 563106
January 562081
once 561960
room 560367
court 560359
October 560342
University 559442
however 558551
required 557602
Party 557437
importance 555787
24 553076
No 553013
interest 552337
treatment 551948
enterprises 551873
-- 550781
went 550436
ago 550170
crisis 548104
While 547815
es 547667
season 547396
November 546468
civil 546077
seen 544953
call 544624
run 544361
proposed 544360
3@@ 542581
conflict 540651
ers 539800
son 539237
hope 539095
Olympic 538596
considered 537644
requirements 537637
operations 536587
win 536483
job 536449
establishment 536405
ed 535474
safety 535393
delegation 535104
news 534241
relations 534076
known 533657
serious 533513
across 532126
50 531768
an@@ 531191
4@@ 530658
oil 529559
history 529063
terms 528773
agreed 528740
official 528415
systems 527863
Iraq 527021
hard 525894
21 525865
matter 525480
cultural 524799
Ministry 524760
gender 524749
2004 523988
light 523572
funds 523308
Organization 522898
asked 522680
develop 521532
forces 521100
responsibility 520491
changes 520466
return 520256
recommendations 520018
19 519504
living 518823
visit 518514
something 517408
done 517321
ing 516066
appropriate 515471
costs 514744
America 514028
g@@ 513331
design 512941
organization 512533
network 512127
higher 511151
North 510567
death 510302
East 510168
budget 510002
thing 509524
operation 508478
yet 507272
O@@ 507076
y 506500
list 504724
plans 504585
expressed 504034
Russian 502965
post 502218
Minister 502007
Member 501627
22 498537
property 498245
feel 497992
approach 497946
previous 497567
His 497265
outside 496893
why 494907
u 494084
create 493834
comprehensive 493812
concern 493691
site 492393
series 491722
lack 491545
workers 491270
decided 489779
event 489568
amount 489120
road 488181
significant 487770
achieve 486322
personnel 485917
sustainable 485424
environmental 484003
ate 483887
began 483710
participation 482582
kind 482025
Russia 481940
EU 481335
live 480911
keep 480264
Central 479966
2000 479636
share 479557
rules 479409
analysis 479223
British 478290
income 478145
Since 477423
didn 477388
People 476303
likely 476081
election 475990
York 475633
move 475333
cannot 475122
V@@ 474164
During 474161
de 473832
involved 473605
100 473600
paper 473199
players 472451
certain 472132
August 471851
weapons 471703
standards 471100
leaders 471093
additional 470342
effect 469420
i@@ 469030
23 468863
strategy 468514
Economic 468484
5@@ 468368
needed 467943
provides 466802
meetings 466775
opportunity 466643
thought 466569
model 464384
Board 464308
b@@ 464271
31 463511
practice 463491
existing 463465
Taiwan 461604
investigation 461571
UK 461145
poverty 460897
short 460824
agencies 457707
campaign 456118
bring 455804
potential 455675
ability 455387
provisions 453925
status 453775
40 452428
therefore 451614
woman 451473
goal 451112
sides 450823
enough 449999
having 449825
equipment 449315
z@@ 448176
Y@@ 446656
Asia 446548
Z@@ 445470
medical 445297
Shanghai 444878
planning 444291
challenges 443395
implement 441693
2013 440872
p@@ 440100
n@@ 439717
Games 439716
London 439308
included 438124
self 437916
My 437803
Korea 437775
morning 437613
leading 437095
front 436979
basic 436320
director 436123
lost 435479
Social 434939
test 434872
central 434275
competition 433111
fire 432457
Bank 432307
request 432075
overall 431749
near 431616
experts 430864
cause 430313
consider 430297
annual 430121
An 430035
towards 429896
By 429181
Fund 428730
table 428220
prices 428109
dis@@ 427856
culture 427856
stage 427570
opening 427018
26 426384
28 426199
Now 426108
d 425875
framework 424314
soon 424106
House 423919
Re@@ 423797
minutes 423748
mother 423470
along 421971
conference 421909
Women 421084
February 420402
k 420374
J@@ 419755
responsible 418804
27 418396
upon 417671
b 417259
en 416623
product 416194
S 415657
ever 414758
&apos;@@ 414466
m@@ 414461
ation 414331
attack 414080
sales 413991
ways 413620
leave 412480
l@@ 412463
ch@@ 412399
currently 412239
exchange 411217
almost 411179
victims 411108
positive 410855
round 410482
issued 410234
monitoring 409412
bank 407160
largest 407030
reduce 406887
remains 405960
evidence 405388
joint 405223
bodies 404693
rural 402420
knowledge 402051
doing 402017
affected 401944
range 401847
establish 401794
armed 401652
ts 401457
subject 400754
hit 400724
prevent 400625
Li 400348
saying 400201
h@@ 400129
heart 399928
vote 399845
though 399570
Although 399290
demand 399236
pressure 399164
announced 398812
ated 398492
representatives 398238
m 397974
note 397902
recently 397690
build 397621
date 397569
played 396597
en@@ 395442
greater 394863
West 394856
reached 394021
natural 393910
protect 393860
carried 393800
single 392997
drug 391879
agenda 391878
step 391820
2003 391814
submitted 391685
a@@ 391682
individual 391619
criminal 391471
red 390632
justice 389954
understanding 389783
rather 389776
relationship 389270
f@@ 389266
60 389051
de@@ 388546
consideration 387883
tax 387331
reporting 387305
understand 386889
average 386656
context 386605
killed 385644
How 385432
6@@ 385181
u@@ 384259
behind 384011
reason 383925
document 383557
rest 383280
From 383157
follow 382643
met 382579
Obama 381410
France 380945
parents 380444
record 380094
employment 379690
friends 379030
late 378877
ground 378679
looking 378129
sent 377932
remain 377369
saw 377332
providing 377253
coming 377248
al@@ 377045
7@@ 376573
requested 376567
nearly 375643
try 375573
father 375288
I@@ 375135
brought 374829
poor 374804
quarter 374504
&amp; 372731
seven 371980
High 371969
administration 371733
makes 371522
ar@@ 371407
ating 370615
itself 370420
interests 370312
lives 370181
scale 370017
Police 369380
caused 369338
hold 369205
participate 368894
2014 368614
eight 368471
although 368348
C 368232
Working 368208
2002 368121
author 367961
2015 367555
increasing 367516
type 367299
n 366938
stop 366600
Ms. 366547
on@@ 366491
film 366178
29 366158
shows 365961
similar 365104
w@@ 365080
committee 364559
Germany 364518
strengthening 363882
views 363821
tell 363598
actions 363328
traditional 363137
benefits 362850
longer 362691
structure 362542
humanitarian 362363
parts 362285
crime 362244
In@@ 362110
Programme 361632
assessment 361317
themselves 361268
opportunities 361188
source 361018
markets 360910
Service 360797
became 360390
sure 359987
Affairs 359920
direct 359858
class 359729
gold 359655
2001 358871
complete 358531
representative 358474
nature 358117
supply 358061
c@@ 357775
events 357593
Secretariat 357549
procedures 357492
rise 357420
words 356154
schools 355357
B 355254
supported 355253
loss 355178
anti 354998
scientific 354469
limited 354267
success 353230
1999 353122
families 352640
started 352317
it@@ 352073
discrimination 351981
personal 351805
promoting 351761
Association 351723
legislation 351314
laws 351070
Friday 351004
town 350072
rule 349858
French 349665
funding 349445
strategic 349351
turn 349315
allow 349229
travel 348575
E 348391
mission 348321
paid 348059
method 347974
enhance 347901
j@@ 347773
&apos;d 347402
English 347296
questions 347181
£ 347171
book 346977
terrorism 346594
Our 346401
mandate 346305
l 346083
fight 345548
dialogue 345282
beginning 344346
mechanism 343564
D 343125
online 342065
housing 341681
officers 341415
throughout 341375
Parties 341112
g 340913
communication 340881
Monday 339883
carry 339385
coordination 338668
v@@ 338604
steps 337343
practices 337145
independent 337057
India 336906
weeks 336894
active 336732
ted 336303
released 336211
lower 336112
wide 335804
cities 335209
principle 335110
sexual 335012
professional 335001
board 334825
wanted 334761
idea 334704
8@@ 334604
stability 334432
section 334361
program 334087
goals 333956
comes 333915
ting 333852
Democratic 333150
language 333107
trying 333083
r@@ 332622
launched 332525
Tuesday 332502
reach 332415
partners 332224
rates 332043
First 331927
Many 331788
transfer 331691
directly 331365
Australia 331207
decisions 331204
facilities 331199
standard 330717
purpose 330148
content 330097
press 329388
chief 329066
regular 328875
border 328498
sense 328465
stock 328276
re 327899
growing 327828
hospital 327801
mechanisms 327702
computer 327379
concerns 327322
Law 326728
industrial 326709
cut 325955
negotiations 325806
er@@ 325634
committed 325328
girls 325137
Israel 324941
match 324678
promotion 324564
gave 324204
wife 324163
2@@ 323941
urban 323858
scene 323435
died 323205
buy 322852
administrative 322463
primary 321819
mainly 321809
priority 321276
Clinton 321012
games 320858
phone 320703
Governments 320655
infrastructure 320585
heard 319837
implemented 319783
leader 319422
item 318837
TV 318552
regions 318464
climate 318444
base 317780
everyone 317721
fourth 317319
video 317301
materials 317285
st@@ 317241
summer 317202
completed 316712
easy 316508
Wednesday 316379
Wang 315831
approved 315608
teams 315311
organized 315239
stated 314237
moment 314197
Sunday 314019
am@@ 313653
governmental 313537
commitment 313533
Britain 313319
Thursday 312716
mind 312690
ti@@ 312681
story 312224
majority 312103
states 311891
latest 310955
Bureau 310914
Iran 310469
ton 310427
principles 310332
P 310023
Act 309976
prevention 309833
achieved 309518
contract 309500
ong 309267
act 309141
immediately 308958
users 308867
stressed 308506
emergency 308231
station 308135
ad@@ 307903
compared 307758
benefit 306773
science 306769
provision 306713
effectively 306405
fall 305932
race 305657
departments 305302
ar 305159
factors 304953
el@@ 304782
agency 304697
charge 304525
Of 304161
opened 304039
debt 303869
includes 303608
citizens 303479
whose 302860
created 302449
letter 302425
maintain 302102
signed 301811
di@@ 301737
offer 301676
reduction 301620
traffic 301280
insurance 301196
senior 301104
leadership 300924
fund 300856
nothing 300442
executive 299971
ates 299670
attacks 299366
successful 299030
black 298953
Health 298937
himself 298881
Al@@ 298728
Management 298688
Foreign 298631
earlier 298569
p 298549
art 298527
published 298514
&#93; 297688
im@@ 297678
mean 297613
ro@@ 297323
co 297083
effort 297063
debate 296833
middle 296585
prepared 296298
biggest 296013
raised 295938
&#91; 295930
stay 295891
user 295842
Information 295773
getting 295254
9@@ 295052
talk 294855
Palestinian 294768
internal 294759
works 294361
speed 293785
highest 293398
ant 293248
size 293185
confidence 293141
customers 293011
Internet 292912
below 292722
department 292377
over@@ 292225
ball 291568
News 291347
discussion 291271
banks 291224
gas 290943
introduced 290920
Zhang 290894
forms 290034
th@@ 290028
improved 289774
task 289656
recommended 289481
doesn 289383
bit 289339
.@@ 288793
challenge 288714
Under 288659
bad 288376
c 288308
believes 288122
receive 288057
sports 287948
Asian 287717
Japanese 287497
original 287343
methods 287253
transport 287128
text 287126
contained 287124
exercise 286940
is@@ 286923
running 286789
informed 286699
incident 286531
Institute 286338
center 286330
claims 286239
aspects 286197
changed 286164
white 286034
communities 285789
documents 285684
awareness 285616
fell 285501
critical 285467
ha@@ 285421
showed 285294
U@@ 285194
threat 285056
solution 284814
Province 284511
actually 284408
ready 284194
proposal 284104
Then 283718
activity 283550
equality 283335
core 282753
conducted 282625
release 282513
thus 282428
yesterday 282360
Rapporteur 282337
Centre 282275
material 282238
reasons 281936
read 281574
Canada 280840
quickly 280839
le@@ 280768
at@@ 280547
Arab 280505
Article 280313
1998 280140
true 280031
avoid 279747
reporter 279700
Agency 279417
safe 279320
modern 279233
elections 278413
John 278248
conduct 278227
credit 277902
goods 277836
co@@ 277576
nation 277419
identified 277119
as@@ 276422
strength 276110
units 276089
everything 275845
ask 275467
effects 274855
Public 274813
League 274730
contact 274092
35 274064
Washington 273625
evaluation 273455
either 273381
aimed 273047
commercial 273035
2016 273014
ly 272992
described 272925
door 272581
Because 272498
places 272490
trial 272454
obligations 272348
cross 272303
despite 272288
De@@ 272007
Afghanistan 271886
manner 271848
happy 271629
operating 271583
enterprise 271541
takes 271338
message 270675
talks 270240
physical 270202
king 270091
wish 269762
worked 269567
Executive 269554
target 269534
Mission 269502
adoption 268887
Do 268690
enforcement 268451
addressed 268447
clearly 268409
village 268367
spokesman 268309
es@@ 268229
Mar@@ 268217
quite 267746
violations 267656
functions 267643
More 267412
Congress 267236
connection 267204
trafficking 267019
improving 266922
learn 266455
resolutions 266402
seems 266273
inside 266054
balance 265949
hotel 265947
Li@@ 265930
Action 265800
aid 265789
file 265664
music 265509
female 265173
contributions 264345
website 264159
agricultural 264091
century 264074
z 263826
le 263732
playing 263622
heavy 263492
turned 262698
sh@@ 262574
manager 262402
ahead 262385
function 262206
felt 262157
alone 262036
II 261877
regulations 261851
shot 261832
learned 261268
assets 261204
acts 261139
continues 261136
notes 260765
break 260715
behalf 260670
or@@ 260492
damage 260422
No. 260052
German 260045
sea 259645
chance 259217
disaster 259119
England 258960
sources 258471
built 258444
calls 258378
host 258285
individuals 258268
someone 258188
arms 258030
blood 257869
items 256629
agreements 256605
An@@ 256585
reporters 256214
Other 255378
efficiency 255207
County 255146
ac@@ 254751
interview 254315
allowed 254272
Justice 253961
girl 253249
failed 252921
White 252657
finally 252430
anything 252205
contribute 252056
actively 251961
recognized 251871
freedom 251806
club 251578
ad 251544
huge 251462
serve 251375
ab@@ 251244
illegal 251191
Research 250821
claim 250716
designed 250654
movement 250646
search 250470
football 250416
card 250362
deep 249856
raise 249661
hour 249561
applications 249454
ine 249438
image 249185
presented 249175
assist 249040
combat 248958
concept 248930
friend 248789
Director 248708
Center 248704
investors 248597
Even 248531
net 248418
recovery 247953
discussed 247922
apply 247909
pointed 247856
ic@@ 247798
vehicles 247772
equal 247752
star 247697
Saturday 247429
learning 247307
financing 247246
centre 247203
initiatives 247149
crimes 246658
matters 246564
patients 246267
disease 246242
relating 246114
operational 246037
rich 245900
thousands 245678
consultations 245670
nine 245439
version 245359
ri@@ 245352
hands 245175
require 245094
residents 244859
mobile 244461
bilateral 244363
x 244029
popular 243883
District 243816
Mc@@ 243765
sound 243623
player 243613
style 243354
details 243231
Chen 243134
hot 243001
followed 242955
elements 242867
cover 242821
comments 242520
Two 242503
Liu 242423
discuss 242386
ended 242356
skills 242319
ag@@ 241975
enjoy 241895
jobs 241877
confirmed 241670
integrated 241557
resource 241428
essential 241243
Advisory 241043
fundamental 240916
initiative 240872
enable 240614
Education 240565
mentioned 240364
simple 240286
beyond 240232
ch 240203
entire 240135
Middle 240134
trust 239980
trend 239953
maintenance 239420
O 239273
Israeli 239253
objectives 239055
circumstances 239010
minister 238970
posts 238827
arrangements 238674
spirit 238505
Prime 238434
als 238032
requires 237945
box 237896
missions 237610
contribution 237406
integration 236987
0 236937
se@@ 236821
province 236800
wrote 236506
32 236421
Today 236349
sign 236080
scope 235993
45 235885
ley 235722
trading 235301
80 235236
returned 235100
practical 234842
complex 234761
survey 234690
direction 234541
Well 234523
entitled 234240
wants 234070
wrong 233976
reference 233846
li@@ 233841
advantage 233789
software 233740
choice 233520
Administration 233435
floor 233299
shown 233222
ling 233191
green 233183
con@@ 232853
authority 232853
closed 232715
offices 232711
Ro@@ 232702
strategies 232650
drive 232443
Trade 232349
choose 232043
70 232008
tourism 231939
condition 231910
island 231744
consumption 231705
Con@@ 231659
peacekeeping 231643
forced 231577
Therefore 230883
believed 230827
planned 230739
expert 230588
ations 230390
normal 230332
communications 230286
worth 230119
improvement 229999
abuse 229986
Most 229809
generally 229706
Chairman 229217
collection 229191
el 228889
send 228766
fans 228602
ang@@ 228558
refugees 228391
Global 228386
ensuring 228333
dead 228319
der 228294
unit 228042
rapid 227768
opinion 227733
ic 227715
processes 227637
couple 227432
facilitate 227421
add 227038
speech 226952
indicated 226858
phase 226830
suggested 226643
regarding 226632
Cup 226520
page 226458
sub@@ 226098
distribution 225978
guidance 225961
ans 225856
arrived 225847
pre@@ 225753
Ar@@ 225688
terrorist 225533
procedure 225358
types 225257
presidential 225235
Parliament 224766
indigenous 224732
Please 224708
characteristics 224662
influence 224609
Western 224298
spent 224171
word 224130
enter 223935
discussions 223926
technologies 223788
1.@@ 223754
stand 223663
Mo@@ 223619
Last 223538
Division 223536
tried 223497
participants 223066
ous 223011
south 222868
cash 222804
daughter 222779
preparation 222767
judicial 222758
fields 222705
ds 222660
career 222451
seek 222364
welcomed 222321
focused 222298
launch 222276
referred 222259
estimated 222247
Such 221989
remained 221979
weather 221782
appear 221634
usually 221628
Xinhua 221596
ter 221433
reduced 221367
train 221358
identify 221339
candidates 220786
federal 220591
happened 220536
looked 220452
positions 220207
Forum 219997
extent 219979
Road 219916
UNDP 219871
giving 219083
David 218816
proposals 218763
Representative 218684
born 218589
north 218489
adequate 218463
Is 218446
Italy 218315
sectors 218264
Not 218232
daily 218085
Mexico 218036
Pacific 218003
firm 217864
troops 217818
h 217801
F 217792
Technology 217776
determine 217603
helped 217566
200 217547
afternoon 217287
X@@ 217261
driving 217123
ongoing 217101
po@@ 216771
beautiful 216683
eyes 216348
Hu@@ 216257
Korean 216235
injured 216163
increasingly 216140
ang 216077
probably 215848
opposition 215838
Ch@@ 215641
Another 215423
difficulties 215363
to@@ 215199
pe@@ 215165
check 215120
Pakistan 215053
ten 214989
closely 214968
r 214777
encourage 214229
arrested 214198
Over 214004
guidelines 213907
brand 213898
location 213626
vehicle 213569
starting 213538
HIV 213417
R 213399
supporting 213138
treaty 213080
platform 212978
peoples 212765
Despite 212649
advanced 212641
T 212595
negative 212569
facing 212561
Day 212151
bo@@ 212072
statements 211973
objective 211894
accused 211757
determined 211693
1997 211666
decline 211600
affect 211572
19@@ 211204
highly 211013
generation 211013
governance 211009
Plan 210945
ra@@ 210890
governments 210827
measure 210788
sex 210780
employees 210444
90 210241
Islamic 210215
moved 210204
UN 210175
appeared 209919
answer 209910
shared 209868
il@@ 209749
inter@@ 209640
ding 209256
welcome 209239
Services 209221
System 208975
values 208773
studies 208754
implementing 208467
et 208341
Millennium 208179
failure 208067
army 208026
36 207993
mass 207935
track 207640
inter 207402
risks 207375
labour 207126
relatively 207110
om@@ 206813
driver 206608
drugs 206532
34 206441
simply 206426
institutional 206392
requests 206362
victory 206285
Why 206170
approval 206083
outcome 205756
entered 205479
significantly 205451
ings 205089
Bo@@ 204550
consensus 204511
features 204198
actual 204183
Protocol 204181
sp@@ 203987
statistics 203922
ul@@ 203908
written 203822
fair 203683
te 203512
Republican 203361
processing 203350
double 203306
tools 203073
accident 203038
appeal 202891
Street 202841
Federation 202825
located 202758
ator 202658
Le@@ 202477
unique 202419
aware 202368
be@@ 202327
television 202322
bed 202268
listed 202208
advice 202170
articles 202086
please 201981
fast 201766
winning 201595
concerning 201582
St@@ 201283
innovation 201274
revealed 201259
Declaration 201092
finance 201063
religious 200993
thinking 200980
possibility 200957
lo@@ 200847
33 200790
chairman 200694
placed 200655
hear 200613
initial 200534
exchanges 200405
accept 200299
aircraft 200202
secretary 200176
speak 199963
understood 199921
ia 199880
flow 199619
Just 199570
fifth 199481
applied 199441
store 199328
Co@@ 199317
completely 199178
external 199154
yes 199151
college 199023
compensation 198800
holding 198795
boy 198712
begin 198682
1@@ 198554
advance 198519
youth 198435
spoke 198388
delivery 198372
Brazil 198354
peaceful 198341
bus 198109
ec@@ 198077
disarmament 198008
secretariat 197925
code 197843
numbers 197814
Commissioner 197703
difference 197698
ice 197008
Your 196858
Year 196765
save 196754
options 196681
recommendation 196624
Turkey 196573
cold 196352
si@@ 196328
Di@@ 196296
prison 196237
Second 196079
ol@@ 195897
Federal 195784
he@@ 195636
goes 195558
cars 195346
stable 195255
link 195108
detention 195102
corruption 195054
Company 195049
join 195020
passed 195014
1995 194884
multiple 194787
newspaper 194760
officer 194627
street 194518
Panel 194491
setting 194231
pass 194111
instead 194005
sometimes 193580
figure 193544
lines 193525
God 193495
leaving 193349
detailed 193226
Spain 193041
elected 192870
plant 192697
export 192686
evening 192629
ons 192569
presence 192416
Co 192408
defense 192166
ot@@ 192068
M 192051
Syrian 191967
moving 191896
Kingdom 191894
reality 191881
reflect 191848
territory 191836
Bar@@ 191670
Let 191647
partner 191608
fighting 191492
te@@ 191432
knew 191420
watch 191388
degree 191285
mis@@ 191137
respond 191064
ded 190914
amp 190899
judge 190875
bill 190827
AIDS 190821
Sudan 190819
student 190793
appears 190656
husband 190520
eat 190447
18@@ 190418
produced 190352
recommends 190196
ap@@ 190193
guarantee 190190
est 190181
solutions 190056
School 189957
famous 189888
Olympics 189794
sold 189550
looks 189485
48 189412
rain 189196
Also 189150
fine 189086
regime 189074
spread 189053
minute 188852
op@@ 188850
ally 188769
centres 188681
vulnerable 188599
previously 188530
district 188512
65 188316
title 188314
index 188309
para 188166
us@@ 188054
machine 187990
raising 187839
transition 187759
uses 187742
Treaty 187538
economies 187380
expand 187235
gone 186975
Paris 186728
timely 186603
broad 186457
Park 186452
attended 186310
Labour 186151
partnership 185845
resulting 185596
owned 185467
figures 185135
continuing 185052
duty 184816
38 184811
Report 184547
1996 184414
x@@ 184400
delegations 184389
bi@@ 184345
device 184124
effectiveness 184021
soldiers 183938
55 183885
responsibilities 183874
named 183819
ties 183799
accounts 183721
theory 183636
achieving 183561
charges 183561
covered 183481
500 183368
clean 183317
ship 183202
instruments 183202
compliance 183082
mo@@ 183060
Syria 183026
Americans 182836
Cooperation 182744
Force 182291
screen 182242
variety 182200
associated 182162
customer 182133
ps 181861
else 181759
purchase 181751
Her 181731
offered 181731
teachers 181612
creation 181578
37 181537
causes 181460
River 181412
fuel 181393
settlement 180965
becoming 180717
civilian 180651
res 180554
rescue 180433
out@@ 180410
zone 180391
consumers 180359
whom 179976
spending 179693
marriage 179687
commitments 179613
sanctions 179556
Be@@ 179542
pro@@ 179496
temporary 179331
provincial 179128
Q@@ 179106
Its 179069
claimed 178959
agree 178927
invited 178892
encouraged 178891
entry 178597
supervision 178578
linked 178555
mutual 178389
limit 178277
baby 178185
coach 178057
monitor 177966
gap 177889
shares 177864
comment 177805
Constitution 177797
cancer 177733
aim 177674
sharing 177608
temperature 177574
affairs 177536
os 177515
industries 177324
electronic 177226
situations 176912
changing 176908
medium 176858
western 176597
rose 176407
decades 176339
ceremony 176314
consequences 176304
ho@@ 176206
multilateral 176150
sites 176127
speaking 176055
payment 176020
picture 175974
examination 175902
qu@@ 175881
draw 175865
hoped 175692
seriously 175648
gradually 175470
sale 175468
faced 175278
remaining 175220
technological 175132
flight 175069
lose 175069
ren@@ 175048
books 174884
ideas 174839
ones 174836
em@@ 174394
participated 174359
reflected 174322
certainly 174204
expansion 174092
Children 174017
consultation 173936
ke 173751
selected 173712
unable 173697
fear 173652
2017 173635
ethnic 173501
Australian 173487
kept 173365
anyone 173347
expect 173338
prior 173239
relief 173197
waste 173161
tic 173138
inspection 173042
G 172718
ent 172602
California 172540
decade 172533
stocks 172456
educational 172431
ah 172416
extremely 172300
joined 172231
ist 172211
teacher 172168
consumer 172117
57 172081
mental 172035
businesses 171990
option 171924
introduction 171849
theme 171750
sell 171697
isn 171683
friendly 171659
separate 171508
se 171404
Chief 171398
Don 171202
estate 171176
minimum 171173
car@@ 171140
weekend 171140
00 171117
ex@@ 170868
efficient 170725
bottom 170671
perfect 170670
southern 170611
L 170605
creating 170563
wall 170548
actors 170427
um 170348
losses 170315
per@@ 170262
War 170198
purposes 170003
trip 169994
walk 169903
era 169879
brother 169873
seem 169407
express 169333
waiting 169312
Protection 169284
writing 169171
deployment 169125
Those 169038
disabilities 169032
solve 169027
registration 168881
formal 168856
sufficient 168733
Three 168689
hopes 168621
weight 168616
records 168564
58 168419
widely 168405
concrete 167852
ao 167809
annex 167552
39 167503
En@@ 167334
Car@@ 167330
ing@@ 167288
achievements 167241
Summit 167172
biennium 166974
homes 166913
53 166878
Before 166776
occurred 166759
guide 166609
legislative 166588
powerful 166496
carrying 166440
character 166407
feeling 166367
ve@@ 166224
involving 166210
offers 166058
42 166025
window 166021
respectively 165887
adopt 165861
color 165859
county 165848
Tribunal 165747
2.@@ 165696
permanent 165676
gh@@ 165597
pre 165438
Both 165321
dollars 165123
victim 165093
produce 165065
Iraqi 164948
politics 164841
willing 164815
outstanding 164536
undertaken 164444
300 164401
remember 164386
Support 164196
proceedings 164187
Moreover 163936
62 163912
score 163863
teaching 163795
63 163750
dangerous 163579
informal 163433
reducing 163332
Pro@@ 163331
abroad 163319
Oh 163310
indicators 163303
older 163284
51 163236
urged 163164
voice 163113
maximum 163091
Can 163048
democratic 162969
ou@@ 162769
pl@@ 162749
stakeholders 162730
selection 162659
testing 162582
explained 162520
database 162436
developments 162390
judges 162318
Ireland 162255
ner 162222
charged 162140
ks 162139
Gu@@ 162125
chemical 162010
interested 162010
extended 161964
voters 161847
wait 161838
rising 161829
ker 161681
server 161672
strengthened 161671
submit 161618
Great 161588
gives 161555
fl@@ 161527
surface 161511
talking 161507
determination 161374
intended 161268
41 161241
square 161182
university 160899
useful 160883
ou 160852
deputy 160648
identity 160616
emerging 160606
path 160587
wind 160513
recognition 160490
standing 160471
meters 160428
64 160410
dollar 160297
display 160255
profit 160171
injury 160115
heat 160029
accepted 160005
violation 159974
factor 159971
44 159951
eye 159922
54 159907
47 159683
visited 159634
Goals 159575
ity 159517
bar 159505
les 159502
researchers 159490
courts 159428
achievement 159398
priorities 159116
nor 159002
hearing 158960
conclusion 158923
f 158870
wasn 158870
grow 158815
ve 158687
BBC 158613
owner 158539
Only 158528
agriculture 158491
birth 158423
52 158381
Once 158322
immediate 158299
missing 158292
warning 158158
seeking 158125
tool 158000
sets 157911
truth 157814
attempt 157777
Sea 157734
park 157715
Yang 157673
served 157528
ill 157506
manufacturing 157394
formed 157377
46 157193
scheduled 157192
Scotland 157182
object 157153
engaged 157112
candidate 156775
ge 156685
kinds 156583
concluded 156495
row 156453
ur@@ 156296
Political 156221
names 156214
defence 156199
civilians 156119
sc@@ 156048
der@@ 155818
northern 155616
democracy 155479
healthy 155456
independence 155328
ne@@ 155324
Yes 155103
calling 155081
alleged 154992
shop 154851
historical 154802
Michael 154786
managed 154752
Criminal 154703
Bush 154696
models 154584
multi 154234
happen 154221
entities 154153
Their 154084
prepare 154038
skin 153953
ies 153940
Senate 153890
tasks 153823
differences 153820
Donald 153651
10@@ 153564
43 153529
ai 153527
aged 153522
Times 153500
v 153466
49 153437
Here 153349
audience 153281
finished 153251
successfully 153250
ban 152978
th 152828
Agreement 152787
Singapore 152761
um@@ 152729
UNICEF 152710
la@@ 152642
ism 152629
airport 152629
mid 152362
spot 152313
1994 152226
establishing 152105
Business 152029
perhaps 151922
destruction 151905
penalty 151858
cycle 151729
67 151714
battle 151592
da 151546
under@@ 151375
registered 151354
pilot 151345
warm 151310
easily 151283
port 151206
fish 151158
excellent 151137
plane 151127
Ms 150806
ked 150762
passengers 150755
athletes 150739
perspective 150693
Sha@@ 150688
ping 150642
Finally 150626
depth 150537
absence 150465
hundreds 150413
ran 150345
Egypt 150343
66 150249
spend 150210
San 150204
Ho@@ 150170
V 150151
thank 150066
bridge 150055
piece 150052
hi@@ 150048
Among 149952
helping 149864
drop 149818
pick 149669
suffered 149656
Red 149653
Se@@ 149625
write 149557
James 149528
61 149428
forest 149301
miles 149235
urgent 149223
reading 149174
universal 149169
contributed 149152
diseases 149055
male 148868
substantive 148827
beat 148800
corporate 148737
counter 148651
background 148576
digital 148524
Spanish 148478
secure 148459
L.@@ 148427
Open 148420
ver@@ 148364
worst 148320
pain 148290
Review 148286
crucial 148205
slow 148170
foundation 148160
Unit 148098
0.@@ 147984
ry 147956
east 147909
revised 147815
ment 147795
mine 147689
intelligence 147548
shooting 147504
ard 147346
audit 147044
59 146878
accounting 146830
et@@ 146812
consistent 146804
do@@ 146773
seemed 146587
experienced 146568
storage 146543
league 146462
collaboration 146425
heads 146371
threats 146346
etc 146318
Meeting 146119
contains 146088
par@@ 145994
west 145932
killing 145860
obligation 145801
brain 145782
ors 145600
farmers 145546
Latin 145493
Ji@@ 145379
He@@ 145287
Covenant 145258
Lo@@ 145248
ance 145184
completion 145165
Th@@ 144991
resolve 144890
organs 144722
overseas 144668
adding 144581
0@@ 144509
ty 144501
tion 144472
mainland 144398
volume 144318
allows 144263
buildings 144156
sessions 144152
Al 144151
no@@ 144131
allegations 144128
keeping 144026
largely 143904
56 143879
files 143736
components 143565
Un@@ 143557
Regional 143469
transparency 143430
ak@@ 143321
medal 143296
stations 143282
Each 143263
defined 143237
me@@ 143141
topic 143083
Supreme 143008
Science 142921
Community 142858
larger 142754
dy 142577
X 142431
conflicts 142380
dated 142361
Following 142212
ir@@ 142118
Cor@@ 142059
die 142016
doctor 141991
mode 141979
mark 141951
vision 141744
memory 141711
Me@@ 141448
gu@@ 141416
targets 141381
regulation 141360
meaning 141334
ler 141272
feature 141209
atmosphere 141100
electricity 140944
zhou 140850
ters 140822
U 140795
Wu 140791
Geneva 140627
severe 140490
stopped 140485
seconds 140295
proportion 140192
devices 140049
perform 140049
Financial 140037
gets 139889
revenue 139861
relation 139857
addressing 139707
Environment 139671
ter@@ 139617
marketing 139598
jointly 139483
decide 139479
exports 139473
engineering 139463
lived 139294
Man@@ 139238
ite 139230
definition 139212
Civil 139174
Authority 139081
A. 138900
sixth 138872
collective 138826
cooperate 138780
shape 138511
via 138456
blue 138310
Vice 138298
competitive 138227
signs 138215
river 138200
visitors 138078
streets 138061
recorded 138005
scored 137922
Peace 137860
Hotel 137785
ins 137759
greatly 137687
appointed 137683
Industry 137572
Code 137480
doubt 137362
admitted 137341
Ukraine 137325
dealing 137118
appreciation 137113
secondary 137087
arrest 137025
ina 137011
rec@@ 136923
follows 136903
plays 136882
manage 136861
foot 136854
declined 136766
strongly 136338
ber@@ 136266
dream 136253
ves 136227
man@@ 136162
feet 136079
expression 135966
chain 135916
accountability 135794
prime 135764
Sh@@ 135668
map 135597
experiences 135530
combined 135439
ka 135411
findings 135386
sought 135325
links 135318
stress 135289
transportation 135231
broke 135204
yourself 135161
networks 135117
weapon 135104
ages 135085
funded 135041
millions 135024
Ma@@ 135017
tests 134989
movie 134910
tour 134861
reforms 134849
vice 134819
recognize 134640
wood 134606
stone 134585
eventually 134582
sky 134566
treated 134559
component 134525
married 134476
Through 134422
coverage 134419
rooms 134256
pool 134091
ai@@ 133967
select 133866
Cuba 133860
ma 133801
steel 133776
ge@@ 133758
journalists 133712
hair 133670
showing 133536
Saudi 133376
Ne@@ 133356
distance 133256
Project 133165
spring 133159
proliferation 133101
investigate 133065
Control 132867
1992 132831
represented 132804
Italian 132738
receiving 132706
cl@@ 132700
Paul 132689
denied 132684
exist 132665
un 132605
st 132569
adjustment 132409
bringing 132391
maintained 132309
ster 132261
go@@ 132223
Members 132205
participating 132067
eastern 132014
ical 132005
pollution 131973
approximately 131928
anniversary 131875
kill 131821
id 131782
indicate 131738
visits 131705
command 131630
ze 131593
Network 131567
ology 131562
selling 131499
correct 131490
tr@@ 131476
ying 131432
expertise 131353
twice 131349
currency 131330
forum 131329
UNCTAD 131304
deaths 131273
weak 131107
lawyer 130952
behavior 130914
Su@@ 130883
restaurant 130876
N 130868
Ex@@ 130851
Shenzhen 130824
ay@@ 130778
caught 130752
partnerships 130620
mail 130607
combination 130591
owners 130459
pretty 130425
III 130416
expectations 130377
Indian 130370
obtain 130300
1993 130290
kids 130272
Bill 130250
crowd 130237
package 130181
toward 130171
medicine 130144
El@@ 130143
element 130130
murder 130130
eliminate 130048
master 129974
supports 129968
tions 129861
exhibition 129859
broken 129816
regulatory 129727
greatest 129606
Furthermore 129537
alternative 129511
pace 129468
union 129399
rapidly 129191
Deputy 129132
category 129095
radio 129063
finding 128954
notice 128949
id@@ 128909
fi@@ 128871
fixed 128807
gun 128798
ten@@ 128764
seat 128695
grounds 128532
Guangzhou 128443
bought 128195
Thailand 128128
Northern 128011
earthquake 127975
dog 127890
reviewed 127873
so@@ 127869
warned 127848
appearance 127800
Air 127779
Pe@@ 127720
75 127679
migrants 127662
Charter 127649
targeted 127606
factory 127575
diplomatic 127502
Experts 127498
myself 127457
pair 127434
ness 127410
Where 127395
knows 127362
considering 127353
straight 127267
suffering 127206
refused 127089
Qu@@ 126948
boys 126922
criteria 126822
ed@@ 126803
programs 126773
Democrats 126764
indeed 126748
applicable 126475
injuries 126371
ph@@ 126355
Ad@@ 126280
sister 126266
instance 126184
Image 126182
assess 126114
worldwide 126104
Meanwhile 126100
torture 125928
ni@@ 125924
scheme 125924
vast 125850
w 125759
Har@@ 125753
delay 125711
3.@@ 125627
cadres 125456
winter 125291
reasonable 125285
storm 125239
vi@@ 125226
significance 125175
p.m. 125129
remote 125099
transformation 125027
K 124934
su@@ 124922
push 124918
extra 124848
ob@@ 124653
explore 124579
nations 124543
Cha@@ 124450
click 124439
electric 124439
Energy 124421
Dr. 124401
ble 124283
dark 124240
Based 124194
controlled 124117
summit 124111
attend 124096
restrictions 123898
Every 123880
Web 123860
patient 123826
realize 123809
unemployment 123807
fees 123743
extensive 123723
mon@@ 123681
jurisdiction 123538
increases 123498
shan 123498
holiday 123488
represent 123477
Policy 123476
houses 123453
remove 123238
ators 123169
carefully 123126
output 123094
explain 123079
ring 123027
gain 122961
closer 122827
George 122826
res@@ 122788
Like 122775
Facebook 122664
migration 122628
panel 122601
repeatedly 122525
Festival 122496
represents 122388
bar@@ 122383
Go@@ 122369
Christmas 122357
headquarters 122259
properties 122254
ma@@ 122240
mostly 122228
inflation 122175
Army 122094
ful 122053
allowing 121995
specialized 121959
extend 121913
Yet 121895
Caribbean 121852
Daily 121846
delivered 121820
dispute 121816
Section 121774
Are 121753
membership 121734
sensitive 121732
slightly 121693
division 121638
gr@@ 121630
scientists 121579
phenomenon 121546
Joint 121542
powers 121338
Instead 121101
sun 121096
engage 121096
estimates 121090
Lu@@ 121086
Food 121067
ordinary 121003
vital 120947
innovative 120943
runs 120926
provinces 120862
Power 120852
sub 120802
photo 120772
client 120767
block 120686
passenger 120650
danger 120640
Foundation 120568
up@@ 120542
can@@ 120476
Sun 120348
Earth 120244
UNHCR 120224
we@@ 120150
Several 120113
King 120087
Premier 119997
doctors 119883
commission 119809
sing 119770
advantages 119734
ru@@ 119691
la 119690
Mor@@ 119681
exactly 119679
displaced 119635
77 119557
fiscal 119453
H 119349
courses 119331
tu@@ 119327
ana 119311
Eastern 119284
obvious 119270
Brexit 119226
talent 119211
contracts 119207
camp 119162
pursuant 119117
secret 119084
obtained 119007
sustained 118965
coordinated 118964
incidents 118850
engine 118822
wealth 118791
resulted 118755
error 118746
ak 118722
Turkish 118712
ste@@ 118615
guy 118600
for@@ 118554
voluntary 118538
banking 118523
bear 118523
highlighted 118419
fresh 118416
images 118345
unless 118327
tive 118276
drink 118251
So@@ 118214
ey 118170
sport 118151
elderly 118102
400 118092
couldn 118075
agent 118017
ya 117919
College 117919
meant 117901
pattern 117832
Smith 117696
wing 117574
rare 117568
trouble 117520
enhancing 117507
faces 117493
officially 117484
ian 117478
latter 117450
declared 117422
involvement 117419
About 117378
Netherlands 117342
cells 117340
touch 117306
expanded 117255
occupation 117230
proper 117206
recruitment 117063
cast 117062
email 116843
pleased 116803
Third 116696
fashion 116672
ut@@ 116475
considerable 116436
stars 116288
ality 116281
boat 116150
preparing 116109
award 116081
ta 116013
bid 115901
68 115873
fun 115832
tomorrow 115797
twenty 115735
ending 115699
welfare 115447
paragraphs 115402
Somalia 115351
desire 115310
masses 115275
contain 115270
tons 115250
Los 115233
preliminary 115226
thanks 115138
Permanent 115099
integrity 115074
ra 115036
serving 114975
becomes 114880
seventh 114850
Who 114838
academic 114787
attitude 114744
Qi@@ 114732
bu@@ 114682
valuable 114676
iz@@ 114667
appointment 114653
Congo 114640
expenditure 114526
telephone 114472
otherwise 114384
cell 114373
existence 114340
shopping 114188
confident 114170
posted 114118
Switzerland 114099
responded 114042
procurement 113960
maintaining 113931
ancient 113882
é@@ 113844
removed 113841
lies 113812
update 113780
Non 113750
ruling 113706
specifically 113655
loans 113638
Y 113588
Twitter 113571
operate 113497
exploitation 113437
ise 113351
municipal 113311
NATO 113299
strike 113164
asking 113070
percentage 113054
Mon@@ 112964
Crime 112889
song 112889
respective 112848
divided 112841
equity 112828
des 112809
protected 112739
tree 112718
deeply 112713
causing 112657
15@@ 112612
intergovernmental 112579
workshop 112521
universities 112514
labor 112343
suitable 112191
watching 112111
replace 112091
ay 112056
occupied 112052
regularly 112041
wear 112015
solid 111986
losing 111956
refugee 111955
Cultural 111933
investigations 111924
GDP 111859
electoral 111694
Sweden 111665
begun 111607
continuous 111593
struggle 111486
putting 111435
complaints 111430
ched 111406
rejected 111400
72 111280
supporters 111277
numerous 111233
ess 111209
ent@@ 111199
Com@@ 111129
pi@@ 111096
asset 111057
ative 110989
suspected 110980
camera 110885
sentence 110858
orders 110825
earth 110812
reaching 110771
sts 110746
beauty 110729
sleep 110684
1,000 110655
facts 110568
saving 110564
Water 110434
structural 110419
stood 110409
demands 110403
virus 110397
schedule 110389
Zealand 110375
instrument 110308
guests 110273
satellite 110249
Ltd 110240
edge 110146
fifty 110140
W 110098
gi@@ 110050
Brown 110023
alia 109921
performed 109866
invest 109849
approaches 109842
payments 109796
faith 109781
minority 109773
sitting 109762
sort 109667
Academy 109600
worse 109586
ore 109536
supplies 109479
granted 109428
Study 109354
smaller 109317
Angeles 109303
carbon 109220
referendum 109190
branch 109164
Green 109063
av@@ 109061
shift 109047
ms 109040
dropped 108878
Johnson 108867
managers 108802
reflects 108777
Guangdong 108739
roads 108714
Apple 108701
ministers 108648
animals 108599
announcement 108587
acting 108571
substantial 108545
ls 108495
UNEP 108492
1990 108451
length 108414
Ri@@ 108402
We@@ 108377
ordered 108348
cutting 108335
pictures 108334
emissions 108319
aw@@ 108295
Republicans 108292
discovered 108264
ven@@ 108221
extreme 108182
ownership 108181
institution 108134
Communist 108122
harm 108092
grew 108071
mountain 108019
Po@@ 108015
emphasis 107971
af@@ 107921
az@@ 107900
imposed 107854
nearby 107789
suggest 107748
intention 107701
namely 107700
transferred 107666
\ 107647
ale 107646
attached 107630
deliver 107621
species 107604
enhanced 107599
Lord 107544
Royal 107466
Any 107466
Hospital 107389
dynamic 107368
super@@ 107361
trends 107294
prove 107265
owing 107224
Par@@ 107186
contributing 107175
micro@@ 107143
Inter@@ 107093
Argentina 107093
glass 107026
suspect 106984
route 106904
connected 106878
donors 106869
ach@@ 106853
ery 106806
falling 106759
web 106678
oc@@ 106653
immigration 106642
loan 106634
band 106594
Philippines 106560
aims 106525
specified 106480
strict 106419
13@@ 106403
animal 106391
.com 106348
Good 106326
seeing 106285
council 106280
messages 106279
constantly 106275
psychological 106098
stronger 105974
wine 105945
afraid 105927
conferences 105887
winner 105853
finish 105818
familiar 105808
studied 105807
affecting 105748
ously 105699
except 105685
tournament 105676
Jiang 105663
church 105637
coal 105616
proved 105512
Kuwait 105507
plants 105436
sit 105432
requirement 105429
bl@@ 105424
handling 105395
haven 105392
Greece 105364
Bi@@ 105219
Prevention 105217
Implementation 105214
Society 105154
Zhou 105132
reliable 105110
corner 105092
4.@@ 105056
impossible 105038
Southern 105013
Afghan 104945
Press 104918
Island 104900
tourists 104870
periodic 104856
formation 104840
ches 104810
channel 104797
properly 104760
du@@ 104732
clothes 104725
suddenly 104677
reconstruction 104536
ses 104506
ists 104434
Analysis 104418
C. 104277
truly 104232
burden 104207
clients 104189
disasters 104181
Thus 104161
Lebanon 104057
bo 104033
ching 103981
busy 103903
inclusion 103824
Sports 103791
signing 103775
IT 103712
colleagues 103692
treaties 103679
legitimate 103535
sized 103463
Child 103416
Indonesia 103411
dedicated 103381
inform 103333
listen 103297
origin 103278
Yu@@ 103259
drivers 103239
lessons 103237
newly 103223
seats 103110
ver 103012
languages 102982
submission 102964
dance 102947
extension 102935
expensive 102885
channels 102745
fe@@ 102714
champion 102714
implications 102714
drawn 102646
flat 102613
momentum 102590
Municipal 102546
massive 102458
Legal 102421
maybe 102354
pm 102350
AN@@ 102349
controls 102345
guard 102340
ary 102332
Pi@@ 102319
mar@@ 102288
Florida 102283
fit 102279
profile 102188
sw@@ 102140
Indeed 102134
guys 102068
den 102053
85 102035
cur@@ 102027
fishing 101916
depends 101903
ish 101886
Her@@ 101876
identification 101757
introduce 101748
Tianjin 101682
smooth 101679
ret@@ 101633
driven 101597
Vienna 101594
helps 101565
di 101493
tech 101492
subsequent 101460
basically 101454
pen@@ 101420
relative 101415
Sal@@ 101380
Islands 101370
dry 101318
structures 101310
signal 101243
easier 101226
sorry 101222
corresponding 101176
tough 101157
stories 101121
investments 101074
recalled 101057
ud@@ 101012
offering 100959
Chair 100935
ba 100863
Sir 100791
a.m. 100776
Lee 100766
punishment 100716
Airport 100714
Am@@ 100713
Space 100699
Col@@ 100649
rehabilitation 100630
trained 100619
Five 100520
interesting 100396
professor 100266
Team 100162
wave 100137
categories 100133
bright 100122
considers 100108
reportedly 100073
availability 100069
committees 100065
Officer 100041
quick 100034
Xi@@ 99957
Scottish 99953
Dr 99944
drinking 99942
proud 99929
Jin@@ 99897
ade 99872
prospects 99866
household 99822
Ba@@ 99799
cards 99767
protecting 99724
wearing 99696
hurt 99672
ships 99648
paying 99631
railway 99605
Use 99597
bound 99587
ics 99582
lie 99562
transparent 99433
Moscow 99414
Putin 99408
crash 99406
Hillary 99395
objects 99279
ky 99276
Station 99246
Xiao 99223
fired 99216
occur 99214
constitutional 99191
Google 99188
honour 99127
Administrative 99108
tra@@ 99106
ving 99088
transactions 99021
flood 98989
Mark 98946
observed 98882
fo@@ 98865
Post 98756
diversity 98751
neither 98730
inclusive 98722
Sustainable 98711
Given 98700
allocation 98682
lawyers 98674
20@@ 98672
stages 98595
voting 98589
walking 98582
eng 98553
nice 98542
photos 98469
surrounding 98468
religion 98430
hospitals 98356
promoted 98338
marked 98232
grade 98220
Local 98205
disputes 98188
sovereignty 98179
Jordan 98169
detail 98107
com@@ 98101
Mu@@ 98090
voted 98081
Headquarters 98072
filed 98039
suggests 98010
ticket 97992
dinner 97990
au@@ 97900
locations 97878
Ministers 97795
tourist 97754
emphasized 97743
Kim 97709
mer@@ 97662
racial 97658
Rio 97646
welcomes 97551
publication 97515
Strategy 97507
UNFPA 97503
turning 97476
violent 97401
handle 97399
ens 97320
savings 97299
bs 97292
ends 97254
grass 97210
Ma 97110
entering 97074
internationally 97065
comply 97042
hu@@ 97035
overcome 97026
summary 97023
boss 97008
missile 96977
wouldn 96925
ke@@ 96917
covering 96877
asylum 96840
stores 96796
Training 96778
cuts 96740
forget 96739
medals 96720
silver 96689
rely 96579
ming 96562
Texas 96528
widespread 96457
favour 96456
Operations 96393
69 96378
ff 96350
Football 96303
import 96282
bag 96202
destroyed 96186
prosecution 96165
Manchester 96098
frame 96089
conclusions 95999
ati@@ 95929
coast 95904
pension 95847
Recently 95839
ir 95830
arts 95820
amounts 95783
76 95756
statistical 95741
Data 95723
ce@@ 95602
16@@ 95580
ber 95576
Family 95542
14@@ 95524
Construction 95524
guilty 95521
encouraging 95490
fan 95464
mouth 95441
fee 95414
cor@@ 95339
Per@@ 95334
See 95297
realization 95272
Yu 95264
deployed 95211
representation 95151
+ 95137
donor 95120
Trust 95068
contrast 95054
reiterated 95039
organize 95012
replaced 95004
Yesterday 94992
lay 94984
ders 94979
flights 94960
visiting 94943
association 94938
reaction 94932
happens 94912
votes 94897
soft 94858
gang 94857
facility 94846
ys 94842
broader 94742
copy 94730
gate 94719
peak 94706
updated 94701
illicit 94689
preventing 94640
plus 94489
sk@@ 94465
declaration 94460
resistance 94457
Muslim 94382
rent 94356
pursue 94356
Safety 94340
ot 94299
exception 94285
detained 94183
ne 94146
worry 94121
600 94105
Kosovo 94101
catch 94092
ats 94051
km 94030
swimming 93929
plate 93869
Darfur 93845
consecutive 93813
eighth 93793
ning 93757
17@@ 93757
decrease 93706
faster 93670
ultimately 93648
ved 93642
breaking 93543
hole 93541
attract 93538
marine 93498
primarily 93490
chapter 93486
interpretation 93483
wake 93453
grown 93453
tri@@ 93434
jiang 93399
ratio 93379
Application 93373
customs 93337
sharp 93271
Peter 93229
uc@@ 93218
Four 93078
1991 93041
12@@ 93040
ized 93007
Further 92985
95 92982
parliament 92976
10,000 92974
organizational 92950
closing 92896
IC@@ 92894
emerged 92855
telling 92848
Bu@@ 92810
1990s 92733
IN@@ 92729
yang 92685
equivalent 92682
hundred 92672
Staff 92660
hotels 92629
treat 92618
gen@@ 92555
cu@@ 92552
Chamber 92473
expenses 92444
Maybe 92437
app 92436
UNIDO 92402
undertake 92401
ong@@ 92395
monthly 92347
oriented 92282
ned 92278
B. 92271
é 92258
Work 92241
gains 92215
bro@@ 92207
criticism 92184
productive 92159
hai 92145
focusing 92124
fill 92108
Reporter 92097
tea 92050
Gaza 92047
capacities 92019
Norway 92006
advertising 92006
Technical 91934
sed 91920
Min@@ 91875
makers 91828
ash 91784
Canadian 91780
acknowledged 91753
back@@ 91663
pulled 91652
Look 91622
Hall 91613
Medical 91606
historic 91567
cool 91551
laid 91498
compete 91495
Field 91495
Coordination 91485
Ru@@ 91482
installed 91474
attracted 91456
Tom 91449
ci@@ 91430
intervention 91368
Statistics 91326
99 91296
Iranian 91267
els 91244
fulfil 91204
containing 91178
Resources 91160
Prosecutor 91134
stands 91078
surprise 91069
800 91063
Disarmament 91045
kers 90969
principal 90956
crew 90946
Wall 90914
examples 90909
agents 90886
rock 90884
capabilities 90869
internet 90836
firms 90807
Jones 90778
filled 90766
allegedly 90758
retail 90753
* 90711
reserve 90607
loved 90580
protest 90535
eg@@ 90489
Shi@@ 90475
bomb 90467
ep@@ 90455
prosperity 90418
men@@ 90381
suspended 90352
Ko@@ 90329
Building 90311
headed 90306
moral 90277
Grand 90277
root 90235
herself 90232
sion 90215
br@@ 90196
Lin 90161
degrees 90140
-@@ 90115
ped 90089
6.@@ 90052
5.@@ 90037
observations 90018
arm 90017
150 89977
Defense 89967
leads 89915
roles 89847
boost 89808
repair 89789
refer 89726
Colombia 89716
Xu 89635
air@@ 89633
false 89626
Finance 89604
euro 89602
transmission 89592
ex 89529
Objective 89521
parking 89520
ideal 89513
promised 89422
Note 89377
disabled 89369
Mac@@ 89281
capable 89279
gross 89218
expanding 89210
trees 89206
drawing 89145
sha@@ 89133
enabling 89119
analysts 89068
adults 89014
ano 88976
profits 88975
collapse 88935
gathered 88922
designated 88908
ence 88878
authorized 88841
ically 88804
prize 88782
handed 88766
81 88756
worried 88720
reviews 88705
behaviour 88701
initially 88604
friendship 88590
Ti@@ 88554
accurate 88490
satisfaction 88460
Ben@@ 88440
roots 88366
passing 88341
qualified 88294
Still 88270
Standing 88249
tor 88185
walked 88157
Hu 88156
trans@@ 88147
fraud 88105
missed 88084
Mi@@ 88015
returns 87938
Take 87923
CPC 87875
Time 87843
pull 87825
est@@ 87820
improvements 87794
threatened 87789
basketball 87762
lights 87750
Greek 87692
coordinate 87666
entirely 87649
obstacles 87642
covers 87629
fruit 87629
struck 87626
none 87619
regardless 87618
brings 87611
La@@ 87571
plenary 87562
politicians 87561
entrance 87506
format 87436
younger 87375
fly 87361
combating 87355
coalition 87321
letters 87300
Speaking 87225
waters 87214
transaction 86994
cre@@ 86949
hall 86906
garden 86847
belief 86825
Du@@ 86797
constructive 86785
input 86784
Georgia 86769
salary 86747
Chicago 86730
subregional 86681
accompanied 86642
unlikely 86608
ars 86547
minorities 86536
Gar@@ 86524
ninth 86512
collected 86509
configuration 86485
invitation 86482
Military 86446
ingly 86409
certificate 86397
mining 86396
migrant 86336
assessments 86278
damaged 86187
flows 86182
responses 86157
ff@@ 86147
ft 86142
discipline 86106
demonstrated 86087
Room 86075
contrary 86066
installation 86044
drew 85974
resolved 85974
engagement 85968
ung 85924
tennis 85909
whatever 85902
commerce 85881
onto 85863
83 85835
wage 85812
tested 85771
leaves 85756
Nigeria 85742
careful 85741
No@@ 85725
suicide 85662
Wales 85620
Kenya 85614
Miss 85588
Dis@@ 85581
constitute 85572
defeat 85544
classes 85541
Professor 85532
consent 85485
rice 85449
Black 85425
Chongqing 85416
Sp@@ 85412
Ke@@ 85390
86 85362
Investment 85354
Sa@@ 85351
journey 85331
convention 85266
Lake 85259
soil 85246
frequently 85221
observers 85195
conducive 85194
non@@ 85150
Ber@@ 85146
Long 85145
writer 85135
ly@@ 85118
and@@ 85109
tickets 85094
professionals 85059
ecological 84998
Life 84996
Sch@@ 84962
automatically 84931
Huang 84921
contacts 84913
default 84877
actor 84870
mat@@ 84840
arrival 84815
governor 84787
taxes 84780
dealt 84761
eating 84749
festival 84724
noting 84722
hua 84654
tw@@ 84648
plastic 84636
settings 84591
promise 84591
Arabia 84525
starts 84513
Xi 84470
globalization 84413
posed 84412
comfortable 84391
competent 84371
steady 84312
Museum 84299
limits 84260
balanced 84250
sis 84246
mixed 84236
mayor 84205
ns 84188
characters 84169
Ra@@ 84163
workshops 84132
picked 84102
Persons 84063
ov 84008
Pl@@ 83986
Bay 83949
74 83917
villages 83843
Home 83828
end@@ 83826
presentation 83815
Wei@@ 83798
Mer@@ 83774
indicates 83751
feelings 83705
ski 83628
collect 83626
ads 83598
giant 83588
Br@@ 83585
suit 83545
Or 83481
Robert 83408
ast@@ 83402
sixty 83391
oversight 83380
OK 83349
ji 83304
opposed 83250
Ab@@ 83249
buying 83233
Da@@ 83218
gra@@ 83206
holds 83169
exposed 83164
Environmental 83164
originally 83161
prisoners 83156
kilometers 83143
ments 83142
THE 83130
enemy 83122
wider 83052
Commerce 83029
investigated 83020
Mrs 82990
restore 82954
Pre@@ 82927
zero 82925
Area 82893
Part 82877
gained 82872
grand 82867
clothing 82836
Vi@@ 82834
empty 82799
functioning 82792
wonderful 82790
Assistance 82768
OF 82734
convenient 82675
Mal@@ 82668
mer 82642
IS@@ 82635
duties 82630
Table 82626
To@@ 82620
governing 82618
Club 82613
the@@ 82592
Q 82589
cooperative 82589
sections 82577
5,000 82570
employed 82562
Youth 82554
escape 82525
Sierra 82521
opposite 82496
norms 82455
endorsed 82447
alized 82418
complaint 82410
Without 82403
prominent 82383
aries 82356
surgery 82354
beach 82348
flag 82315
leg 82312
aspect 82308
lu@@ 82298
equipped 82287
pieces 82285
dec@@ 82265
topics 82250
cra@@ 82217
commodity 82214
yu 82205
Sydney 82179
ki 82170
integrate 82123
reputation 82042
distributed 81953
Industrial 81952
alization 81949
Malaysia 81941
terrorists 81922
lowest 81915
advisory 81898
han 81887
tend 81844
inquiry 81842
chemicals 81817
usual 81776
metres 81767
investigating 81698
ride 81675
intellectual 81631
broadcast 81619
Taliban 81614
hand@@ 81603
instructions 81595
ants 81479
remarks 81435
Soviet 81434
films 81407
attacked 81333
000 81318
bigger 81294
Czech 81222
motion 81183
households 81154
Jo@@ 81144
pregnant 81129
mention 81046
metal 81028
dress 81014
amendments 80989
miss 80980
logistics 80968
allocated 80954
suggestions 80945
Design 80903
confirm 80871
relationships 80850
wild 80833
count 80797
Guinea 80779
rape 80765
tor@@ 80733
Queen 80704
examine 80661
ably 80658
sustainability 80657
tied 80637
emotional 80616
88 80609
han@@ 80595
upper 80586
98 80583
acquisition 80579
slowly 80566
As@@ 80542
pending 80540
residence 80524
snow 80492
tonight 80491
Ni@@ 80480
ju@@ 80472
computers 80471
ham 80440
sentenced 80433
que 80421
pro 80413
constant 80389
generated 80354
min@@ 80336
Si@@ 80335
definitely 80325
wedding 80322
interaction 80318
lasting 80303
Fi@@ 80295
forecast 80275
recession 80219
Sichuan 80197
eng@@ 80194
Real 80187
ca@@ 80153
ths 80151
fallen 80139
bond 80124
examined 80089
withdrawal 80046
opponent 80039
feels 80034
wounded 80033
directed 80026
involve 79880
shock 79873
magazine 79835
ha 79833
ville 79816
Tokyo 79802
resident 79797
WTO 79776
Ambassador 79758
Prince 79751
OHCHR 79741
ering 79726
explosion 79707
2,000 79664
managing 79659
va 79629
papers 79621
pu@@ 79604
interim 79583
seized 79581
ani 79578
71 79562
emb@@ 79554
wi@@ 79469
representing 79431
Annex 79423
backed 79414
firmly 79396
73 79376
Countries 79361
initiated 79333
Or@@ 79329
ranked 79329
mi@@ 79327
preparations 79312
Martin 79291
Chang@@ 79208
deals 79202
conservation 79202
For@@ 79201
ford 79200
realized 79200
dly 79185
heritage 79173
milk 79160
ents 79127
recommend 79098
Reform 79058
ji@@ 79034
lin 79018
flexible 79018
thousand 79014
sending 79010
chair 78995
invested 78993
ization 78986
functional 78951
protests 78860
mu@@ 78851
mm 78841
marks 78827
smart 78821
studying 78817
library 78763
den@@ 78747
ASEAN 78720
entertainment 78718
fin@@ 78717
elimination 78668
au 78637
Photo 78635
sen 78601
luxury 78555
D. 78515
Forces 78470
borders 78468
Wei 78434
Ku@@ 78424
systematic 78419
Ha@@ 78393
deficit 78384
Libya 78353
om 78349
phones 78333
amendment 78325
parliamentary 78305
suspects 78238
Earlier 78210
7.@@ 78205
offences 78203
Ver@@ 78098
Palestine 78094
Nuclear 78091
ur 78089
ron 78064
Dong@@ 78056
od@@ 78001
creative 77996
sat 77994
ko 77959
Star 77943
yellow 77916
Zhao 77908
Did 77896
des@@ 77874
Exchange 77872
100,000 77833
reserves 77795
assault 77774
worker 77774
supposed 77760
ure 77754
82 77737
anti@@ 77737
demonstrate 77736
liability 77732
hidden 77702
tradition 77658
Tr@@ 77630
adjust 77620
IP 77616
AS@@ 77589
apartment 77568
caption 77568
Having 77552
oral 77533
outer 77530
geographical 77475
Shandong 77470
war@@ 77450
clinical 77444
Ste@@ 77439
wishes 77433
suffer 77412
encourages 77403
accidents 77387
Ta@@ 77361
techniques 77341
residential 77340
AT@@ 77336
il 77323
fail 77323
ourselves 77245
ash@@ 77175
120 77146
heavily 77126
founded 77072
Poland 77034
reconciliation 76976
provisional 76971
Market 76945
returning 76944
Richard 76939
load 76931
witnesses 76909
fellow 76907
ines 76903
mandates 76885
bur@@ 76885
berg 76867
Pol@@ 76839
brief 76828
ant@@ 76795
Christian 76773
horse 76690
fied 76645
necessarily 76597
organizing 76583
Bur@@ 76578
lock 76577
difficulty 76547
sa@@ 76516
accelerate 76499
territories 76453
79 76453
rushed 76424
dra@@ 76417
infection 76404
repeated 76339
IV 76322
sight 76307
ely 76291
ruled 76248
biological 76217
sl@@ 76150
Have 76088
producing 76069
Cross 76055
aren 76043
fewer 76013
all@@ 75986
ear@@ 75981
ok 75971
Planning 75934
replacement 75929
offence 75907
patterns 75895
assembly 75832
height 75817
productivity 75812
84 75801
argument 75792
Super 75791
saved 75780
flowers 75775
monetary 75742
Right 75720
zed 75718
unprecedented 75711
refers 75614
acceptance 75533
virtual 75521
offensive 75515
flying 75488
atic 75370
argued 75370
cr@@ 75311
custody 75299
strictly 75256
landscape 75239
iron 75204
mistake 75148
frequency 75100
relatives 75043
WHO 75013
Media 74987
coffee 74966
publicly 74948
elsewhere 74931
hosted 74866
bonds 74838
captured 74819
absolutely 74781
prosecutors 74775
pages 74756
Tri@@ 74744
strive 74718
kitchen 74709
typical 74708
tics 74703
Vietnam 74688
Championships 74654
raw 74626
gs 74622
RE@@ 74614
populations 74582
Xiao@@ 74566
stuff 74565
finals 74564
likes 74516
forth 74503
regarded 74492
Inter 74488
ger 74480
championship 74450
Will 74423
shots 74407
taste 74304
Do@@ 74292
pose 74292
Monitoring 74287
insisted 74285
conversation 74266
ue 74238
ane 74222
grant 74213
witness 74210
sick 74193
ev@@ 74185
PM 74182
Land 74180
minor 74158
convicted 74147
Culture 74144
IS 74123
chosen 74121
conservative 74089
San@@ 74076
reproductive 74056
rally 74054
nationality 74029
Fourth 74023
obviously 74020
sa 73997
calm 73973
enjoyed 73928
hoping 73897
securities 73874
maker 73867
coastal 73857
meat 73846
ric@@ 73837
700 73803
US@@ 73792
Leone 73782
subsidiary 73722
ain 73708
Next 73703
wins 73700
attempts 73690
ol 73669
insufficient 73632
revolution 73630
pushed 73629
ba@@ 73614
ward 73569
thereby 73566
freedoms 73561
pursuit 73510
assigned 73484
volunteers 73477
favorite 73474
ney 73470
talked 73459
campaigns 73454
explanation 73397
formulation 73389
BEIJING 73385
1980s 73365
composition 73352
Kar@@ 73336
ile 73315
Ge@@ 73311
exposure 73308
Discrimination 73306
2018 73290
ease 73280
sur@@ 73279
Optional 73269
Williams 73256
Big 73241
documentation 73226
restructuring 73226
3,@@ 73214
hom@@ 73209
happiness 73195
conventions 73154
Xin@@ 73128
machinery 73102
potentially 73052
continent 73051
guaranteed 73051
citizen 73041
formally 73027
pa@@ 73009
presidency 72997
employee 72993
Initiative 72976
sive 72969
J 72925
unified 72855
Bro@@ 72853
scoring 72811
authors 72780
reply 72757
alcohol 72746
78 72723
retirement 72677
Independent 72645
Peacekeeping 72626
finds 72579
opinions 72575
Can@@ 72569
comparison 72550
awarded 72545
tells 72522
parent 72507
dri@@ 72461
founder 72450
Free 72428
Fe@@ 72414
assessed 72412
earnings 72380
noise 72378
depend 72376
judiciary 72370
symptoms 72358
advocacy 72354
9.@@ 72342
UN@@ 72333
print 72325
destination 72219
ao@@ 72204
outcomes 72189
humanity 72186
thematic 72131
everywhere 72128
Village 72119
za 72089
gift 72073
constraints 72064
Haiti 72016
AR@@ 71980
ws 71908
sy 71888
str@@ 71888
quiet 71859
El 71831
tens 71781
seminar 71742
pping 71682
disability 71635
Myanmar 71625
highlight 71616
adult 71567
possibly 71561
estimate 71539
Wen@@ 71483
CH@@ 71475
associations 71460
Young 71432
territorial 71386
binding 71366
captain 71357
transit 71357
Rwanda 71338
manufacturers 71269
flexibility 71265
towns 71205
barriers 71163
NGOs 71128
hardware 71124
beneficial 71107
stick 71100
contents 71092
parameters 71072
Change 71061
tie 71058
Man 70987
CEO 70933
tors 70921
Mike 70910
adapt 70840
ach 70833
Wil@@ 70814
Gender 70802
Bal@@ 70758
har@@ 70716
87 70705
attorney 70693
Unfortunately 70664
automatic 70615
ational 70612
mainstream 70611
Defence 70607
shops 70539
layer 70494
expenditures 70475
She@@ 70468
perpetrators 70458
adhere 70457
Whether 70452
drama 70413
Agenda 70404
plenty 70347
socialist 70309
planet 70298
lots 70284
brands 70281
birthday 70274
hang 70227
proof 70188
Test 70186
CNN 70179
urge 70139
accounted 70108
painting 70085
Hol@@ 70027
appreciate 70023
survival 70005
acy 69994
ass@@ 69979
ali@@ 69955
spiritual 69955
Representatives 69952
equally 69931
Cal@@ 69881
Thomas 69872
AP 69853
Recalling 69827
camps 69785
water@@ 69783
Internal 69769
Similarly 69754
Em@@ 69749
4,@@ 69730
ranking 69703
96 69688
Go 69615
chances 69613
uncertainty 69603
clubs 69591
dozens 69583
gar@@ 69575
convinced 69575
squ@@ 69573
turns 69567
unity 69556
depending 69545
performing 69496
restaurants 69490
pe 69488
Jerusalem 69469
truck 69467
resort 69449
interface 69438
commit 69395
fate 69387
communicate 69367
mistakes 69331
exploration 69301
mood 69274
smile 69265
neighborhood 69246
subsidies 69244
Nanjing 69240
cha@@ 69233
verification 69203
van 69177
Lebanese 69137
Rules 69129
entity 69095
jump 69062
departure 69058
moon 69034
Provincial 69029
mortality 69024
8.@@ 69023
competitiveness 69021
conventional 69018
Belgium 69014
focuses 68970
Rome 68955
assume 68935
gaps 68910
deposit 68907
sugar 68902
uan 68882
Ac@@ 68866
roll 68830
Chris 68815
sions 68813
involves 68809
Straits 68792
FBI 68720
copyright 68717
Draft 68709
Mrs. 68699
license 68696
providers 68645
remarkable 68622
grave 68622
angry 68606
89 68571
delayed 68571
button 68550
removal 68544
lift 68517
execution 68508
ell 68475
contest 68411
urges 68407
Perhaps 68336
91 68334
hate 68332
Fu@@ 68328
Partnership 68292
imports 68288
defend 68252
novel 68205
Region 68205
intense 68198
ID 68195
violated 68170
valid 68158
extraordinary 68157
speakers 68136
equitable 68120
shut 68075
watched 68058
civilization 68057
Professional 68026
Fed 68005
dozen 67963
Swiss 67963
ie 67900
bearing 67899
alism 67814
sanitation 67812
ised 67785
arrangement 67779
ill@@ 67767
00@@ 67762
artist 67762
arising 67760
Taking 67738
3,000 67707
generate 67698
Within 67697
Mongolia 67691
shoot 67674
architecture 67619
Reuters 67554
preventive 67549
unknown 67548
gn@@ 67545
Ger@@ 67526
occasion 67485
normally 67453
wh@@ 67453
composed 67448
Kazakhstan 67431
Model 67428
Hollywood 67420
ran@@ 67418
illness 67417
farm 67386
Palestinians 67384
Town 67380
Venezuela 67359
oned 67337
periods 67259
Gulf 67248
frequent 67245
ori@@ 67235
Liberia 67215
Securities 67214
fault 67207
delays 67191
fighters 67189
smoke 67180
satisfied 67140
ther@@ 67118
celebrate 67101
Get 67093
referring 67074
invasion 67056
xi@@ 67042
alive 67015
subsequently 66980
thinks 66965
down@@ 66957
socio 66941
zing 66926
fying 66883
97 66871
bri@@ 66846
negotiating 66791
Art 66790
heading 66783
sal@@ 66775
Brussels 66774
tight 66738
sen@@ 66715
drafting 66694
fat 66690
Han 66596
rou@@ 66595
solar 66591
50@@ 66562
tired 66548
guarantees 66545
cable 66525
adjusted 66516
register 66471
undermine 66443
Cyprus 66429
define 66417
wished 66396
anger 66389
earned 66382
disposal 66379
cloud 66369
internally 66359
Yi 66325
venture 66324
Xia@@ 66315
yards 66309
dissemination 66274
recover 66270
Madrid 66258
Gi@@ 66258
Come 66210
iting 66160
presents 66117
encountered 66116
editor 66114
Territory 66062
Fifth 66057
cheng 66049
attempted 66043
lands 66026
continuously 66012
exit 65991
tly 65984
Shu@@ 65975
Assistant 65975
alize 65970
column 65967
Ham@@ 65956
tables 65948
dignity 65934
Te@@ 65926
Golden 65911
Corporation 65906
Select 65891
ple@@ 65882
detection 65875
opponents 65856
sun@@ 65835
permit 65829
del@@ 65819
terror 65811
speaker 65802
Ram@@ 65777
chose 65751
substance 65749
everybody 65740
ei@@ 65739
dominated 65711
feed 65696
Quality 65692
enjoyment 65593
AM@@ 65589
substances 65589
ministry 65572
amazing 65549
atory 65532
jury 65524
tensions 65510
Denmark 65509
Hey 65493
1,@@ 65444
trials 65421
possession 65384
Nan@@ 65349
puts 65311
Church 65308
aside 65261
falls 65253
subjects 65252
technique 65231
yard 65215
Virginia 65184
begins 65177
head@@ 65176
tackle 65171
EN@@ 65157
willingness 65113
din@@ 65095
enormous 65083
Dutch 65073
ess@@ 65048
PR@@ 65035
charity 65009
identifying 64994
meter 64960
movements 64934
5,@@ 64914
Cameron 64907
1.5 64885
assistant 64877
excited 64848
bin 64843
questioned 64826
CO@@ 64808
mountains 64786
briefing 64750
brothers 64727
na 64708
description 64674
Framework 64659
UNODC 64636
motor 64621
ini 64618
solidarity 64595
• 64592
complicated 64561
Love 64550
cabinet 64544
suspension 64539
Agriculture 64515
Capital 64512
St. 64484
IAEA 64481
reservations 64479
programming 64475
contemporary 64459
li 64436
lists 64426
mothers 64421
Small 64421
menu 64420
dad 64416
narrow 64403
Tra@@ 64402
locked 64399
optimistic 64387
singer 64380
Hai@@ 64362
holders 64360
Carolina 64354
Transport 64319
Don@@ 64306
transmitted 64302
ultimate 64270
blame 64250
impacts 64242
arrive 64241
Lin@@ 64225
her@@ 64223
rail 64213
Scott 64204
apart 64176
mel@@ 64175
surprised 64165
empowerment 64163
50,000 64161
apparently 64135
conducting 64119
describe 64119
shadow 64085
sad 64069
Cl@@ 64066
museum 64062
AND 64017
shire 64016
directors 64012
dogs 64000
excessive 64000
demonstration 63967
retired 63964
Mil@@ 63942
displayed 63940
Line 63936
Port 63926
happening 63923
Ryan 63913
crises 63913
Uganda 63912
prospect 63894
exceed 63871
smoking 63844
spokeswoman 63777
desk 63749
constitution 63730
producers 63721
ta@@ 63702
92 63692
earn 63661
ocean 63638
Austria 63628
artists 63619
utilization 63541
adaptation 63486
Bridge 63483
resume 63471
joining 63463
counties 63455
acceptable 63444
mix 63402
devoted 63400
ino 63388
ari@@ 63384
lin@@ 63366
sted 63362
vessels 63361
controversial 63343
unions 63293
domain 63266
ann@@ 63265
ell@@ 63226
Strategic 63211
IC 63209
2,@@ 63205
polls 63204
surveillance 63199
blow 63188
wages 63188
Dec@@ 63187
recall 63182
evaluate 63177
Ben 63170
eradication 63166
ining 63159
conditioning 63156
William 63150
rental 63116
Fujian 63108
2020 63083
pr@@ 63076
any@@ 63065
exists 63059
observation 63047
machines 63046
seeks 63034
forming 63033
Armed 63003
recovered 62933
operators 62900
Yugoslavia 62887
multi@@ 62878
generations 62843
FA 62824
moves 62791
Zhi@@ 62773
qing 62772
comfort 62769
Scientific 62757
inventory 62757
Governing 62752
Alliance 62750
absolute 62748
sudden 62740
Harry 62736
teen 62703
IMF 62669
Movement 62665
.1 62635
Though 62625
ick 62620
pregnancy 62608
sti@@ 62571
bureau 62530
aff@@ 62527
Bri@@ 62514
privacy 62513
sees 62461
drove 62459
casualties 62456
Sometimes 62414
respected 62383
sm@@ 62369
Treasury 62344
concentrated 62328
sweet 62290
inf@@ 62286
install 62273
Atlantic 62255
cher 62254
strait 62205
banned 62182
switch 62164
att@@ 62163
93 62154
ER@@ 62143
genuine 62137
rel@@ 62094
hor@@ 62078
semi 62063
Jian@@ 62059
vegetables 62041
tic@@ 62027
commissions 62016
naturally 62005
Make 61998
Fox 61973
ass 61966
shareholders 61960
districts 61929
Gra@@ 61914
gro@@ 61896
izing 61846
bn 61839
guess 61820
unusual 61814
spots 61800
Blue 61797
harassment 61787
amended 61778
Brazilian 61774
CD 61765
cluster 61744
post@@ 61729
outbreak 61646
upcoming 61645
personally 61645
diagnosis 61609
describes 61597
manual 61529
Task 61424
harmful 61421
forty 61420
Fin@@ 61385
Valley 61379
immigrants 61374
cited 61374
Status 61331
ratification 61329
PC 61310
choices 61291
doors 61287
modernization 61280
connect 61251
hy@@ 61242
circle 61230
wonder 61206
venue 61203
prohibited 61184
breakfast 61179
intensive 61176
Liverpool 61156
Nevertheless 61152
zones 61139
focal 61139
poll 61135
kin 61129
allies 61122
S. 61116
requiring 61098
Portugal 61074
Barack 61073
experiment 61072
exam 61062
fix 61009
Interior 60999
Be 60999
guest 60994
250 60982
Henan 60966
sting 60959
split 60954
Irish 60949
gathering 60932
typically 60926
21st 60915
shortly 60864
stayed 60860
subjected 60854
vocational 60832
admission 60828
racism 60825
legally 60819
resumed 60805
Bra@@ 60788
diverse 60739
Hill 60734
aging 60700
hi 60692
strange 60679
ICT 60670
lying 60664
ce 60657
severely 60639
ese 60607
yi 60598
visible 60580
Wuhan 60568
pol@@ 60529
Ren@@ 60523
literature 60480
concentration 60475
enabled 60456
Thank 60449
margin 60436
fears 60426
strikes 60419
afford 60391
buyers 60379
Han@@ 60379
meaningful 60332
Chi@@ 60320
feng 60267
ministerial 60267
separation 60262
Between 60252
adjustments 60231
native 60227
decreased 60195
Croatia 60191
preparatory 60174
addresses 60173
Accordingly 60134
pot 60128
publicity 60126
amid 60125
upgrade 60119
AL@@ 60088
RC 60086
adverse 60083
Morocco 60080
withdraw 60061
ine@@ 60038
imprisonment 60032
SP@@ 60013
affordable 60001
of@@ 59993
negotiation 59993
listening 59957
Jack 59954
eligible 59927
vel@@ 59922
20th 59906
complainant 59877
TA@@ 59836
roof 59812
childhood 59808
Mary 59804
Mat@@ 59768
pitch 59757
tension 59754
--@@ 59727
SA 59715
Peng 59709
Square 59674
UNESCO 59665
adds 59639
Im@@ 59637
enthusiasm 59620
Sub@@ 59617
Elimination 59615
bra@@ 59601
mines 59596
6,@@ 59591
kick 59585
nutrition 59575
Bangladesh 59566
veteran 59552
exclusive 59550
proceed 59533
radiation 59522
Everyone 59515
indicating 59503
visual 59480
replied 59467
throw 59453
settled 59422
Pan@@ 59420
Far@@ 59410
yield 59357
exceeded 59352
Population 59350
Old 59330
aviation 59329
AC@@ 59319
tur@@ 59312
attractive 59295
Jing@@ 59293
NBA 59285
expects 59274
sample 59256
Er@@ 59211
Steve 59181
cleaning 59166
blo@@ 59143
pped 59137
joy 59123
USA 59120
segment 59091
applies 59090
Zhejiang 59090
assisted 59059
electrical 59047
sons 59028
amounted 59023
recognizes 59003
Spring 59003
Journal 58997
mortgage 58991
&apos;an 58980
closure 58978
La 58968
1st 58960
outlook 58959
ast 58906
personality 58893
Del@@ 58875
2nd 58814
maritime 58810
Andrew 58804
tracking 58786
Nor@@ 58783
Bosnia 58764
Charles 58750
classic 58750
rival 58742
Reserve 58740
publications 58737
highlights 58724
campus 58712
awards 58708
stored 58663
Joe 58659
serves 58576
OIOS 58563
Sciences 58529
Dar@@ 58528
ising 58520
lucky 58519
mobilization 58518
super 58512
Song 58511
claiming 58498
villagers 58482
Later 58471
ranks 58460
fer@@ 58445
Best 58423
safeguard 58398
ga 58393
IP@@ 58382
reservation 58377
Bl@@ 58364
Microsoft 58360
honor 58348
accommodation 58323
vulnerability 58304
affects 58299
honest 58298
analyzed 58283
therapy 58249
Terrorism 58232
sters 58228
realistic 58225
alongside 58217
windows 58205
20,000 58153
Francisco 58148
Ser@@ 58134
impose 58129
rarely 58106
MP 58097
IN 58056
dismissed 58032
Anti 58030
bags 58009
projected 58002
certification 58001
Habitat 57998
Lu 57992
hon@@ 57990
dependent 57985
nationals 57982
Ethiopia 57974
blocked 57966
Chile 57963
Tourism 57958
employers 57956
pure 57956
N.@@ 57951
ports 57944
answers 57941
stepped 57936
okay 57934
ub@@ 57929
humans 57920
ening 57908
Studies 57890
guided 57886
Cu@@ 57883
mid@@ 57883
Using 57876
interior 57870
ome 57868
Chengdu 57858
40@@ 57839
threatening 57838
fled 57836
retain 57822
challenging 57813
attending 57802
int@@ 57800
St 57797
shoes 57770
tank 57764
ase 57751
newspapers 57749
Emergency 57694
recording 57692
Hong@@ 57686
dates 57685
duration 57682
Cro@@ 57657
94 57640
modified 57631
reflecting 57624
neck 57611
Pa@@ 57580
thin 57579
responding 57574
birds 57556
totally 57537
compromise 57528
Thai 57523
gre@@ 57510
pres@@ 57507
sand 57491
elect 57478
tered 57464
capture 57459
interference 57448
ory 57446
discovery 57431
struggling 57413
invite 57407
volunteer 57403
rap@@ 57381
jo@@ 57376
budgetary 57371
Measures 57370
timing 57365
songs 57354
sli@@ 57329
thirty 57324
concepts 57306
highway 57303
sum 57299
hero 57274
staffing 57265
walls 57256
alist 57252
protesters 57221
Fo@@ 57216
pat@@ 57210
specify 57192
stadium 57158
Series 57156
q@@ 57153
Lan@@ 57150
secured 57147
accessible 57101
exciting 57101
premises 57098
suppliers 57095
survive 57067
Zhu 57036
arranged 57027
bathroom 57024
kg 57014
signature 56986
Wal@@ 56941
Sol@@ 56927
ri 56921
che@@ 56911
praised 56909
acted 56908
imagine 56905
measured 56884
acquired 56870
inc@@ 56864
parallel 56863
settlements 56856
ny 56842
Chelsea 56835
wheel 56801
genetic 56801
reintegration 56782
ef@@ 56775
Palace 56760
regret 56756
Jackson 56754
negotiate 56706
societies 56647
permission 56642
assisting 56631
Yi@@ 56627
Hunan 56624
penalties 56623
yn 56607
dr@@ 56587
impunity 56577
islands 56572
capability 56561
investigators 56560
alists 56556
tragedy 56517
credibility 56512
coordinating 56498
executives 56498
pictured 56495
ities 56491
accelerated 56486
inadequate 56476
gl@@ 56467
occasions 56462
squad 56446
separated 56418
protocol 56388
Communications 56377
Former 56376
renewed 56371
ture 56353
Berlin 56350
Coast 56343
anywhere 56342
unclear 56332
Total 56308
ga@@ 56307
surge 56303
tion@@ 56288
commander 56280
Burundi 56277
occurs 56272
Ocean 56258
Na@@ 56257
pleasure 56204
Requests 56190
issuance 56141
Process 56112
chi@@ 56106
clarify 56103
measurement 56094
developers 56058
custom 56033
harmony 56029
vers 56027
rush 56004
Sam@@ 56002
pri@@ 56002
pledged 56002
printing 55992
sponsored 55980
Deng 55978
ize 55974
Major 55953
abandoned 55935
log 55923
servants 55917
hasn 55911
shirt 55910
Humanitarian 55907
oring 55894
mutually 55865
ges 55864
ged 55841
moments 55835
feedback 55810
Senior 55800
burn 55795
Engineering 55766
CS@@ 55758
solved 55752
em 55732
scandal 55731
Sanders 55728
carrier 55710
grateful 55659
reverse 55658
soul 55645
Jewish 55637
shortage 55631
concluding 55627
outlined 55624
Cam@@ 55604
interviews 55577
counsel 55553
Six 55483
knife 55481
revision 55459
terrible 55459
istic 55458
portfolio 55454
harmonious 55449
stri@@ 55442
ratified 55439
crazy 55417
propaganda 55410
commodities 55389
auction 55385
accountable 55384
Chairperson 55381
teach 55373
ners 55356
Railway 55337
inspired 55334
Tibet 55331
ING 55307
pressing 55296
translation 55295
Sun@@ 55240
mature 55221
mainstreaming 55219
lawsuit 55189
meal 55185
orientation 55184
Euro@@ 55164
ideological 55155
2.5 55150
Climate 55132
lunch 55129
shipping 55116
ti 55105
8,@@ 55099
forests 55096
helpful 55085
ily 55037
Ca@@ 55009
intensity 54985
ye 54936
appeals 54927
don@@ 54923
angle 54918
thoughts 54898
War@@ 54883
guns 54880
bird 54877
Liaoning 54871
Sin@@ 54864
targeting 54863
spoken 54858
autonomous 54844
conversion 54820
sovereign 54815
J. 54814
Val@@ 54796
competence 54795
tone 54773
deadline 54767
failing 54758
tolerance 54719
Drug 54719
noticed 54718
Cap@@ 54717
producer 54690
Zone 54687
Comprehensive 54679
wed 54676
undoubtedly 54649
restricted 54647
convened 54640
dramatic 54631
Mediterranean 54624
ban@@ 54621
ered 54556
1989 54536
bio@@ 54513
bombing 54510
v. 54491
militants 54478
ES 54474
inequality 54464
ER 54451
yen 54434
merely 54427
viewed 54405
integral 54394
Wi@@ 54392
tering 54389
routes 54366
discount 54365
os@@ 54327
shoulder 54324
organic 54318
battery 54311
uniform 54310
Sino 54306
1970s 54304
Add 54301
10.@@ 54274
disappeared 54274
legs 54265
apparent 54257
gan 54252
album 54244
fake 54242
lady 54239
anda 54153
ging 54150
Yong@@ 54143
Qing@@ 54128
auto 54124
hum@@ 54094
Taipei 54094
Stadium 54057
Yemen 54038
emergence 54031
ignored 54011
annually 54005
tears 53971
symbol 53968
fa@@ 53966
approve 53934
12.@@ 53923
taxi 53899
footage 53890
bor@@ 53884
Yunnan 53880
7,@@ 53878
Judge 53854
launching 53850
imported 53833
nomination 53806
innocent 53798
Swedish 53793
At@@ 53775
matches 53760
mandated 53754
countryside 53742
mor@@ 53735
waves 53733
pushing 53712
AM 53709
bil@@ 53705
05 53676
Which 53663
rounds 53662
Subcommittee 53656
diet 53641
frameworks 53635
safeguards 53628
landing 53606
Inc 53597
criticized 53582
discriminatory 53542
our@@ 53539
vacation 53530
lets 53519
ham@@ 53494
interviewed 53488
advised 53466
gged 53459
jumped 53450
ours 53431
ate@@ 53418
methodology 53412
PA 53391
staying 53380
renewable 53371
belong 53369
netizens 53365
hearts 53347
Finland 53343
impression 53343
condemned 53341
succeed 53331
Bel@@ 53328
Legislative 53298
Barcelona 53285
Fire 53274
mp@@ 53272
scenes 53262
stake 53258
seminars 53257
exact 53241
Monetary 53233
founding 53191
golden 53186
Hangzhou 53183
password 53181
defensive 53153
acid 53150
adviser 53124
prefer 53090
prosecutor 53088
sto@@ 53085
Gr@@ 53081
forums 53077
ath@@ 53074
Up 53057
belonging 53041
Coordinator 53041
string 53006
gging 52999
breach 52991
Mechanism 52987
cap@@ 52975
errors 52972
defenders 52961
DC 52948
Dra@@ 52938
tro@@ 52938
performances 52905
pop 52898
dies 52893
remind 52882
Operation 52879
entrepreneurs 52872
subprogramme 52860
sec@@ 52830
applying 52819
shi@@ 52818
mechanical 52816
p.m 52809
Tang 52785
hill 52780
sounds 52743
explosive 52741
reveal 52738
stolen 52736
gay 52721
EC@@ 52709
breakthrough 52696
organ 52690
Regulations 52686
leg@@ 52662
calendar 52662
Weapons 52659
risen 52654
schemes 52653
harder 52650
MPs 52637
cat@@ 52624
ala 52619
quantity 52611
4,000 52609
wei 52593
fies 52563
disclosure 52563
prompted 52550
inner 52550
remedies 52540
equ@@ 52527
branches 52526
analyst 52519
Xu@@ 52516
hel@@ 52514
900 52507
salt 52504
Okay 52468
crossing 52438
tier 52422
profound 52419
Mexican 52400
favor 52397
answered 52391
ace 52385
Inspection 52377
outs 52362
zz@@ 52339
bike 52335
fitness 52326
Access 52323
partly 52293
discussing 52276
sponsors 52271
Boston 52267
ki@@ 52264
pipeline 52248
mobilize 52217
work@@ 52195
Melbourne 52193
dressed 52191
checks 52187
ica 52173
med@@ 52168
cho@@ 52160
Students 52158
toll 52137
themes 52133
yer 52126
movies 52125
portion 52103
Yuan 52102
Belarus 52100
lake 52098
CO 52084
keen 52066
val@@ 52064
interactive 52060
quoted 52052
bing 52017
drought 52016
underground 51999
cultures 51979
Beach 51963
wn 51947
judgment 51947
ministries 51939
paras 51927
cry 51927
pan@@ 51924
bel@@ 51896
ces 51864
burning 51845
cheap 51819
ups 51809
consists 51805
bone 51798
autumn 51776
pur@@ 51769
visa 51765
consistently 51732
ich 51710
videos 51687
dominant 51681
temporarily 51670
investor 51665
Ming 51664
bases 51660
ron@@ 51660
Windows 51623
foreigners 51604
heng 51584
disappointed 51561
circulation 51549
taught 51547
thanked 51532
COP 51527
mobility 51525
Shi 51521
Products 51515
0,000 51512
adopting 51481
rebels 51479
meets 51443
conclude 51424
kilometres 51400
reception 51395
win@@ 51391
infected 51381
rac@@ 51354
competitors 51347
Costa 51345
jail 51334
lending 51332
FAO 51325
col@@ 51319
01 51312
scholars 51301
commended 51298
uck 51279
underlying 51269
fought 51246
ial 51238
somewhat 51222
jun 51215
Long@@ 51207
Housing 51198
dic@@ 51192
stream 51191
complexity 51176
furniture 51164
1.2 51144
Secondly 51134
bottle 51126
audio 51118
Is@@ 51114
Cambodia 51112
Mountain 51105
expense 51104
provider 51100
singing 51094
ently 51069
activists 51063
extradition 51061
reviewing 51056
batch 51055
determining 51055
CA 51054
ack 51031
considerations 51027
mal@@ 51015
ty@@ 51002
Pen@@ 50980
accuracy 50977
Sept 50963
attach 50944
Show 50939
weekly 50931
troop 50925
Bre@@ 50916
Tian@@ 50890
vo@@ 50878
tes 50871
Officials 50863
Urban 50861
Qatar 50856
hardly 50856
patrol 50774
Thanks 50767
Master 50759
algorithm 50755
centers 50753
introducing 50752
cul@@ 50730
ment@@ 50730
wan 50724
AD@@ 50724
argue 50687
ada 50685
tribute 50673
Enterprise 50669
formulated 50667
ath 50666
Mel@@ 50666
sharply 50651
3rd 50629
eggs 50627
exercises 50624
delegates 50623
dual 50617
theoretical 50609
hal@@ 50609
impressive 50603
handled 50602
websites 50590
Principles 50589
relate 50583
stroke 50548
4th 50542
promising 50510
Navy 50501
NHS 50500
Number 50489
observe 50484
AC 50464
Ali 50458
plot 50456
incentives 50444
capita 50443
cargo 50438
tiny 50430
ST@@ 50425
belongs 50413
regards 50412
calculation 50401
preserve 50365
grants 50356
Airlines 50353
detainees 50330
explains 50322
accession 50317
ata 50308
lit@@ 50299
bronze 50288
Ohio 50252
10th 50234
ick@@ 50204
blind 50195
Nepal 50182
upgrading 50173
tical 50153
grasp 50109
fierce 50093
seasons 50087
nervous 50062
suggestion 50045
threw 50044
por@@ 50043
gri@@ 50034
maternal 50033
readers 50012
courage 50011
destroy 50002
alert 49989
Azerbaijan 49980
airline 49975
Budget 49946
soldier 49937
versions 49933
Indigenous 49903
thirds 49896
LE@@ 49879
sman 49873
missiles 49872
6,000 49855
Murray 49817
Championship 49812
surveys 49810
organisation 49810
luck 49802
Timor 49792
dust 49790
Associated 49781
Others 49769
circuit 49755
demanding 49750
ards 49748
# 49745
Zhong@@ 49737
Developing 49731
Bor@@ 49729
UR@@ 49716
eling 49709
AP@@ 49702
divorce 49700
hunger 49687
ation@@ 49686
wa@@ 49669
Tour 49669
consolidation 49663
characteristic 49659
checked 49649
IT@@ 49632
wireless 49631
hu 49626
bul@@ 49604
Hel@@ 49602
Promotion 49592
Basic 49575
9,@@ 49561
Standard 49548
holidays 49535
bars 49530
Hy@@ 49503
09 49493
Manager 49486
shelter 49486
bas@@ 49481
arbitration 49474
depression 49466
routine 49465
Sri 49452
budgets 49448
Head 49441
encounter 49436
consult 49400
fac@@ 49398
Je@@ 49394
Democrat 49389
Watch 49388
reflection 49377
Pal@@ 49377
Herzegovina 49371
Self 49364
colleges 49363
5th 49357
sincere 49344
fastest 49340
Tony 49336
Men 49335
Muslims 49316
are@@ 49309
buyer 49304
celebration 49286
operated 49262
guiding 49257
Agricultural 49233
Jesus 49225
aggressive 49213
SA@@ 49208
neighbouring 49205
bedroom 49153
Hainan 49150
evolution 49138
ara 49129
30,000 49126
spare 49114
operator 49112
cup 49109
Additional 49063
unacceptable 49043
scenario 49041
moderate 49026
kid 49020
envisaged 49016
updates 49015
decisive 49014
Radio 49010
artistic 49001
alo@@ 49000
Would 48998
enti@@ 48990
ises 48987
iness 48985
ambassador 48980
allowance 48972
alliance 48972
reaffirmed 48971
settle 48966
op 48948
fairly 48943
Library 48932
Yan 48929
Relations 48925
crude 48919
cat 48911
transfers 48908
j 48900
Catholic 48899
boards 48896
hide 48830
ranging 48826
temperatures 48816
Upon 48799
tis 48770
assumed 48770
ow@@ 48762
ES@@ 48749
listing 48732
girlfriend 48728
essentially 48725
ME@@ 48718
trillion 48717
i.e. 48701
Branch 48695
Territories 48685
BC 48675
solving 48672
sil@@ 48663
calculated 48624
bre@@ 48621
hell 48605
Until 48599
wisdom 48597
Taylor 48589
quarters 48587
NPT 48578
thick 48577
Mag@@ 48566
Serbia 48564
eve 48563
Country 48542
Hor@@ 48489
ams 48488
McCain 48476
intends 48473
Ford 48468
rough 48458
yed 48457
yan 48456
conviction 48456
propose 48432
transnational 48422
Little 48415
excess 48412
Main 48407
Mayor 48399
sole 48390
mandatory 48382
Due 48379
Award 48367
anticipated 48360
ited 48348
assured 48342
cope 48323
promptly 48321
Ed@@ 48318
popularity 48310
lic@@ 48299
eliminated 48284
Libyan 48266
sey 48263
GM 48230
cameras 48203
gather 48174
constitutes 48173
Drugs 48166
rebel 48162
aggression 48136
recalls 48128
DNA 48094
1988 48085
e.g. 48081
yl@@ 48074
.2 48062
journalist 48053
races 48048
ISIS 48030
Fer@@ 48020
eli@@ 48017
smuggling 48015
blocks 48006
Feng 47997
workplace 47991
Yang@@ 47983
Yan@@ 47977
freely 47968
tru@@ 47965
knowing 47941
ological 47882
singles 47880
Ki@@ 47863
Char@@ 47852
revenues 47849
unilateral 47841
incorporated 47838
Wen 47835
bi 47812
cy@@ 47805
critics 47781
creates 47760
ets 47743
Click 47735
Hebei 47717
forever 47710
Week 47706
Strengthening 47705
arbitrary 47700
€ 47688
ILO 47688
cam@@ 47683
contacted 47676
lis@@ 47673
preferred 47670
Algeria 47624
iled 47619
theft 47616
Expert 47612
competing 47595
Peru 47585
Chapter 47582
interventions 47577
beer 47570
progressive 47569
connections 47562
ist@@ 47558
scores 47553
consultants 47548
survivors 47547
clock 47506
titles 47504
disclosed 47504
Roma 47474
Lam@@ 47469
ain@@ 47440
Bon@@ 47428
powder 47418
roughly 47410
chronic 47379
liquid 47378
reliability 47363
qi 47357
beaten 47348
Zemin 47347
fu 47337
observer 47313
silence 47309
nationwide 47301
ake 47298
hitting 47284
ail@@ 47275
witnessed 47273
ished 47239
accordingly 47230
ency 47224
rainfall 47205
Côte 47161
ome@@ 47149
acute 47144
bills 47130
precise 47113
pal@@ 47108
Stephen 47101
by@@ 47077
proven 47077
emp@@ 47059
disk 47046
CA@@ 47031
Noting 47030
notification 47021
mediation 47021
stuck 47018
emphasize 47004
tall 47003
Egyptian 47002
controversy 47001
heating 46988
adequately 46979
sheet 46965
ites 46962
guards 46952
predicted 46925
correctly 46921
ack@@ 46913
Integrated 46905
reward 46904
abortion 46894
Miami 46891
Does 46873
lifting 46872
Letter 46865
overnight 46854
yn@@ 46843
vary 46833
foster 46827
deemed 46787
08 46774
decent 46772
eller 46761
lifted 46753
aftermath 46745
royal 46735
gg@@ 46729
110 46727
Back 46720
trains 46715
xin 46714
18th 46712
reg@@ 46706
Pakistani 46692
dreams 46691
shouldn 46682
attaches 46615
deliberations 46606
boxes 46593
Wu@@ 46588
ita 46588
golf 46540
Ka@@ 46517
Sur@@ 46490
beating 46456
rating 46455
pursued 46452
journal 46437
epidemic 46427
ama 46415
oun@@ 46403
samples 46398
monitored 46385
Cuban 46382
Add.1 46374
Customs 46355
embargo 46344
episode 46343
ils 46339
zer 46313
graduate 46310
Victoria 46284
je@@ 46283
ena 46283
char@@ 46278
flower 46274
junior 46269
Arsenal 46263
forthcoming 46256
IA 46246
ene 46244
Peacebuilding 46232
surely 46213
terminal 46204
ro 46202
qualifications 46200
relevance 46182
opens 46175
conjunction 46158
Nov@@ 46140
Davis 46138
indicator 46130
Governor 46123
Nairobi 46107
vel 46104
Platform 46100
platforms 46099
E. 46098
skill 46078
elite 46072
tures 46053
cas@@ 46051
chest 46040
consulting 46024
CE@@ 46023
walks 46021
admit 46011
West@@ 46010
carries 46008
Ash@@ 46001
threshold 46000
bal@@ 45988
concert 45987
6th 45984
advisers 45984
actress 45981
Str@@ 45950
bun@@ 45920
od 45918
announce 45917
Daniel 45902
Jiangsu 45889
19th 45876
classified 45844
sho@@ 45842
Pu@@ 45818
Recognizing 45801
iPhone 45800
alarm 45794
Z 45787
ears 45780
layout 45761
rolling 45747
grid 45735
11.@@ 45731
praise 45727
VI 45713
ened 45712
prostitution 45708
purchased 45691
Should 45690
glad 45670
approached 45665
Guide 45662
New@@ 45653
backs 45625
ek 45623
rivals 45619
manufacture 45602
Baghdad 45599
arise 45597
debut 45585
til@@ 45574
screening 45565
SO@@ 45563
60@@ 45560
exclusion 45553
off@@ 45536
manufacturer 45530
Attorney 45522
List 45521
passion 45517
relates 45516
Fl@@ 45507
Guangxi 45507
gh 45506
Evaluation 45505
facilitating 45500
inevitable 45498
&apos;clock 45495
pp@@ 45491
ole 45478
controlling 45467
instability 45458
peacebuilding 45437
Overall 45424
grain 45418
History 45416
aling 45415
surprising 45390
def@@ 45382
viable 45376
130 45368
aya 45368
consultative 45365
&apos;Ivoire 45360
transitional 45343
punished 45329
Winter 45303
liked 45290
arguments 45278
xi 45276
ined 45275
ille 45263
Pri@@ 45229
hosting 45228
Universal 45212
Morgan 45210
Sk@@ 45209
prevented 45208
associate 45208
laboratory 45202
passage 45196
Cabinet 45190
breast 45184
robust 45164
ari 45143
chaired 45141
dish 45138
reminded 45126
mom 45120
biodiversity 45107
Ju@@ 45102
May@@ 45087
investing 45073
Xiamen 45070
offset 45063
06 45055
pounds 45055
fun@@ 45045
displacement 45041
publishing 45038
Liang 45021
politically 45021
cli@@ 44981
distinction 44968
ink 44967
Gold 44954
Currently 44954
zi 44945
permitted 44930
olo@@ 44912
deepen 44894
unexpected 44888
module 44878
rid 44875
overview 44847
foods 44842
classification 44841
deepening 44836
Progress 44828
hire 44822
Questions 44811
chicken 44804
Bangkok 44802
indication 44790
dangers 44787
gan@@ 44785
noon 44783
My@@ 44781
Embassy 44762
predict 44749
argues 44733
partial 44705
requesting 44699
enables 44672
loaded 44664
Champions 44647
ac 44631
lawmakers 44623
Insurance 44618
philosophy 44617
copies 44609
oli@@ 44581
dimension 44570
ire 44569
sco@@ 44548
A.@@ 44548
drinks 44543
Garden 44535
disciplinary 44534
restoration 44522
Equality 44507
Program 44502
essence 44497
compulsory 44493
discharge 44479
OR@@ 44474
colour 44469
Mobile 44453
writers 44425
evil 44386
cleared 44382
Violence 44377
warming 44370
contingent 44356
chart 44355
Labor 44334
Jim 44332
brilliant 44324
8th 44307
1.1 44299
blog 44292
Commonwealth 44283
dle 44278
Zheng 44276
oldest 44274
GOP 44271
verify 44268
Trans@@ 44266
Marine 44256
book@@ 44244
designer 44233
degradation 44227
minds 44220
Hubei 44218
Doha 44212
coherence 44208
Black@@ 44188
bet 44178
nominee 44161
NFL 44141
Sc@@ 44132
ethics 44119
legacy 44117
ances 44110
ris@@ 44109
seed 44107
passes 44101
Jiang@@ 44099
servers 44095
Product 44093
bury 44087
backup 44085
star@@ 44072
UNOPS 44045
Arizona 44025
businessmen 44016
shocked 44015
wise 44004
advancement 43974
Sim@@ 43964
crack 43957
elling 43957
Property 43956
packaging 43948
pipe 43935
limitations 43927
Key 43919
gene 43912
Senator 43901
deeper 43897
advances 43894
nights 43889
ays 43872
wan@@ 43861
wire 43847
Iowa 43829
tail 43828
undertaking 43828
measuring 43826
Figure 43811
seekers 43806
Dun@@ 43803
Zi@@ 43800
skilled 43787
commonly 43782
borne 43782
ens@@ 43749
meanwhile 43741
fisheries 43740
Besides 43728
attitudes 43720
travelling 43720
ger@@ 43698
lo 43685
SE@@ 43671
fil@@ 43669
attributable 43634
raises 43627
Compared 43626
sn@@ 43625
Electoral 43622
IF@@ 43616
ums 43616
oning 43613
rational 43610
poses 43606
De 43601
keys 43593
downturn 43575
Financing 43562
touched 43545
studio 43528
processed 43513
ero@@ 43513
Looking 43479
poorest 43471
cap 43468
environmentally 43464
Rom@@ 43462
Taiwanese 43454
intensify 43447
toxic 43433
collapsed 43418
helicopter 43398
Southeast 43398
Guang@@ 43385
surplus 43382
fires 43371
Dor@@ 43369
protein 43353
Tanzania 43346
halt 43335
ignore 43330
deny 43306
somebody 43303
Wor@@ 43278
sphere 43272
tenth 43262
consolidate 43262
Systems 43255
fication 43252
Sam 43250
hui 43250
I. 43230
keeps 43228
repeat 43215
min 43203
experimental 43203
my@@ 43200
download 43189
receipt 43179
Treatment 43174
Employment 43163
27@@ 43154
funny 43152
clearance 43145
artificial 43144
ect 43131
stresses 43117
fed 43082
stimulate 43073
parks 43057
evident 43050
spec@@ 43032
wal@@ 43029
prompt 43024
contractors 43017
assessing 43016
Care 43007
valued 43002
convenience 43000
aps 42991
silent 42990
competitions 42966
seize 42963
magnitude 42950
macroeconomic 42949
sle@@ 42947
thorough 42936
stimulus 42927
recruited 42917
continuation 42914
livelihood 42893
consolidated 42889
volleyball 42884
filter 42863
proceeds 42860
briefed 42848
navigation 42831
deposits 42826
telecommunications 42815
belt 42806
arrange 42797
rocket 42794
FA@@ 42790
7th 42770
strongest 42735
Tai@@ 42733
Tu@@ 42732
lighting 42724
curriculum 42723
pen 42715
cooking 42702
Sen@@ 42677
tries 42671
ED 42665
Could 42655
detected 42649
owns 42635
Decade 42624
mil@@ 42605
rear 42596
Constitutional 42589
Communication 42585
beings 42581
devastating 42568
formula 42567
anc@@ 42551
Green@@ 42549
fu@@ 42534
mate 42528
marking 42522
dem@@ 42521
outdoor 42521
thrown 42520
Set 42511
kes 42502
da@@ 42501
Guo@@ 42491
Channel 42489
Related 42489
ination 42482
disappearance 42473
Ltd. 42469
criminals 42469
spaces 42467
array 42454
swing 42453
Amazon 42451
Investigation 42445
Jan@@ 42445
signals 42435
importantly 42430
maintains 42424
economics 42419
buses 42414
chaos 42412
runner 42408
Refugees 42390
vigorously 42390
03 42381
Rural 42376
demanded 42376
detect 42372
Eight 42362
07 42358
Heads 42351
cultivation 42334
logical 42328
burst 42310
Hum@@ 42302
derived 42280
procedural 42280
persistent 42267
assi@@ 42262
sir 42260
pay@@ 42258
alised 42257
testimony 42242
ip@@ 42242
dating 42218
winds 42216
Ten 42197
obstacle 42197
hired 42187
ja 42169
credible 42167
pride 42164
operates 42132
Bas@@ 42132
complement 42122
promotes 42118
habits 42097
cream 42095
citing 42087
im 42082
Preparatory 42082
Chemical 42081
ray 42079
prohibition 42076
Super@@ 42066
gue 42055
remedy 42048
CP@@ 42030
ABC 42030
transform 42016
Oil 42012
airspace 41999
Islam 41998
enc@@ 41993
ok@@ 41991
liberal 41970
notably 41962
modalities 41960
Unlike 41959
Henry 41956
liber@@ 41954
Production 41938
laundering 41938
unfair 41931
precisely 41922
rebound 41920
roc@@ 41916
surrounded 41915
www.@@ 41910
hat 41902
tactics 41891
diabetes 41889
briefly 41879
imp@@ 41876
Top 41862
fire@@ 41861
Officers 41859
deploy 41856
bench 41852
usage 41838
regulate 41836
Gao 41835
Kelly 41833
ON 41830
hydro@@ 41806
nose 41805
Ukrainian 41804
citizenship 41782
Michigan 41767
documentary 41767
anxiety 41734
TA 41732
Van 41728
Win@@ 41725
View 41689
struggled 41681
ser@@ 41678
confrontation 41662
ammunition 41661
isolated 41660
refuse 41639
drafted 41627
vessel 41626
viewers 41619
ox@@ 41603
steadily 41598
defending 41586
top@@ 41582
counter@@ 41581
ax@@ 41574
logistical 41558
engaging 41542
Survey 41520
engineers 41515
worthy 41513
boom 41505
Gordon 41498
dining 41495
1000 41488
Mus@@ 41479
IR@@ 41472
satisfactory 41464
babies 41457
micro 41447
Macao 41447
tower 41433
foot@@ 41433
tide 41403
eless 41402
transmit 41396
lesson 41391
spo@@ 41383
Medicine 41370
MA 41368
Activities 41364
Commercial 41354
separately 41353
upset 41348
weren 41334
ze@@ 41330
ili@@ 41324
salaries 41323
complained 41316
combine 41308
Frank 41295
appreciated 41282
fy 41263
CN@@ 41262
holder 41256
chi 41253
municipalities 41251
Much 41250
Assessment 41249
Sport 41241
edition 41240
pit@@ 41235
analyse 41228
ounding 41222
script 41220
q 41220
gy 41213
poly@@ 41211
hed 41211
turnover 41204
environments 41203
hot@@ 41202
downs 41201
simulation 41184
Bob 41174
jie 41151
weakness 41142
negotiated 41139
ID@@ 41132
shore 41121
15th 41116
Lanka 41111
Guardian 41102
red@@ 41090
instances 41085
det@@ 41077
minimize 41064
chip 41052
Cruz 41049
outreach 41037
Acting 41033
stretch 41030
U.N. 41030
cement 41029
UNRWA 41026
organisations 41008
Miller 41006
vic@@ 40997
Woods 40972
Sho@@ 40969
hosts 40960
rolled 40953
assurance 40952
ston 40948
Dan 40914
coherent 40898
tin 40894
preferential 40892
tunnel 40881
200@@ 40877
Gen@@ 40868
11th 40863
Alex 40856
trigger 40853
Shenyang 40852
speculation 40826
supplier 40826
dimensions 40805
Madam 40788
Order 40774
executed 40752
ambitious 40750
paint 40735
U. 40723
Sub 40722
9th 40720
employer 40699
hol@@ 40699
wen 40699
MO@@ 40693
Guo 40636
ologist 40628
Statute 40608
photographs 40602
radi@@ 40601
appealed 40601
desired 40585
lifetime 40579
EM@@ 40577
whenever 40574
ys@@ 40569
prisons 40555
compound 40548
soci@@ 40543
Music 40537
immune 40537
storms 40533
Hungary 40525
Ter@@ 40500
02 40495
globally 40495
EC 40494
fur@@ 40488
hoc 40482
ella 40479
MS 40471
onic 40450
sheng 40445
pack 40444
Anhui 40430
Jersey 40426
alternatives 40423
landed 40415
wheat 40403
avi@@ 40387
benefited 40381
intent 40376
sectoral 40370
favourite 40360
CBS 40359
Mao 40358
17th 40344
deadly 40339
ken 40328
publish 40315
mile 40302
graphic 40297
somewhere 40288
alizing 40280
scared 40269
but@@ 40266
Xinjiang 40260
wars 40249
04 40241
illegally 40233
talents 40224
stomach 40219
acquire 40197
comparable 40174
label 40168
Freedom 40164
expressing 40161
sel@@ 40149
tip 40146
burg 40143
ough 40138
Early 40122
defendant 40119
gradual 40109
Xiang@@ 40107
relax 40097
Sales 40090
pursuing 40084
ket 40083
winners 40082
Mali 40082
Lao 40065
graduates 40063
arena 40055
deleted 40052
Eritrea 40049
characterized 40045
choosing 40033
odd 40018
TR@@ 40009
safely 40002
Game 39996
relaxed 39993
28@@ 39985
Men@@ 39984
liberty 39970
reiterates 39969
tragic 39966
intelligent 39952
buried 39940
chang 39925
Private 39920
nominated 39913
Hi@@ 39893
stem 39882
medicines 39877
incidence 39874
gran@@ 39862
Wh@@ 39856
eurozone 39849
Tunisia 39845
healthcare 39843
Pres@@ 39833
legitimacy 39826
Conservative 39826
folder 39825
Kevin 39825
sentences 39813
Yun@@ 39801
resignation 39787
Romania 39778
NGO 39770
knee 39770
expresses 39757
respondents 39731
counts 39723
Mainland 39719
Au@@ 39711
Modern 39687
ail 39686
integrating 39680
teeth 39671
UPI 39668
delete 39667
tape 39662
supermarket 39659
nobody 39652
rit@@ 39652
ye@@ 39643
analyze 39624
precision 39615
feasible 39610
nic@@ 39609
favourable 39583
FDI 39570
13.@@ 39564
ately 39562
Simon 39558
magic 39553
deprived 39538
Pennsylvania 39517
Lewis 39513
superior 39507
analytical 39504
Luo 39485
aring 39473
black@@ 39467
acc@@ 39466
inger 39464
form@@ 39452
1.3 39433
commented 39433
colors 39430
oma 39391
writes 39391
ple 39377
Check 39377
Out 39366
fold 39353
divide 39351
OECD 39338
networking 39337
IA@@ 39336
200,000 39324
musical 39322
Kennedy 39317
printed 39290
Ad 39282
zi@@ 39277
intend 39273
emergencies 39256
pressures 39245
xing 39244
united 39242
searching 39238
ss@@ 39236
obtaining 39229
futures 39221
aspirations 39214
Point 39200
restored 39198
exceptional 39196
suspicion 39189
tweeted 39187
Source 39180
loose 39175
generous 39169
ular 39168
amed 39167
tar@@ 39151
Pat@@ 39134
unnecessary 39119
ben@@ 39115
longest 39107
disclose 39099
static 39072
filing 39067
extending 39057
dered 39052
Le 39030
hes 39025
ous@@ 39020
Sar@@ 39019
excluded 39015
1960s 39014
tobacco 39006
Migration 39005
Por@@ 38989
preservation 38988
ame 38972
juvenile 38951
cal@@ 38950
hits 38945
sh 38941
stra@@ 38938
wet 38935
judgement 38930
C.@@ 38902
pet 38893
vacancy 38890
breeding 38882
defeated 38874
fails 38871
smell 38850
blamed 38842
bat@@ 38813
rescued 38811
anyway 38800
specialist 38793
cou@@ 38793
1980 38790
adapted 38782
eager 38781
mercury 38780
perfectly 38778
lers 38767
eliminating 38747
dge 38745
radical 38744
tips 38725
electronics 38707
not@@ 38701
low@@ 38695
recognizing 38693
Hal@@ 38683
Santa 38679
certificates 38673
EL@@ 38665
Ecuador 38665
directions 38653
compare 38636
quit 38610
Travel 38609
tically 38605
IL@@ 38600
subway 38596
partially 38594
boats 38589
packed 38585
Guatemala 38583
lan@@ 38579
urgently 38577
outline 38572
confirmation 38567
boyfriend 38545
11@@ 38538
sign@@ 38538
consultant 38524
ank 38523
Jin 38517
climb 38517
hong 38511
Ir@@ 38510
RA@@ 38509
seller 38492
Authorities 38491
tian 38484
locally 38474
forgotten 38460
pin@@ 38452
advocate 38448
hanging 38443
tan@@ 38435
formulate 38433
Shen@@ 38427
promises 38411
Merkel 38403
Tor@@ 38403
patent 38402
badly 38395
ore@@ 38386
coup 38373
simultaneously 38369
Issues 38362
pound 38361
Montreal 38354
workforce 38348
med 38345
featured 38338
unlike 38337
Joseph 38333
dramatically 38325
tively 38323
crops 38309
mann 38309
killings 38303
Haw@@ 38291
ware 38283
Audit 38276
12th 38271
existed 38259
Howard 38256
logic 38253
painful 38242
genocide 38235
declare 38226
enn@@ 38225
urgency 38221
180 38213
Analysts 38212
striking 38209
Sen. 38198
ho 38197
ceasefire 38190
Sarah 38183
Rec@@ 38180
influential 38168
vaccine 38168
DP 38143
illa 38122
oul@@ 38117
Wa@@ 38115
neighbors 38114
Vladimir 38112
fei 38101
threaten 38096
enforced 38083
30@@ 38075
floods 38068
outset 38062
oming 38061
explicitly 38053
Jun@@ 38052
Mail 38047
retained 38021
Fu 38017
Workers 38005
liver 38002
Tim 37999
Mul@@ 37999
exploring 37996
corporations 37984
Dragon 37982
tre@@ 37972
duc@@ 37962
cru@@ 37961
advancing 37960
loves 37958
blast 37951
mes 37948
tification 37946
Tower 37933
acknowledge 37927
cruel 37925
literacy 37914
possibilities 37899
eu@@ 37897
Ying 37891
bacteria 37890
notion 37888
customary 37885
consequence 37885
Mur@@ 37884
Anthony 37882
utility 37881
Film 37876
3D 37857
dare 37856
Glasgow 37855
modest 37828
wore 37827
emission 37822
agrees 37821
Stock 37813
Adviser 37808
IM@@ 37801
Cre@@ 37801
backing 37775
ith 37766
Nam 37754
Chad 37739
wor@@ 37734
Emirates 37715
meantime 37715
volatile 37712
dying 37696
supportive 37693
ballot 37689
burned 37682
xiang 37677
Dong 37672
foundations 37670
greenhouse 37640
ee 37639
motivated 37634
cake 37625
Samsung 37623
fighter 37600
triggered 37599
_ 37595
Sil@@ 37594
sake 37582
uni@@ 37581
ON@@ 37578
Intelligence 37565
tab@@ 37557
forcing 37535
suspicious 37535
bombs 37534
hard@@ 37528
ington 37520
shortcomings 37519
tangible 37518
Mad@@ 37512
BA 37502
traditions 37498
hur@@ 37494
attempting 37485
incentive 37450
generating 37449
cents 37446
mitigation 37445
Price 37441
ble@@ 37430
bread 37416
delivering 37407
financed 37405
Hon@@ 37400
incredible 37397
offenders 37388
finishing 37382
Cat@@ 37376
ona 37374
clo@@ 37367
premium 37366
lasted 37365
enjoying 37346
Assad 37341
Bou@@ 37324
ries 37307
marry 37293
hub 37285
memories 37281
arian 37266
embassy 37261
Khan 37259
precious 37257
shaped 37249
ables 37244
Houston 37228
folk 37225
tracks 37224
engineer 37212
lovely 37209
Qingdao 37204
ord@@ 37196
Forest 37194
avoided 37187
Oversight 37181
challenged 37179
laugh 37178
MI@@ 37175
prosperous 37174
Tim@@ 37173
enforce 37170
Wilson 37165
Fre@@ 37161
acres 37161
Against 37160
classroom 37150
voices 37149
demonstrations 37134
tle 37134
ren 37131
Xie 37122
Lau@@ 37121
minors 37106
Follow 37106
Ministerial 37103
protective 37087
conformity 37085
TO 37083
resumption 37083
celebrated 37081
ingredients 37078
damages 37076
ater@@ 37076
Innovation 37066
Counter 37052
Book 37047
sof@@ 37045
advise 37045
Louis 37037
Light 37031
Saint 37030
verdict 37027
leisure 37024
indispensable 37014
mere 37005
ensures 37003
economically 36997
rer 36997
mirror 36994
accurately 36988
hazardous 36983
Bay@@ 36965
Angola 36965
Personal 36961
oms 36959
Puerto 36959
factories 36957
enter@@ 36954
ailed 36943
crossed 36937
sol@@ 36933
Ordinance 36930
facilitated 36923
recruit 36916
sexually 36914
Economy 36910
Ob@@ 36907
fever 36903
rob@@ 36898
Uni@@ 36893
FOR 36891
immunity 36866
deserve 36864
sufficiently 36861
ute 36857
sleeping 36850
cease 36848
wer 36847
reluctant 36842
abandon 36838
downward 36838
collecting 36833
Transitional 36831
debates 36827
pricing 36825
vis 36812
uncertain 36798
sustain 36797
Fan 36796
deliberately 36785
Limited 36777
Ping 36774
counterparts 36770
attracting 36758
Adam 36753
Cy@@ 36752
soccer 36743
Jean 36736
dol@@ 36712
Being 36702
rivers 36690
stones 36683
meals 36670
Des@@ 36654
habit 36653
Arts 36652
complementary 36641
suggesting 36636
memorandum 36633
flu 36631
fragile 36621
pocket 36619
ography 36618
RMB 36614
permits 36610
Rel@@ 36606
placement 36605
convening 36602
muscle 36601
discover 36594
stance 36580
floating 36576
linkages 36569
TS 36559
oppose 36546
harvest 36540
introduces 36531
impressed 36530
scenic 36525
maximize 36523
trapped 36521
necessity 36499
Base 36492
analyses 36480
receives 36466
pharmaceutical 36459
incorporate 36456
phrase 36449
Decision 36444
Rica 36440
Ga@@ 36423
holes 36405
bit@@ 36391
Seven 36371
survived 36371
Higher 36365
ceiling 36365
jin 36363
airlines 36361
Online 36339
glasses 36315
itation 36301
divisions 36299
clarification 36290
Nick 36288
independently 36283
isation 36273
Tar@@ 36272
euros 36262
1986 36255
oting 36253
Results 36250
Bissau 36247
Current 36240
shell 36230
shake 36207
16th 36206
Ombudsman 36204
liabilities 36195
Awards 36192
qui@@ 36192
Columbia 36187
indirect 36182
inv@@ 36172
s.@@ 36170
Mother 36166
Everything 36133
decides 36133
commissioned 36133
Natural 36125
educated 36125
jet 36107
attributed 36105
ola 36104
beds 36072
lifestyle 36069
ide@@ 36067
BO@@ 36067
declining 36067
gear 36064
deterioration 36063
pos@@ 36062
Somali 36053
Asked 36048
reb@@ 36038
wash 36037
Kin@@ 36017
daughters 36014
TO@@ 36012
ands 36010
ading 35996
Index 35994
fairness 35988
literary 35970
13th 35969
Ul@@ 35965
globe 35965
regulators 35956
perception 35950
pun@@ 35923
rage 35916
avoiding 35901
smo@@ 35900
appointments 35897
currencies 35894
desperate 35882
160 35881
Elizabeth 35878
purchasing 35873
ado 35872
appropriately 35865
specially 35856
cont@@ 35853
riding 35847
consciousness 35840
adolescents 35835
occurrence 35832
sophisticated 35830
fleet 35824
favorable 35820
doubled 35818
Bat@@ 35812
CC 35811
forestry 35777
adi@@ 35774
odds 35765
designs 35764
Seoul 35758
striker 35757
Avenue 35753
ement 35752
vegetable 35749
Crown 35747
Star@@ 35746
Fair 35738
smoothly 35737
debris 35730
concerted 35724
play@@ 35717
Bulgaria 35715
nan 35712
25@@ 35702
flooding 35689
Def@@ 35684
reiterate 35682
M. 35681
Brian 35673
Appeals 35673
bulk 35664
的 35661
succeeded 35656
Roman 35648
3.5 35639
isolation 35635
Jun 35623
barely 35623
query 35610
emails 35607
ades 35606
exchanged 35604
ton@@ 35603
tribunal 35596
chairs 35592
flew 35587
finger 35584
everyday 35574
inch 35572
tin@@ 35566
container 35562
stan@@ 35554
Common 35551
arriving 35550
Bun@@ 35543
ae 35529
one@@ 35528
hou@@ 35527
she@@ 35525
exc@@ 35523
inspections 35522
Viet 35520
pointing 35506
boo@@ 35489
BS 35480
Strip 35473
Whatever 35470
initiate 35469
cancelled 35463
beliefs 35461
dy@@ 35458
affair 35457
merits 35449
confusion 35448
constituted 35445
neighbours 35440
killer 35438
Su 35435
PS 35431
lat@@ 35422
CC@@ 35397
wa 35396
Tell 35394
nu@@ 35386
dam@@ 35383
Polish 35383
Additionally 35383
eth@@ 35382
Jia 35379
Kyoto 35378
imperative 35378
Election 35375
Very 35374
kicked 35361
Intergovernmental 35358
apps 35357
ladies 35356
draws 35350
experiments 35334
Century 35323
thr@@ 35319
produces 35309
High@@ 35307
AFP 35295
Dem@@ 35292
Around 35289
comparative 35289
Matt 35288
flo@@ 35283
add@@ 35275
influenced 35268
unfortunately 35265
CR@@ 35261
barrier 35242
Rem@@ 35234
uring 35228
&apos;I 35219
prescribed 35211
proposes 35210
umb@@ 35197
ace@@ 35196
FC 35193
ains 35184
Auditors 35179
varying 35174
defended 35172
Credit 35163
Almost 35158
ani@@ 35156
bowl 35149
OS 35145
circulated 35143
alleviate 35142
thoroughly 35140
Ay@@ 35129
reaches 35114
sin@@ 35093
ank@@ 35091
Ghana 35082
Appeal 35081
Gri@@ 35080
frozen 35051
succession 35049
antly 35037
sy@@ 35024
Electric 35003
accommodate 35003
sem@@ 34999
None 34998
tap 34988
tal 34982
violate 34982
ageing 34977
inevitably 34957
distinct 34956
Milan 34942
resolving 34940
Chancellor 34940
ini@@ 34939
bidding 34935
Tro@@ 34931
AN 34926
gifts 34924
youngest 34922
hearings 34921
si 34920
ashed 34886
robbery 34886
Cheng@@ 34883
universe 34880
Performance 34877
virtually 34870
Aleppo 34870
Reporters 34867
pressed 34866
show@@ 34866
deciding 34852
ap 34848
orderly 34839
Observer 34835
placing 34830
Lastly 34823
liberalization 34820
Annual 34819
varieties 34810
tional 34799
standardized 34798
interpreted 34789
Dubai 34778
profession 34775
constructed 34772
racing 34769
spectrum 34769
airports 34769
Keep 34768
io 34760
Teaching 34757
Inner 34756
Resource 34732
tom@@ 34720
operative 34719
Hotels 34710
stupid 34710
funeral 34706
ig@@ 34700
billions 34692
attractions 34688
Immigration 34683
displays 34681
Vol@@ 34678
liquidity 34678
anymore 34676
infections 34670
Tibetan 34663
converted 34649
shi 34649
prevalence 34648
Athens 34647
8,000 34647
facto 34647
gratitude 34646
Portuguese 34645
ologists 34644
diagnosed 34642
7,000 34638
wondered 34638
Arabic 34634
supplementary 34615
ura 34607
gen 34601
engines 34601
injection 34596
beneficiaries 34596
bol@@ 34595
Jul 34589
Video 34588
Tian 34588
washing 34587
ethical 34585
Chun@@ 34580
ET 34579
defining 34574
craft 34571
Tom@@ 34569
overwhelming 34565
speaks 34559
attendance 34558
slight 34555
14th 34553
Sixth 34546
tremendous 34541
bold 34515
Forms 34514
Participants 34514
Alan 34512
EA 34511
Dalian 34500
attacking 34498
translated 34498
14.@@ 34495
dd@@ 34494
Qinghai 34487
1987 34486
unchanged 34484
sty 34481
amend 34480
quietly 34474
diving 34473
senator 34468
Summer 34460
list@@ 34459
arrests 34449
lar@@ 34446
Mas@@ 34439
planted 34434
removing 34433
coat 34428
urs 34417
organizers 34409
asks 34409
venues 34406
autonomy 34398
march 34390
Saharan 34381
thermal 34374
Digital 34373
congress 34373
couples 34353
flash 34351
economist 34309
Rob@@ 34306
merger 34305
trips 34303
valuation 34302
aching 34301
Yangtze 34295
bath 34293
Andy 34287
forecasts 34278
ids 34277
ager 34268
consistency 34262
Manhattan 34258
boundary 34252
Type 34248
incurred 34239
wealthy 34238
sequence 34232
vitality 34229
LO@@ 34225
revolutionary 34224
tender 34223
administrator 34220
circles 34216
oxygen 34214
impetus 34211
Yao 34198
texts 34197
mented 34191
Zimbabwe 34183
linking 34179
Hamilton 34176
Cur@@ 34167
Red@@ 34162
Lakers 34162
contradictions 34142
applicants 34133
Exhibition 34131
ther 34127
Give 34125
loo@@ 34112
del 34109
Ban@@ 34104
waited 34098
licence 34093
warehouse 34087
hometown 34086
exclusively 34084
centuries 34083
advocates 34082
panic 34078
inappropriate 34078
cautious 34076
punish 34064
enhancement 34054
solely 34050
hn 34046
van@@ 34034
bail 34026
NE@@ 34019
coaches 34008
aci@@ 33997
shed 33996
clause 33995
occupying 33991
Cheng 33990
LDCs 33982
2.2 33972
prosecute 33962
desert 33961
lion 33958
doubles 33957
qualification 33952
ancy 33946
codes 33945
hung 33944
contractor 33941
swe@@ 33939
tissue 33935
outputs 33934
aking 33933
Rose 33929
socialism 33914
emphasizes 33909
explored 33908
eye@@ 33898
F. 33894
motor@@ 33892
regrets 33891
hat@@ 33890
anybody 33878
Coun@@ 33872
yl 33868
prejudice 33863
Dynasty 33863
filling 33848
hen@@ 33847
Ur@@ 33846
meteorological 33844
trusted 33841
past@@ 33837
Celtic 33823
spite 33814
rated 33813
pays 33805
Resolution 33785
completing 33777
unemployed 33776
rotation 33774
tot@@ 33765
stating 33759
Logistics 33759
Electronic 33755
Atlanta 33734
kets 33733
Procedure 33732
emerge 33730
ious 33727
breaks 33716
appoint 33712
experiencing 33704
inspiration 33682
Software 33670
Dialogue 33668
nec@@ 33667
Twenty 33660
slowdown 33658
traditionally 33653
variable 33651
submits 33651
pul@@ 33638
authorization 33636
conscious 33636
ailing 33636
workload 33632
ali 33621
recipient 33619
comprehensively 33615
economists 33611
conte@@ 33610
Front 33608
corn 33608
commentary 33599
insecurity 33595
tropical 33594
Mid@@ 33579
Bowl 33576
Class 33575
references 33564
entrusted 33563
fe 33558
ashes 33544
dancing 33543
doubts 33539
Television 33516
pillar 33508
Contact 33503
Panama 33493
Cas@@ 33487
intensified 33486
ira 33484
Hoc 33466
loving 33457
accumulated 33451
reaffirm 33445
systematically 33440
dan 33436
shower 33432
tube 33431
ratings 33429
Comrade 33428
inputs 33427
dil@@ 33426
bling 33426
northeast 33418
density 33415
Subsequently 33415
loud 33406
Future 33402
thesis 33393
Jilin 33390
AB@@ 33386
abilities 33384
bon@@ 33382
fulfilled 33379
1.4 33368
orbit 33360
Nature 33358
sible 33351
planes 33345
Methods 33343
@ 33334
pled 33330
considerably 33312
memorial 33310
contractual 33310
trucks 33304
Shan@@ 33295
brown 33282
Corruption 33282
angu@@ 33266
Blair 33264
rows 33263
let@@ 33260
kin@@ 33247
Mis@@ 33233
Pur@@ 33231
liaison 33228
pel 33225
understands 33225
1985 33220
disorder 33217
dum@@ 33216
Friends 33207
Practice 33203
break@@ 33202
Stra@@ 33193
reveals 33187
reserved 33186
Ban 33183
laser 33164
Ci@@ 33156
ade@@ 33152
Cou@@ 33147
ST 33145
Jeremy 33134
malaria 33097
evaluations 33097
sch@@ 33088
utmost 33084
TH@@ 33079
Decides 33079
congratulate 33074
stops 33069
modify 33067
appearing 33065
pump 33062
pon@@ 33055
reductions 33052
Philadelphia 33047
athlete 33039
granting 33026
mitigate 33015
successor 33013
postponed 33012
feasibility 33006
warnings 33004
fulfilling 33002
efficiently 33002
yun 32999
illing 32997
29@@ 32992
institute 32990
inhabitants 32987
pers 32983
satisfy 32980
Under@@ 32980
urbanization 32976
egg 32975
perceived 32962
realities 32962
substantially 32958
Edinburgh 32952
Shar@@ 32949
hao 32941
Standards 32939
aled 32935
enacted 32932
Rather 32927
diamond 32925
Bec@@ 32920
Ken@@ 32917
planting 32901
ump 32901
AS 32894
peer 32881
dragon 32880
Prior 32877
ette 32875
policymakers 32872
clinic 32868
mit@@ 32865
SP 32857
rank 32851
browser 32846
contributes 32839
spokesperson 32834
ED@@ 32826
Res@@ 32821
Search 32804
speci@@ 32803
freeze 32802
breath 32801
Abu 32799
elegant 32799
readiness 32798
Toronto 32795
confidential 32783
assurances 32780
aming 32778
spreading 32774
arguing 32771
brutal 32768
Pr@@ 32748
bitter 32742
24@@ 32724
Jan 32722
till 32710
com 32708
researcher 32708
tim@@ 32704
Heat 32702
Wan@@ 32676
D.C. 32675
W. 32668
Danish 32658
champions 32653
resettlement 32652
safer 32644
regulated 32644
Uzbekistan 32631
boundaries 32629
Corbyn 32627
designing 32624
assure 32619
cook 32619
counselling 32611
app@@ 32603
questionnaire 32599
Ross 32595
coordinator 32595
donations 32576
ah@@ 32569
donation 32567
motivation 32566
CCTV 32562
talented 32544
ow 32534
closest 32533
DPRK 32530
Liberal 32515
emotions 32515
Poverty 32511
Efforts 32509
tendency 32508
Father 32507
B.@@ 32507
val 32504
basket 32500
Obviously 32499
crop 32494
bert 32487
Ming@@ 32479
firing 32474
slide 32462
sisters 32460
1967 32455
101 32449
Dan@@ 32448
Rangers 32431
mag@@ 32422
1984 32421
dirty 32419
drives 32418
Jason 32416
sensitivity 32384
connecting 32379
cle@@ 32377
Tax 32376
Xiaoping 32375
loading 32367
rey 32357
sensor 32352
substitute 32350
Rock 32347
positioning 32340
pan 32336
optimal 32336
probe 32334
Moore 32332
ghua 32321
Tur@@ 32320
Qian 32315
bonus 32309
ign@@ 32293
bled 32289
Kate 32288
dre@@ 32272
Enterprises 32266
Scheme 32263
pulling 32260
CPPCC 32260
balances 32259
Official 32257
welcoming 32254
offshore 32250
The@@ 32249
Stockholm 32239
teammates 32234
Dad 32229
ound 32227
mankind 32227
neutral 32221
syn@@ 32214
refined 32209
ales 32201
ll 32189
cotton 32188
Date 32175
pupils 32172
prohibit 32170
farming 32165
cm 32159
Along 32151
correspondent 32149
cancel 32142
stein 32142
Competition 32136
militia 32133
earnestly 32126
donated 32119
repatriation 32115
fre@@ 32114
Guard 32107
oth 32106
hear@@ 32105
qiang 32097
Amendment 32095
Ass@@ 32092
anch@@ 32092
flu@@ 32092
Torture 32089
knocked 32088
Bao@@ 32081
discusses 32068
anne 32061
elaborate 32059
highlighting 32057
safeguarding 32054
ecosystem 32035
eradicate 32028
sum@@ 32026
Uruguay 32024
uck@@ 32024
ESCAP 32020
run@@ 32011
lab 32005
nursing 32004
140 32003
fortune 31996
ish@@ 31991
Pel@@ 31990
urging 31987
coll@@ 31985
seeds 31979
Ty@@ 31973
clashes 31972
concessions 31942
climbed 31940
comedy 31939
accusations 31931
excluding 31931
Create 31928
staged 31915
Qaeda 31914
diplomats 31901
outlets 31879
Method 31875
Pentagon 31871
gravity 31867
wooden 31865
vol@@ 31859
gentlemen 31855
Primary 31853
packages 31850
drag 31850
kins 31850
feeding 31850
Gre@@ 31835
scientist 31834
dent 31819
breakdown 31814
veterans 31814
Metro 31807
Otherwise 31805
Eric 31801
wound 31795
intolerance 31793
ures 31791
ion 31790
forefront 31787
Fal@@ 31785
crashed 31777
township 31775
hadn 31772
resigned 31753
refusal 31743
disadvantaged 31739
voltage 31736
Philip 31727
trace 31725
voter 31725
USD 31723
Philippine 31721
tal@@ 31714
toilet 31706
Huang@@ 31702
cooling 31698
Nearly 31698
Colorado 31695
describing 31693
retention 31691
warrant 31685
Reports 31680
reunification 31676
visibility 31673
travelled 31652
Name 31649
objection 31649
strain 31640
fiber 31639
joke 31639
dishes 31638
Vo@@ 31637
quantitative 31637
comprising 31636
trick 31633
statutory 31632
matching 31627
Armenia 31626
adi 31624
chat 31619
Af@@ 31601
assumption 31596
escaped 31590
diplomacy 31584
infant 31581
seal 31572
delicate 31569
Russians 31560
listened 31552
SC 31551
booking 31549
Case 31549
NASA 31541
balls 31538
copper 31534
VII 31531
circular 31521
ose 31520
Mari@@ 31517
deb@@ 31515
sponsor 31513
Statement 31506
Conclusion 31504
resist 31503
optimization 31499
ences 31498
purchases 31497
petition 31495
Welfare 31489
databases 31487
supplied 31478
tac@@ 31468
Read 31465
teenagers 31457
finalized 31452
bridges 31439
350 31432
fra@@ 31432
rises 31420
qualify 31420
treating 31419
pit 31411
traded 31407
ser 31402
template 31401
EN 31398
Zika 31392
Never 31385
Allen 31384
Gl@@ 31381
Sy@@ 31369
Language 31364
failures 31351
16.@@ 31345
parameter 31343
checking 31343
throwing 31341
expecting 31337
counted 31335
mineral 31334
mall 31324
withdrawn 31304
fatal 31303
ops 31302
2.1 31295
iling 31285
cro@@ 31284
baseball 31284
abuses 31284
Educational 31276
Whit@@ 31272
insist 31271
tag 31265
justified 31261
earliest 31249
glory 31238
hyper@@ 31233
Together 31232
tured 31230
awa 31229
charm 31228
concentrate 31211
lob@@ 31206
ultra 31205
appraisal 31197
benchmark 31197
Consumer 31191
300,000 31189
Gal@@ 31181
eman 31180
mouse 31179
creativity 31172
ody 31170
defender 31170
AL 31160
HK 31151
Hamas 31148
ached 31147
applicant 31144
cer@@ 31138
physically 31130
chamber 31129
garbage 31119
automotive 31117
trail 31116
relying 31112
500,000 31105
spotted 31082
sentiment 31081
brave 31079
transformed 31075
Round 31073
ave 31071
na@@ 31069
15.@@ 31051
DA@@ 31046
fantastic 31041
Instagram 31040
net@@ 31032
IOC 31032
Analy@@ 31032
comrades 31017
lab@@ 31007
dropping 31003
Theresa 31000
demonstrates 30998
Istanbul 30997
analysed 30996
ris 30989
invention 30985
Jeff 30979
loc@@ 30979
stat@@ 30977
mut@@ 30974
pass@@ 30968
thor@@ 30959
referee 30953
ja@@ 30951
Guidelines 30945
documented 30944
Final 30942
ases 30941
CIA 30928
Fol@@ 30920
Notes 30919
Matthew 30915
accepting 30914
rebuild 30914
earning 30906
= 30902
SH@@ 30885
prosecuted 30881
fore@@ 30877
ear 30870
26@@ 30867
disseminate 30865
Jiangxi 30856
Excellency 30854
Page 30853
mystery 30844
agu@@ 30838
RO@@ 30835
reads 30834
organised 30831
ca 30829
Question 30824
fruits 30823
durable 30812
respects 30811
collision 30809
ago@@ 30805
vertical 30803
unveiled 30802
Zhen@@ 30802
tenure 30798
Remember 30798
ven 30795
les@@ 30792
sequ@@ 30789
NEPAD 30780
assignment 30775
predictable 30766
desertification 30758
romantic 30755
biennial 30753
Autonomous 30751
cour@@ 30744
coupled 30742
directory 30733
mess 30727
End 30724
Reduction 30712
aki 30711
passport 30691
Equipment 30683
colleague 30681
CEDAW 30677
reduces 30673
demobilization 30673
orange 30669
Bo 30664
Command 30660
ishing 30659
Lar@@ 30650
ew 30644
Large 30635
zhong 30632
ratify 30626
U.S.-@@ 30625
excuse 30616
Steel 30611
phases 30597
fro@@ 30595
SBI 30594
Recent 30582
son@@ 30565
Fle@@ 30564
hair@@ 30564
Computer 30557
questioning 30545
graduation 30540
viewing 30538
tends 30533
1,500 30529
Alexander 30529
Rol@@ 30528
Tajikistan 30523
leather 30520
fertility 30520
seemingly 30516
IG@@ 30510
Tal@@ 30510
ey@@ 30506
1982 30503
Cra@@ 30502
traveling 30496
Toyota 30494
brigade 30490
piracy 30478
theatre 30474
radar 30469
Ak@@ 30469
whereas 30466
ele@@ 30464
clearing 30463
har 30453
AT 30452
restrict 30452
sty@@ 30439
sporting 30436
theater 30425
stabilize 30424
intervene 30423
40,000 30422
tz 30421
Cambridge 30416
expulsion 30412
Heritage 30406
dialog 30401
racist 30398
Copenhagen 30392
UNIFIL 30391
Der@@ 30389
inherent 30389
Address 30384
inning 30382
AR 30380
du 30375
Start 30371
landlocked 30368
CON@@ 30364
duplication 30364
Nothing 30362
ensured 30360
stants 30357
stopping 30354
Border 30335
embrace 30332
fal@@ 30332
vis@@ 30328
ep 30318
summarized 30312
pragmatic 30302
facilitation 30298
convene 30297
Wo@@ 30289
Nik@@ 30284
cruise 30282
teenager 30270
chocolate 30268
Reporting 30261
reject 30255
cing 30248
crying 30243
Wan 30242
championships 30238
ought 30236
openness 30235
Detroit 30233
verse 30223
I.@@ 30214
wit@@ 30213
Kunming 30211
ices 30211
optional 30208
Calls 30206
picking 30202
firearms 30201
continuity 30196
hybrid 30189
suite 30185
charging 30172
securing 30171
rubber 30164
But@@ 30163
Learning 30155
hood 30154
Maritime 30150
homeless 30136
person@@ 30127
borrowing 30117
Leg@@ 30112
Den@@ 30106
NBC 30101
á@@ 30095
GEF 30092
Dal@@ 30089
aker 30063
real@@ 30062
Feng@@ 30057
Document 30057
expectation 30045
gun@@ 30044
ez 30041
palace 30039
Cairo 30037
icon 30034
Procurement 30034
validity 30030
cell@@ 30016
submissions 30014
Tong@@ 30013
heated 30010
fang 30005
Senegal 30003
Traffic 29994
UNCITRAL 29984
lan 29982
bubble 29981
misconduct 29980
limiting 29977
laying 29976
functionality 29964
snow@@ 29963
random 29961
turmoil 29958
tan 29947
innings 29944
swim 29944
Sab@@ 29942
confused 29932
Oxford 29930
spl@@ 29930
WFP 29908
che 29906
instruction 29881
Patrick 29871
barrel 29865
Greater 29861
Cli@@ 29846
bles 29844
aster 29838
SMEs 29830
enemies 29819
read@@ 29815
jing 29808
registry 29808
harmonization 29807
leverage 29807
Transportation 29802
Changchun 29798
Temple 29793
Full 29791
Diego 29786
doping 29784
chuan 29782
chers 29781
Lei 29780
infectious 29775
dro@@ 29772
reinforce 29768
ashing 29758
licensing 29753
deserves 29751
whis@@ 29747
Revolution 29737
1979 29733
industrialization 29729
wu 29727
denial 29725
plug 29721
excitement 29719
handful 29710
Kurdish 29708
Cook 29704
C.5 29703
Dallas 29701
sia 29700
mon 29699
fle@@ 29693
neuro@@ 29688
Anderson 29682
downtown 29681
Carter 29681
hunting 29678
CN.4 29678
photograph 29677
spar@@ 29673
zy 29672
horses 29668
sits 29657
hostile 29651
nan@@ 29650
tsunami 29647
openly 29642
releases 29640
justify 29635
dia 29634
pleaded 29633
Loc@@ 29627
termination 29627
plain 29624
105 29619
ui 29618
narrative 29616
izes 29610
uncle 29608
rick 29601
chains 29598
dealers 29597
martial 29589
Vegas 29587
psychology 29577
pole 29568
audiences 29566
Age 29563
Me 29544
developer 29534
automobile 29532
Dr@@ 29519
cheaper 29518
Target 29514
IV@@ 29511
worrying 29510
pillars 29508
Francis 29501
mentally 29496
Capacity 29483
bones 29482
computing 29474
hungry 29470
wildlife 29469
pledge 29462
Wol@@ 29453
Lady 29444
examining 29444
beef 29443
offense 29440
Goal 29433
Regulation 29421
rings 29414
accumulation 29413
optimize 29413
Money 29409
retro@@ 29402
recycling 29397
sor@@ 29392
len 29391
Christ 29384
demographic 29375
Again 29372
cab@@ 29367
Ol@@ 29366
directive 29365
Xiang 29357
zes 29353
Peoples 29352
Paralympic 29349
Jinan 29348
Jamaica 29345
Ap@@ 29341
Du 29340
fare 29339
nie 29336
replies 29336
Lev@@ 29325
Paper 29322
damaging 29321
a.m 29318
tioned 29315
Pra@@ 29314
impartial 29310
Jonathan 29304
Bolivia 29295
allocate 29293
AI 29291
Jews 29288
Ker@@ 29282
Pan 29273
Companies 29271
letting 29269
timetable 29267
appropriation 29265
controller 29262
Rule 29260
Shen 29258
Maria 29253
Jing 29252
ab 29251
unlawful 29246
remembered 29240
rhetoric 29240
125 29234
Session 29233
auto@@ 29230
wo@@ 29217
Domestic 29211
C.3 29210
kil@@ 29206
ony 29202
franchise 29201
naval 29200
Maryland 29193
maps 29180
tanks 29166
breathing 29163
Throughout 29162
optical 29155
iner 29155
Regarding 29153
Good@@ 29134
Pursuant 29133
Soon 29132
ills 29121
law@@ 29121
Tao 29120
Arctic 29116
clip 29107
dest 29103
Massachusetts 29098
Fi 29085
Ky@@ 29081
processor 29074
Ah@@ 29073
Hay@@ 29063
twin 29063
fence 29062
owed 29048
descent 29048
collaborative 29044
1.6 29044
pensions 29042
blin@@ 29042
fax 29032
positively 29023
hunt 29016
robot 29001
catching 29001
Summary 28997
accelerating 28993
semi@@ 28993
appliances 28992
regimes 28989
bears 28988
ei 28986
~ 28982
census 28980
Cold 28979
2.3 28977
scrutiny 28977
Sher@@ 28966
limitation 28943
remuneration 28942
fabric 28940
Supply 28939
gaining 28939
combining 28924
Qing 28921
Morning 28920
dioxide 28920
ential 28919
lover 28918
treatments 28910
washed 28908
caring 28896
disappointing 28894
convey 28888
gar 28882
Guests 28874
replacing 28858
fusion 28854
reactions 28851
occasionally 28846
C.1 28846
104 28845
disappointment 28845
Paragraph 28837
traders 28834
Duke 28833
practitioners 28831
alisation 28823
zh@@ 28822
aka 28822
firefighters 28816
quota 28816
inability 28814
stipulated 28809
Canberra 28800
satellites 28794
rebounds 28793
Bus@@ 28776
tab 28776
Calif 28775
affirmed 28770
Rice 28766
MP@@ 28763
disputed 28763
Sum@@ 28759
Vietnamese 28747
clouds 28747
combatants 28735
trauma 28734
tended 28730
exhausted 28730
bie 28727
evacuation 28724
mul@@ 28723
Ian 28713
disaggregated 28712
Evening 28711
ov@@ 28704
RT 28701
Welcome 28699
Fran@@ 28693
hing 28692
Oscar 28692
land@@ 28690
troubled 28688
powered 28677
oh 28674
keeper 28666
Iceland 28666
dose 28663
fer 28659
Hun@@ 28659
Aid 28652
volatility 28651
Fr@@ 28650
ald 28648
theories 28646
ori 28637
arch@@ 28630
hatred 28626
stand@@ 28625
ament 28615
、 28605
SBSTA 28599
Cleveland 28597
Trafficking 28594
dedication 28593
alled 28583
blocking 28582
cocaine 28573
conspiracy 28571
predecessor 28567
rum@@ 28561
Gor@@ 28545
itated 28544
Help 28529
Seattle 28526
quake 28526
Kat@@ 28516
hiding 28515
sul@@ 28514
marginalized 28511
nerve 28508
Queensland 28493
fi 28490
hn@@ 28486
Consultative 28481
UL@@ 28480
esti@@ 28480
Facility 28478
roster 28476
Spe@@ 28470
tonnes 28467
polling 28467
ols 28467
assists 28463
HRC 28459
consulted 28452
Fiji 28447
persuade 28446
contracting 28445
reminder 28437
harsh 28434
politician 28434
exported 28428
berry 28427
Scientists 28421
strip 28405
Works 28405
retailers 28402
countless 28385
80@@ 28382
ink@@ 28379
Aviation 28373
diesel 28362
Len@@ 28344
cri@@ 28344
filming 28343
curb 28342
slavery 28341
tongue 28337
une 28336
modern@@ 28335
claimant 28331
relay 28324
Water@@ 28322
reader 28322
ater 28317
instant 28312
Ye 28310
Estate 28307
lease 28306
CB@@ 28302
Tory 28296
CD@@ 28296
magnetic 28296
Prize 28285
painted 28277
issuing 28268
Op@@ 28261
Proliferation 28258
evaluated 28245
ODA 28232
protocols 28214
ans@@ 28213
celebrity 28207
tran@@ 28205
auspices 28203
shocks 28202
Kal@@ 28201
imagination 28198
volumes 28193
Hui 28193
criticised 28190
specialists 28185
anxious 28175
milit@@ 28172
obliged 28168
councils 28165
lobby 28162
Jane 28159
counting 28156
extrabudgetary 28153
Listen 28152
Put 28149
litigation 28144
privately 28142
Telegraph 28135
differently 28131
subregion 28128
transmitting 28121
tus 28118
sacrifice 28118
congressional 28116
Expo 28099
unrest 28099
accomplished 28098
Minnesota 28098
Welsh 28085
religions 28082
yours 28075
Os 28075
Presidents 28049
rain@@ 28041
mad@@ 28038
ecosystems 28034
steering 28032
Harvard 28028
nurse 28021
vit@@ 28008
Mount 28004
crown 28004
worries 28001
overtime 28000
tense 27998
resilience 27995
mac@@ 27993
AG@@ 27992
Cameroon 27987
matched 27986
Learn 27983
Committees 27980
ev 27970
preparedness 27967
Experience 27958
Low 27953
premise 27951
attributes 27942
Express 27940
23@@ 27939
Live 27939
Account 27939
verified 27938
presidents 27937
dependence 27930
Mars 27928
sit@@ 27927
lung 27926
suspend 27915
refrain 27915
climbing 27905
dale 27902
span 27899
You@@ 27891
crowded 27887
electro@@ 27883
Nobel 27882
preference 27882
Bad@@ 27879
lim@@ 27875
hiring 27872
ght 27866
User 27861
featuring 27852
CRC 27847
ATION 27846
pc 27846
node 27846
pling 27841
Statistical 27837
veto 27834
cancellation 27832
Budgetary 27828
3.2 27823
ss 27821
bru@@ 27821
17.@@ 27816
E.@@ 27816
Save 27813
vendors 27809
ü@@ 27805
aga 27800
adjacent 27789
strengths 27784
complain 27784
Risk 27783
Gary 27774
clarity 27768
Norwegian 27758
unhappy 27757
Belgian 27757
V. 27753
Level 27750
helicopters 27748
1978 27747
inated 27744
perspectives 27742
monitors 27740
LA 27735
xian 27735
defendants 27731
Delta 27730
easing 27724
ball@@ 27722
Economics 27721
Ying@@ 27720
fol@@ 27719
4.5 27716
oceans 27713
fundamentally 27711
Las 27710
Consequently 27708
shifted 27702
panels 27702
peninsula 27697
enters 27697
bits 27696
Growth 27696
supplement 27694
unanimously 27692
Server 27684
Getty 27681
acti@@ 27680
gotta 27677
rest@@ 27676
nit@@ 27661
structured 27658
quo 27656
layers 27649
hin@@ 27640
Rico 27639
HK@@ 27637
Disney 27630
Bar 27630
ere 27620
100@@ 27615
tery 27610
toys 27609
cattle 27609
102 27605
IPSAS 27604
itor 27602
compatible 27596
subsidy 27596
suc@@ 27587
free@@ 27578
18.@@ 27577
Romney 27566
Met@@ 27565
frustration 27564
On@@ 27561
desirable 27558
scattered 27557
Dur@@ 27557
Overseas 27554
explicit 27544
Ningbo 27541
updating 27538
quarterly 27537
bankruptcy 27536
taxpayers 27529
Interim 27527
Zambia 27524
CT@@ 27518
naked 27515
bottles 27513
graduated 27510
Salvador 27508
Speaker 27504
rers 27500
wording 27496
broadly 27488
trac@@ 27487
finances 27484
alities 27479
horizontal 27475
alike 27468
Web@@ 27464
lane 27458
Charlie 27454
tear 27449
declarations 27443
Steven 27438
UNAMID 27432
Find 27430
Shenhua 27430
GB 27428
clarified 27420
shelters 27417
shorter 27414
asted 27411
P.@@ 27403
explosives 27402
god 27397
MONUC 27390
gym 27388
specifications 27386
Arms 27381
macro 27365
prone 27356
fucking 27353
sealed 27351
pink 27348
boxing 27348
continental 27348
traveled 27345
wherever 27345
DA 27336
tel 27331
modules 27327
Ding 27319
tariffs 27319
Atomic 27316
evacuated 27311
dear 27303
1.8 27300
upward 27291
twentieth 27291
Sudanese 27286
curve 27276
kan 27275
Ly@@ 27274
ambulance 27274
wastes 27269
exceptions 27265
xia 27246
varied 27245
prof@@ 27244
compensate 27243
ko@@ 27241
kov 27238
Xing@@ 27232
fits 27229
treasure 27221
mers 27220
charter 27219
soup 27217
loyal 27216
phenomena 27212
enshrined 27210
dynamics 27198
Traditional 27187
L. 27181
Introduction 27180
lined 27180
fa 27179
Jr 27178
fluid 27177
libraries 27170
paintings 27163
0.5 27155
Ari@@ 27153
explo@@ 27149
2.4 27141
steam 27140
businessman 27139
bers 27138
Changsha 27138
Discussion 27133
Bab@@ 27128
mol@@ 27123
Trial 27118
Customer 27118
Gro@@ 27116
human@@ 27115
immigrant 27112
tives 27109
cure 27106
goalkeeper 27105
designers 27105
row@@ 27099
dian 27095
rooted 27089
civilized 27089
bell 27087
gers 27072
distinguished 27067
explaining 27067
Boat 27065
Playing 27056
slowed 27050
followers 27044
Mine 27044
temple 27040
Kerry 27037
bombings 27035
borrow 27035
lottery 27034
Lou@@ 27034
ero 27028
Nu@@ 27028
BMW 27022
genes 27019
construct 27019
calculate 27018
relocation 27007
Over@@ 27001
Problems 26996
Shanxi 26996
playoffs 26994
atives 26991
rot@@ 26988
sheets 26975
ight 26971
Especially 26971
menting 26969
aiming 26966
SS 26962
Penal 26961
speeches 26959
surprisingly 26955
sky@@ 26954
gonna 26947
AF@@ 26946
plates 26941
deputies 26937
hazards 26928
Antonio 26916
tale 26916
° 26913
distinguish 26905
beside 26900
Illinois 26899
opposing 26894
Call 26882
ester 26878
tours 26873
112 26871
XX@@ 26865
notified 26864
entrepreneurship 26864
floors 26857
pil@@ 26857
occupational 26854
dong 26852
Brooklyn 26850
aria 26847
milestone 26841
accomplishments 26841
anonymity 26841
kiss 26838
Unless 26838
intimidation 26829
licensed 26829
pile 26824
apology 26823
esp@@ 26822
chess 26814
OS@@ 26813
Presidential 26808
Rubio 26807
drunk 26805
sni@@ 26802
maternity 26801
Provision 26800
briefings 26800
AD 26800
dimensional 26796
rep@@ 26789
cycling 26789
advocated 26789
Mosul 26785
certified 26778
dispatched 26774
diversification 26773
Hua 26772
rugby 26771
qiao 26768
Hague 26759
Coalition 26758
mud 26756
broadcasting 26750
coun@@ 26750
Bahrain 26744
optimism 26741
ree 26736
Alabama 26735
scenarios 26728
evolving 26726
pain@@ 26722
yp@@ 26719
Van@@ 26702
Ph@@ 26698
mad 26697
Evans 26691
corporation 26687
composite 26661
compatriots 26658
ard@@ 26656
ert 26656
mixture 26652
farms 26652
Establishment 26646
mates 26646
stunning 26645
Neither 26642
drilling 26641
Commons 26640
Leste 26637
approaching 26630
lah 26619
Presidency 26616
Clark 26611
statute 26603
determines 26602
Stop 26601
Jose 26598
Qaida 26593
YouTube 26590
hil@@ 26589
somehow 26587
rist@@ 26581
Theory 26575
sewage 26564
emotion 26548
alien 26541
dividend 26535
Mohammed 26535
alling 26534
renovation 26527
Graham 26523
int 26514
junction 26502
quan 26499
nationally 26476
Families 26471
printer 26470
19.@@ 26470
Zheng@@ 26465
gam@@ 26458
shipment 26457
textile 26454
vin 26453
responsive 26452
60,000 26451
translate 26451
Yahoo 26448
Pope 26447
Americas 26445
incomes 26433
LED 26428
multinational 26427
inches 26422
landmark 26422
fines 26413
upgraded 26412
logo 26411
F.@@ 26406
monopoly 26401
dam 26399
ide 26395
pig 26395
Kir@@ 26391
legend 26391
bow 26388
swept 26381
presenting 26381
posting 26379
Supervision 26375
Mom 26368
SR.@@ 26367
feared 26366
cumulative 26363
Disaster 26354
presentations 26353
aligned 26349
pilots 26346
Advanced 26339
Mass 26337
wondering 26334
steal 26327
compact 26325
weakened 26320
ium 26318
wel@@ 26316
awaiting 26310
Yeah 26309
lonely 26308
reservoir 26305
Sel@@ 26303
afterwards 26301
stereotypes 26299
Meteorological 26291
minded 26290
vul@@ 26287
mysterious 26286
Kremlin 26284
ster@@ 26283
.. 26282
tweet 26282
Phoenix 26275
raid 26268
midfielder 26267
uphold 26263
endorsement 26261
BR@@ 26256
Gui@@ 26255
Cape 26252
decoration 26249
mapping 26248
yields 26246
successive 26246
farmer 26244
elle 26242
profitable 26237
thouse 26235
Jia@@ 26232
Kansas 26232
Researchers 26231
1981 26222
reinforced 26214
Nicaragua 26212
Images 26211
Has 26205
editorial 26195
distant 26192
UNIFEM 26190
CL@@ 26186
Hope 26174
Wat@@ 26174
prevailing 26174
Argentine 26170
ection 26153
costly 26153
resistant 26150
103 26147
ffs 26141
patience 26125
sparked 26123
photographer 26122
rapporteur 26121
beans 26119
react 26117
flowing 26115
bot@@ 26113
tile 26106
Dom@@ 26102
chemistry 26102
Institutions 26096
lacking 26095
creditors 26093
aying 26092
procur@@ 26091
grandmother 26080
inheritance 26078
resign 26078
uma 26075
fingers 26073
indoor 26071
wrapped 26061
sie 26057
vy 26055
iser 26048
juice 26040
PL@@ 26035
lit 26034
corrupt 26022
Disabilities 26019
Sector 26018
è@@ 26007
Ag@@ 26005
grab 25997
Ten@@ 25992
cannabis 25980
participant 25976
distress 25971
likelihood 25969
Zh@@ 25967
Choose 25953
leak 25952
Basel 25941
gallery 25938
shr@@ 25935
Air@@ 25930
coaching 25923
SD@@ 25920
Cancer 25920
Birmingham 25919
quar@@ 25916
thir@@ 25909
Ji 25906
rocks 25904
speeding 25901
remainder 25898
trademark 25896
sheep 25895
proceeding 25880
graphics 25875
filmed 25873
elaboration 25857
ashi@@ 25850
lessly 25843
taxation 25838
Indonesian 25837
20s 25829
occupy 25823
Xin 25815
Rab@@ 25812
ulate 25810
port@@ 25807
Kabul 25795
marijuana 25789
Holy 25785
Wi 25785
crowds 25781
Jud@@ 25780
vendor 25778
Fortunately 25776
Volkswagen 25768
Sou@@ 25758
Walker 25753
intentions 25752
spacecraft 25751
MC 25748
Fab@@ 25738
Christopher 25738
Automobile 25727
absorb 25727
doc@@ 25725
incomplete 25720
freight 25717
quarterback 25714
asting 25711
Tehran 25704
Abe 25697
Registration 25695
Rap@@ 25693
OSCE 25681
parked 25680
formerly 25677
metals 25674
photography 25673
governed 25672
Kuwaiti 25672
Liberation 25669
segments 25665
believing 25663
nation@@ 25659
uncomfortable 25656
lacked 25655
Occupied 25646
Site 25646
configured 25645
styles 25645
ud 25639
og@@ 25638
Dam@@ 25636
reliance 25633
part@@ 25628
excellence 25626
Conduct 25623
dealer 25620
tial 25611
realizing 25607
ote 25607
Net 25603
illed 25602
uk@@ 25597
concludes 25597
insists 25594
midnight 25591
hardest 25587
Max 25585
slip 25583
shame 25583
hostilities 25581
tra 25560
thunder@@ 25550
utilized 25539
encouragement 25531
disruption 25528
ö@@ 25526
mur@@ 25526
nets 25517
investigative 25502
modes 25500
ref@@ 25497
quantities 25495
visas 25494
sson 25492
111 25491
attribute 25490
nurses 25483
physics 25482
Stone 25479
Applications 25475
selecting 25470
livelihoods 25465
HR 25455
valve 25454
tribal 25450
sends 25446
Princess 25445
tune 25443
tren@@ 25440
Ran@@ 25435
fting 25430
collectively 25430
credentials 25425
dom 25424
brush 25423
conscience 25423
1950s 25420
proactive 25417
atively 25416
long@@ 25412
classical 25410
gates 25407
apping 25404
activist 25402
announcing 25402
Directorate 25401
Outer 25398
disturbing 25398
embedded 25397
surveyed 25397
northwest 25397
caution 25394
opera 25385
freezing 25383
PO@@ 25382
exploded 25379
enrolment 25374
Terry 25372
ner@@ 25362
tactical 25361
iles 25357
undermined 25353
Sorry 25350
condolences 25347
zo@@ 25346
intimate 25344
shuttle 25332
yers 25328
unexpectedly 25328
vin@@ 25324
conversations 25319
exp@@ 25318
bir@@ 25310
Thousands 25304
polis 25301
Edward 25301
yo 25298
xenophobia 25295
Wood@@ 25294
Situation 25286
3.1 25282
Corps 25280
cinema 25279
bao 25276
consisting 25274
EP 25270
Ear@@ 25268
lor@@ 25268
pledges 25268
Yellow 25259
wounds 25259
Sec@@ 25245
Northeast 25219
participatory 25217
columns 25210
114 25206
Think 25202
gel 25197
Slovenia 25194
dness 25189
popul@@ 25188
supporter 25183
norm 25181
carpet 25181
Actually 25176
activated 25175
Nov 25175
ected 25170
CT 25166
examinations 25166
budgeting 25161
lacks 25159
pa 25158
MDGs 25155
retreat 25137
ker@@ 25133
enthusiastic 25131
rein@@ 25122
22@@ 25115
15,000 25115
zhi 25115
Qi 25102
ET@@ 25096
wil@@ 25096
portra@@ 25092
IX 25084
HO@@ 25082
hip 25078
militant 25077
shelf 25073
Virgin 25070
90@@ 25067
wings 25065
Il@@ 25063
liable 25062
Niger 25058
debts 25053
1983 25042
Qin@@ 25034
cabin 25027
attraction 25025
resolutely 25020
heroin 25016
Hen@@ 25013
authentication 25010
Oklahoma 25008
anna 25007
liberation 25006
connectivity 25005
rejection 25004
cyber 25002
prolonged 25001
Anti@@ 25000
External 24995
Mun@@ 24993
eness 24991
TC 24988
mas@@ 24987
portal 24986
plan@@ 24982
automation 24970
Bol@@ 24968
Fra@@ 24964
literally 24959
Harbin 24958
weaknesses 24958
apartments 24956
delighted 24950
fathers 24949
demonstrators 24944
abused 24939
incumbent 24938
CE 24933
fulfill 24926
Organizations 24924
notable 24922
centralized 24911
interact 24910
restraint 24904
lay@@ 24900
pin 24899
servicing 24898
gotten 24897
ake@@ 24892
akes 24890
1973 24878
Ze@@ 24874
Highway 24871
warn 24866
synergies 24866
smartphone 24859
spectacular 24856
imposing 24856
gasoline 24853
dev@@ 24851
Kor@@ 24848
Yong 24845
Chu@@ 24844
inten@@ 24842
Thompson 24839
Mic@@ 24835
abide 24832
amp@@ 24828
dering 24824
reck@@ 24821
insiders 24811
lac@@ 24810
Developed 24809
quest 24808
Cai 24804
suburbs 24797
coin 24796
Place 24794
accord 24792
colonial 24789
extremist 24788
ounded 24786
catering 24782
lively 24779
statue 24778
vic 24778
methodologies 24778
offs 24777
countermeasures 24776
Ps 24773
cheese 24773
credits 24766
fatigue 24765
defects 24760
Gates 24759
Gang 24753
Angela 24750
H. 24747
Effective 24741
Ric@@ 24736
Peninsula 24735
institutes 24734
Michelle 24727
dges 24727
Tw@@ 24725
hall@@ 24725
par 24722
Susan 24714
G. 24714
Out@@ 24709
Commander 24704
jailed 24703
fame 24690
Jong 24688
scenery 24686
stationed 24678
sword 24676
qualifying 24675
administered 24674
abolition 24658
Guizhou 24656
dar@@ 24652
sk 24651
establishes 24647
ele 24644
PRO@@ 24642
incredibly 24633
stepping 24630
Was 24627
prerequisite 24626
lig@@ 24620
ied 24618
shifting 24618
cats 24616
grey 24615
indirectly 24614
Shel@@ 24609
Uber 24603
Lisbon 24603
Jie 24599
Pic@@ 24598
searched 24595
pic@@ 24593
convince 24589
patrols 24586
3000 24579
inequalities 24579
VIII 24577
Response 24574
edit 24561
ni 24560
eries 24548
denies 24548
accessibility 24538
Participation 24536
dow@@ 24535
Zhengzhou 24534
sect 24529
homework 24529
sooner 24527
Haitian 24522
ambition 24519
NSW 24510
unpaid 24510
wanting 24507
itable 24505
delicious 24504
vowed 24504
Mozambique 24501
Charlotte 24499
tele@@ 24498
reimbursement 24498
Cri@@ 24496
diamonds 24494
boarding 24491
Intel 24484
Not@@ 24484
ora 24482
Apart 24482
jurisdictions 24481
purely 24477
spell 24472
hopefully 24469
indictment 24467
spe@@ 24459
Watson 24458
2019 24454
lecture 24451
ozone 24451
Montenegro 24447
thy 24442
pets 24440
Ful@@ 24425
dressing 24423
Pas@@ 24420
toy 24413
aim@@ 24408
adherence 24407
configure 24405
sla@@ 24402
piano 24397
Soci@@ 24391
IM 24386
privileges 24384
Bai 24383
ples 24379
commissioner 24377
Try 24375
Nevada 24373
sta@@ 24371
Law@@ 24368
identical 24357
kilograms 24351
Envoy 24351
insight 24350
hardship 24346
Bai@@ 24345
evaluating 24344
bly 24336
tuition 24332
secrets 24331
í@@ 24324
Night 24323
Plus 24323
Ronaldo 24318
restart 24314
Gas 24311
Parliamentary 24310
115 24306
Rad@@ 24303
interfere 24300
syndrome 24300
Mauritius 24299
jacket 24298
70@@ 24294
triple 24292
106 24291
baseline 24290
teenage 24288
1974 24288
ails 24284
gray 24266
Accounting 24264
crackdown 24260
analyzing 24255
endo@@ 24253
modification 24250
Auto 24247
Relief 24241
Ray 24240
ories 24234
Gun@@ 24234
escalation 24233
nest 24226
Wimbledon 24224
beneath 24223
108 24222
mask 24220
Roberts 24219
Sahara 24218
rats 24214
grabbed 24207
exemption 24205
Ow@@ 24202
umbrella 24197
Tre@@ 24194
Chin@@ 24193
lining 24189
diversified 24186
admissibility 24185
posing 24181
onal 24177
mar 24175
Hur@@ 24174
asc@@ 24168
educate 24168
Rev.1 24163
Gran@@ 24159
neighbor 24153
stole 24149
recognise 24148
Judicial 24146
gambling 24144
compiled 24140
pt 24136
extremism 24132
Brisbane 24130
af 24129
Wright 24127
Rus@@ 24120
regi@@ 24118
knock 24104
Moon 24104
desktop 24103
seas 24100
definitions 24094
foremost 24092
Giants 24090
honey 24087
EM 24086
cooperating 24084
Macedonia 24083
gy@@ 24078
deck 24073
unfortunate 24066
raped 24060
decree 24059
cy 24055
SE 24052
noble 24052
renewal 24046
peers 24046
implies 24038
obesity 24034
inviting 24032
systemic 24030
weigh 24028
flies 24026
Pension 24022
contracted 24016
UNMIK 24009
thin@@ 24008
stressing 24006
clin@@ 24000
shit 23999
underlined 23997
5000 23996
qualities 23991
particles 23980
undertakings 23978
metric 23974
2.6 23972
lau@@ 23967
xed 23961
Slovakia 23954
chase 23937
lens 23928
Colombian 23927
forensic 23925
Plant 23924
radioactive 23921
precipitation 23915
broadband 23909
25th 23909
valley 23905
queue 23901
thers 23899
Josh 23899
kit 23897
py 23897
ventures 23891
sizes 23881
privilege 23876
Az@@ 23876
tariff 23874
Volunteers 23870
sympathy 23868
bite 23867
administering 23864
ila 23862
emia 23860
Fa@@ 23858
Kyrgyzstan 23856
Rep. 23856
elled 23854
vacuum 23849
kn@@ 23845
Cypriot 23844
comprises 23839
Che@@ 23838
violating 23836
convert 23831
normative 23816
suits 23814
loyalty 23807
rankings 23805
Cul@@ 23803
accessories 23791
arity 23787
wholesale 23785
geological 23784
nowhere 23782
mei 23780
spectators 23773
sav@@ 23772
wind@@ 23772
rell 23769
Nine 23767
fruitful 23764
school@@ 23759
ech 23758
accompanying 23756
tain@@ 23754
HP 23749
projections 23743
parliaments 23742
Shang@@ 23736
lam@@ 23734
heart@@ 23733
minimal 23731
Fuzhou 23728
illi@@ 23728
occurring 23727
committing 23725
Albania 23724
hem@@ 23724
pairs 23719
clearer 23719
grandfather 23716
editing 23713
Dol@@ 23706
crystal 23705
crews 23703
imbalance 23702
Hello 23700
sin 23697
inspectors 23696
UNOCI 23680
recognised 23676
locals 23675
parade 23672
contingency 23667
bunch 23660
inations 23659
refusing 23658
managerial 23658
casting 23651
weaker 23649
Making 23648
suff@@ 23648
Dow 23643
iconic 23639
neglect 23622
Leader 23616
unite 23610
hazard 23609
Kam@@ 23602
Ping@@ 23600
stered 23593
mini 23592
ema 23592
sing@@ 23590
instructed 23583
deliberate 23581
block@@ 23578
legislature 23567
akers 23561
tent 23558
igh@@ 23557
hun@@ 23545
P. 23541
heaven 23539
fr@@ 23536
1970 23535
sorts 23533
accomplish 23530
tumor 23528
sively 23527
sha 23525
redress 23524
Pot@@ 23521
murdered 23517
virtue 23513
mir@@ 23510
shouted 23507
sim@@ 23503
renowned 23499
anny 23497
asp@@ 23495
Cle@@ 23490
Nor 23483
defines 23479
mentation 23478
Gil@@ 23476
road@@ 23475
icks 23473
Has@@ 23466
reasonably 23461
recipients 23459
chro@@ 23456
Es@@ 23443
CS 23439
san@@ 23435
warfare 23432
Bell 23430
executions 23424
Knowledge 23420
SD 23419
aesthetic 23418
probability 23416
gus 23402
insured 23402
Kan@@ 23401
evolved 23401
Malta 23399
Cru@@ 23397
aks 23396
Leicester 23391
depressed 23389
FO@@ 23381
fossil 23380
Continue 23376
confront 23375
Clo@@ 23373
cord 23371
Tang@@ 23371
grades 23371
Starting 23367
alarming 23366
incoming 23363
pleasant 23363
polar 23362
Maj@@ 23357
Craig 23351
stamp 23348
Value 23348
horror 23348
sensors 23342
bra 23337
cohesion 23335
Strait 23334
Mah@@ 23332
gies 23332
ishan 23332
Democracy 23330
MS@@ 23327
disorders 23327
ust 23326
ouring 23325
Bin@@ 23324
Hawaii 23323
ame@@ 23320
travelers 23320
undermining 23319
Far 23317
Wood 23315
kou 23315
Consideration 23312
ather 23311
Body 23309
tou@@ 23308
judged 23297
ush 23291
Conventions 23289
fluctuations 23284
att 23279
Christ@@ 23272
disappear 23271
capit@@ 23270
strang@@ 23268
matic 23266
S.@@ 23261
Schools 23260
possess 23259
administrators 23259
sensing 23256
balcony 23253
Disease 23253
ural 23249
a0 23234
Congolese 23232
pour 23231
bin@@ 23229
Run 23226
elder 23224
emphasizing 23222
Factory 23221
dock 23220
100m 23216
lip 23215
Nice 23213
navy 23213
Tennessee 23212
gymnastics 23207
prediction 23206
Liu@@ 23204
3.3 23202
Stanley 23201
Stewart 23196
ender 23189
spotlight 23181
dumping 23181
peacekeepers 23174
lineup 23173
Organisation 23171
affiliated 23165
apple 23165
sta 23160
Delhi 23160
Poly@@ 23154
bus@@ 23152
handsome 23150
poisoning 23147
rev@@ 23145
C.2 23140
Pyongyang 23139
Ling@@ 23138
By@@ 23130
Perry 23123
innovations 23123
Too 23121
cousin 23120
Dean 23114
distribute 23114
manufactured 23112
Sky 23110
una 23109
sincerely 23106
ech@@ 23104
contradiction 23103
News@@ 23102
Spi@@ 23101
clinics 23098
Oregon 23098
Trading 23094
ela 23088
medication 23079
discretion 23078
ison 23069
Dev@@ 23066
borough 23062
4.2 23059
cultivate 23059
Conservation 23057
margins 23053
Corporate 23051
Gorges 23048
addiction 23045
reaffirms 23028
holy 23027
forec@@ 23022
Promoting 23021
compilation 23021
beaches 23020
ulation 23020
colorful 23015
Lithuania 23012
ICC 23012
ideology 23010
wives 23008
NO@@ 23006
enjoys 23006
Camp 22999
rigorous 22999
Dec 22998
abnormal 22995
chef 22992
uk 22989
Android 22986
Bot@@ 22986
hygiene 22982
ians 22974
UNDCP 22974
Sti@@ 22972
comp@@ 22972
sibility 22970
celebrities 22963
alise 22963
accusing 22962
ula 22961
mobilized 22949
Min 22949
Les@@ 22946
zo 22945
transported 22944
animation 22930
tablet 22929
lic 22923
vo 22922
Sony 22918
107 22917
lengthy 22917
medi@@ 22917
stu@@ 22910
exclude 22903
Goldman 22885
Zhu@@ 22884
Conflict 22879
Song@@ 22877
sunshine 22876
9,000 22872
demolition 22869
shareholder 22866
accompany 22865
batteries 22864
FDA 22864
stabilization 22864
garage 22862
ECOWAS 22859
360 22858
carriers 22855
hence 22851
variables 22849
endeavour 22849
formulating 22846
Ox@@ 22841
ety 22838
sweat 22838
worn 22837
invites 22827
Encourages 22827
Euro 22826
vitamin 22823
Boeing 22821
differ 22815
reversed 22813
Clearly 22812
passive 22812
develops 22812
Ed 22811
Kil@@ 22810
short@@ 22810
uneven 22807
Flo@@ 22792
fulfilment 22783
Kon@@ 22776
width 22761
you@@ 22757
objections 22752
Nazi 22751
livestock 22744
dawn 22736
arm@@ 22735
odi@@ 22734
fuels 22734
cleaner 22731
versus 22730
Dominican 22729
iller 22727
Bruce 22727
inspire 22726
hop@@ 22724
Pittsburgh 22723
mobilizing 22719
adventure 22717
inception 22717
night@@ 22712
stant 22710
spin 22708
symposium 22707
frustrated 22705
guang 22703
Brit@@ 22700
shocking 22693
pronounced 22693
Justin 22686
&apos;We 22686
appearances 22683
smiling 22677
Nobody 22677
enrollment 22676
LE 22674
enquiry 22672
Records 22671
endless 22671
civilizations 22671
plat@@ 22670
viral 22667
guaranteeing 22665
Sean 22660
new@@ 22659
1972 22657
incompatible 22656
AA 22655
lend 22654
sauce 22648
grams 22647
thro@@ 22647
scrap@@ 22646
alli@@ 22635
ati 22634
COM@@ 22632
stipulates 22629
Grant 22622
ax 22621
hedge 22620
Banks 22619
Decree 22607
priced 22604
stakeholder 22604
Register 22600
submitting 22600
stro@@ 22599
1.7 22599
Yo@@ 22591
complications 22589
stop@@ 22586
altitude 22585
Campaign 22585
midst 22582
laughing 22581
hang@@ 22578
southwest 22575
battlefield 22572
tled 22572
mic@@ 22570
Racial 22566
grand@@ 22564
alignment 22564
photo@@ 22558
Registry 22558
pornography 22552
Equal 22551
Way 22546
flavor 22544
weaken 22543
ato@@ 22541
blown 22534
lovers 22528
DVD 22521
house@@ 22513
Pearl 22510
122 22510
Add.@@ 22503
fis@@ 22501
restriction 22498
ackers 22495
Socialist 22488
Indiana 22485
clever 22483
Cel@@ 22477
beam 22474
extends 22473
brick 22471
mounted 22470
china 22463
Luxembourg 22456
motive 22456
conce@@ 22455
nell 22444
fts 22444
bloody 22443
Opera 22442
Westminster 22441
Hi 22438
slipped 22437
socially 22433
celebrations 22426
suited 22422
intake 22420
enko 22418
Sul@@ 22417
huang 22409
regulator 22407
Vill@@ 22405
policing 22403
ry@@ 22400
Spurs 22399
slower 22396
119 22396
inhuman 22391
sou@@ 22386
subsistence 22386
oversee 22380
aded 22380
und@@ 22379
motherland 22373
sion@@ 22369
Weather 22369
tai 22368
slowing 22364
deserved 22364
Robinson 22359
gases 22352
deprivation 22350
voluntarily 22349
Marketing 22348
certainty 22346
Half 22345
celebrating 22344
Statements 22342
astronauts 22338
headlines 22336
grows 22331
cel@@ 22328
malnutrition 22321
bility 22318
Oct 22318
scan 22316
MI 22315
destructive 22315
SUV 22309
destinations 22306
tioning 22300
Details 22299
drops 22298
exceeding 22297
asleep 22296
eration 22296
Step 22295
happily 22295
Land@@ 22295
geographic 22293
adjusting 22292
Yin@@ 22291
pel@@ 22290
neighboring 22278
cloth 22277
1975 22275
makeup 22274
heroes 22274
induced 22268
Shaanxi 22262
rendered 22259
ense 22255
Item 22254
Gold@@ 22254
flags 22252
stabbed 22252
containers 22243
GE 22242
tiger 22242
dragged 22239
Anne 22238
correction 22237
6.5 22233
Gov. 22233
Met 22227
cycles 22225
restoring 22222
depic@@ 22220
inci@@ 22216
undergoing 22213
Things 22211
oks 22210
shouting 22207
Bir@@ 22206
Reaffirming 22205
exercised 22203
nevertheless 22199
persist 22198
Sarkozy 22194
Sand@@ 22191
smen 22191
Denver 22190
magazines 22184
elli 22184
justification 22181
inconsistent 22178
Wisconsin 22172
synthesis 22171
stam@@ 22169
refu@@ 22163
xes 22163
Juan 22163
nearest 22161
subparagraph 22157
1977 22156
throat 22150
ello 22149
civic 22147
inde@@ 22144
foul 22144
HS 22137
devote 22134
regulating 22133
Hurricane 22124
000@@ 22123
Austrian 22120
cigarettes 22115
uh 22111
bian 22099
retire 22098
Oc@@ 22095
decentralization 22091
Pul@@ 22086
onia 22086
indexes 22084
idi@@ 22084
earmarked 22083
Reading 22079
vac@@ 22074
homo@@ 22071
drone 22068
bullet 22066
recovering 22065
dom@@ 22052
7.5 22050
Tai 22050
ket@@ 22040
Poor 22038
Iron 22029
circum@@ 22028
guo 22022
tire 22019
Pro 22015
rog@@ 22010
clash 22006
John@@ 22006
militias 22004
locate 22002
conf@@ 22000
Death 21993
sided 21990
UNMIL 21988
touch@@ 21986
Jac@@ 21985
ress 21978
Ahmed 21977
preferences 21976
Ang@@ 21967
Ron@@ 21963
Nar@@ 21963
rez 21959
ugly 21949
Mercedes 21947
web@@ 21943
met@@ 21942
hurry 21941
Tan@@ 21936
irs 21935
XML 21933
shoulders 21931
Teachers 21921
Sure 21910
forgot 21905
whereby 21905
intermediate 21904
slope 21903
Work@@ 21901
aly@@ 21901
Nation 21899
Lincoln 21897
Us 21893
outskirts 21891
Maz@@ 21889
Biological 21872
Aqu@@ 21870
cop@@ 21868
rus@@ 21865
fri@@ 21864
lips 21863
Card 21860
fog 21860
McDonald 21849
D.@@ 21849
eled 21849
accidentally 21849
qi@@ 21848
undertook 21847
Tam@@ 21846
Captain 21843
Neil 21838
belonged 21836
cadre 21834
iously 21832
Parker 21831
Advancement 21830
Consider 21828
after@@ 21828
orally 21822
execute 21820
relies 21818
esses 21811
bel 21811
Kur@@ 21806
credited 21803
CF@@ 21799
Consensus 21796
aluminum 21793
ury 21789
Theatre 21784
Capitol 21784
Warner 21783
Sw@@ 21783
80,000 21782
Happy 21781
linear 21777
kidney 21777
compatibility 21777
positioned 21777
gor@@ 21776
1,0@@ 21774
Transfer 21772
coordinates 21764
cave 21764
gent 21758
Inside 21755
commencement 21752
Unity 21745
1976 21744
ME 21736
rhythm 21733
Integration 21731
Germans 21727
sian 21714
ECA 21706
inquiries 21706
bull@@ 21704
Utah 21703
25,000 21700
preceding 21694
Sn@@ 21694
Wang@@ 21692
Baltimore 21689
shar@@ 21689
Marshall 21685
Welcomes 21684
poetry 21681
blank 21681
oven 21677
Administrator 21676
ayed 21675
lows 21675
clues 21671
Organized 21669
degrading 21667
alistic 21664
Yankees 21664
Zhong 21662
appetite 21658
sym@@ 21657
exercising 21654
worship 21654
R. 21653
bec@@ 21650
dig 21646
assumptions 21646
Arthur 21642
SAR 21636
Kentucky 21636
Pence 21629
individually 21627
Users 21627
Everybody 21620
4.1 21614
Hom@@ 21605
Cooper 21605
yle 21604
parental 21604
Reviewed 21600
Fil@@ 21599
ins@@ 21599
wich 21598
2.7 21596
initi@@ 21595
Hundreds 21589
appealing 21585
gentle 21578
torn 21577
manages 21574
mill 21574
20.@@ 21572
irregular 21554
commanders 21552
Lions 21550
chil@@ 21550
Pap@@ 21547
Bryant 21541
benefiting 21540
Maintenance 21540
Motor 21539
Bron@@ 21539
inging 21526
Girls 21521
repeal 21519
Opening 21517
abducted 21512
colon@@ 21507
ander 21503
pants 21502
Ren 21497
careers 21497
mph 21495
FR@@ 21495
realise 21495
apologize 21492
Pudong 21492
revol@@ 21490
Equ@@ 21487
Improving 21481
Banking 21478
consuming 21472
trainers 21468
tations 21465
plings 21463
Mol@@ 21461
Damascus 21460
Kun@@ 21457
itting 21454
ida 21450
pes 21448
3.4 21444
Jian 21442
maturity 21440
rs 21439
Fort 21436
torch 21436
commend 21436
Conservatives 21436
acceleration 21435
Honduras 21435
ange 21430
Citizens 21424
condemn 21424
parliamentarians 21418
Ori@@ 21417
pertaining 21412
5.5 21411
automated 21410
queen 21409
spy 21408
contaminated 21407
&apos;It 21406
Son@@ 21401
casual 21400
cow 21398
ts@@ 21398
shaking 21395
far@@ 21395
Perth 21389
ues 21386
FIFA 21385
lish 21383
reinforcing 21383
Collins 21380
ased 21380
viewer 21379
imposition 21377
lied 21375
Anna 21371
din 21371
tless 21368
audi@@ 21367
mond 21365
Metropolitan 21364
Hot 21361
realised 21359
renew 21359
stairs 21356
spatial 21349
rainy 21347
Provisional 21341
eting 21341
lamp 21340
stal@@ 21336
sand@@ 21335
exhibitions 21335
absent 21331
Different 21330
Dou@@ 21324
abundant 21324
logging 21321
notify 21320
CI 21315
hman 21312
fiction 21305
vered 21299
4.3 21297
Fang 21296
oke 21289
readily 21284
deceased 21284
tract 21282
Jay 21281
DO@@ 21280
Arbitration 21277
109 21273
stranded 21272
promulgated 21272
deteriorating 21271
Jimmy 21271
Car 21267
mus@@ 21264
Eve 21262
entries 21262
persistence 21254
Rou@@ 21253
tun@@ 21252
keyboard 21242
Masters 21242
OP@@ 21241
gol@@ 21241
tam@@ 21239
tening 21239
oping 21238
serial 21236
ck 21235
mice 21233
len@@ 21228
0.7 21226
flooded 21226
Orange 21223
darkness 21222
170 21219
improves 21218
Tennis 21195
Roger 21194
Bin 21192
Micro@@ 21188
bull 21184
ECB 21181
thread 21180
Dave 21179
Na 21175
Someone 21174
analyzes 21174
bribery 21174
Clinical 21170
Leave 21169
profitability 21167
shortages 21165
employ 21162
assuming 21157
Juli@@ 21155
compelling 21153
stylish 21153
guides 21152
revise 21149
prisoner 21140
time@@ 21135
austerity 21135
1969 21132
Better 21130
Recommendation 21128
births 21118
Aug 21118
Cher@@ 21117
Lim@@ 21113
Quar@@ 21109
destroying 21106
spacious 21104
Rong@@ 21100
onist 21097
ier 21097
screens 21096
Petro@@ 21093
bis 21092
Mitchell 21091
Ya@@ 21090
suppose 21088
stretched 21075
financially 21075
Shan 21068
Brow@@ 21067
oyang 21059
aches 21056
128 21053
Memorial 21051
lot@@ 21042
mounting 21041
℃ 21037
LTD 21032
hills 21029
wards 21029
tag@@ 21027
cooked 21027
explosions 21025
Georgian 21022
lain 21020
bei 21010
chips 21009
itors 21004
huan 21003
ppers 20990
anonymous 20988
olds 20983
bias 20981
rub@@ 20975
ship@@ 20975
Kent 20974
expectancy 20971
respecting 20967
leap 20965
ym@@ 20965
Lon@@ 20959
churches 20954
GA 20951
dairy 20950
22nd 20947
SNP 20941
Investors 20939
wee@@ 20938
Single 20936
cognitive 20931
supreme 20923
graph 20921
Faso 20920
expressions 20919
holdings 20919
Alaska 20919
shy 20919
hostage 20910
localities 20909
metre 20907
Parents 20907
Lab@@ 20902
matrix 20901
plo@@ 20900
extract 20899
servant 20894
Lane 20893
prescription 20891
shells 20881
giants 20876
eventual 20868
symbol@@ 20866
proposing 20863
backward 20862
tackling 20862
cus 20856
boot 20852
sentencing 20847
Day@@ 20846
Hao 20846
hotline 20844
massage 20842
ano@@ 20838
logy 20838
whi@@ 20836
deli@@ 20834
Vis@@ 20833
Physical 20833
Moldova 20833
poorly 20833
insolvency 20829
Burkina 20826
Fel@@ 20821
Yin 20820
Phil 20813
dominate 20807
Kis@@ 20805
Beyond 20804
113 20794
hurricane 20792
receiver 20791
Governmental 20790
Lisa 20790
vigorous 20787
therein 20786
Tit@@ 20780
southeast 20780
plight 20770
Ve@@ 20769
longtime 20766
redeployment 20763
ician 20762
fined 20757
hopeful 20756
aux 20756
permanently 20754
leaf 20754
seizure 20753
Export 20752
canceled 20749
sweeping 20748
visitor 20747
shipped 20745
backdrop 20744
shifts 20740
Prote@@ 20738
alter 20732
ologically 20727
phased 20726
Kai@@ 20726
cried 20724
stre@@ 20720
Hou@@ 20717
Anyone 20717
inal 20715
chasing 20714
chapters 20714
Janeiro 20707
eco 20706
Powers 20706
Christians 20704
motorcycle 20701
withdrew 20695
Europeans 20695
mud@@ 20693
Eli@@ 20692
trou@@ 20687
Up@@ 20686
Steering 20684
diversion 20684
confirms 20683
massacre 20678
symbolic 20676
interrupted 20674
biting 20674
Dodgers 20669
Chen@@ 20661
uro@@ 20656
Effect 20654
rumors 20651
sofa 20647
unstable 20642
threatens 20641
Prix 20641
Fun@@ 20640
Xia 20637
Cohen 20635
clu@@ 20631
ounce 20630
admits 20630
uranium 20629
tailored 20629
melon 20626
relied 20625
snap 20622
profiles 20621
ared 20620
spi@@ 20618
Zeng 20612
kingdom 20602
Qin 20597
Changes 20593
Gate 20592
bleeding 20592
screen@@ 20586
pra@@ 20586
kindergarten 20584
jewelry 20577
tened 20577
bride 20569
duly 20568
AU 20556
Protocols 20554
unto 20553
drainage 20552
vacant 20548
shook 20547
00m 20543
Cao 20543
Specific 20538
mas 20534
reli@@ 20530
females 20530
e.@@ 20528
Lakes 20528
materi@@ 20527
ope 20526
hierarchy 20525
centr@@ 20524
Newcastle 20522
stays 20520
gardens 20517
mild 20515
Ferguson 20514
demonstrating 20512
que@@ 20505
attacker 20499
Ball@@ 20492
paths 20489
silk 20485
asser@@ 20479
Fire@@ 20469
Warren 20466
correlation 20465
abolished 20463
ova 20461
streak 20455
HD 20455
ply 20455
biology 20448
stakes 20446
stac@@ 20444
vil@@ 20443
fir@@ 20440
rope 20440
Bak@@ 20438
Heart 20437
proves 20436
permissions 20428
Student 20428
240 20427
116 20424
flame 20421
entrepreneurial 20421
butter 20420
Bernie 20411
enrolled 20406
Coach 20404
ility 20404
unlimited 20402
Lind@@ 20402
Carlos 20395
flames 20390
2,500 20386
Mo 20386
zoo 20384
laboratories 20383
mou@@ 20383
boring 20383
gall@@ 20382
Chang 20381
Wel@@ 20373
Articles 20372
explanations 20364
validation 20360
convergence 20360
convictions 20359
sciences 20357
unreasonable 20357
bla@@ 20357
patch 20355
communicated 20352
corrected 20349
Federer 20347
tionally 20344
alty 20342
Hills 20336
ader 20336
confidentiality 20332
SW@@ 20332
shirts 20329
loop 20325
Tan 20322
Ning 20321
recogn@@ 20318
Ensure 20317
ami 20316
Ok@@ 20313
Multi 20310
Welcoming 20308
Tories 20305
communist 20302
preserved 20291
ousness 20291
alls 20290
spouse 20289
aining 20286
Girl 20283
Zo@@ 20282
dubbed 20282
merchants 20281
prince 20280
males 20280
acknowledges 20273
tious 20270
trap 20268
huh 20264
Mississippi 20261
luggage 20260
prayer 20255
az 20255
Castro 20250
Munich 20239
midfield 20239
Tong 20237
reas@@ 20235
nuts 20234
Jon@@ 20230
merged 20227
criterion 20224
sampling 20221
gab@@ 20219
Strong 20217
bay 20216
ski@@ 20214
varies 20213
Vatican 20208
DPP 20207
stic 20205
Villa 20202
iro 20200
Personnel 20198
victories 20197
Wenzhou 20194
curricula 20193
synthetic 20191
confronted 20190
Pin@@ 20188
surrender 20188
tual 20187
cen@@ 20183
edi@@ 20182
patri@@ 20179
expose 20168
align 20166
benchmarks 20164
atten@@ 20162
hypo@@ 20161
fissile 20160
industrialized 20159
power@@ 20156
Jintao 20155
Jon 20151
prohibiting 20149
aggregate 20147
dig@@ 20146
Bali 20142
architectural 20141
Fro@@ 20140
maj@@ 20139
interactions 20137
persecution 20137
kidnapping 20137
118 20132
Jam@@ 20132
searches 20130
headline 20123
Yorkshire 20122
Comp@@ 20116
sang 20116
pine 20115
miracle 20105
Pay@@ 20102
Israelis 20101
Wait 20098
corners 20095
Direct 20092
impede 20090
overhaul 20087
Sheng@@ 20087
muscles 20084
devastated 20081
lanes 20081
repairs 20080
invalid 20076
seasonal 20076
rence 20073
bat 20072
humankind 20067
Mohamed 20067
loads 20064
risky 20059
File 20054
laptop 20053
senators 20052
revitalization 20050
spray 20046
acks 20044
main@@ 20043
beloved 20040
Views 20038
AV@@ 20031
Urges 20030
extremists 20030
premature 20025
commands 20022
basin 20022
ored 20020
UT@@ 20017
priest 20015
yah 20015
rie 20013
Sexual 20011
inmates 20008
suburb 20000
invoked 19997
weird 19996
erosion 19996
G20 19996
cir@@ 19996
comm@@ 19988
installations 19986
oked 19983
intersection 19981
Margaret 19978
cere@@ 19977
fications 19976
Ah 19973
millennium 19972
Close 19968
slogan 19968
Bed@@ 19964
LL@@ 19963
marke@@ 19963
bicycle 19962
Indians 19961
Cop@@ 19958
leaked 19955
altogether 19953
Monterrey 19951
exceeds 19948
reminds 19947
Eventually 19946
Form 19945
Mourinho 19943
travellers 19940
North@@ 19939
takeover 19936
gated 19935
ili 19934
Township 19933
embarrassing 19932
Ale@@ 19931
vibrant 19930
tak@@ 19926
fleeing 19919
EX@@ 19918
Gall@@ 19916
Adams 19911
brac@@ 19909
mun@@ 19909
deficits 19908
Allow 19905
warmth 19905
reign@@ 19904
Bac@@ 19904
Lei@@ 19903
runway 19903
Mac 19903
comb@@ 19903
destiny 19900
sup@@ 19900
audits 19900
rookie 19898
aire 19897
universally 19897
Combat 19897
Partners 19895
Ningxia 19895
Bil@@ 19893
courtyard 19893
fitted 19891
extraction 19890
Notice 19885
Bloomberg 19884
band@@ 19883
rightly 19883
irrit@@ 19881
rains 19880
Cab@@ 19878
precedent 19877
balancing 19875
Recommendations 19873
opener 19872
fic@@ 19869
premier 19867
&apos;The 19864
Yuan@@ 19863
flee 19862
setup 19858
eaten 19858
munitions 19857
bloc 19855
Tech 19851
home@@ 19847
Discipline 19847
ideals 19846
broaden 19845
adversely 19840
contested 19839
Living 19834
commemorate 19834
Hampshire 19833
repu@@ 19829
Directors 19827
Play@@ 19827
Enter 19825
indications 19820
Entertainment 19818
scor@@ 19817
bow@@ 19817
Christie 19814
woods 19811
K. 19811
shield 19803
dable 19799
centred 19795
Serbian 19792
Rockets 19791
Least 19785
mosque 19785
architect 19780
eping 19779
sor 19776
hid 19774
Austin 19773
sells 19770
Inte@@ 19769
Prosecutors 19768
dal 19765
spir@@ 19762
marriages 19759
Less 19749
exploit 19747
eck 19745
runners 19740
yin 19739
aides 19736
comparing 19735
cigarette 19729
poured 19729
PAR@@ 19725
Harris 19725
Dream 19721
Hughes 19718
Jennifer 19711
promotional 19710
Bet@@ 19707
400,000 19704
sailing 19704
wishing 19696
inform@@ 19695
Projects 19693
Independence 19693
Bei@@ 19690
Sl@@ 19690
occasional 19686
merit 19685
buffer 19685
SU@@ 19684
Ethics 19681
jurisprudence 19680
Tel@@ 19677
releasing 19674
ffle 19673
TD 19673
Smart 19668
confined 19666
Provide 19657
Materials 19657
Cris@@ 19656
insul@@ 19655
consume 19653
ems 19653
gently 19651
sexy 19646
folks 19642
genital 19640
blew 19638
nominations 19637
Structure 19636
lightning 19635
intim@@ 19635
24th 19631
absorption 19624
anyang 19624
archives 19621
BP 19621
atorial 19615
grim 19613
artillery 19611
pray 19610
Victims 19607
Cardiff 19606
thereof 19606
Suzhou 19595
infl@@ 19594
elevator 19594
Islamist 19594
nar@@ 19593
smallest 19586
jian 19583
Bao 19581
eri 19580
Ros@@ 19578
Silver 19577
vation 19575
Double 19571
absorbed 19571
seismic 19567
incorrect 19566
ented 19566
elly 19556
mentioning 19554
3.6 19553
Pon@@ 19552
revenge 19547
selective 19543
117 19539
factions 19538
Rob 19537
solo 19536
Greg 19535
disparities 19534
ez@@ 19531
Tottenham 19527
ags 19527
riot 19527
aboard 19526
barrels 19523
Plaza 19522
masters 19519
cessation 19517
prohibits 19515
1971 19514
Fei 19511
void 19508
generic 19507
oth@@ 19503
fitting 19502
steep 19502
sexuality 19501
gli@@ 19501
Sus@@ 19500
collar 19497
lectures 19495
blowing 19493
nut 19493
sounded 19492
Store 19491
clut@@ 19491
Increased 19490
corridor 19488
stealing 19484
injuring 19484
aping 19483
consumed 19479
switched 19475
Sco@@ 19463
1968 19460
vibration 19456
Barry 19446
summits 19445
Similar 19445
Impact 19444
Sem@@ 19443
sticks 19432
Generally 19430
magnificent 19429
compounds 19428
sacred 19425
tory 19422
whereabouts 19420
revealing 19418
temp@@ 19405
Turning 19390
fostering 19386
endorse 19385
packing 19384
vez 19382
Outside 19378
Baby 19376
taxpayer 19375
Latvia 19369
Jamie 19363
bankers 19361
paste 19359
cricket 19356
richest 19348
acious 19348
specification 19347
Prison 19343
genic 19341
ots 19337
och@@ 19336
waist 19335
Hussein 19334
empower 19334
Nelson 19331
tia 19320
Laura 19317
220 19317
asts 19316
retailer 19313
Castle 19310
log@@ 19310
Benin 19308
convoy 19306
Nonetheless 19306
chy 19304
arrears 19303
s. 19301
assign 19294
ACT 19290
10,@@ 19290
qualitative 19288
tization 19287
Pay 19286
Regulatory 19285
imaging 19282
mo 19282
国@@ 19281
Vancouver 19274
Settlements 19273
eleventh 19264
surgical 19264
docking 19263
Often 19262
Takes 19262
film@@ 19261
portable 19260
Tak@@ 19259
owe 19259
deeds 19259
booked 19257
rics 19257
injustice 19254
flesh 19253
ishes 19249
technically 19244
spirits 19244
Leaders 19239
academics 19238
Cost 19235
MR 19233
severity 19229
differential 19227
payable 19220
playoff 19214
scarce 19211
recruiting 19209
30th 19201
allegation 19200
Turner 19199
bear@@ 19199
irrigation 19199
plea 19192
battles 19186
126 19185
los@@ 19184
struggles 19183
mathematics 19182
pools 19181
idity 19180
1960 19179
PE 19179
spheres 19179
Bible 19178
pork 19178
fan@@ 19178
seriousness 19174
Hence 19169
Sav@@ 19168
creditor 19166
Croatian 19163
MA@@ 19160
Picture 19159
imbalances 19159
identifies 19157
max 19155
infants 19155
trophy 19152
jumping 19150
autom@@ 19148
fried 19148
DS 19146
declines 19144
astic 19144
ern 19142
gesture 19142
elaborated 19140
Feb 19132
Chan 19129
analysing 19129
museums 19127
nam@@ 19125
enrich 19124
problematic 19123
brink 19122
symbols 19117
Durban 19116
anni@@ 19115
1949 19112
nings 19109
rup@@ 19108
Pun@@ 19108
impartiality 19107
Doctor 19098
refund 19097
scre@@ 19097
confirming 19093
Informal 19092
su 19088
App@@ 19086
ques 19084
lett 19083
albeit 19081
Recovery 19080
smiled 19080
155 19079
grip 19073
Lower 19072
ram@@ 19072
Mob@@ 19071
Registrar 19071
Concerning 19067
fron@@ 19065
tougher 19064
refuge 19061
aide 19060
passionate 19060
Tem@@ 19058
DE@@ 19057
curious 19057
Reagan 19056
Responsible 19056
inherited 19051
Corr.1 19049
backbone 19047
Ali@@ 19047
err@@ 19043
ric 19042
arrives 19039
shapes 19039
mosquito 19037
astronom@@ 19036
los 19031
Understanding 19030
Inf@@ 19023
Counsel 19023
sidelines 19020
Prosecution 19016
legendary 19013
Luke 19013
campaigning 19009
aked 19008
Editor 19007
assassination 19004
bang 19002
Kowloon 19002
rying 19001
upheld 19000
Phil@@ 18997
aroused 18996
GPS 18995
Years 18994
Kings 18992
legisl@@ 18990
diplomat 18987
historically 18986
preserving 18981
shel@@ 18980
equation 18976
blockade 18969
Tru@@ 18964
dou@@ 18962
respiratory 18956
expired 18956
Various 18955
Solutions 18953
coordinators 18951
arch 18945
,@@ 18942
residual 18936
anim@@ 18933
ii 18932
thereon 18932
Rescue 18930
fantasy 18928
kle 18926
iPad 18922
Aaron 18921
classmates 18919
Estonia 18917
achment 18909
petroleum 18901
Galaxy 18901
Rail 18894
distinctive 18891
Ara@@ 18885
rebuilding 18883
exacerbated 18882
Manual 18881
blessing 18880
moder@@ 18872
Bul@@ 18871
convincing 18863
Machine 18863
protects 18861
festivals 18860
PR 18860
lawful 18857
traffickers 18853
Heavy 18850
Ann 18841
prints 18840
Golf 18839
anic 18837
spa 18836
intra@@ 18835
ions 18835
drum 18834
allowances 18834
Ho 18832
govern 18831
standardization 18822
Rum@@ 18819
Considering 18817
portrait 18815
congestion 18814
backgrounds 18814
proximity 18811
Peking 18810
Course 18807
scep@@ 18803
SARS 18798
interpret 18797
Phase 18793
Dongguan 18793
Pet@@ 18790
prompting 18789
ener@@ 18789
basement 18789
Empire 18786
Wayne 18783
insider 18782
notifications 18777
conditioned 18777
OD@@ 18776
authoritative 18776
dismissal 18775
deportation 18773
CN.9 18773
NY@@ 18772
realm 18771
Sor@@ 18768
qin 18766
Namibia 18764
Manufacturing 18761
chancellor 18759
Turnbull 18758
iti@@ 18757
domin@@ 18756
rests 18751
Thirdly 18751
unauthorized 18748
USB 18745
Cin@@ 18744
ghts 18738
Jinping 18738
terminated 18735
aned 18734
132 18734
diligence 18731
grace 18727
lun@@ 18725
widening 18723
asis 18718
nett 18717
GU@@ 18713
malicious 18713
atomic 18706
Coordinating 18703
facial 18703
lap 18701
mum 18701
signatures 18696
Gallery 18695
interval 18692
River@@ 18690
ticism 18685
scar@@ 18682
supervisory 18681
ek@@ 18680
clean@@ 18677
similarly 18676
math 18673
laughter 18670
Boris 18669
locking 18659
spouses 18655
Honda 18653
lean 18651
glorious 18647
extensively 18647
Thunder 18647
castle 18646
ock 18643
0s 18640
Relevant 18640
episodes 18640
underway 18639
Phillips 18636
ints 18636
collections 18635
streamline 18635
commenced 18634
150,000 18633
2.8 18629
Chi 18629
Reference 18627
fiers 18626
Effects 18623
spon@@ 18620
Bird 18618
Johannesburg 18616
Sha 18615
Zhang@@ 18613
musicians 18612
modeling 18611
ghe 18607
brokers 18605
Observatory 18602
amongst 18598
ells 18597
Nadal 18592
accessing 18590
Revolutionary 18588
undergo 18588
CO2 18586
inge 18584
measurements 18582
bizarre 18580
frames 18579
bargaining 18578
spr@@ 18576
erupted 18576
23rd 18574
combines 18571
Previously 18567
Macau 18566
Governance 18565
wheels 18563
aerial 18559
Pad@@ 18556
OC 18556
performs 18554
cil@@ 18554
policeman 18549
Groups 18546
imminent 18543
dez 18540
nail 18533
mot@@ 18531
builds 18529
ridiculous 18521
fraction 18520
nom@@ 18518
carriage 18516
ecting 18507
sink 18505
Near 18504
lighter 18504
Cs 18501
slave 18497
Invites 18495
UNO@@ 18495
warranty 18494
unpredictable 18494
geo@@ 18494
Sau@@ 18486
sely 18479
sued 18477
Aug. 18476
counterpart 18475
lec@@ 18473
ometer 18473
asing 18473
ambitions 18472
wells 18471
deci@@ 18469
legality 18467
CIS 18465
hydrogen 18458
influx 18458
Stat@@ 18454
hampered 18452
shoe 18449
Reid 18449
1.9 18447
locks 18446
123 18446
olu@@ 18444
pag@@ 18440
denying 18440
typ@@ 18439
proxy 18438
critic 18436
Aligned 18434
switching 18433
cheer 18433
som 18433
broadcaster 18432
edy 18430
Usually 18426
5.2 18422
33@@ 18422
arti@@ 18415
starring 18409
Var@@ 18407
eda 18403
populated 18401
Murphy 18400
podium 18398
pulse 18398
deadlock 18395
Role 18394
colours 18391
amounting 18389
Care@@ 18388
Inspector 18387
Plenary 18386
guilt 18385
135 18384
prevents 18381
prevail 18381
tortured 18381
Core 18375
ounds 18374
premiere 18369
TE@@ 18367
SN@@ 18361
vag@@ 18360
Aberdeen 18359
terrace 18358
privatization 18358
fli@@ 18356
gener@@ 18355
entr@@ 18353
250,000 18351
liquidation 18349
quotas 18348
Maldives 18348
render 18345
vocal 18345
linguistic 18343
80s 18341
swear 18341
arbitral 18340
brake 18339
labels 18337
honored 18337
Gu 18334
Hand@@ 18331
broker 18330
Harvey 18329
shui 18327
Netanyahu 18325
Mogadishu 18323
Getting 18321
aqu@@ 18318
Referring 18316
uncertainties 18315
scal@@ 18314
manifestations 18311
Wells 18310
drain 18310
Yue 18310
YOU 18310
Enforcement 18309
Fisher 18309
Reg@@ 18307
Ou@@ 18306
ladder 18305
Edwards 18304
ession 18300
aunt 18300
feder@@ 18298
CI@@ 18297
Down 18295
vacancies 18294
Py@@ 18292
conceptual 18291
Focus 18289
Develop 18287
bis@@ 18285
Rooney 18284
dos 18284
Tonight 18282
reactor 18278
vaccines 18273
Wall@@ 18273
curtain 18272
prestigious 18264
Bru@@ 18262
weighed 18258
touching 18257
asi@@ 18254
tex@@ 18254
regrettable 18252
Voluntary 18250
unanimous 18250
physician 18250
shut@@ 18249
bare 18249
Vie@@ 18248
acknowledging 18247
aj@@ 18247
lenders 18245
Nokia 18242
charitable 18241
35@@ 18235
dead@@ 18234
ordin@@ 18234
bands 18233
Cities 18232
Cla@@ 18232
endangered 18231
sunny 18228
trunk 18225
renminbi 18223
catalyst 18219
regretted 18216
influenza 18213
oli 18208
cooperatives 18208
consultancy 18208
axis 18206
tenants 18199
mount 18195
Heng@@ 18188
Cum@@ 18187
Electronics 18185
Albert 18184
console 18180
landmines 18174
partisan 18174
Firstly 18173
banner 18168
organisms 18165
Ken 18162
Turkmenistan 18161
Yugoslav 18160
tel@@ 18157
disagree 18152
vicious 18151
bust@@ 18151
chin 18146
side@@ 18146
purple 18146
Jar@@ 18142
Adoption 18142
gger 18136
seizures 18136
sheer 18135
gram 18134
pu 18134
patents 18126
charts 18125
hydraulic 18118
hailed 18117
esh 18117
rol@@ 18115
ucks 18111
psych@@ 18111
contamination 18111
herewith 18108
wl 18103
aint 18102
Potter 18101
hospitality 18100
ón 18092
diameter 18091
cooperated 18091
40s 18087
idle 18085
crow@@ 18085
decorated 18083
eves 18080
Fish 18078
Oct. 18075
tournaments 18074
dial 18069
,000 18069
pity 18069
tiles 18065
fort 18062
Nissan 18062
thereafter 18061
Nigerian 18059
Opportunities 18058
thi@@ 18057
brains 18057
pneumonia 18056
accepts 18056
alleviation 18055
murders 18054
Lanc@@ 18053
Osborne 18052
Mak@@ 18052
hers 18048
holistic 18043
delegate 18041
Danny 18038
gia 18038
speeds 18032
TE 18030
erson 18028
acquisitions 18027
dental 18020
Born 18018
NPC 18015
lia 18013
Gansu 18011
eving 18011
successively 18008
sellers 18006
flagship 18000
Fur@@ 17998
glit@@ 17995
aur@@ 17993
Shortly 17993
snake 17992
Kel@@ 17991
poem 17991
delivers 17991
rett 17990
fertilizer 17989
texture 17983
ut 17981
Kra@@ 17978
Keith 17977
successes 17977
deferred 17973
alties 17973
competed 17963
ind@@ 17963
1930s 17961
tist 17953
donate 17953
lightly 17951
brus@@ 17949
umbled 17948
influences 17947
Cer@@ 17945
observance 17943
lowered 17940
Australians 17938
lement 17934
flow@@ 17934
healing 17929
ECE 17927
ides 17926
backlash 17918
ó@@ 17916
posters 17915
vague 17912
countering 17911
hockey 17910
Residents 17910
insert 17908
Amy 17908
variation 17906
eds 17904
attackers 17904
Brothers 17903
stranger 17903
teens 17901
ried 17901
restrictive 17899
illustrates 17898
drill 17891
itz 17887
lorry 17885
declaring 17883
consist 17879
Basketball 17879
academy 17876
fulness 17876
recep@@ 17874
Ring 17871
abstract 17869
No.@@ 17868
vicinity 17866
eligibility 17858
jia 17858
tem@@ 17856
shaping 17854
Something 17852
vine 17849
Comey 17849
Port@@ 17848
awa@@ 17848
Duncan 17844
lick 17844
pollutants 17844
ballistic 17842
illustrated 17838
Holocaust 17837
vent 17833
Eng@@ 17832
quote 17829
consolidating 17828
Russell 17827
Audi 17826
Barbara 17822
expedite 17819
akh@@ 17817
rented 17816
IL 17815
Colonel 17814
Kai 17812
py@@ 17812
deficiencies 17809
uniforms 17799
exhaust 17797
rop@@ 17794
Av@@ 17787
Orleans 17787
fuck 17787
0.2 17786
designate 17784
aliens 17783
South@@ 17781
scratch 17777
inity 17775
oxide 17771
Hil@@ 17771
ashi 17771
authentic 17766
Rest@@ 17762
nodes 17760
t. 17759
secretly 17759
jac@@ 17757
intersessional 17755
Play 17753
accreditation 17750
watches 17749
breathe 17748
Talk 17747
unsustainable 17746
Douglas 17744
Increase 17739
gangs 17739
Ankara 17734
enlargement 17732
depreciation 17730
assembled 17727
cuisine 17726
aine 17724
sixtieth 17722
Pre 17721
path@@ 17719
4.4 17717
accomplishment 17716
Erdogan 17713
thrust 17709
regain 17707
ion@@ 17705
anian 17704
chap 17703
ordering 17702
ration@@ 17701
hook 17699
recreational 17696
Spo@@ 17693
surged 17692
Location 17691
lou@@ 17690
designation 17689
FD@@ 17689
Delegations 17689
diagnostic 17683
Cann@@ 17676
Bom@@ 17672
viruses 17668
Shares 17664
wis@@ 17663
Doctors 17663
shallow 17662
loses 17662
scram@@ 17662
Gener@@ 17661
header 17661
Kha@@ 17661
rolls 17661
Sunni 17660
oes 17659
outrage 17656
colored 17655
Vocational 17648
emo@@ 17646
trailer 17646
gru@@ 17644
misunderstanding 17642
informing 17641
calculations 17640
Transnational 17636
acqu@@ 17629
lock@@ 17626
electorate 17616
Drive 17611
tablets 17611
rewards 17608
utilize 17608
ound@@ 17608
corrections 17607
striving 17606
faction 17606
Remote 17604
administrations 17604
departmental 17600
invisible 17596
twelve 17595
Areas 17594
liang 17592
marital 17591
Lawrence 17584
clusters 17583
meth@@ 17581
horizon 17580
28th 17580
erie 17580
cin@@ 17575
acies 17574
mi 17571
cute 17565
pigs 17565
Helen 17564
withstand 17562
terrain 17560
rents 17560
expelled 17557
workflow 17554
goodbye 17554
trem@@ 17551
ANG 17548
Med@@ 17547
nutritional 17544
embarked 17544
Quan@@ 17544
Yun 17543
ister 17542
empire 17538
bug 17537
besides 17537
Infrastructure 17536
UP 17534
supervise 17532
Couples 17531
subtle 17530
comeback 17523
HR@@ 17523
lian 17521
acker 17520
circled 17517
osis 17517
weighing 17516
gues 17515
Tigers 17513
utilities 17512
banning 17511
ported 17510
homeland 17509
boosting 17506
hammer 17502
bosses 17501
earthquakes 17500
advocating 17494
wholly 17491
rescu@@ 17489
hacking 17487
settling 17486
experi@@ 17483
watchdog 17480
Ever@@ 17475
270 17466
defl@@ 17465
lowering 17464
standardize 17464
disciplines 17462
124 17459
dominance 17456
Ele@@ 17456
Clean 17453
RES@@ 17452
doctrine 17452
5.1 17451
U.S 17450
var@@ 17445
Oli@@ 17442
flown 17441
kar@@ 17441
fran@@ 17435
ung@@ 17434
Golan 17434
age@@ 17432
ESCWA 17431
Leading 17430
neighbourhood 17427
Coll@@ 17426
Income 17426
straw 17425
optimized 17424
minerals 17423
undergone 17420
Battle 17419
weekends 17416
smashed 17414
disadvantage 17414
MT@@ 17410
Stars 17407
SCO 17404
Paraguay 17402
Short 17400
Nancy 17399
dirt 17398
Spec@@ 17397
overdue 17395
roy@@ 17394
Depending 17393
branded 17393
45@@ 17390
boots 17387
condemnation 17384
dor@@ 17381
accredited 17381
pipes 17378
Sign@@ 17376
NEW 17373
inserted 17373
dist@@ 17372
Ven@@ 17372
outsourcing 17371
authorize 17367
critically 17367
applause 17367
heightened 17366
radic@@ 17365
exploited 17364
Orlando 17363
gi 17361
fortunate 17360
GO@@ 17359
woke 17359
predicts 17358
dging 17355
misleading 17354
Biden 17352
outgoing 17352
budgeted 17351
Multilateral 17351
Funds 17350
communiqué 17347
pointer 17346
opt 17346
manually 17345
molecular 17345
inn 17345
edited 17345
Sing@@ 17334
ced 17333
Roy 17333
Hus@@ 17333
morality 17333
Ton@@ 17331
stry 17330
Theater 17329
tops 17327
urine 17327
Ye@@ 17325
3.7 17324
Jerry 17320
rallies 17319
Head@@ 17317
overcoming 17316
EUR 17315
eld 17313
Nat@@ 17312
Conditions 17312
Outcome 17309
hness 17306
terminate 17303
bed@@ 17301
Wade 17298
Missouri 17296
screaming 17292
unaware 17290
tar 17289
SL@@ 17285
Tea 17285
It@@ 17284
Workshop 17282
1945 17281
testify 17277
Haz@@ 17275
agreeing 17275
Connecticut 17269
XI 17267
subscription 17266
grief 17263
nightmare 17261
Gam@@ 17261
hottest 17258
bamboo 17258
Jiu@@ 17256
tribunals 17251
Laboratory 17245
Malawi 17243
sea@@ 17243
cross@@ 17241
suppression 17239
boycott 17239
rowing 17238
rang@@ 17235
intentional 17232
immer@@ 17232
queries 17231
Cr@@ 17229
gin 17222
Colin 17220
Lang@@ 17218
EPA 17215
poet 17215
121 17212
Vincent 17209
reacted 17209
Ontario 17206
dire 17205
Produc@@ 17202
entially 17202
eline 17193
centi@@ 17192
Pep@@ 17188
450 17186
author@@ 17185
interrogation 17185
IB@@ 17182
blaze 17182
reforming 17180
squeeze 17179
ranges 17176
coating 17174
formats 17174
Specifies 17168
Clarke 17166
vill@@ 17165
dazz@@ 17160
Laden 17157
chun 17153
tec@@ 17152
streaming 17152
mons 17151
Ultimately 17151
moc@@ 17150
Mei@@ 17147
Roc@@ 17146
twins 17145
Zu@@ 17144
BE@@ 17142
Ask 17138
disastrous 17137
identities 17136
pirates 17136
heed 17130
rockets 17129
Gao@@ 17129
commun@@ 17126
pockets 17124
proving 17123
Ron 17123
Distribution 17122
insights 17121
Chambers 17120
jo 17120
stock@@ 17117
wasted 17114
Technologies 17112
dense 17109
Lang 17108
get@@ 17108
embro@@ 17108
Tribunals 17105
nonprofit 17104
Contract 17103
Zedong 17103
shu@@ 17102
Organ@@ 17100
Mei 17100
atter 17099
Judging 17099
shop@@ 17098
Off 17097
Benjamin 17097
underscored 17096
lesser 17094
photographed 17093
Wars 17093
tuberculosis 17089
SEC 17087
bum@@ 17086
ICE 17085
Broad@@ 17085
recalling 17085
6.2 17083
trainer 17082
pered 17081
210 17079
Forests 17077
chron@@ 17074
insurgency 17073
Bla@@ 17073
mutilation 17071
installing 17069
sar@@ 17067
Ry@@ 17066
graphy 17064
xon 17062
tracked 17061
Whe@@ 17059
publisher 17058
outlines 17054
aforementioned 17052
relieve 17052
po 17051
oured 17049
neglected 17046
Spirit 17045
ICRC 17044
Stri@@ 17043
academia 17040
forgive 17037
sensible 17037
jam@@ 17035
Left 17034
lik@@ 17034
26th 17030
Louisiana 17027
plu@@ 17025
ferry 17025
Hunt 17020
jer@@ 17019
ggy 17017
alternate 17012
bonuses 17011
disseminated 17009
yal 17005
amm@@ 17005
IR 17004
Regular 17000
ually 16998
charming 16993
fasc@@ 16990
Kas@@ 16990
with@@ 16989
Hungarian 16989
Bren@@ 16984
Relationship 16983
assass@@ 16983
iti 16982
Billy 16980
Originally 16980
Kit@@ 16979
inspect 16970
ota 16967
tick 16966
crimin@@ 16965
allocations 16958
inadmissible 16956
LCD 16955
figured 16954
slept 16953
homicide 16952
Kaz@@ 16947
inland 16945
Bow@@ 16944
instantly 16943
acquiring 16941
fascinating 16941
weakening 16941
picks 16934
confessed 16934
sten@@ 16934
wrongful 16932
cut@@ 16932
headache 16930
minim@@ 16925
Baker 16925
gie 16921
tweets 16919
topped 16918
angel 16917
Speci@@ 16915
repaired 16912
sel 16911
200m 16909
siege 16908
mathematical 16907
conditional 16905
petrol 16900
pie 16899
stir 16898
rifle 16897
invented 16894
Fashion 16894
suppress 16891
laughed 16891
MD@@ 16889
opted 16889
attorneys 16888
illustrate 16886
forecasting 16886
milli@@ 16882
miners 16882
moratorium 16882
appliance 16881
gic 16878
Motor@@ 16874
1373 16873
desperately 16871
simplified 16869
CP 16869
Karen 16866
Gibraltar 16865
Emma 16864
Facing 16864
monster 16864
specialty 16862
ushered 16858
ured 16849
Manila 16848
MINUSTAH 16847
anner 16846
bullying 16843
shootings 16843
Beckham 16842
5.3 16836
wick 16835
IBM 16835
UNMIS 16832
timber 16830
creatures 16827
Dublin 16825
onset 16824
AMISOM 16819
Late 16819
Swimming 16818
simultaneous 16817
master@@ 16810
Cad@@ 16809
ption 16806
Prohibition 16805
EV@@ 16805
hike 16803
Cole 16801
Marco 16798
Homeland 16796
Stanford 16795
Certain 16794
fundamentals 16792
DF 16792
Behind 16788
duo 16785
Ot@@ 16783
conserv@@ 16781
Remove 16779
Simpson 16779
Forestry 16779
stimulating 16778
Bio@@ 16773
Content 16769
Davies 16768
enactment 16768
Inv@@ 16768
inspected 16767
dividends 16766
Leeds 16761
Cloud 16758
railways 16758
ecology 16757
Sources 16757
awful 16749
SR@@ 16747
fracture 16745
cubic 16742
violates 16741
Campbell 16739
indicative 16728
wang 16727
developmental 16724
arduous 16720
divorced 16719
Treas@@ 16718
heim 16717
Bretton 16717
fool 16715
Update 16712
roadside 16711
throws 16709
Dakota 16709
Certificate 16707
Djibouti 16707
outh 16706
Contributions 16704
Phot@@ 16701
rushing 16700
Thanksgiving 16698
harmonized 16693
Strengthen 16691
tation 16689
Gong 16689
imprisoned 16688
put@@ 16687
Swe@@ 16684
Likewise 16684
ush@@ 16683
viol@@ 16682
Lat@@ 16680
welding 16679
Resident 16679
Magic 16678
Rachel 16678
heels 16678
favored 16677
solemn 16672
shark 16670
dings 16667
Gen. 16667
DR 16665
Nanning 16664
fireworks 16663
deficiency 16662
PN@@ 16658
transferring 16656
deepest 16656
ION 16654
DE 16654
ineffective 16651
ghost 16651
detrimental 16650
conver@@ 16649
chenko 16649
buttons 16649
surviving 16648
proclaimed 16647
pharmac@@ 16644
parity 16642
acre 16640
phen@@ 16640
comic 16638
Tiger 16635
ridge 16632
Policies 16632
activate 16629
oper@@ 16628
1,4@@ 16625
laundry 16625
Bond 16620
Critics 16617
roller 16616
HC@@ 16613
Mir@@ 16612
efficacy 16611
Arena 16609
faithful 16604
orn 16604
backlog 16602
beneficiary 16601
prospective 16600
Ling 16600
genius 16592
hoon 16588
tail@@ 16583
susp@@ 16578
atism 16578
Larry 16574
duck 16570
olive 16569
Material 16563
goodwill 16561
acceded 16561
thief 16560
Circuit 16560
diminished 16559
adopts 16559
Mubarak 16558
Above 16557
stringent 16556
Brand 16556
microwave 16553
ference 16552
spin@@ 16551
liter@@ 16551
Brad 16551
therhood 16550
exporting 16550
Across 16549
moisture 16545
hectares 16545
M.@@ 16545
rigid 16543
ghan 16541
0.3 16540
outlet 16540
Amsterdam 16535
bes 16534
Diversity 16530
Friendship 16527
ggs 16525
exporters 16525
Mom@@ 16523
freestyle 16522
iri 16521
Jobs 16521
Ice 16520
saves 16519
flav@@ 16512
Run@@ 16510
unt 16505
decreasing 16504
BI 16503
multimedia 16500
Abdullah 16493
shutdown 16490
1540 16490
OAU 16489
Rain@@ 16486
uss 16486
phony 16485
rod 16485
north@@ 16485
Fine 16483
sley 16481
Vari@@ 16478
HL 16477
Industries 16476
consciously 16475
rah 16473
fishermen 16472
jokes 16467
Sheikh 16463
scourge 16457
gment 16453
disadvantages 16446
norm@@ 16445
proceeded 16444
riots 16440
hydr@@ 16439
Sheng 16435
Diana 16433
ensuing 16432
garlic 16431
Peter@@ 16430
Investigators 16430
diagram 16429
cun 16423
ring@@ 16420
vet 16415
transgender 16415
persu@@ 16414
Experimental 16411
innocence 16410
robots 16407
Powell 16400
scri@@ 16400
Stay 16396
Willi@@ 16395
dol 16395
Features 16394
gt 16394
supermarkets 16393
superb 16393
cot@@ 16391
foreseeable 16389
warmly 16385
humor 16384
ourn@@ 16382
claimants 16382
median 16381
flour 16379
horrible 16378
edly 16378
prob@@ 16376
Want 16374
emphasi@@ 16374
asha 16372
rat 16372
kel 16372
festive 16372
uti@@ 16370
Ninth 16370
ario 16364
recurrent 16362
Editing 16361
Wenger 16357
sweep 16350
Venezuelan 16349
retaining 16348
37@@ 16347
oni 16347
atics 16347
nate 16345
PD 16344
.org 16343
crip@@ 16342
gos 16338
surgeon 16336
overhead 16335
betting 16334
RA 16332
Nation@@ 16330
mic 16329
chill 16328
OM 16326
journalism 16326
gaming 16325
Coal 16322
disrupt 16320
edges 16315
Lag@@ 16315
favoured 16315
licences 16312
billionaire 16311
peri@@ 16311
enriched 16304
Storage 16297
Sm@@ 16296
subjective 16294
Bang@@ 16292
situated 16292
ISO 16291
Hai 16290
exhibit 16290
altered 16289
Advice 16289
Rams 16289
friction 16286
Gul@@ 16283
mentality 16280
gunman 16280
lad@@ 16279
shipments 16277
neighbour 16277
indul@@ 16275
novels 16273
Terminal 16272
envoy 16271
despair 16268
alliances 16265
Uh 16258
Samoa 16253
decolonization 16251
biotechnology 16251
hner 16250
29th 16247
digit 16245
glance 16244
Background 16237
weigh@@ 16237
Belfast 16236
dissatisfaction 16236
marathon 16235
som@@ 16235
con 16233
1961 16233
scheduling 16231
heal 16230
Liberian 16230
Bailey 16229
Patriots 16228
kang 16227
alle@@ 16226
catastrophic 16226
gur@@ 16223
Scar@@ 16218
aters 16218
Mes@@ 16213
honesty 16208
anthem 16208
Frankfurt 16207
maxim@@ 16205
OL 16204
NA@@ 16204
turnout 16204
returnees 16204
Voice 16202
peacefully 16195
fancy 16192
ici@@ 16189
中@@ 16188
Pass@@ 16186
communicating 16184
physi@@ 16184
Easter 16183
rei@@ 16178
Tun@@ 16176
CDC 16173
boy@@ 16173
Resort 16169
eff@@ 16169
skirt 16165
has@@ 16164
scrap 16164
shade 16161
sue 16157
universality 16157
Dani@@ 16157
life@@ 16153
Average 16147
advertisement 16144
fights 16141
Eleventh 16141
ouse 16137
finest 16136
oted 16135
Bernard 16135
Muhammad 16133
Hopefully 16129
lethal 16125
accompl@@ 16118
calcium 16117
Centers 16116
lam 16114
devil 16113
embraced 16108
gentleman 16106
guideline 16104
comprised 16104
him@@ 16103
Ann@@ 16099
Abbas 16097
pad 16096
mess@@ 16096
Da 16095
transboundary 16095
145 16094
Liber@@ 16094
umbling 16090
ph 16089
asia 16084
Bristol 16081
mold 16077
Botswana 16076
Fair@@ 16076
Liaison 16073
gang@@ 16072
Flight 16070
Blood 16070
Thirty 16067
imagined 16067
icians 16065
smartphones 16064
tee 16063
Revenue 16060
Steph@@ 16060
138 16056
Luis 16054
practically 16054
ag 16053
angles 16044
pouring 16044
memo 16044
Broadway 16042
green@@ 16042
atmospheric 16041
essay 16040
Yor@@ 16039
Cash 16036
trio 16035
professionalism 16034
Options 16030
Bahamas 16029
Paulo 16028
troubles 16026
Sheriff 16024
Cot@@ 16022
incorporating 16022
dled 16019
prudent 16019
Accounts 16017
inven@@ 16012
expan@@ 16012
gence 16012
Fon@@ 16011
charities 16004
influencing 16002
adolescent 16001
sam@@ 16001
Download 16000
footing 15997
zhen 15997
Owing 15996
lakes 15996
Compensation 15995
rier 15993
Gur@@ 15993
itate 15991
GS 15988
5m 15985
ming@@ 15984
uncovered 15983
Crystal 15981
testified 15981
settlers 15981
vivid 15978
Deb@@ 15978
electr@@ 15977
complemented 15976
Dame 15975
Whenever 15973
ardo 15972
cables 15971
pub 15969
ffy 15966
cornerstone 15966
forged 15965
ato 15964
atable 15964
Ny@@ 15963
thum@@ 15959
dier 15953
vens 15951
Annan 15950
origin@@ 15950
inspector 15949
Days 15946
gin@@ 15946
Crisis 15946
127 15943
chair@@ 15942
225 15939
decom@@ 15937
may@@ 15937
entrepreneur 15936
workplan 15936
borrowed 15936
romance 15933
Tsinghua 15931
134 15930
elders 15929
90s 15928
oling 15928
ankle 15927
traces 15926
vian 15926
capac@@ 15922
Properties 15922
amateur 15919
clay 15917
Tex@@ 15915
12,000 15913
Togo 15913
appreciates 15912
escort 15911
trusts 15908
Nixon 15907
shelves 15905
tes@@ 15904
Facilities 15900
expire 15900
Specifically 15898
dents 15895
lip@@ 15894
Nan 15894
locker 15894
raft 15891
instrumental 15889
reversal 15885
Matters 15884
Catherine 15883
Corp 15880
reconsider 15879
Normal 15878
Seminar 15877
spra@@ 15875
func@@ 15873
professors 15870
dementia 15869
pioneering 15868
conservatives 15866
CONF.@@ 15865
plaintiff 15865
Travel@@ 15864
Always 15863
thickness 15861
refrigerator 15861
Cour@@ 15859
twi@@ 15856
Saddam 15854
frankly 15854
stly 15851
Multiple 15849
UC@@ 15848
Guan@@ 15847
arguably 15847
rel 15846
linkage 15846
8.5 15844
upstairs 15844
ees 15842
collaborate 15842
Trou@@ 15842
Tab@@ 15841
b. 15840
IDB.@@ 15840
Zhongshan 15838
originated 15837
forge 15833
Brady 15832
Lot@@ 15830
Stuart 15830
atrocities 15827
dict 15819
incitement 15817
majors 15815
frank 15814
True 15808
therapeutic 15808
jec@@ 15807
pandemic 15807
arization 15804
JIU 15803
Writing 15801
oph@@ 15801
amine 15799
mation 15799
hail 15796
hackers 15795
constrained 15794
Warriors 15792
whistle 15791
joked 15791
agged 15791
Mill@@ 15791
Suddenly 15791
WASHINGTON 15786
continually 15786
Snow 15785
decentralized 15785
rot 15779
Collection 15778
fla@@ 15774
Syn@@ 15769
checkpoints 15769
Quartet 15764
triumph 15763
Chiefs 15762
coins 15762
knees 15761
anchor 15760
Dai 15759
recipe 15756
Malaysian 15755
impro@@ 15751
postal 15751
HA 15749
Either 15747
Mot@@ 15743
ling@@ 15740
poster 15740
admi@@ 15735
Brigade 15728
shine 15720
spends 15720
shaw 15718
Managing 15716
joins 15714
Had 15714
narr@@ 15712
palm 15712
teammate 15711
ground@@ 15709
Fron@@ 15709
Rwandan 15706
upside 15706
magical 15704
burgh 15703
Inc. 15703
counsel@@ 15703
technicians 15702
jan 15700
Hydro@@ 15698
Djokovic 15695
disc 15694
alloy 15694
EMC 15693
courtroom 15691
Guan 15691
gal 15684
stems 15684
Inquiry 15683
Mode 15682
Thinking 15682
Off@@ 15678
142 15677
Fisheries 15677
tribe 15676
plum@@ 15676
federation 15672
Venice 15669
Olymp@@ 15666
villa 15665
GR@@ 15661
spill 15661
Liechtenstein 15661
contra@@ 15659
Hut@@ 15657
6.3 15656
simplify 15652
inquest 15652
Gray 15651
Petroleum 15650
bent 15649
tles 15649
performers 15649
uous 15648
nel 15644
congratulations 15644
tism 15644
scopic 15639
Iraqis 15638
Gab@@ 15636
offerings 15636
culmin@@ 15634
Shui 15634
Manuel 15632
Singh 15630
inauguration 15627
extra@@ 15625
Vision 15624
pessimis@@ 15624
ana@@ 15622
vers@@ 15621
triggering 15621
aud@@ 15621
accede 15619
ockey 15617
pepper 15617
asses 15615
Prefecture 15615
147 15613
3.8 15612
2030 15606
5.4 15602
visions 15602
adap@@ 15601
calories 15599
adver@@ 15597
1,200 15597
cardiovascular 15595
tightening 15595
Mountains 15594
Airways 15588
® 15587
Silva 15583
cau@@ 15582
extingu@@ 15579
Fast 15578
swift 15577
ria 15576
mist@@ 15576
Monaco 15575
aw 15575
poorer 15569
WA 15569
fel@@ 15569
Buy 15565
poison 15565
tum 15560
hes@@ 15556
tum@@ 15555
destined 15554
scales 15551
posture 15551
Mass@@ 15551
economical 15546
ignoring 15545
chem@@ 15545
Operational 15543
submarine 15542
Reconciliation 15541
Share 15533
distr@@ 15531
Located 15531
jets 15529
prosecutions 15528
absurd 15528
Jamahiriya 15526
glimpse 15526
190 15525
Corp. 15525
Rodriguez 15525
1,3@@ 15523
Hassan 15523
sculp@@ 15520
enic 15518
Eagles 15513
amending 15509
encryption 15508
exhi@@ 15508
ITY 15507
lon 15506
Net@@ 15506
Ottawa 15505
dive 15504
confiscation 15501
repl@@ 15499
enduring 15498
2.0 15495
undergraduate 15495
accidental 15494
Merc@@ 15491
bes@@ 15490
wary 15484
aper 15482
inventories 15481
starter 15478
privileged 15477
myth 15475
Carl 15474
potatoes 15473
Cox 15469
Safe 15467
cliff 15467
Sant@@ 15465
liner 15464
FT@@ 15464
Sex 15462
Markets 15461
50th 15458
rian 15456
priv@@ 15454
neg@@ 15454
Import 15453
scholar 15451
enact 15451
arose 15450
Guyana 15450
mansion 15450
Processing 15448
ump@@ 15446
plunged 15444
improper 15442
folders 15440
aggravated 15440
Belgrade 15440
chiefs 15439
burns 15438
uling 15437
bou@@ 15434
complied 15434
conducts 15434
conception 15432
Turn 15428
rapporteurs 15428
cock 15424
discharged 15420
remnants 15419
motives 15418
elephant 15412
multilateralism 15411
会 15411
[...]
